{
  "version": "1.0",
  "truncation": null,
  "padding": null,
  "added_tokens": [
    {
      "id": 0,
      "content": "[START]",
      "single_word": false,
      "lstrip": false,
      "rstrip": false,
      "normalized": false,
      "special": true
    },
    {
      "id": 1,
      "content": "[END]",
      "single_word": false,
      "lstrip": false,
      "rstrip": false,
      "normalized": false,
      "special": true
    },
    {
      "id": 2,
      "content": "[SEP]",
      "single_word": false,
      "lstrip": false,
      "rstrip": false,
      "normalized": false,
      "special": true
    },
    {
      "id": 3,
      "content": "[PAD]",
      "single_word": false,
      "lstrip": false,
      "rstrip": false,
      "normalized": false,
      "special": true
    }
  ],
  "normalizer": null,
  "pre_tokenizer": {
    "type": "ByteLevel",
    "add_prefix_space": false,
    "trim_offsets": true,
    "use_regex": true
  },
  "post_processor": {
    "type": "BertProcessing",
    "sep": [
      "[SEP]",
      2
    ],
    "cls": [
      "[START]",
      0
    ]
  },
  "decoder": {
    "type": "ByteLevel",
    "add_prefix_space": true,
    "trim_offsets": true,
    "use_regex": true
  },
  "model": {
    "type": "BPE",
    "dropout": null,
    "unk_token": null,
    "continuing_subword_prefix": null,
    "end_of_word_suffix": null,
    "fuse_unk": false,
    "byte_fallback": false,
    "vocab": {
      "[START]": 0,
      "[END]": 1,
      "[SEP]": 2,
      "[PAD]": 3,
      "!": 4,
      "\"": 5,
      "#": 6,
      "$": 7,
      "%": 8,
      "&": 9,
      "'": 10,
      "(": 11,
      ")": 12,
      "*": 13,
      "+": 14,
      ",": 15,
      "-": 16,
      ".": 17,
      "/": 18,
      "0": 19,
      "1": 20,
      "2": 21,
      "3": 22,
      "4": 23,
      "5": 24,
      "6": 25,
      "7": 26,
      "8": 27,
      "9": 28,
      ":": 29,
      ";": 30,
      "<": 31,
      "=": 32,
      ">": 33,
      "?": 34,
      "@": 35,
      "A": 36,
      "B": 37,
      "C": 38,
      "D": 39,
      "E": 40,
      "F": 41,
      "G": 42,
      "H": 43,
      "I": 44,
      "J": 45,
      "K": 46,
      "L": 47,
      "M": 48,
      "N": 49,
      "O": 50,
      "P": 51,
      "Q": 52,
      "R": 53,
      "S": 54,
      "T": 55,
      "U": 56,
      "V": 57,
      "W": 58,
      "X": 59,
      "Y": 60,
      "Z": 61,
      "[": 62,
      "\\": 63,
      "]": 64,
      "^": 65,
      "_": 66,
      "`": 67,
      "a": 68,
      "b": 69,
      "c": 70,
      "d": 71,
      "e": 72,
      "f": 73,
      "g": 74,
      "h": 75,
      "i": 76,
      "j": 77,
      "k": 78,
      "l": 79,
      "m": 80,
      "n": 81,
      "o": 82,
      "p": 83,
      "q": 84,
      "r": 85,
      "s": 86,
      "t": 87,
      "u": 88,
      "v": 89,
      "w": 90,
      "x": 91,
      "y": 92,
      "z": 93,
      "{": 94,
      "|": 95,
      "}": 96,
      "~": 97,
      "¡": 98,
      "¢": 99,
      "£": 100,
      "¤": 101,
      "¥": 102,
      "¦": 103,
      "§": 104,
      "¨": 105,
      "©": 106,
      "ª": 107,
      "«": 108,
      "¬": 109,
      "®": 110,
      "¯": 111,
      "°": 112,
      "±": 113,
      "²": 114,
      "³": 115,
      "´": 116,
      "µ": 117,
      "¶": 118,
      "·": 119,
      "¸": 120,
      "¹": 121,
      "º": 122,
      "»": 123,
      "¼": 124,
      "½": 125,
      "¾": 126,
      "¿": 127,
      "À": 128,
      "Á": 129,
      "Â": 130,
      "Ã": 131,
      "Ä": 132,
      "Å": 133,
      "Æ": 134,
      "Ç": 135,
      "È": 136,
      "É": 137,
      "Ê": 138,
      "Ë": 139,
      "Ì": 140,
      "Í": 141,
      "Î": 142,
      "Ï": 143,
      "Ð": 144,
      "Ñ": 145,
      "Ò": 146,
      "Ó": 147,
      "Ô": 148,
      "Õ": 149,
      "Ö": 150,
      "×": 151,
      "Ø": 152,
      "Ù": 153,
      "Ú": 154,
      "Û": 155,
      "Ü": 156,
      "Ý": 157,
      "Þ": 158,
      "ß": 159,
      "à": 160,
      "á": 161,
      "â": 162,
      "ã": 163,
      "ä": 164,
      "å": 165,
      "æ": 166,
      "ç": 167,
      "è": 168,
      "é": 169,
      "ê": 170,
      "ë": 171,
      "ì": 172,
      "í": 173,
      "î": 174,
      "ï": 175,
      "ð": 176,
      "ñ": 177,
      "ò": 178,
      "ó": 179,
      "ô": 180,
      "õ": 181,
      "ö": 182,
      "÷": 183,
      "ø": 184,
      "ù": 185,
      "ú": 186,
      "û": 187,
      "ü": 188,
      "ý": 189,
      "þ": 190,
      "ÿ": 191,
      "Ā": 192,
      "ā": 193,
      "Ă": 194,
      "ă": 195,
      "Ą": 196,
      "ą": 197,
      "Ć": 198,
      "ć": 199,
      "Ĉ": 200,
      "ĉ": 201,
      "Ċ": 202,
      "ċ": 203,
      "Č": 204,
      "č": 205,
      "Ď": 206,
      "ď": 207,
      "Đ": 208,
      "đ": 209,
      "Ē": 210,
      "ē": 211,
      "Ĕ": 212,
      "ĕ": 213,
      "Ė": 214,
      "ė": 215,
      "Ę": 216,
      "ę": 217,
      "Ě": 218,
      "ě": 219,
      "Ĝ": 220,
      "ĝ": 221,
      "Ğ": 222,
      "ğ": 223,
      "Ġ": 224,
      "ġ": 225,
      "Ģ": 226,
      "ģ": 227,
      "Ĥ": 228,
      "ĥ": 229,
      "Ħ": 230,
      "ħ": 231,
      "Ĩ": 232,
      "ĩ": 233,
      "Ī": 234,
      "ī": 235,
      "Ĭ": 236,
      "ĭ": 237,
      "Į": 238,
      "į": 239,
      "İ": 240,
      "ı": 241,
      "Ĳ": 242,
      "ĳ": 243,
      "Ĵ": 244,
      "ĵ": 245,
      "Ķ": 246,
      "ķ": 247,
      "ĸ": 248,
      "Ĺ": 249,
      "ĺ": 250,
      "Ļ": 251,
      "ļ": 252,
      "Ľ": 253,
      "ľ": 254,
      "Ŀ": 255,
      "ŀ": 256,
      "Ł": 257,
      "ł": 258,
      "Ń": 259,
      "he": 260,
      "Ġt": 261,
      "Ġa": 262,
      "in": 263,
      "Ġs": 264,
      "Ġw": 265,
      "ed": 266,
      "Ġ'": 267,
      "ou": 268,
      "Ġhe": 269,
      "Ġ,": 270,
      "Ġh": 271,
      "Ġm": 272,
      "Ġthe": 273,
      "re": 274,
      "Ġb": 275,
      "ing": 276,
      "Ġo": 277,
      "Ġi": 278,
      "an": 279,
      "Ġto": 280,
      "Ġf": 281,
      "Ġ''": 282,
      "Ġc": 283,
      "er": 284,
      "at": 285,
      "Ġher": 286,
      "Ġn": 287,
      "Ġd": 288,
      "nd": 289,
      "as": 290,
      "is": 291,
      "Ġp": 292,
      "Ġl": 293,
      "es": 294,
      "Ġy": 295,
      "Ġth": 296,
      "Ġg": 297,
      "it": 298,
      "en": 299,
      "Ġyou": 300,
      "on": 301,
      "ll": 302,
      "Ġin": 303,
      "Ġand": 304,
      "or": 305,
      "ar": 306,
      "Ġshe": 307,
      "ad": 308,
      "Ġof": 309,
      "Ġe": 310,
      "Ġbe": 311,
      "ow": 312,
      "om": 313,
      "id": 314,
      "Ġme": 315,
      "Ġwas": 316,
      "Ġhis": 317,
      "le": 318,
      "ve": 319,
      "Ġon": 320,
      "st": 321,
      "ot": 322,
      "im": 323,
      "ld": 324,
      "'t": 325,
      "ac": 326,
      "gh": 327,
      "Ġthat": 328,
      "Ġu": 329,
      "Ġ?": 330,
      "ith": 331,
      "ay": 332,
      "et": 333,
      "Ġst": 334,
      "ver": 335,
      "Ġre": 336,
      "Ġas": 337,
      "Ġit": 338,
      "out": 339,
      "gan": 340,
      "ly": 341,
      "Ġwith": 342,
      "Ġdo": 343,
      "Ġk": 344,
      "ould": 345,
      "ro": 346,
      "she": 347,
      "Ġfor": 348,
      "Ġwh": 349,
      "Ġwe": 350,
      "esh": 351,
      "ut": 352,
      "Ġat": 353,
      "Ġhim": 354,
      "ur": 355,
      "Ġha": 356,
      "se": 357,
      "Ġmy": 358,
      "oo": 359,
      "ic": 360,
      "ght": 361,
      "ke": 362,
      "Ġli": 363,
      "Ġhad": 364,
      "ent": 365,
      "Ġsh": 366,
      "ir": 367,
      "ked": 368,
      "ee": 369,
      "al": 370,
      "her": 371,
      "and": 372,
      "ion": 373,
      "all": 374,
      "ore": 375,
      "hen": 376,
      "ant": 377,
      "Ġmegan": 378,
      "me": 379,
      "Ġup": 380,
      "Ġan": 381,
      "ri": 382,
      "pp": 383,
      "ter": 384,
      "Ġj": 385,
      "Ġpesh": 386,
      "Ġgo": 387,
      "Ġso": 388,
      "Ġne": 389,
      "ust": 390,
      "Ġout": 391,
      "rou": 392,
      "ch": 393,
      "ack": 394,
      "to": 395,
      "th": 396,
      "own": 397,
      "Ġhave": 398,
      "Ġno": 399,
      "Ġkn": 400,
      "ce": 401,
      "king": 402,
      "ome": 403,
      "ma": 404,
      "il": 405,
      "Ġdid": 406,
      "Ġnot": 407,
      "Ġcould": 408,
      "Ġwhat": 409,
      "Ġwant": 410,
      "Ġback": 411,
      "Ġsa": 412,
      "Ġover": 413,
      "art": 414,
      "Ġhand": 415,
      "Ġsu": 416,
      "Ġinto": 417,
      "ra": 418,
      "Ġhead": 419,
      "Ġis": 420,
      "ally": 421,
      "Ġdown": 422,
      "Ġbut": 423,
      "Ġca": 424,
      "Ġfr": 425,
      "li": 426,
      "Ġab": 427,
      "ru": 428,
      "Ġlike": 429,
      "hed": 430,
      "fore": 431,
      "ain": 432,
      "Ġta": 433,
      "Ġjust": 434,
      "sed": 435,
      "ct": 436,
      "Ġro": 437,
      "Ġey": 438,
      "Ġch": 439,
      "ry": 440,
      "Ġbefore": 441,
      "Ġsm": 442,
      "Ġwould": 443,
      "ood": 444,
      "one": 445,
      "Ġex": 446,
      "ight": 447,
      "Ġle": 448,
      "ess": 449,
      "Ġem": 450,
      "Ġtim": 451,
      "Ġse": 452,
      "Ġwor": 453,
      "Ġall": 454,
      "Ġwhen": 455,
      "megan": 456,
      "Ġget": 457,
      "ck": 458,
      "Ġfe": 459,
      "idan": 460,
      "Ġyour": 461,
      "Ġsee": 462,
      "we": 463,
      "Ġal": 464,
      "ard": 465,
      "ine": 466,
      "Ġfrom": 467,
      "au": 468,
      "Ġag": 469,
      "Ġpu": 470,
      "**": 471,
      "Ġcl": 472,
      "Ġone": 473,
      "Ġwere": 474,
      "the": 475,
      "Ġeyes": 476,
      "am": 477,
      "hing": 478,
      "Ġlo": 479,
      "Ġtoo": 480,
      "Ġtime": 481,
      "pesh": 482,
      "ink": 483,
      "ook": 484,
      "ss": 485,
      "Ġabout": 486,
      "ill": 487,
      "ned": 488,
      "qu": 489,
      "Ġthey": 490,
      "fter": 491,
      "when": 492,
      "ace": 493,
      "round": 494,
      "ind": 495,
      "est": 496,
      "led": 497,
      "ong": 498,
      "ile": 499,
      "Ġthis": 500,
      "Ġpl": 501,
      "Ġany": 502,
      "ide": 503,
      "Ġknow": 504,
      "Ġte": 505,
      "lf": 506,
      "Ġcon": 507,
      "Ġsp": 508,
      "Ġche": 509,
      "Ġbeen": 510,
      "Ġsaid": 511,
      "very": 512,
      "ason": 513,
      "Ġoff": 514,
      "ab": 515,
      "Ġthen": 516,
      "Ġaround": 517,
      "Ġgoing": 518,
      "pped": 519,
      "Ġagain": 520,
      "Ġif": 521,
      "way": 522,
      "Ġde": 523,
      "ist": 524,
      "Ġga": 525,
      "ge": 526,
      "Ġar": 527,
      "Ġare": 528,
      "Ġsome": 529,
      "Ġthem": 530,
      "ast": 531,
      "Ġor": 532,
      "Ġthan": 533,
      "itt": 534,
      "if": 535,
      "lt": 536,
      "our": 537,
      "Ġaidan": 538,
      "Ġthere": 539,
      "Ġma": 540,
      "ate": 541,
      "ah": 542,
      "nt": 543,
      "Ġmore": 544,
      "ers": 545,
      "Ġman": 546,
      "Ġrep": 547,
      "ving": 548,
      "ous": 549,
      "Ġemma": 550,
      "self": 551,
      "Ġfl": 552,
      "Ġgr": 553,
      "ven": 554,
      "ade": 555,
      "Ġmu": 556,
      "Ġthink": 557,
      "Ġhow": 558,
      "Ġgood": 559,
      "Ġby": 560,
      "Ġtw": 561,
      "other": 562,
      "Ġqu": 563,
      "Ġasked": 564,
      "eel": 565,
      "pt": 566,
      "Ġfeel": 567,
      "ive": 568,
      "Ġmason": 569,
      "Ġway": 570,
      "ps": 571,
      "Ġstart": 572,
      "ase": 573,
      "Ġbo": 574,
      "lied": 575,
      "Ġr": 576,
      "ath": 577,
      "Ġreplied": 578,
      "fe": 579,
      "ul": 580,
      "ation": 581,
      "Ġtur": 582,
      "Ġbr": 583,
      "Ġnow": 584,
      "Ġthou": 585,
      "Ġneed": 586,
      "Ġgl": 587,
      "Ġlitt": 588,
      "Ġlittle": 589,
      "Ġbl": 590,
      "Ġho": 591,
      "Ġsure": 592,
      "ound": 593,
      "Ġco": 594,
      "ick": 595,
      "Ġroom": 596,
      "Ġri": 597,
      "Ġsl": 598,
      "ened": 599,
      "Ġreally": 600,
      "us": 601,
      "Ġgot": 602,
      "iled": 603,
      "pe": 604,
      "Ġwho": 605,
      "Ġnever": 606,
      "Ġarm": 607,
      "here": 608,
      "ng": 609,
      "Ġcom": 610,
      "thing": 611,
      "dd": 612,
      "Ġbre": 613,
      "Ġtake": 614,
      "Ġmo": 615,
      "nder": 616,
      "omet": 617,
      "Ġshould": 618,
      "Ġhands": 619,
      "ble": 620,
      "Ġyes": 621,
      "Ġmuch": 622,
      "gg": 623,
      "ting": 624,
      "Ġbet": 625,
      "Ġcame": 626,
      "Ġlove": 627,
      "Ġpre": 628,
      "Ġen": 629,
      "act": 630,
      "per": 631,
      "ther": 632,
      "Ġwa": 633,
      "Ġeven": 634,
      "Ġtook": 635,
      "after": 636,
      "Ġsomet": 637,
      "Ġright": 638,
      "Ġmom": 639,
      "Ġbed": 640,
      "Ġcan": 641,
      "Ġpo": 642,
      "Ġdoor": 643,
      "lp": 644,
      "iss": 645,
      "ared": 646,
      "Ġwanted": 647,
      "Ġtwo": 648,
      "Ġru": 649,
      "Ġface": 650,
      "Ġlook": 651,
      "are": 652,
      "Ġhelp": 653,
      "Ġkne": 654,
      "Ġsmiled": 655,
      "be": 656,
      "ue": 657,
      "ure": 658,
      "Ġmout": 659,
      "Ġlet": 660,
      "Ġstarted": 661,
      "ice": 662,
      "ried": 663,
      "rough": 664,
      "his": 665,
      "with": 666,
      "Ġpro": 667,
      "Ġlong": 668,
      "Ġthing": 669,
      "Ġmouth": 670,
      "lled": 671,
      "Ġus": 672,
      "kay": 673,
      "Ġfin": 674,
      "Ġturned": 675,
      "Ġsomething": 676,
      "ved": 677,
      "Ġafter": 678,
      "Ġother": 679,
      "Ġhard": 680,
      "Ġthrough": 681,
      "Ġsmile": 682,
      "Ġmake": 683,
      "ily": 684,
      "um": 685,
      "ress": 686,
      "anc": 687,
      "bb": 688,
      "ple": 689,
      "you": 690,
      "Ġfir": 691,
      "Ġnoah": 692,
      "Ġfelt": 693,
      "Ġsay": 694,
      "Ġbec": 695,
      "Ġmade": 696,
      "Ġokay": 697,
      "Ġday": 698,
      "Ġlau": 699,
      "Ġonly": 700,
      "Ġclo": 701,
      "Ġsc": 702,
      "Ġhere": 703,
      "Ġevery": 704,
      "Ġagainst": 705,
      "ie": 706,
      "eep": 707,
      "Ġthought": 708,
      "ft": 709,
      "Ġwent": 710,
      "Ġwhere": 711,
      "Ġop": 712,
      "ap": 713,
      "side": 714,
      "ough": 715,
      "Ġpr": 716,
      "Ġye": 717,
      "wh": 718,
      "dy": 719,
      "ady": 720,
      "Ġshook": 721,
      "Ġfirst": 722,
      "ek": 723,
      "Ġtheir": 724,
      "Ġloo": 725,
      "Ġhapp": 726,
      "Ġwell": 727,
      "em": 728,
      "ious": 729,
      "ol": 730,
      "Ġsur": 731,
      "Ġcar": 732,
      "but": 733,
      "ched": 734,
      "Ġwom": 735,
      "Ġbot": 736,
      "ated": 737,
      "ach": 738,
      "Ġchest": 739,
      "Ġtry": 740,
      "med": 741,
      "Ġthank": 742,
      "Ġlips": 743,
      "ause": 744,
      "Ġmoment": 745,
      "ather": 746,
      "Ġbeing": 747,
      "get": 748,
      "sh": 749,
      "ite": 750,
      "Ġstill": 751,
      "Ġv": 752,
      "Ġknew": 753,
      "end": 754,
      "Ġaway": 755,
      "Ġbab": 756,
      "Ġfine": 757,
      "Ġcall": 758,
      "ghed": 759,
      "ning": 760,
      "Ġmar": 761,
      "Ġfing": 762,
      "Ġgave": 763,
      "air": 764,
      "Ġarms": 765,
      "ze": 766,
      "Ġun": 767,
      "Ġkiss": 768,
      "ris": 769,
      "Ġtell": 770,
      "de": 771,
      "ted": 772,
      "Ġcome": 773,
      "owed": 774,
      "ak": 775,
      "Ġvery": 776,
      "Ġhair": 777,
      "ince": 778,
      "Ġsor": 779,
      "Ġoh": 780,
      "Ġword": 781,
      "Ġac": 782,
      "Ġwo": 783,
      "ween": 784,
      "Ġanything": 785,
      "zed": 786,
      "Ġherself": 787,
      "ass": 788,
      "Ġmean": 789,
      "Ġass": 790,
      "Ġgrin": 791,
      "Ġnight": 792,
      "ows": 793,
      "room": 794,
      "Ġbetween": 795,
      "Ġbecause": 796,
      "ered": 797,
      "Ġple": 798,
      "dded": 799,
      "Ġapp": 800,
      "Ġwal": 801,
      "Ġwill": 802,
      "aned": 803,
      "Ġint": 804,
      "Ġcont": 805,
      "ment": 806,
      "xt": 807,
      "ang": 808,
      "Ġpat": 809,
      "Ġgu": 810,
      "ity": 811,
      "Ġsto": 812,
      "ured": 813,
      "Ġsorry": 814,
      "cked": 815,
      "uck": 816,
      "Ġad": 817,
      "Ġfo": 818,
      "Ġcou": 819,
      "Ġexp": 820,
      "ped": 821,
      "sp": 822,
      "Ġ!": 823,
      "Ġwat": 824,
      "Ġinside": 825,
      "Ġbaby": 826,
      "Ġheart": 827,
      "ag": 828,
      "rist": 829,
      "Ġtr": 830,
      "Ġmind": 831,
      "ance": 832,
      "Ġlast": 833,
      "Ġunder": 834,
      "Ġplan": 835,
      "Ġfeeling": 836,
      "pris": 837,
      "Ġfam": 838,
      "ert": 839,
      "estion": 840,
      "Ġbreath": 841,
      "co": 842,
      "ep": 843,
      "mo": 844,
      "un": 845,
      "ering": 846,
      "ating": 847,
      "Ġfew": 848,
      "ull": 849,
      "ward": 850,
      "Ġam": 851,
      "Ġbody": 852,
      "Ġlaughed": 853,
      "aidan": 854,
      "ip": 855,
      "Ġunt": 856,
      "Ġwhile": 857,
      "Ġlooked": 858,
      "Ġpulled": 859,
      "Ġquestion": 860,
      "Ġfinis": 861,
      "Ġsurpris": 862,
      "Ġuntil": 863,
      "age": 864,
      "Ġsi": 865,
      "Ġswe": 866,
      "Ġsince": 867,
      "Ġglanc": 868,
      "emma": 869,
      "risti": 870,
      "ful": 871,
      "Ġour": 872,
      "ars": 873,
      "Ġel": 874,
      "Ġmur": 875,
      "ased": 876,
      "Ġpe": 877,
      "Ġlife": 878,
      "Ġnodded": 879,
      "mm": 880,
      "aring": 881,
      "icked": 882,
      "Ġsex": 883,
      "asey": 884,
      "Ġboth": 885,
      "Ġfingers": 886,
      "mured": 887,
      "ty": 888,
      "rew": 889,
      "Ġna": 890,
      "lie": 891,
      "ction": 892,
      "Ġcheek": 893,
      "Ġfamily": 894,
      "Ġmurmured": 895,
      "les": 896,
      "Ġra": 897,
      "Ġside": 898,
      "Ġput": 899,
      "Ġgi": 900,
      "Ġdoing": 901,
      "Ġshow": 902,
      "Ġanother": 903,
      "Ġglanced": 904,
      "Ġbrou": 905,
      "Ġtoget": 906,
      "Ġever": 907,
      "Ġcare": 908,
      "Ġwoman": 909,
      "Ġbrought": 910,
      "Ġtogether": 911,
      "mb": 912,
      "ner": 913,
      "Ġhu": 914,
      "Ġdin": 915,
      "ste": 916,
      "Ġwhy": 917,
      "Ġplay": 918,
      "ually": 919,
      "Ġmin": 920,
      "ree": 921,
      "ort": 922,
      "Ġrel": 923,
      "Ġnothing": 924,
      "ild": 925,
      "so": 926,
      "Ġnext": 927,
      "Ġslid": 928,
      "Ġtrying": 929,
      "el": 930,
      "Ġheld": 931,
      "Ġmay": 932,
      "Ġste": 933,
      "Ġstr": 934,
      "Ġkeep": 935,
      "Ġwait": 936,
      "Ġthings": 937,
      "Ġopen": 938,
      "gn": 939,
      "Ġtong": 940,
      "Ġcour": 941,
      "Ġgive": 942,
      "once": 943,
      "av": 944,
      "oice": 945,
      "zing": 946,
      "Ġsn": 947,
      "Ġdis": 948,
      "Ġph": 949,
      "Ġpart": 950,
      "Ġbegan": 951,
      "Ġsame": 952,
      "Ġtable": 953,
      "Ġleg": 954,
      "ling": 955,
      "Ġhome": 956,
      "Ġima": 957,
      "Ġcr": 958,
      "that": 959,
      "most": 960,
      "stead": 961,
      "ff": 962,
      "Ġbeh": 963,
      "shed": 964,
      "Ġgetting": 965,
      "Ġgrinned": 966,
      "Ġtongue": 967,
      "Ġtal": 968,
      "Ġfather": 969,
      "ross": 970,
      "Ġtaking": 971,
      "Ġwork": 972,
      "Ġwords": 973,
      "Ġminut": 974,
      "Ġimag": 975,
      "ire": 976,
      "my": 977,
      "Ġsat": 978,
      "Ġhas": 979,
      "Ġfound": 980,
      "ence": 981,
      "Ġhaving": 982,
      "ways": 983,
      "Ġgaze": 984,
      "ression": 985,
      "Ġtru": 986,
      "Ġdr": 987,
      "ark": 988,
      "Ġonto": 989,
      "otion": 990,
      "Ġquick": 991,
      "Ġbrows": 992,
      "pect": 993,
      "bbed": 994,
      "Ġelse": 995,
      "ied": 996,
      "ies": 997,
      "ined": 998,
      "Ġmother": 999,
      "Ġhers": 1000,
      "Ġeach": 1001,
      "Ġstay": 1002,
      "riend": 1003,
      "tered": 1004,
      "though": 1005,
      "Ġseat": 1006,
      "they": 1007,
      "Ġyeah": 1008,
      "Ġcourse": 1009,
      "ud": 1010,
      "Ġmight": 1011,
      "Ġfact": 1012,
      "Ġgir": 1013,
      "Ġready": 1014,
      "Ġleft": 1015,
      "Ġalways": 1016,
      "gged": 1017,
      "oor": 1018,
      "ssed": 1019,
      "Ġsound": 1020,
      "Ġold": 1021,
      "Ġcu": 1022,
      "Ġcle": 1023,
      "owing": 1024,
      "Ġonce": 1025,
      "ctor": 1026,
      "Ġseemed": 1027,
      "Ġspe": 1028,
      "Ġsomeone": 1029,
      "iously": 1030,
      "sid": 1031,
      "Ġdoctor": 1032,
      "ich": 1033,
      "ical": 1034,
      "pping": 1035,
      "nts": 1036,
      "Ġenough": 1037,
      "Ġbehind": 1038,
      "cess": 1039,
      "Ġwar": 1040,
      "Ġmat": 1041,
      "Ġbu": 1042,
      "Ġear": 1043,
      "ached": 1044,
      "Ġalmost": 1045,
      "Ġfloor": 1046,
      "Ġwalked": 1047,
      "Ġexpression": 1048,
      "ose": 1049,
      "Ġhell": 1050,
      "Ġfind": 1051,
      "Ġdeep": 1052,
      "Ġgra": 1053,
      "ention": 1054,
      "Ġgod": 1055,
      "Ġneck": 1056,
      "Ġsaw": 1057,
      "what": 1058,
      "Ġcalled": 1059,
      "Ġsweet": 1060,
      "Ġlegs": 1061,
      "ci": 1062,
      "Ġact": 1063,
      "Ġbit": 1064,
      "Ġdes": 1065,
      "Ġper": 1066,
      "leep": 1067,
      "Ġwhich": 1068,
      "Ġrun": 1069,
      "Ġwonder": 1070,
      "Ġfinished": 1071,
      "ken": 1072,
      "te": 1073,
      "ves": 1074,
      "Ġson": 1075,
      "Ġwr": 1076,
      "Ġmon": 1077,
      "ream": 1078,
      "Ġtold": 1079,
      "Ġpant": 1080,
      "Ġrest": 1081,
      "Ġreal": 1082,
      "Ġsuch": 1083,
      "Ġthough": 1084,
      "Ġbetter": 1085,
      "Ġvoice": 1086,
      "Ġpati": 1087,
      "Ġdinner": 1088,
      "Ġgirl": 1089,
      "igh": 1090,
      "used": 1091,
      "wn": 1092,
      "Ġtried": 1093,
      "Ġsw": 1094,
      "Ġser": 1095,
      "Ġwid": 1096,
      "Ġhur": 1097,
      "Ġdate": 1098,
      "ont": 1099,
      "Ġreached": 1100,
      "Ġdoes": 1101,
      "Ġopened": 1102,
      "day": 1103,
      "ig": 1104,
      "ys": 1105,
      "Ġbur": 1106,
      "Ġlot": 1107,
      "Ġthr": 1108,
      "Ġatt": 1109,
      "Ġlea": 1110,
      "Ġalong": 1111,
      "ully": 1112,
      "ise": 1113,
      "issed": 1114,
      "Ġend": 1115,
      "Ġbelie": 1116,
      "Ġmet": 1117,
      "ool": 1118,
      "Ġjo": 1119,
      "Ġpull": 1120,
      "Ġdev": 1121,
      "Ġbedroom": 1122,
      "Ġplease": 1123,
      "Ġappe": 1124,
      "Ġsurprise": 1125,
      "less": 1126,
      "no": 1127,
      "ople": 1128,
      "Ġsk": 1129,
      "Ġnur": 1130,
      "Ġjer": 1131,
      "Ġplace": 1132,
      "Ġeverything": 1133,
      "ced": 1134,
      "just": 1135,
      "ne": 1136,
      "instead": 1137,
      "Ġhear": 1138,
      "Ġfriend": 1139,
      "ara": 1140,
      "able": 1141,
      "Ġclosed": 1142,
      "aut": 1143,
      "Ġcasey": 1144,
      "Ġni": 1145,
      "Ġstared": 1146,
      "Ġke": 1147,
      "Ġmyself": 1148,
      "Ġsho": 1149,
      "Ġslow": 1150,
      "Ġmost": 1151,
      "Ġfinally": 1152,
      "Ġacross": 1153,
      "Ġplane": 1154,
      "aking": 1155,
      "fully": 1156,
      "ian": 1157,
      "sw": 1158,
      "sing": 1159,
      "tty": 1160,
      "ouse": 1161,
      "Ġhot": 1162,
      "Ġbest": 1163,
      "Ġbath": 1164,
      "Ġbus": 1165,
      "Ġdone": 1166,
      "Ġwithout": 1167,
      "Ġkristi": 1168,
      "Ġfront": 1169,
      "ably": 1170,
      "Ġhold": 1171,
      "night": 1172,
      "Ġ;": 1173,
      "Ġent": 1174,
      "Ġfar": 1175,
      "Ġdri": 1176,
      "Ġdra": 1177,
      "ital": 1178,
      "Ġbeaut": 1179,
      "although": 1180,
      "Ġansw": 1181,
      "Ġchuck": 1182,
      "Ġchild": 1183,
      "Ġdec": 1184,
      "Ġpretty": 1185,
      "Ġhappy": 1186,
      "Ġguess": 1187,
      "cond": 1188,
      "Ġpeople": 1189,
      "Ġbelieve": 1190,
      "ever": 1191,
      "ged": 1192,
      "how": 1193,
      "mp": 1194,
      "sit": 1195,
      "Ġsil": 1196,
      "Ġdark": 1197,
      "Ġgri": 1198,
      "Ġchair": 1199,
      "Ġleaned": 1200,
      "Ġsecond": 1201,
      "Ġhosp": 1202,
      "Ġcheeks": 1203,
      "Ġwidened": 1204,
      "Ġhospital": 1205,
      "jo": 1206,
      "of": 1207,
      "ued": 1208,
      "orn": 1209,
      "ory": 1210,
      "aced": 1211,
      "Ġres": 1212,
      "ching": 1213,
      "Ġrose": 1214,
      "adeen": 1215,
      "Ġbrother": 1216,
      "arents": 1217,
      "umb": 1218,
      "while": 1219,
      "Ġfoll": 1220,
      "Ġpatient": 1221,
      "cking": 1222,
      "ten": 1223,
      "ying": 1224,
      "Ġsleep": 1225,
      "Ġwif": 1226,
      "ren": 1227,
      "ank": 1228,
      "Ġdi": 1229,
      "assed": 1230,
      "idd": 1231,
      "Ġhall": 1232,
      "Ġconsid": 1233,
      "iful": 1234,
      "Ġcoming": 1235,
      "Ġclose": 1236,
      "Ġwomen": 1237,
      "Ġactually": 1238,
      "Ġwife": 1239,
      "for": 1240,
      "ness": 1241,
      "then": 1242,
      "hes": 1243,
      "Ġhouse": 1244,
      "ready": 1245,
      "Ġbro": 1246,
      "Ġown": 1247,
      "Ġstu": 1248,
      "Ġstand": 1249,
      "Ġsoon": 1250,
      "Ġnew": 1251,
      "Ġbring": 1252,
      "Ġshoulder": 1253,
      "Ġyears": 1254,
      "oline": 1255,
      "Ġbeautiful": 1256,
      "ms": 1257,
      "ond": 1258,
      "son": 1259,
      "Ġtu": 1260,
      "inking": 1261,
      "Ġbes": 1262,
      "Ġdress": 1263,
      "Ġpur": 1264,
      "Ġpain": 1265,
      "Ġyet": 1266,
      "Ġele": 1267,
      "Ġforward": 1268,
      "Ġweek": 1269,
      "Ġhimself": 1270,
      "Ġlip": 1271,
      "Ġsupp": 1272,
      "Ġrob": 1273,
      "Ġexact": 1274,
      "Ġworld": 1275,
      "Ġalso": 1276,
      "Ġloved": 1277,
      "Ġmany": 1278,
      "Ġbott": 1279,
      "Ġstop": 1280,
      "Ġwater": 1281,
      "Ġjerked": 1282,
      "lo": 1283,
      "Ġes": 1284,
      "Ġtight": 1285,
      "iness": 1286,
      "Ġwra": 1287,
      "reat": 1288,
      "rest": 1289,
      "Ġtonight": 1290,
      "Ġcra": 1291,
      "Ġdad": 1292,
      "Ġdif": 1293,
      "Ġpers": 1294,
      "Ġeas": 1295,
      "Ġmeet": 1296,
      "ically": 1297,
      "Ġable": 1298,
      "Ġworry": 1299,
      "Ġalready": 1300,
      "Ġmaking": 1301,
      "Ġglad": 1302,
      "Ġenjo": 1303,
      "Ġwaist": 1304,
      "Ġhappened": 1305,
      "Ġminutes": 1306,
      "Ġquickly": 1307,
      "Ġbathroom": 1308,
      "bably": 1309,
      "kristi": 1310,
      "now": 1311,
      "Ġap": 1312,
      "Ġaw": 1313,
      "Ġwhe": 1314,
      "Ġmed": 1315,
      "Ġner": 1316,
      "Ġdro": 1317,
      "Ġparents": 1318,
      "Ġlat": 1319,
      "Ġkind": 1320,
      "Ġkissed": 1321,
      "irt": 1322,
      "Ġsoft": 1323,
      "light": 1324,
      "Ġarg": 1325,
      "Ġneeded": 1326,
      "Ġposs": 1327,
      "Ġprobably": 1328,
      "Ġprot": 1329,
      "Ġstepped": 1330,
      "Ġmonth": 1331,
      "Ġkept": 1332,
      "Ġchuckled": 1333,
      "Ġexactly": 1334,
      "Ġdiffe": 1335,
      "ger": 1336,
      "ized": 1337,
      "kes": 1338,
      "tur": 1339,
      "zy": 1340,
      "Ġama": 1341,
      "ought": 1342,
      "Ġhon": 1343,
      "Ġmr": 1344,
      "Ġide": 1345,
      "ised": 1346,
      "Ġthrew": 1347,
      "ening": 1348,
      "Ġyoung": 1349,
      "vered": 1350,
      "Ġhalf": 1351,
      "Ġran": 1352,
      "Ġpoin": 1353,
      "Ġlaugh": 1354,
      "Ġclos": 1355,
      "Ġcaroline": 1356,
      "ertson": 1357,
      "Ġshower": 1358,
      "Ġwrong": 1359,
      "Ġrobertson": 1360,
      "ia": 1361,
      "ual": 1362,
      "Ġtou": 1363,
      "Ġsing": 1364,
      "Ġsit": 1365,
      "Ġsqu": 1366,
      "Ġtoday": 1367,
      "Ġcry": 1368,
      "Ġgro": 1369,
      "ides": 1370,
      "Ġstood": 1371,
      "Ġresp": 1372,
      "antly": 1373,
      "Ġeyed": 1374,
      "Ġexam": 1375,
      "there": 1376,
      "Ġbreak": 1377,
      "Ġeveryone": 1378,
      "ship": 1379,
      "ertain": 1380,
      "Ġquestioned": 1381,
      "Ġmaybe": 1382,
      "Ġphone": 1383,
      "Ġimagine": 1384,
      "Ġhurt": 1385,
      "Ġamazing": 1386,
      "vous": 1387,
      "Ġtra": 1388,
      "Ġsight": 1389,
      "Ġimp": 1390,
      "isper": 1391,
      "Ġlow": 1392,
      "Ġthose": 1393,
      "Ġgent": 1394,
      "itc": 1395,
      "Ġins": 1396,
      "Ġinter": 1397,
      "Ġere": 1398,
      "Ġur": 1399,
      "Ġstra": 1400,
      "Ġask": 1401,
      "Ġkara": 1402,
      "Ġwhisper": 1403,
      "Ġshot": 1404,
      "chap": 1405,
      "Ġrolled": 1406,
      "Ġchar": 1407,
      "Ġexpect": 1408,
      "Ġemotion": 1409,
      "itting": 1410,
      "without": 1411,
      "Ġcontin": 1412,
      "Ġstopped": 1413,
      "Ġgiving": 1414,
      "Ġtalk": 1415,
      "Ġtrue": 1416,
      "Ġmatter": 1417,
      "Ġperson": 1418,
      "Ġidea": 1419,
      "chapter": 1420,
      "casey": 1421,
      "where": 1422,
      "head": 1423,
      "Ġset": 1424,
      "Ġfur": 1425,
      "ish": 1426,
      "ister": 1427,
      "ense": 1428,
      "stand": 1429,
      "Ġstro": 1430,
      "Ġkitc": 1431,
      "uttered": 1432,
      "cept": 1433,
      "Ġtaken": 1434,
      "Ġfeet": 1435,
      "ested": 1436,
      "Ġspo": 1437,
      "Ġhope": 1438,
      "bbing": 1439,
      "Ġmary": 1440,
      "Ġwarm": 1441,
      "Ġleave": 1442,
      "Ġappeared": 1443,
      "Ġkitchen": 1444,
      "app": 1445,
      "cu": 1446,
      "erest": 1447,
      "not": 1448,
      "ining": 1449,
      "Ġwet": 1450,
      "Ġhey": 1451,
      "Ġcertain": 1452,
      "Ġnice": 1453,
      "Ġdou": 1454,
      "asing": 1455,
      "Ġthree": 1456,
      "Ġgone": 1457,
      "arr": 1458,
      "Ġeased": 1459,
      "vers": 1460,
      "Ġreason": 1461,
      "Ġlight": 1462,
      "Ġliving": 1463,
      "Ġshru": 1464,
      "Ġleast": 1465,
      "Ġyourself": 1466,
      "Ġpushed": 1467,
      "Ġanyone": 1468,
      "Ġspent": 1469,
      "Ġboy": 1470,
      "Ġcomp": 1471,
      "Ġdays": 1472,
      "Ġcontro": 1473,
      "Ġcoun": 1474,
      "Ġtrace": 1475,
      "mbled": 1476,
      "ame": 1477,
      "fin": 1478,
      "ier": 1479,
      "og": 1480,
      "ric": 1481,
      "ton": 1482,
      "yed": 1483,
      "Ġwin": 1484,
      "Ġheard": 1485,
      "Ġhit": 1486,
      "Ġhour": 1487,
      "Ġfood": 1488,
      "Ġcur": 1489,
      "Ġnadeen": 1490,
      "Ġpast": 1491,
      "Ġeat": 1492,
      "enty": 1493,
      "Ġseen": 1494,
      "Ġclot": 1495,
      "Ġteased": 1496,
      "fect": 1497,
      "using": 1498,
      "Ġshoulders": 1499,
      "Ġknees": 1500,
      "Ġmarried": 1501,
      "Ġpleas": 1502,
      "Ġinterest": 1503,
      "Ġrelation": 1504,
      "Ġfriends": 1505,
      "Ġanswer": 1506,
      "aw": 1507,
      "mason": 1508,
      "Ġair": 1509,
      "Ġwall": 1510,
      "rent": 1511,
      "Ġbad": 1512,
      "Ġfall": 1513,
      "Ġfill": 1514,
      "Ġcut": 1515,
      "Ġcried": 1516,
      "ator": 1517,
      "ading": 1518,
      "ided": 1519,
      "let": 1520,
      "aled": 1521,
      "memb": 1522,
      "Ġfell": 1523,
      "Ġconf": 1524,
      "Ġturn": 1525,
      "Ġblue": 1526,
      "Ġcomple": 1527,
      "Ġpregn": 1528,
      "Ġprom": 1529,
      "Ġgrabbed": 1530,
      "Ġdaddy": 1531,
      "Ġnervous": 1532,
      "Ġlater": 1533,
      "Ġmonths": 1534,
      "Ġrelationship": 1535,
      "bed": 1536,
      "ible": 1537,
      "man": 1538,
      "zz": 1539,
      "Ġsister": 1540,
      "Ġheat": 1541,
      "ans": 1542,
      "Ġfun": 1543,
      "ash": 1544,
      "ene": 1545,
      "Ġinc": 1546,
      "Ġum": 1547,
      "Ġreg": 1548,
      "Ġrememb": 1549,
      "Ġkid": 1550,
      "uth": 1551,
      "Ġcaused": 1552,
      "Ġemb": 1553,
      "Ġspend": 1554,
      "Ġtwenty": 1555,
      "Ġsaying": 1556,
      "Ġlooking": 1557,
      "Ġadm": 1558,
      "Ġminute": 1559,
      "Ġpants": 1560,
      "Ġattention": 1561,
      "Ġweeks": 1562,
      "Ġdifferent": 1563,
      "Ġcontinued": 1564,
      "ake": 1565,
      "ix": 1566,
      "ize": 1567,
      "mand": 1568,
      "oud": 1569,
      "Ġhi": 1570,
      "Ġhor": 1571,
      "Ġmust": 1572,
      "Ġmmm": 1573,
      "ret": 1574,
      "ange": 1575,
      "Ġthigh": 1576,
      "Ġthinking": 1577,
      "aded": 1578,
      "Ġstom": 1579,
      "Ġstaring": 1580,
      "Ġrem": 1581,
      "uring": 1582,
      "ict": 1583,
      "Ġshirt": 1584,
      "Ġang": 1585,
      "Ġtimes": 1586,
      "Ġgazed": 1587,
      "ately": 1588,
      "Ġbox": 1589,
      "Ġblack": 1590,
      "Ġcock": 1591,
      "Ġothers": 1592,
      "Ġscream": 1593,
      "Ġcouple": 1594,
      "Ġunderstand": 1595,
      "Ġtruly": 1596,
      "Ġwrapped": 1597,
      "Ġerection": 1598,
      "Ġcomplete": 1599,
      "ax": 1600,
      "come": 1601,
      "do": 1602,
      "du": 1603,
      "ls": 1604,
      "osed": 1605,
      "red": 1606,
      "rick": 1607,
      "vator": 1608,
      "oun": 1609,
      "Ġmor": 1610,
      "Ġmotion": 1611,
      "Ġpa": 1612,
      "Ġpri": 1613,
      "Ġgas": 1614,
      "its": 1615,
      "icking": 1616,
      "Ġoutside": 1617,
      "this": 1618,
      "Ġkno": 1619,
      "Ġsucked": 1620,
      "Ġabs": 1621,
      "rupt": 1622,
      "Ġeye": 1623,
      "Ġmanag": 1624,
      "Ġgrim": 1625,
      "Ġquite": 1626,
      "Ġwhole": 1627,
      "Ġharder": 1628,
      "Ġthoughts": 1629,
      "Ġsounds": 1630,
      "Ġspeak": 1631,
      "Ġpulling": 1632,
      "Ġskin": 1633,
      "Ġholding": 1634,
      "Ġfollowed": 1635,
      "Ġelevator": 1636,
      "Ġcertainly": 1637,
      "by": 1638,
      "even": 1639,
      "ses": 1640,
      "shing": 1641,
      "ult": 1642,
      "udd": 1643,
      "Ġer": 1644,
      "Ġau": 1645,
      "Ġmen": 1646,
      "Ġbra": 1647,
      "Ġbig": 1648,
      "Ġob": 1649,
      "Ġtop": 1650,
      "Ġcat": 1651,
      "ern": 1652,
      "Ġdru": 1653,
      "Ġpin": 1654,
      "Ġled": 1655,
      "Ġlap": 1656,
      "Ġthir": 1657,
      "Ġgreat": 1658,
      "Ġinv": 1659,
      "Ġforth": 1660,
      "Ġwel": 1661,
      "Ġje": 1662,
      "Ġjade": 1663,
      "Ġjud": 1664,
      "Ġknown": 1665,
      "iling": 1666,
      "Ġwhatever": 1667,
      "like": 1668,
      "Ġexper": 1669,
      "Ġworking": 1670,
      "Ġteasing": 1671,
      "Ġcheck": 1672,
      "Ġbreat": 1673,
      "Ġmommy": 1674,
      "before": 1675,
      "ancing": 1676,
      "Ġappre": 1677,
      "anged": 1678,
      "Ġwatched": 1679,
      "Ġsurprised": 1680,
      "Ġgigg": 1681,
      "Ġparty": 1682,
      "Ġbusiness": 1683,
      "Ġdrive": 1684,
      "Ġconsidering": 1685,
      "Ġwheel": 1686,
      "Ġrespon": 1687,
      "Ġgentle": 1688,
      "Ġpleasure": 1689,
      "Ġexperi": 1690,
      "father": 1691,
      "some": 1692,
      "ta": 1693,
      "Ġaf": 1694,
      "Ġhmm": 1695,
      "Ġmine": 1696,
      "Ġmidd": 1697,
      "Ġmuttered": 1698,
      "ressed": 1699,
      "Ġfought": 1700,
      "ism": 1701,
      "Ġla": 1702,
      "Ġthro": 1703,
      "ither": 1704,
      "lling": 1705,
      "Ġmeant": 1706,
      "Ġref": 1707,
      "Ġits": 1708,
      "Ġwhite": 1709,
      "Ġshit": 1710,
      "ions": 1711,
      "Ġcau": 1712,
      "Ġcausing": 1713,
      "Ġexh": 1714,
      "Ġseem": 1715,
      "Ġdemand": 1716,
      "ively": 1717,
      "Ġred": 1718,
      "ush": 1719,
      "Ġname": 1720,
      "Ġbeside": 1721,
      "Ġtouch": 1722,
      "Ġgroaned": 1723,
      "Ġwhispered": 1724,
      "versation": 1725,
      "Ġremember": 1726,
      "Ġthighs": 1727,
      "Ġcompletely": 1728,
      "Ġmiddle": 1729,
      "bo": 1730,
      "may": 1731,
      "ung": 1732,
      "Ġter": 1733,
      "Ġtast": 1734,
      "Ġahead": 1735,
      "ins": 1736,
      "incess": 1737,
      "Ġsitting": 1738,
      "Ġmess": 1739,
      "Ġmention": 1740,
      "rely": 1741,
      "Ġfour": 1742,
      "Ġdating": 1743,
      "Ġpass": 1744,
      "arily": 1745,
      "Ġused": 1746,
      "Ġform": 1747,
      "ute": 1748,
      "Ġshif": 1749,
      "Ġshudd": 1750,
      "Ġheaded": 1751,
      "Ġchin": 1752,
      "Ġsmall": 1753,
      "Ġlear": 1754,
      "Ġalone": 1755,
      "Ġclit": 1756,
      "Ġconversation": 1757,
      "Ġdeal": 1758,
      "Ġpress": 1759,
      "Ġfinger": 1760,
      "Ġfinish": 1761,
      "avan": 1762,
      "Ġdrink": 1763,
      "Ġclean": 1764,
      "Ġswall": 1765,
      "Ġserious": 1766,
      "Ġnurse": 1767,
      "Ġbottom": 1768,
      "Ġesc": 1769,
      "Ġmedic": 1770,
      "Ġdoub": 1771,
      "Ġshrugged": 1772,
      "Ġcontrol": 1773,
      "Ġcounter": 1774,
      "Ġfilled": 1775,
      "Ġpregnant": 1776,
      "Ġstomach": 1777,
      "Ġmorning": 1778,
      "Ġthroat": 1779,
      "bs": 1780,
      "band": 1781,
      "mor": 1782,
      "pl": 1783,
      "ring": 1784,
      "uation": 1785,
      "Ġten": 1786,
      "Ġtrou": 1787,
      "Ġhigh": 1788,
      "Ġtot": 1789,
      "Ġpen": 1790,
      "Ġless": 1791,
      "Ġlicked": 1792,
      "Ġground": 1793,
      "Ġinst": 1794,
      "ored": 1795,
      "owd": 1796,
      "imes": 1797,
      "acked": 1798,
      "Ġstare": 1799,
      "Ġretur": 1800,
      "ghter": 1801,
      "Ġank": 1802,
      "Ġchance": 1803,
      "Ġpun": 1804,
      "aming": 1805,
      "Ġconc": 1806,
      "Ġqui": 1807,
      "Ġlooks": 1808,
      "Ġletting": 1809,
      "Ġlonger": 1810,
      "Ġprincess": 1811,
      "airs": 1812,
      "Ġacc": 1813,
      "Ġwalking": 1814,
      "Ġcouch": 1815,
      "Ġtruth": 1816,
      "Ġraised": 1817,
      "Ġrelax": 1818,
      "Ġstrand": 1819,
      "Ġimagined": 1820,
      "Ġhello": 1821,
      "Ġbringing": 1822,
      "Ġcrazy": 1823,
      "finally": 1824,
      "Ġhours": 1825,
      "Ġwelcome": 1826,
      "avani": 1827,
      "Ġtrouble": 1828,
      "ald": 1829,
      "every": 1830,
      "fort": 1831,
      "go": 1832,
      "ib": 1833,
      "lic": 1834,
      "more": 1835,
      "ror": 1836,
      "set": 1837,
      "Ġsen": 1838,
      "Ġhang": 1839,
      "Ġmiss": 1840,
      "Ġbent": 1841,
      "Ġball": 1842,
      "Ġbru": 1843,
      "Ġfre": 1844,
      "Ġfit": 1845,
      "Ġfly": 1846,
      "Ġfut": 1847,
      "Ġfull": 1848,
      "Ġcro": 1849,
      "ates": 1850,
      "Ġdu": 1851,
      "Ġdance": 1852,
      "ising": 1853,
      "Ġpicked": 1854,
      "Ġpassed": 1855,
      "Ġlit": 1856,
      "Ġinstead": 1857,
      "veta": 1858,
      "acing": 1859,
      "eth": 1860,
      "Ġstre": 1861,
      "Ġstage": 1862,
      "rodu": 1863,
      "iced": 1864,
      "irth": 1865,
      "Ġsugg": 1866,
      "cted": 1867,
      "oney": 1868,
      "Ġworked": 1869,
      "Ġclim": 1870,
      "Ġglass": 1871,
      "Ġblood": 1872,
      "Ġcocked": 1873,
      "Ġgotten": 1874,
      "peci": 1875,
      "Ġmove": 1876,
      "Ġrubbed": 1877,
      "Ġthanks": 1878,
      "Ġunc": 1879,
      "Ġintrodu": 1880,
      "Ġpatrick": 1881,
      "Ġwatch": 1882,
      "Ġsighed": 1883,
      "Ġwaiting": 1884,
      "Ġcrowd": 1885,
      "Ġtalking": 1886,
      "Ġwonderful": 1887,
      "Ġthrust": 1888,
      "Ġhotel": 1889,
      "Ġdropped": 1890,
      "Ġsquee": 1891,
      "Ġurge": 1892,
      "Ġemotions": 1893,
      "Ġpromise": 1894,
      "Ġappreci": 1895,
      "Ġfuture": 1896,
      "pecially": 1897,
      "ding": 1898,
      "dian": 1899,
      "gl": 1900,
      "low": 1901,
      "rowed": 1902,
      "tr": 1903,
      "taking": 1904,
      "Ġed": 1905,
      "Ġsch": 1906,
      "Ġsong": 1907,
      "Ġwed": 1908,
      "Ġwine": 1909,
      "Ġba": 1910,
      "aning": 1911,
      "Ġtoward": 1912,
      "Ġfle": 1913,
      "Ġfair": 1914,
      "Ġcas": 1915,
      "Ġdrew": 1916,
      "Ġpar": 1917,
      "Ġland": 1918,
      "Ġline": 1919,
      "Ġindian": 1920,
      "Ġuh": 1921,
      "ets": 1922,
      "ices": 1923,
      "Ġliked": 1924,
      "Ġlift": 1925,
      "Ġshy": 1926,
      "Ġshort": 1927,
      "pple": 1928,
      "thank": 1929,
      "Ġnose": 1930,
      "Ġwants": 1931,
      "Ġbutton": 1932,
      "Ġrobe": 1933,
      "Ġchange": 1934,
      "Ġempt": 1935,
      "Ġfear": 1936,
      "Ġseeing": 1937,
      "wel": 1938,
      "Ġgrand": 1939,
      "Ġblond": 1940,
      "Ġmoaned": 1941,
      "Ġeng": 1942,
      "Ġhelped": 1943,
      "umped": 1944,
      "Ġsign": 1945,
      "Ġcareer": 1946,
      "Ġhuh": 1947,
      "Ġdining": 1948,
      "Ġplaying": 1949,
      "Ġstrong": 1950,
      "Ġdisapp": 1951,
      "Ġphys": 1952,
      "Ġcupped": 1953,
      "Ġrunning": 1954,
      "Ġseriously": 1955,
      "Ġburied": 1956,
      "Ġgripped": 1957,
      "Ġbroke": 1958,
      "Ġstuff": 1959,
      "Ġapart": 1960,
      "Ġapol": 1961,
      "Ġargue": 1962,
      "Ġhonest": 1963,
      "Ġcloser": 1964,
      "Ġcrying": 1965,
      "Ġinterrupt": 1966,
      "Ġstraight": 1967,
      "Ġfurrowed": 1968,
      "Ġclothes": 1969,
      "Ġembarr": 1970,
      "Ġjudge": 1971,
      "Ġcaught": 1972,
      "gin": 1973,
      "ho": 1974,
      "io": 1975,
      "iz": 1976,
      "lain": 1977,
      "os": 1978,
      "row": 1979,
      "heart": 1980,
      "Ġty": 1981,
      "Ġslight": 1982,
      "Ġhus": 1983,
      "read": 1984,
      "Ġbare": 1985,
      "Ġfight": 1986,
      "Ġcorn": 1987,
      "Ġdist": 1988,
      "nding": 1989,
      "Ġpound": 1990,
      "Ġpap": 1991,
      "Ġgown": 1992,
      "Ġgru": 1993,
      "orted": 1994,
      "ary": 1995,
      "sts": 1996,
      "stairs": 1997,
      "oth": 1998,
      "Ġund": 1999,
      "Ġrema": 2000,
      "Ġforg": 2001,
      "Ġwhir": 2002,
      "ired": 2003,
      "tering": 2004,
      "Ġju": 2005,
      "rap": 2006,
      "Ġchart": 2007,
      "Ġexc": 2008,
      "Ġsec": 2009,
      "Ġsear": 2010,
      "Ġclin": 2011,
      "Ġclen": 2012,
      "Ġplate": 2013,
      "Ġtears": 2014,
      "Ġdeath": 2015,
      "isted": 2016,
      "Ġord": 2017,
      "Ġmused": 2018,
      "Ġturning": 2019,
      "Ġcoll": 2020,
      "Ġcover": 2021,
      "Ġcomes": 2022,
      "Ġpressed": 2023,
      "Ġevening": 2024,
      "Ġproble": 2025,
      "Ġbecome": 2026,
      "Ġyear": 2027,
      "olute": 2028,
      "Ġtelling": 2029,
      "dev": 2030,
      "ments": 2031,
      "Ġpatted": 2032,
      "Ġguy": 2033,
      "Ġsigh": 2034,
      "Ġhung": 2035,
      "Ġmaya": 2036,
      "Ġgodfather": 2037,
      "Ġperfect": 2038,
      "Ġnipple": 2039,
      "Ġshock": 2040,
      "Ġslowly": 2041,
      "iane": 2042,
      "Ġentire": 2043,
      "Ġdecided": 2044,
      "form": 2045,
      "Ġpurse": 2046,
      "Ġeasy": 2047,
      "Ġenjoyed": 2048,
      "Ġpoint": 2049,
      "Ġwinked": 2050,
      "Ġgasped": 2051,
      "Ġabsolute": 2052,
      "Ġmanaged": 2053,
      "Ġtaste": 2054,
      "Ġswallowed": 2055,
      "Ġpenis": 2056,
      "Ġankle": 2057,
      "glancing": 2058,
      "Ġbapt": 2059,
      "Ġempty": 2060,
      "bes": 2061,
      "cy": 2062,
      "cing": 2063,
      "con": 2064,
      "gas": 2065,
      "ial": 2066,
      "mmed": 2067,
      "rom": 2068,
      "ushed": 2069,
      "Ġadded": 2070,
      "Ġwink": 2071,
      "Ġwind": 2072,
      "Ġmia": 2073,
      "Ġbite": 2074,
      "Ġbirth": 2075,
      "Ġfree": 2076,
      "Ġfix": 2077,
      "Ġdet": 2078,
      "ashed": 2079,
      "Ġlust": 2080,
      "Ġlab": 2081,
      "Ġlist": 2082,
      "Ġloud": 2083,
      "Ġthri": 2084,
      "Ġgon": 2085,
      "ited": 2086,
      "lly": 2087,
      "Ġinf": 2088,
      "ident": 2089,
      "Ġstud": 2090,
      "Ġstory": 2091,
      "Ġrele": 2092,
      "Ġwear": 2093,
      "Ġshare": 2094,
      "Ġshveta": 2095,
      "ils": 2096,
      "ility": 2097,
      "Ġnoticed": 2098,
      "Ġworried": 2099,
      "cket": 2100,
      "Ġseems": 2101,
      "Ġago": 2102,
      "Ġanymore": 2103,
      "Ġteeth": 2104,
      "Ġorgas": 2105,
      "itted": 2106,
      "Ġflush": 2107,
      "Ġring": 2108,
      "Ġcomm": 2109,
      "gging": 2110,
      "Ġposit": 2111,
      "Ġdoors": 2112,
      "Ġprocess": 2113,
      "Ġusually": 2114,
      "Ġwalk": 2115,
      "Ġfoot": 2116,
      "unch": 2117,
      "Ġelb": 2118,
      "Ġcup": 2119,
      "Ġclear": 2120,
      "Ġbusy": 2121,
      "Ġsilence": 2122,
      "Ġbrothers": 2123,
      "Ġstanding": 2124,
      "Ġbesides": 2125,
      "Ġespecially": 2126,
      "Ġmeeting": 2127,
      "Ġpossible": 2128,
      "Ġprotested": 2129,
      "Ġkids": 2130,
      "Ġadmit": 2131,
      "Ġremind": 2132,
      "Ġgrimaced": 2133,
      "Ġobv": 2134,
      "Ġgentleman": 2135,
      "Ġexperience": 2136,
      "Ġdemanded": 2137,
      "Ġtotally": 2138,
      "Ġstrands": 2139,
      "Ġschool": 2140,
      "Ġblonde": 2141,
      "Ġhusband": 2142,
      "Ġbarely": 2143,
      "Ġclinical": 2144,
      "Ġproblem": 2145,
      "Ġbaptism": 2146,
      "apped": 2147,
      "ef": 2148,
      "fet": 2149,
      "fess": 2150,
      "gth": 2151,
      "mother": 2152,
      "sc": 2153,
      "sure": 2154,
      "up": 2155,
      "uct": 2156,
      "zger": 2157,
      "Ġtin": 2158,
      "int": 2159,
      "Ġsent": 2160,
      "Ġsal": 2161,
      "Ġhar": 2162,
      "Ġthese": 2163,
      "Ġbri": 2164,
      "Ġbene": 2165,
      "Ġce": 2166,
      "Ġcor": 2167,
      "Ġcity": 2168,
      "Ġnor": 2169,
      "Ġdressed": 2170,
      "Ġlate": 2171,
      "ength": 2172,
      "Ġbeau": 2173,
      "Ġbelt": 2174,
      "ime": 2175,
      "Ġuse": 2176,
      "Ġstar": 2177,
      "Ġasking": 2178,
      "Ġkill": 2179,
      "Ġfork": 2180,
      "Ġwearing": 2181,
      "ents": 2182,
      "Ġshut": 2183,
      "eeper": 2184,
      "usted": 2185,
      "Ġhanded": 2186,
      "raid": 2187,
      "Ġtab": 2188,
      "Ġchoice": 2189,
      "Ġchanged": 2190,
      "Ġspot": 2191,
      "Ġspread": 2192,
      "Ġgame": 2193,
      "Ġsomewhat": 2194,
      "Ġneeds": 2195,
      "Ġmov": 2196,
      "Ġprep": 2197,
      "Ġwaved": 2198,
      "Ġpract": 2199,
      "Ġmomentarily": 2200,
      "Ġkissing": 2201,
      "Ġadv": 2202,
      "Ġfoc": 2203,
      "Ġfeelings": 2204,
      "Ġsteering": 2205,
      "Ġwaited": 2206,
      "avor": 2207,
      "Ġstayed": 2208,
      "Ġsweetheart": 2209,
      "cial": 2210,
      "Ġrealized": 2211,
      "Ġleaving": 2212,
      "Ġended": 2213,
      "noah": 2214,
      "Ġdraw": 2215,
      "Ġchildren": 2216,
      "Ġsupposed": 2217,
      "Ġmedical": 2218,
      "Ġhonor": 2219,
      "Ġlaughing": 2220,
      "Ġhips": 2221,
      "Ġdrun": 2222,
      "Ġthirty": 2223,
      "Ġbreathing": 2224,
      "Ġafraid": 2225,
      "Ġlaid": 2226,
      "Ġpressure": 2227,
      "Ġdoubt": 2228,
      "Ġinstru": 2229,
      "Ġquiet": 2230,
      "Ġclimbed": 2231,
      "Ġsqueezed": 2232,
      "Ġwedding": 2233,
      "Ġlifted": 2234,
      "Ġpapa": 2235,
      "besides": 2236,
      "zgerald": 2237,
      "cent": 2238,
      "ect": 2239,
      "from": 2240,
      "ging": 2241,
      "since": 2242,
      "tress": 2243,
      "ues": 2244,
      "zi": 2245,
      "Ġtre": 2246,
      "Ġtip": 2247,
      "Ġsli": 2248,
      "Ġheav": 2249,
      "Ġhated": 2250,
      "Ġtomor": 2251,
      "Ġfore": 2252,
      "Ġfab": 2253,
      "Ġfavor": 2254,
      "Ġcore": 2255,
      "Ġdry": 2256,
      "Ġdau": 2257,
      "Ġdick": 2258,
      "Ġdeeper": 2259,
      "Ġpict": 2260,
      "Ġlength": 2261,
      "Ġthumb": 2262,
      "Ġgre": 2263,
      "itor": 2264,
      "Ġev": 2265,
      "Ġeating": 2266,
      "oming": 2267,
      "Ġstate": 2268,
      "Ġasleep": 2269,
      "Ġweak": 2270,
      "ooking": 2271,
      "Ġant": 2272,
      "Ġsafe": 2273,
      "ardless": 2274,
      "ames": 2275,
      "Ġloving": 2276,
      "Ġloves": 2277,
      "Ġdep": 2278,
      "Ġarea": 2279,
      "Ġmale": 2280,
      "Ġmakes": 2281,
      "Ġstarting": 2282,
      "Ġbobbed": 2283,
      "ddy": 2284,
      "Ġenc": 2285,
      "Ġsometimes": 2286,
      "Ġprofess": 2287,
      "Ġbecame": 2288,
      "aped": 2289,
      "Ġhappen": 2290,
      "Ġwilling": 2291,
      "Ġguys": 2292,
      "Ġexplain": 2293,
      "Ġmattress": 2294,
      "Ġbuddy": 2295,
      "Ġwondered": 2296,
      "Ġpanties": 2297,
      "Ġappear": 2298,
      "Ġnursing": 2299,
      "Ġnurses": 2300,
      "Ġhallway": 2301,
      "Ġtub": 2302,
      "Ġsuppose": 2303,
      "Ġcloset": 2304,
      "Ġsituation": 2305,
      "Ġinterested": 2306,
      "Ġwalls": 2307,
      "Ġmotioned": 2308,
      "Ġgiggled": 2309,
      "maybe": 2310,
      "Ġpassion": 2311,
      "Ġreturned": 2312,
      "Ġfitzgerald": 2313,
      "Ġsuggested": 2314,
      "Ġappreciate": 2315,
      "Ġedge": 2316,
      "Ġabsolutely": 2317,
      "Ġtiny": 2318,
      "Ġbeneath": 2319,
      "Ġtomorrow": 2320,
      "aked": 2321,
      "ga": 2322,
      "hn": 2323,
      "hood": 2324,
      "lor": 2325,
      "miss": 2326,
      "nadeen": 2327,
      "ping": 2328,
      "ras": 2329,
      "tled": 2330,
      "Ġtri": 2331,
      "Ġsy": 2332,
      "Ġsle": 2333,
      "Ġwore": 2334,
      "Ġwild": 2335,
      "Ġhesit": 2336,
      "Ġmass": 2337,
      "ane": 2338,
      "any": 2339,
      "Ġfas": 2340,
      "Ġfive": 2341,
      "Ġfire": 2342,
      "Ġcal": 2343,
      "Ġcared": 2344,
      "atively": 2345,
      "Ġdream": 2346,
      "Ġduring": 2347,
      "ises": 2348,
      "Ġpink": 2349,
      "Ġpick": 2350,
      "essed": 2351,
      "Ġoften": 2352,
      "Ġeither": 2353,
      "Ġbeaming": 2354,
      "owled": 2355,
      "Ġmerely": 2356,
      "imper": 2357,
      "Ġult": 2358,
      "Ġstep": 2359,
      "Ġreco": 2360,
      "Ġrelie": 2361,
      "Ġwithin": 2362,
      "Ġforget": 2363,
      "Ġwhimper": 2364,
      "Ġshiane": 2365,
      "Ġanx": 2366,
      "Ġjaw": 2367,
      "Ġjumped": 2368,
      "ustr": 2369,
      "Ġwanting": 2370,
      "Ġsuit": 2371,
      "Ġexcu": 2372,
      "Ġlead": 2373,
      "well": 2374,
      "ault": 2375,
      "Ġage": 2376,
      "Ġclas": 2377,
      "Ġconv": 2378,
      "Ġchew": 2379,
      "Ġarri": 2380,
      "Ġflat": 2381,
      "Ġflow": 2382,
      "Ġflicked": 2383,
      "Ġbyp": 2384,
      "Ġcovered": 2385,
      "Ġmoved": 2386,
      "action": 2387,
      "Ġrubbing": 2388,
      "Ġusing": 2389,
      "bbled": 2390,
      "Ġmoments": 2391,
      "Ġkisses": 2392,
      "Ġaccept": 2393,
      "Ġmeans": 2394,
      "avis": 2395,
      "Ġsnorted": 2396,
      "Ġolder": 2397,
      "Ġspecial": 2398,
      "Ġwarmed": 2399,
      "Ġgodmother": 2400,
      "Ġdesper": 2401,
      "Ġdesire": 2402,
      "Ġgirls": 2403,
      "Ġburst": 2404,
      "Ġbottle": 2405,
      "Ġkinda": 2406,
      "Ġargued": 2407,
      "Ġprotest": 2408,
      "turning": 2409,
      "Ġpointed": 2410,
      "Ġexamining": 2411,
      "Ġpersonal": 2412,
      "Ġspoke": 2413,
      "Ġregret": 2414,
      "Ġpriv": 2415,
      "Ġaunts": 2416,
      "Ġdriveway": 2417,
      "Ġresponse": 2418,
      "Ġexhaled": 2419,
      "Ġmedicine": 2420,
      "Ġflying": 2421,
      "Ġcrossed": 2422,
      "Ġflew": 2423,
      "Ġinterrupted": 2424,
      "Ġtype": 2425,
      "Ġcorners": 2426,
      "Ġforgot": 2427,
      "Ġthrilled": 2428,
      "Ġtables": 2429,
      "Ġmovie": 2430,
      "Ġheavy": 2431,
      "Ġpicture": 2432,
      "Ġprofession": 2433,
      "rasound": 2434,
      "Ġcalm": 2435,
      "Ġultrasound": 2436,
      "Ġexcuse": 2437,
      "ber": 2438,
      "ear": 2439,
      "each": 2440,
      "fied": 2441,
      "ha": 2442,
      "iately": 2443,
      "ler": 2444,
      "opt": 2445,
      "spect": 2446,
      "wor": 2447,
      "Ġve": 2448,
      "Ġtant": 2449,
      "Ġtits": 2450,
      "Ġsim": 2451,
      "Ġwi": 2452,
      "Ġwow": 2453,
      "Ġbother": 2454,
      "Ġbul": 2455,
      "Ġbag": 2456,
      "inged": 2457,
      "Ġice": 2458,
      "ann": 2459,
      "Ġfa": 2460,
      "Ġfast": 2461,
      "Ġfuck": 2462,
      "Ġcum": 2463,
      "Ġcool": 2464,
      "Ġnarr": 2465,
      "ision": 2466,
      "ished": 2467,
      "Ġpee": 2468,
      "Ġpill": 2469,
      "Ġluck": 2470,
      "Ġlunch": 2471,
      "ities": 2472,
      "add": 2473,
      "iding": 2474,
      "Ġsta": 2475,
      "Ġstri": 2476,
      "Ġnod": 2477,
      "ilt": 2478,
      "Ġsav": 2479,
      "Ġhandle": 2480,
      "Ġsub": 2481,
      "Ġheadset": 2482,
      "Ġfrustr": 2483,
      "Ġsmacked": 2484,
      "Ġself": 2485,
      "Ġallowed": 2486,
      "cky": 2487,
      "Ġalpesh": 2488,
      "Ġagre": 2489,
      "Ġagree": 2490,
      "amm": 2491,
      "Ġlocked": 2492,
      "Ġtem": 2493,
      "Ġspl": 2494,
      "Ġdeli": 2495,
      "Ġdelic": 2496,
      "Ġsomewhere": 2497,
      "Ġflesh": 2498,
      "Ġgrowing": 2499,
      "Ġmumbled": 2500,
      "Ġtwins": 2501,
      "Ġfeels": 2502,
      "Ġcoat": 2503,
      "Ġcond": 2504,
      "Ġcomfort": 2505,
      "Ġbreast": 2506,
      "Ġusual": 2507,
      "Ġscru": 2508,
      "why": 2509,
      "itely": 2510,
      "Ġcalling": 2511,
      "Ġmark": 2512,
      "Ġadopt": 2513,
      "Ġputting": 2514,
      "Ġreluct": 2515,
      "els": 2516,
      "Ġstrang": 2517,
      "Ġphot": 2518,
      "Ġcleared": 2519,
      "Ġgrab": 2520,
      "Ġdeser": 2521,
      "Ġperform": 2522,
      "Ġrealize": 2523,
      "Ġjob": 2524,
      "Ġjoin": 2525,
      "Ġsky": 2526,
      "ney": 2527,
      "Ġentered": 2528,
      "Ġgrip": 2529,
      "Ġseconds": 2530,
      "Ġenjoy": 2531,
      "Ġsoftly": 2532,
      "Ġlowered": 2533,
      "ograp": 2534,
      "Ġspending": 2535,
      "Ġangie": 2536,
      "Ġpaper": 2537,
      "Ġrespons": 2538,
      "somehow": 2539,
      "Ġshift": 2540,
      "Ġlearned": 2541,
      "Ġconcern": 2542,
      "Ġaccident": 2543,
      "Ġbrushed": 2544,
      "Ġengage": 2545,
      "Ġapolog": 2546,
      "Ġembarrass": 2547,
      "Ġremained": 2548,
      "Ġobviously": 2549,
      "Ġdrunk": 2550,
      "Ġinstructed": 2551,
      "cl": 2552,
      "did": 2553,
      "ior": 2554,
      "jay": 2555,
      "kward": 2556,
      "lavani": 2557,
      "oc": 2558,
      "over": 2559,
      "time": 2560,
      "whe": 2561,
      "was": 2562,
      "Ġtent": 2563,
      "Ġtie": 2564,
      "Ġtense": 2565,
      "ination": 2566,
      "Ġsou": 2567,
      "Ġsar": 2568,
      "Ġsad": 2569,
      "Ġwide": 2570,
      "eding": 2571,
      "Ġheels": 2572,
      "Ġhoney": 2573,
      "Ġmis": 2574,
      "Ġmir": 2575,
      "Ġbar": 2576,
      "Ġbase": 2577,
      "Ġimmed": 2578,
      "anjay": 2579,
      "Ġfli": 2580,
      "Ġfist": 2581,
      "Ġfool": 2582,
      "Ġfault": 2583,
      "Ġcand": 2584,
      "Ġcart": 2585,
      "Ġcase": 2586,
      "Ġnap": 2587,
      "Ġdon": 2588,
      "Ġdess": 2589,
      "Ġdavis": 2590,
      "ashing": 2591,
      "Ġpay": 2592,
      "Ġlavani": 2593,
      "ese": 2594,
      "Ġge": 2595,
      "Ġgur": 2596,
      "Ġgrou": 2597,
      "Ġgrew": 2598,
      "oned": 2599,
      "Ġhissed": 2600,
      "acy": 2601,
      "aching": 2602,
      "Ġstir": 2603,
      "veral": 2604,
      "Ġlikes": 2605,
      "ently": 2606,
      "Ġshi": 2607,
      "irc": 2608,
      "alth": 2609,
      "ries": 2610,
      "pper": 2611,
      "Ġroof": 2612,
      "Ġsmack": 2613,
      "Ġwhenever": 2614,
      "Ġalthough": 2615,
      "Ġlost": 2616,
      "Ġlose": 2617,
      "inkled": 2618,
      "Ġanywhere": 2619,
      "Ġtext": 2620,
      "Ġconne": 2621,
      "Ġdefe": 2622,
      "Ġsomehow": 2623,
      "ific": 2624,
      "lture": 2625,
      "Ġreply": 2626,
      "ular": 2627,
      "ulous": 2628,
      "Ġcolor": 2629,
      "Ġrooms": 2630,
      "Ġmoving": 2631,
      "Ġprec": 2632,
      "Ġpop": 2633,
      "bell": 2634,
      "ancy": 2635,
      "Ġscene": 2636,
      "ield": 2637,
      "Ġintim": 2638,
      "Ġcontact": 2639,
      "Ġgiven": 2640,
      "Ġhuff": 2641,
      "Ġsnapped": 2642,
      "uding": 2643,
      "Ġculture": 2644,
      "Ġbuild": 2645,
      "Ġmonitor": 2646,
      "Ġpatience": 2647,
      "Ġthrown": 2648,
      "Ġthrowing": 2649,
      "Ġsilk": 2650,
      "umbled": 2651,
      "Ġsleeping": 2652,
      "idden": 2653,
      "Ġconsider": 2654,
      "Ġbroken": 2655,
      "Ġrespond": 2656,
      "Ġurged": 2657,
      "Ġhorror": 2658,
      "Ġcatch": 2659,
      "Ġpinched": 2660,
      "Ġinvol": 2661,
      "Ġshifted": 2662,
      "Ġescaped": 2663,
      "Ġsens": 2664,
      "Ġballs": 2665,
      "Ġuncle": 2666,
      "hold": 2667,
      "Ġwhirled": 2668,
      "Ġsecur": 2669,
      "Ġposition": 2670,
      "Ġpractically": 2671,
      "Ġfavorite": 2672,
      "Ġstatement": 2673,
      "Ġbypassed": 2674,
      "Ġprofessional": 2675,
      "annah": 2676,
      "Ġsavannah": 2677,
      "Ġdelicious": 2678,
      "Ġcomfortable": 2679,
      "Ġphotograp": 2680,
      "Ġsari": 2681,
      "Ġdessert": 2682,
      "Ġgroup": 2683,
      "Ġphotographer": 2684,
      "aur": 2685,
      "aving": 2686,
      "ces": 2687,
      "cause": 2688,
      "fast": 2689,
      "gs": 2690,
      "kin": 2691,
      "line": 2692,
      "mr": 2693,
      "ming": 2694,
      "mer": 2695,
      "mon": 2696,
      "nor": 2697,
      "ph": 2698,
      "pid": 2699,
      "somet": 2700,
      "tre": 2701,
      "til": 2702,
      "use": 2703,
      "ugg": 2704,
      "Ġesh": 2705,
      "Ġzi": 2706,
      "Ġack": 2707,
      "Ġadd": 2708,
      "inked": 2709,
      "Ġsick": 2710,
      "Ġwan": 2711,
      "Ġwish": 2712,
      "Ġheated": 2713,
      "Ġband": 2714,
      "Ġbuck": 2715,
      "Ġboun": 2716,
      "ingly": 2717,
      "Ġoper": 2718,
      "Ġfu": 2719,
      "Ġfif": 2720,
      "Ġcru": 2721,
      "Ġcream": 2722,
      "Ġnon": 2723,
      "Ġdire": 2724,
      "Ġdied": 2725,
      "Ġpi": 2726,
      "Ġpack": 2727,
      "Ġpair": 2728,
      "Ġling": 2729,
      "Ġlam": 2730,
      "Ġlady": 2731,
      "Ġlicking": 2732,
      "Ġlung": 2733,
      "Ġgen": 2734,
      "Ġgar": 2735,
      "ition": 2736,
      "ens": 2737,
      "Ġeight": 2738,
      "Ġease": 2739,
      "Ġbegin": 2740,
      "Ġwash": 2741,
      "leaning": 2742,
      "acter": 2743,
      "Ġstru": 2744,
      "Ġreass": 2745,
      "Ġremo": 2746,
      "Ġkicked": 2747,
      "Ġforced": 2748,
      "Ġwee": 2749,
      "Ġlive": 2750,
      "Ġshaking": 2751,
      "alous": 2752,
      "antic": 2753,
      "Ġanger": 2754,
      "Ġnecess": 2755,
      "Ġsun": 2756,
      "Ġsucking": 2757,
      "Ġdownstairs": 2758,
      "Ġchos": 2759,
      "ooded": 2760,
      "Ġexch": 2761,
      "Ġseveral": 2762,
      "Ġgets": 2763,
      "wear": 2764,
      "Ġpul": 2765,
      "Ġpush": 2766,
      "Ġpushing": 2767,
      "Ġcloud": 2768,
      "ledge": 2769,
      "Ġplates": 2770,
      "Ġanyway": 2771,
      "Ġknows": 2772,
      "Ġtender": 2773,
      "Ġcheese": 2774,
      "Ġgazing": 2775,
      "Ġmama": 2776,
      "ateful": 2777,
      "Ġflushed": 2778,
      "Ġgrow": 2779,
      "Ġgrateful": 2780,
      "pted": 2781,
      "Ġrom": 2782,
      "Ġrice": 2783,
      "Ġrather": 2784,
      "Ġrising": 2785,
      "ations": 2786,
      "Ġneedle": 2787,
      "Ġhopped": 2788,
      "Ġcoff": 2789,
      "Ġpopped": 2790,
      "Ġpocket": 2791,
      "Ġdoorway": 2792,
      "Ġrub": 2793,
      "arent": 2794,
      "beat": 2795,
      "Ġprospect": 2796,
      "ances": 2797,
      "Ġscowled": 2798,
      "Ġhappily": 2799,
      "Ġhappiness": 2800,
      "shaking": 2801,
      "Ġbabies": 2802,
      "anging": 2803,
      "spic": 2804,
      "Ġheartbeat": 2805,
      "Ġunderwear": 2806,
      "Ġplans": 2807,
      "Ġplanned": 2808,
      "Ġbreaths": 2809,
      "Ġquestioning": 2810,
      "Ġsix": 2811,
      "Ġswept": 2812,
      "Ġplayfully": 2813,
      "rossing": 2814,
      "Ġrunway": 2815,
      "teen": 2816,
      "Ġwrinkled": 2817,
      "Ġrestaur": 2818,
      "Ġhurried": 2819,
      "igned": 2820,
      "Ġjohn": 2821,
      "Ġshoes": 2822,
      "Ġanswered": 2823,
      "Ġfollowing": 2824,
      "rence": 2825,
      "Ġdipped": 2826,
      "Ġawkward": 2827,
      "Ġwhether": 2828,
      "Ġyounger": 2829,
      "Ġgently": 2830,
      "Ġcharge": 2831,
      "Ġcharacter": 2832,
      "Ġwarmth": 2833,
      "cuss": 2834,
      "Ġcountered": 2835,
      "Ġinteresting": 2836,
      "Ġincl": 2837,
      "Ġangry": 2838,
      "Ġscreamed": 2839,
      "Ġscreaming": 2840,
      "Ġknocked": 2841,
      "Ġjealous": 2842,
      "Ġlearn": 2843,
      "Ġdrinks": 2844,
      "Ġmedication": 2845,
      "Ġhanger": 2846,
      "Ġintroduce": 2847,
      "thankfully": 2848,
      "Ġpounding": 2849,
      "Ġclenched": 2850,
      "Ġorder": 2851,
      "Ġprocessing": 2852,
      "Ġdoubts": 2853,
      "Ġfabric": 2854,
      "Ġdaughter": 2855,
      "Ġgreen": 2856,
      "gazing": 2857,
      "Ġmassive": 2858,
      "Ġchewed": 2859,
      "Ġdesperately": 2860,
      "Ġtantric": 2861,
      "Ġagreed": 2862,
      "Ġscrubs": 2863,
      "Ġsoul": 2864,
      "Ġmirror": 2865,
      "Ġgurney": 2866,
      "Ġinvolved": 2867,
      "Ġsecurity": 2868,
      "Ġacknow": 2869,
      "Ġopera": 2870,
      "Ġchosen": 2871,
      "Ġcoffee": 2872,
      "Ġrestaurant": 2873,
      "bl": 2874,
      "br": 2875,
      "blic": 2876,
      "coming": 2877,
      "crossing": 2878,
      "dom": 2879,
      "ex": 2880,
      "een": 2881,
      "eyed": 2882,
      "gra": 2883,
      "hol": 2884,
      "izing": 2885,
      "ject": 2886,
      "kn": 2887,
      "lace": 2888,
      "mory": 2889,
      "ny": 2890,
      "ners": 2891,
      "nie": 2892,
      "oh": 2893,
      "oll": 2894,
      "pat": 2895,
      "pull": 2896,
      "rat": 2897,
      "ract": 2898,
      "slow": 2899,
      "uzz": 2900,
      "vo": 2901,
      "wood": 2902,
      "zie": 2903,
      "Ġtv": 2904,
      "Ġtil": 2905,
      "Ġtest": 2906,
      "Ġaction": 2907,
      "Ġhealth": 2908,
      "Ġhide": 2909,
      "Ġhip": 2910,
      "Ġmc": 2911,
      "Ġmas": 2912,
      "Ġmid": 2913,
      "Ġmissed": 2914,
      "Ġmoney": 2915,
      "reg": 2916,
      "Ġbi": 2917,
      "Ġble": 2918,
      "Ġbound": 2919,
      "Ġbowed": 2920,
      "Ġborn": 2921,
      "ings": 2922,
      "Ġtow": 2923,
      "Ġtowel": 2924,
      "Ġfed": 2925,
      "Ġcre": 2926,
      "Ġcous": 2927,
      "Ġcirc": 2928,
      "eria": 2929,
      "ature": 2930,
      "Ġnumb": 2931,
      "Ġda": 2932,
      "Ġdated": 2933,
      "nday": 2934,
      "Ġpan": 2935,
      "Ġpoo": 2936,
      "Ġpark": 2937,
      "Ġlying": 2938,
      "Ġthreat": 2939,
      "enly": 2940,
      "enced": 2941,
      "enzie": 2942,
      "ord": 2943,
      "Ġsheep": 2944,
      "Ġsheets": 2945,
      "Ġech": 2946,
      "omy": 2947,
      "ids": 2948,
      "Ġmemb": 2949,
      "Ġmemory": 2950,
      "Ġhist": 2951,
      "vel": 2952,
      "ster": 2953,
      "still": 2954,
      "imp": 2955,
      "Ġstor": 2956,
      "Ġstool": 2957,
      "Ġrec": 2958,
      "Ġread": 2959,
      "Ġreach": 2960,
      "Ġresid": 2961,
      "Ġreaction": 2962,
      "urch": 2963,
      "ooked": 2964,
      "kend": 2965,
      "ented": 2966,
      "aling": 2967,
      "antage": 2968,
      "tern": 2969,
      "Ġjack": 2970,
      "Ġgold": 2971,
      "Ġoutf": 2972,
      "Ġknee": 2973,
      "ili": 2974,
      "Ġsave": 2975,
      "Ġoverwhe": 2976,
      "Ġsuspic": 2977,
      "Ġheading": 2978,
      "Ġcafet": 2979,
      "Ġfrown": 2980,
      "Ġaband": 2981,
      "Ġabdom": 2982,
      "Ġchick": 2983,
      "Ġchurch": 2984,
      "Ġexcept": 2985,
      "Ġseed": 2986,
      "Ġsend": 2987,
      "cks": 2988,
      "ckenzie": 2989,
      "Ġyours": 2990,
      "Ġalco": 2991,
      "Ġpublic": 2992,
      "Ġclut": 2993,
      "amed": 2994,
      "Ġcons": 2995,
      "Ġchecking": 2996,
      "Ġgap": 2997,
      "iff": 2998,
      "Ġrepe": 2999,
      "Ġfluttered": 3000,
      "Ġflashed": 3001,
      "Ġgrad": 3002,
      "Ġbolly": 3003,
      "Ġrat": 3004,
      "fection": 3005,
      "Ġbless": 3006,
      "Ġhoped": 3007,
      "usion": 3008,
      "Ġcomb": 3009,
      "Ġmoist": 3010,
      "Ġmode": 3011,
      "because": 3012,
      "Ġhardened": 3013,
      "bborn": 3014,
      "Ġfirm": 3015,
      "Ġlaughter": 3016,
      "Ġscrew": 3017,
      "iew": 3018,
      "iece": 3019,
      "Ġthoughtful": 3020,
      "Ġloose": 3021,
      "Ġbabe": 3022,
      "Ġappro": 3023,
      "Ġintense": 3024,
      "Ġcontem": 3025,
      "Ġstove": 3026,
      "Ġadjust": 3027,
      "Ġexposed": 3028,
      "aged": 3029,
      "ager": 3030,
      "Ġtrust": 3031,
      "Ġplanning": 3032,
      "Ġswelling": 3033,
      "Ġragged": 3034,
      "Ġsliding": 3035,
      "Ġstaying": 3036,
      "Ġspeed": 3037,
      "Ġdoctors": 3038,
      "Ġbuilt": 3039,
      "Ġearly": 3040,
      "Ġfinding": 3041,
      "Ġnecklace": 3042,
      "Ġsweetie": 3043,
      "Ġwondering": 3044,
      "Ġburning": 3045,
      "Ġnibbled": 3046,
      "Ġresist": 3047,
      "Ġrespect": 3048,
      "Ġresult": 3049,
      "Ġfollow": 3050,
      "Ġbroad": 3051,
      "Ġstubborn": 3052,
      "Ġeasier": 3053,
      "Ġenjoying": 3054,
      "Ġpossib": 3055,
      "Ġdifference": 3056,
      "Ġtouched": 3057,
      "Ġsinging": 3058,
      "Ġlower": 3059,
      "Ġemotional": 3060,
      "Ġstroke": 3061,
      "Ġstrode": 3062,
      "ception": 3063,
      "Ġshrug": 3064,
      "Ġconfused": 3065,
      "Ġconfusion": 3066,
      "Ġmanager": 3067,
      "Ġaunt": 3068,
      "Ġbreathe": 3069,
      "Ġgiggling": 3070,
      "Ġexha": 3071,
      "board": 3072,
      "Ġterri": 3073,
      "Ġshudder": 3074,
      "Ġshuddered": 3075,
      "everything": 3076,
      "Ġfresh": 3077,
      "Ġdug": 3078,
      "Ġstreet": 3079,
      "Ġtowards": 3080,
      "Ġcases": 3081,
      "Ġshorts": 3082,
      "Ġphysical": 3083,
      "Ġhonestly": 3084,
      "Ġdistance": 3085,
      "Ġjuices": 3086,
      "Ġhungry": 3087,
      "Ġdeta": 3088,
      "Ġinfl": 3089,
      "Ġreleased": 3090,
      "Ġorgasm": 3091,
      "Ġorgasms": 3092,
      "Ġclinicals": 3093,
      "Ġbrief": 3094,
      "Ġadvantage": 3095,
      "Ġslipped": 3096,
      "Ġwhimpered": 3097,
      "Ġarrived": 3098,
      "Ġprivate": 3099,
      "Ġpictures": 3100,
      "work": 3101,
      "Ġnarrowed": 3102,
      "Ġfrustrated": 3103,
      "Ġreluctantly": 3104,
      "Ġpaperwork": 3105,
      "Ġengagement": 3106,
      "Ġapologize": 3107,
      "Ġimmediately": 3108,
      "Ġnapkin": 3109,
      "Ġdonnie": 3110,
      "tilting": 3111,
      "Ġweekend": 3112,
      "pulling": 3113,
      "slowly": 3114,
      "Ġtilted": 3115,
      "Ġecho": 3116,
      "Ġoverwhel": 3117,
      "Ġcafeteria": 3118,
      "Ġbollywood": 3119,
      "aim": 3120,
      "apping": 3121,
      "bly": 3122,
      "ball": 3123,
      "cin": 3124,
      "ches": 3125,
      "clo": 3126,
      "eared": 3127,
      "fl": 3128,
      "friend": 3129,
      "ffect": 3130,
      "iving": 3131,
      "ives": 3132,
      "long": 3133,
      "looking": 3134,
      "noun": 3135,
      "op": 3136,
      "ove": 3137,
      "oot": 3138,
      "okay": 3139,
      "oget": 3140,
      "pri": 3141,
      "pled": 3142,
      "ron": 3143,
      "tle": 3144,
      "uma": 3145,
      "vy": 3146,
      "vious": 3147,
      "wa": 3148,
      "Ġ1": 3149,
      "Ġtour": 3150,
      "Ġtired": 3151,
      "Ġavo": 3152,
      "Ġsink": 3153,
      "Ġsara": 3154,
      "Ġsense": 3155,
      "Ġwicked": 3156,
      "Ġhea": 3157,
      "Ġhook": 3158,
      "Ġhate": 3159,
      "Ġhitting": 3160,
      "Ġhidden": 3161,
      "Ġmill": 3162,
      "Ġmist": 3163,
      "Ġmort": 3164,
      "Ġmckenzie": 3165,
      "Ġben": 3166,
      "Ġori": 3167,
      "Ġill": 3168,
      "Ġiris": 3169,
      "Ġtone": 3170,
      "Ġfan": 3171,
      "Ġflight": 3172,
      "Ġcard": 3173,
      "Ġcook": 3174,
      "erned": 3175,
      "erie": 3176,
      "ative": 3177,
      "atives": 3178,
      "Ġnone": 3179,
      "Ġnuzz": 3180,
      "Ġden": 3181,
      "Ġdab": 3182,
      "Ġdie": 3183,
      "Ġdancing": 3184,
      "Ġdinged": 3185,
      "ndred": 3186,
      "isfied": 3187,
      "Ġpor": 3188,
      "Ġpow": 3189,
      "Ġpau": 3190,
      "Ġlar": 3191,
      "Ġlay": 3192,
      "Ġlace": 3193,
      "Ġyo": 3194,
      "Ġgle": 3195,
      "Ġgul": 3196,
      "Ġgames": 3197,
      "iting": 3198,
      "oning": 3199,
      "ones": 3200,
      "Ġinch": 3201,
      "org": 3202,
      "arm": 3203,
      "Ġsheet": 3204,
      "Ġeffect": 3205,
      "Ġbeer": 3206,
      "Ġbeat": 3207,
      "Ġbecky": 3208,
      "Ġbelong": 3209,
      "idence": 3210,
      "immed": 3211,
      "aces": 3212,
      "ayed": 3213,
      "Ġstation": 3214,
      "Ġrequ": 3215,
      "Ġking": 3216,
      "Ġforce": 3217,
      "see": 3218,
      "icing": 3219,
      "Ġlie": 3220,
      "entive": 3221,
      "Ġshout": 3222,
      "Ġshown": 3223,
      "ird": 3224,
      "eech": 3225,
      "alk": 3226,
      "als": 3227,
      "allen": 3228,
      "Ġupset": 3229,
      "Ġannoun": 3230,
      "rie": 3231,
      "riage": 3232,
      "ters": 3233,
      "Ġgoes": 3234,
      "Ġnear": 3235,
      "char": 3236,
      "three": 3237,
      "Ġnoise": 3238,
      "ila": 3239,
      "Ġsuv": 3240,
      "Ġsuck": 3241,
      "Ġsumm": 3242,
      "Ġiss": 3243,
      "Ġcab": 3244,
      "Ġabove": 3245,
      "ained": 3246,
      "ctomy": 3247,
      "Ġroll": 3248,
      "Ġrock": 3249,
      "Ġrocket": 3250,
      "Ġeyel": 3251,
      "Ġchances": 3252,
      "Ġchallen": 3253,
      "Ġleading": 3254,
      "amped": 3255,
      "Ġplaced": 3256,
      "Ġknowing": 3257,
      "lfriend": 3258,
      "Ġconst": 3259,
      "Ġconnor": 3260,
      "Ġspeech": 3261,
      "lted": 3262,
      "nted": 3263,
      "Ġflu": 3264,
      "Ġmus": 3265,
      "Ġmult": 3266,
      "Ġmusc": 3267,
      "asectomy": 3268,
      "Ġglance": 3269,
      "Ġblow": 3270,
      "Ġblur": 3271,
      "Ġhovered": 3272,
      "Ġslide": 3273,
      "Ġslung": 3274,
      "Ġwave": 3275,
      "Ġpol": 3276,
      "Ġpoor": 3277,
      "bending": 3278,
      "Ġprove": 3279,
      "Ġfinal": 3280,
      "Ġafterno": 3281,
      "Ġhardly": 3282,
      "Ġsurm": 3283,
      "Ġview": 3284,
      "Ġvasectomy": 3285,
      "Ġmarry": 3286,
      "Ġmarriage": 3287,
      "Ġache": 3288,
      "Ġador": 3289,
      "Ġadult": 3290,
      "Ġcount": 3291,
      "Ġcoupled": 3292,
      "Ġwatching": 3293,
      "ague": 3294,
      "Ġtray": 3295,
      "Ġfamili": 3296,
      "cocking": 3297,
      "wards": 3298,
      "Ġquestions": 3299,
      "Ġfinishing": 3300,
      "Ġsig": 3301,
      "Ġsexual": 3302,
      "Ġnaked": 3303,
      "Ġhundred": 3304,
      "Ġplayed": 3305,
      "Ġkeeping": 3306,
      "Ġwaiter": 3307,
      "gnized": 3308,
      "Ġsnugg": 3309,
      "Ġsniff": 3310,
      "Ġdismiss": 3311,
      "Ġcrack": 3312,
      "Ġcrash": 3313,
      "Ġtalked": 3314,
      "Ġgirlfriend": 3315,
      "Ġcunt": 3316,
      "Ġcleaned": 3317,
      "Ġgrabbing": 3318,
      "Ġpanting": 3319,
      "Ġrested": 3320,
      "Ġattentive": 3321,
      "neath": 3322,
      "Ġdragged": 3323,
      "Ġdecor": 3324,
      "Ġsilent": 3325,
      "Ġgrief": 3326,
      "Ġtugged": 3327,
      "Ġpurple": 3328,
      "Ġelect": 3329,
      "Ġsupport": 3330,
      "Ġeasily": 3331,
      "Ġworrying": 3332,
      "Ġdropping": 3333,
      "Ġpossess": 3334,
      "Ġbreakfast": 3335,
      "Ġtrauma": 3336,
      "Ġimpo": 3337,
      "Ġinsisted": 3338,
      "Ġinsane": 3339,
      "Ġexpected": 3340,
      "Ġexpectantly": 3341,
      "Ġsettled": 3342,
      "Ġfuriously": 3343,
      "Ġlights": 3344,
      "Ġcloth": 3345,
      "Ġpregnancy": 3346,
      "Ġfunny": 3347,
      "Ġregardless": 3348,
      "Ġembr": 3349,
      "Ġhoriz": 3350,
      "Ġboxers": 3351,
      "Ġpriest": 3352,
      "Ġgasp": 3353,
      "Ġknob": 3354,
      "Ġgrimace": 3355,
      "Ġthird": 3356,
      "Ġteasingly": 3357,
      "body": 3358,
      "play": 3359,
      "rings": 3360,
      "Ġpunched": 3361,
      "Ġconcerned": 3362,
      "Ġducked": 3363,
      "Ġmovements": 3364,
      "Ġintroduced": 3365,
      "Ġparking": 3366,
      "Ġlanding": 3367,
      "Ġbuttons": 3368,
      "Ġapologet": 3369,
      "Ġembarrassed": 3370,
      "Ġslightly": 3371,
      "Ġfighting": 3372,
      "Ġgrumbled": 3373,
      "Ġexcited": 3374,
      "Ġsearched": 3375,
      "Ġcollap": 3376,
      "Ġperfectly": 3377,
      "Ġentirely": 3378,
      "consid": 3379,
      "Ġwindows": 3380,
      "Ġfixed": 3381,
      "Ġlisten": 3382,
      "Ġcommitted": 3383,
      "Ġelbows": 3384,
      "Ġsalad": 3385,
      "Ġcorner": 3386,
      "Ġnorm": 3387,
      "Ġprepared": 3388,
      "Ġfocus": 3389,
      "Ġfocused": 3390,
      "Ġdrawing": 3391,
      "Ġforehead": 3392,
      "Ġantic": 3393,
      "Ġfaster": 3394,
      "Ġrecognized": 3395,
      "Ġanxiously": 3396,
      "Ġlucky": 3397,
      "Ġsplit": 3398,
      "Ġcondom": 3399,
      "Ġdeserve": 3400,
      "Ġperformance": 3401,
      "Ġgeorg": 3402,
      "Ġintimate": 3403,
      "Ġhuffed": 3404,
      "Ġbuilding": 3405,
      "Ġzipper": 3406,
      "Ġlingerie": 3407,
      "Ġlamb": 3408,
      "Ġgarage": 3409,
      "Ġgrowl": 3410,
      "regardless": 3411,
      "Ġnumber": 3412,
      "Ġsheepish": 3413,
      "Ġjacket": 3414,
      "Ġalcohol": 3415,
      "Ġmortif": 3416,
      "Ġbench": 3417,
      "Ġorigin": 3418,
      "Ġirish": 3419,
      "Ġporch": 3420,
      "Ġlarge": 3421,
      "Ġeyelids": 3422,
      "Ġspeechless": 3423,
      "Ġafternoon": 3424,
      "Ġfamiliar": 3425,
      "Ġdismissively": 3426,
      "Ġhorizon": 3427,
      "72": 3428,
      "away": 3429,
      "aper": 3430,
      "bing": 3431,
      "bur": 3432,
      "bru": 3433,
      "both": 3434,
      "car": 3435,
      "cul": 3436,
      "dged": 3437,
      "five": 3438,
      "fting": 3439,
      "gar": 3440,
      "iv": 3441,
      "iqu": 3442,
      "jan": 3443,
      "ker": 3444,
      "lant": 3445,
      "lves": 3446,
      "min": 3447,
      "na": 3448,
      "old": 3449,
      "osit": 3450,
      "po": 3451,
      "pes": 3452,
      "put": 3453,
      "parents": 3454,
      "uh": 3455,
      "uing": 3456,
      "ude": 3457,
      "vin": 3458,
      "want": 3459,
      "xic": 3460,
      "yer": 3461,
      "zen": 3462,
      "Ġtee": 3463,
      "Ġtick": 3464,
      "Ġtreat": 3465,
      "ines": 3466,
      "Ġsout": 3467,
      "Ġske": 3468,
      "Ġsir": 3469,
      "Ġsore": 3470,
      "Ġsme": 3471,
      "Ġsought": 3472,
      "Ġsanjay": 3473,
      "Ġwise": 3474,
      "Ġheight": 3475,
      "Ġhearing": 3476,
      "Ġhy": 3477,
      "Ġhic": 3478,
      "Ġhum": 3479,
      "Ġmil": 3480,
      "Ġmood": 3481,
      "res": 3482,
      "reaching": 3483,
      "Ġbat": 3484,
      "Ġbum": 3485,
      "Ġbull": 3486,
      "Ġbought": 3487,
      "ingle": 3488,
      "Ġopp": 3489,
      "Ġid": 3490,
      "Ġiv": 3491,
      "Ġign": 3492,
      "anked": 3493,
      "Ġtore": 3494,
      "Ġfro": 3495,
      "Ġfal": 3496,
      "Ġfade": 3497,
      "Ġfaded": 3498,
      "Ġcoo": 3499,
      "Ġcent": 3500,
      "Ġcess": 3501,
      "Ġcross": 3502,
      "Ġcries": 3503,
      "erg": 3504,
      "erv": 3505,
      "eric": 3506,
      "attering": 3507,
      "Ġhero": 3508,
      "Ġdam": 3509,
      "Ġdared": 3510,
      "Ġdare": 3511,
      "Ġdanc": 3512,
      "Ġdates": 3513,
      "asper": 3514,
      "Ġpal": 3515,
      "Ġpace": 3516,
      "Ġpour": 3517,
      "Ġpity": 3518,
      "Ġpier": 3519,
      "Ġpans": 3520,
      "Ġgor": 3521,
      "Ġgut": 3522,
      "item": 3523,
      "itched": 3524,
      "ency": 3525,
      "Ġinno": 3526,
      "Ġinform": 3527,
      "arked": 3528,
      "Ġbeating": 3529,
      "Ġbelow": 3530,
      "omed": 3531,
      "Ġwashed": 3532,
      "lebr": 3533,
      "star": 3534,
      "staring": 3535,
      "oting": 3536,
      "Ġstret": 3537,
      "Ġrehe": 3538,
      "Ġrese": 3539,
      "Ġreception": 3540,
      "Ġaside": 3541,
      "Ġitem": 3542,
      "Ġate": 3543,
      "Ġatlant": 3544,
      "urday": 3545,
      "ician": 3546,
      "Ġlied": 3547,
      "Ġliking": 3548,
      "Ġliqu": 3549,
      "Ġshared": 3550,
      "Ġshows": 3551,
      "irty": 3552,
      "irling": 3553,
      "aline": 3554,
      "hens": 3555,
      "antically": 3556,
      "Ġupstairs": 3557,
      "ript": 3558,
      "Ġsober": 3559,
      "Ġneither": 3560,
      "usting": 3561,
      "chie": 3562,
      "Ġknuck": 3563,
      "mare": 3564,
      "ilities": 3565,
      "Ġsudd": 3566,
      "Ġsuper": 3567,
      "Ġsuite": 3568,
      "Ġcapt": 3569,
      "Ġcamer": 3570,
      "Ġfrid": 3571,
      "lier": 3572,
      "live": 3573,
      "Ġrolling": 3574,
      "Ġcho": 3575,
      "Ġchast": 3576,
      "Ġsmir": 3577,
      "Ġsmart": 3578,
      "Ġextre": 3579,
      "Ġexasper": 3580,
      "Ġlevel": 3581,
      "Ġemp": 3582,
      "Ġseated": 3583,
      "Ġworst": 3584,
      "Ġworth": 3585,
      "Ġagon": 3586,
      "Ġclaim": 3587,
      "their": 3588,
      "amond": 3589,
      "Ġloc": 3590,
      "quis": 3591,
      "Ġplaces": 3592,
      "Ġteen": 3593,
      "Ġtear": 3594,
      "Ġtease": 3595,
      "Ġspr": 3596,
      "Ġspin": 3597,
      "Ġsped": 3598,
      "Ġspine": 3599,
      "Ġspark": 3600,
      "Ġoffer": 3601,
      "Ġoffice": 3602,
      "Ġdead": 3603,
      "Ġdefin": 3604,
      "Ġgavin": 3605,
      "geon": 3606,
      "geous": 3607,
      "Ġarched": 3608,
      "itten": 3609,
      "Ġmagn": 3610,
      "ateg": 3611,
      "Ġflowed": 3612,
      "Ġflash": 3613,
      "Ġflooded": 3614,
      "Ġgrown": 3615,
      "Ġgrady": 3616,
      "Ġthinks": 3617,
      "eeling": 3618,
      "Ġbod": 3619,
      "Ġrid": 3620,
      "Ġrang": 3621,
      "Ġracing": 3622,
      "ational": 3623,
      "Ġbrow": 3624,
      "Ġglit": 3625,
      "Ġglare": 3626,
      "Ġblo": 3627,
      "Ġblessed": 3628,
      "Ġslo": 3629,
      "Ġslit": 3630,
      "ushing": 3631,
      "ngth": 3632,
      "things": 3633,
      "Ġhandsome": 3634,
      "Ġwake": 3635,
      "Ġdoorbell": 3636,
      "Ġkneaded": 3637,
      "Ġproper": 3638,
      "bbling": 3639,
      "Ġsays": 3640,
      "Ġscan": 3641,
      "Ġscrap": 3642,
      "Ġthoughtfully": 3643,
      "who": 3644,
      "Ġwellstar": 3645,
      "Ġsurve": 3646,
      "Ġsurround": 3647,
      "Ġsurger": 3648,
      "Ġcars": 3649,
      "button": 3650,
      "Ġthankful": 3651,
      "ended": 3652,
      "Ġmarble": 3653,
      "Ġunbutton": 3654,
      "assion": 3655,
      "Ġassist": 3656,
      "Ġassum": 3657,
      "Ġnights": 3658,
      "Ġnightmare": 3659,
      "Ġadren": 3660,
      "Ġfold": 3661,
      "Ġfoyer": 3662,
      "Ġexplo": 3663,
      "Ġtrans": 3664,
      "Ġunderneath": 3665,
      "eping": 3666,
      "unction": 3667,
      "Ġamuse": 3668,
      "Ġameric": 3669,
      "Ġglancing": 3670,
      "Ġpeace": 3671,
      "Ġpeered": 3672,
      "Ġpeering": 3673,
      "mmy": 3674,
      "ctions": 3675,
      "Ġrarely": 3676,
      "Ġgiant": 3677,
      "Ġhug": 3678,
      "Ġhugged": 3679,
      "Ġrelatives": 3680,
      "Ġsteps": 3681,
      "Ġsteady": 3682,
      "Ġstrict": 3683,
      "Ġopening": 3684,
      "Ġsnat": 3685,
      "Ġdisc": 3686,
      "Ġdiscuss": 3687,
      "Ġcrashing": 3688,
      "Ġsaturday": 3689,
      "Ġseats": 3690,
      "Ġwarned": 3691,
      "Ġearrings": 3692,
      "Ġdeeply": 3693,
      "Ġgrammy": 3694,
      "Ġbitch": 3695,
      "Ġpercy": 3696,
      "tears": 3697,
      "Ġswoll": 3698,
      "Ġwidening": 3699,
      "ontro": 3700,
      "Ġlots": 3701,
      "Ġthrow": 3702,
      "Ġjerking": 3703,
      "Ġkeys": 3704,
      "Ġshoved": 3705,
      "Ġdriver": 3706,
      "Ġdrawn": 3707,
      "Ġdecision": 3708,
      "sitive": 3709,
      "Ġresigned": 3710,
      "Ġpatients": 3711,
      "Ġdiamond": 3712,
      "Ġconsidered": 3713,
      "Ġstupid": 3714,
      "Ġwrapping": 3715,
      "Ġeasing": 3716,
      "Ġaware": 3717,
      "Ġnerves": 3718,
      "Ġdrop": 3719,
      "Ġpossessed": 3720,
      "Ġsingle": 3721,
      "Ġsque": 3722,
      "Ġsquir": 3723,
      "Ġtrail": 3724,
      "Ġimpress": 3725,
      "Ġimport": 3726,
      "Ġinsult": 3727,
      "Ġintern": 3728,
      "Ġerect": 3729,
      "Ġcharlie": 3730,
      "Ġfurther": 3731,
      "Ġstroked": 3732,
      "Ġstroking": 3733,
      "nothing": 3734,
      "Ġdouble": 3735,
      "Ġreasons": 3736,
      "Ġcompassion": 3737,
      "Ġwinced": 3738,
      "Ġcurled": 3739,
      "Ġcuriously": 3740,
      "Ġfalling": 3741,
      "Ġpromised": 3742,
      "zza": 3743,
      "Ġinches": 3744,
      "Ġhorri": 3745,
      "Ġremarked": 3746,
      "Ġboxes": 3747,
      "Ġmotioning": 3748,
      "Ġelevators": 3749,
      "Ġpinned": 3750,
      "Ġjeans": 3751,
      "Ġterr": 3752,
      "Ġmentioned": 3753,
      "Ġshuddering": 3754,
      "Ġpressing": 3755,
      "ringe": 3756,
      "Ġtensed": 3757,
      "Ġpunch": 3758,
      "god": 3759,
      "Ġsensitive": 3760,
      "Ġfreak": 3761,
      "Ġstrength": 3762,
      "Ġcrowded": 3763,
      "trace": 3764,
      "Ġcasual": 3765,
      "welve": 3766,
      "Ġgrandd": 3767,
      "Ġgrandfather": 3768,
      "Ġdisappo": 3769,
      "Ġdisappeared": 3770,
      "Ġphysician": 3771,
      "Ġapartment": 3772,
      "Ġcharts": 3773,
      "Ġsecret": 3774,
      "Ġsearch": 3775,
      "Ġordered": 3776,
      "Ġcolle": 3777,
      "Ġcovering": 3778,
      "Ġlistening": 3779,
      "Ġrelease": 3780,
      "Ġelbow": 3781,
      "Ġreminded": 3782,
      "Ġharsh": 3783,
      "Ġceiling": 3784,
      "Ġcelebr": 3785,
      "Ġstarving": 3786,
      "Ġtrembled": 3787,
      "Ġdeposit": 3788,
      "Ġappearance": 3789,
      "Ġsyringe": 3790,
      "Ġslept": 3791,
      "Ġhesitation": 3792,
      "Ġrelief": 3793,
      "Ġrelieved": 3794,
      "Ġforgotten": 3795,
      "Ġbulged": 3796,
      "Ġfaith": 3797,
      "Ġtemper": 3798,
      "Ġdelivery": 3799,
      "Ġresponsib": 3800,
      "Ġstirred": 3801,
      "ulously": 3802,
      "Ġmonitors": 3803,
      "holding": 3804,
      "sometimes": 3805,
      "Ġbuckled": 3806,
      "Ġfifteen": 3807,
      "Ġpizza": 3808,
      "Ġstruck": 3809,
      "Ġreassuring": 3810,
      "Ġremoved": 3811,
      "Ġnecessary": 3812,
      "Ġexchanged": 3813,
      "Ġtenderly": 3814,
      "Ġromantic": 3815,
      "arently": 3816,
      "Ġacknowledge": 3817,
      "grabbing": 3818,
      "patrick": 3819,
      "Ġtower": 3820,
      "Ġpooled": 3821,
      "Ġsuspiciously": 3822,
      "Ġclutched": 3823,
      "Ġrepeat": 3824,
      "Ġmoisture": 3825,
      "Ġmodels": 3826,
      "Ġfirmly": 3827,
      "Ġresults": 3828,
      "Ġpossibly": 3829,
      "closing": 3830,
      "priate": 3831,
      "Ġ172": 3832,
      "Ġheaved": 3833,
      "Ġdabbed": 3834,
      "Ġyoke": 3835,
      "Ġshouted": 3836,
      "charlie": 3837,
      "Ġmusic": 3838,
      "Ġsurmised": 3839,
      "Ġsnuggled": 3840,
      "Ġcollapsed": 3841,
      "considering": 3842,
      "Ġgeorgie": 3843,
      "Ġmortifying": 3844,
      "Ġoriginally": 3845,
      "Ġskept": 3846,
      "Ġcessna": 3847,
      "Ġgorgeous": 3848,
      "Ġinnocent": 3849,
      "Ġatlanta": 3850,
      "Ġsuddenly": 3851,
      "Ġextreme": 3852,
      "Ġexasperated": 3853,
      "Ġdefinitely": 3854,
      "Ġsurgery": 3855,
      "Ġunbuttoned": 3856,
      "Ġadrenaline": 3857,
      "Ġamusement": 3858,
      "Ġswollen": 3859,
      "Ġdeposited": 3860,
      "ave": 3861,
      "aft": 3862,
      "bc": 3863,
      "bring": 3864,
      "cr": 3865,
      "che": 3866,
      "could": 3867,
      "cum": 3868,
      "des": 3869,
      "down": 3870,
      "dra": 3871,
      "ection": 3872,
      "fer": 3873,
      "gr": 3874,
      "gment": 3875,
      "hy": 3876,
      "huh": 3877,
      "ially": 3878,
      "ived": 3879,
      "iple": 3880,
      "ixt": 3881,
      "ign": 3882,
      "ivers": 3883,
      "lv": 3884,
      "look": 3885,
      "mble": 3886,
      "mped": 3887,
      "ole": 3888,
      "off": 3889,
      "pac": 3890,
      "pir": 3891,
      "rusted": 3892,
      "sa": 3893,
      "sur": 3894,
      "sanjay": 3895,
      "tent": 3896,
      "tain": 3897,
      "test": 3898,
      "tling": 3899,
      "ub": 3900,
      "uc": 3901,
      "ume": 3902,
      "uce": 3903,
      "uence": 3904,
      "upted": 3905,
      "wo": 3906,
      "wy": 3907,
      "will": 3908,
      "wled": 3909,
      "xi": 3910,
      "ye": 3911,
      "yond": 3912,
      "year": 3913,
      "Ġround": 3914,
      "Ġts": 3915,
      "Ġtingle": 3916,
      "Ġtwelve": 3917,
      "Ġais": 3918,
      "Ġaching": 3919,
      "Ġalive": 3920,
      "inet": 3921,
      "inted": 3922,
      "Ġsed": 3923,
      "Ġwre": 3924,
      "Ġwound": 3925,
      "Ġwrist": 3926,
      "oung": 3927,
      "Ġhun": 3928,
      "Ġhig": 3929,
      "Ġhint": 3930,
      "Ġmain": 3931,
      "Ġmace": 3932,
      "Ġmach": 3933,
      "Ġmixt": 3934,
      "real": 3935,
      "Ġbas": 3936,
      "Ġbill": 3937,
      "Ġbast": 3938,
      "Ġbice": 3939,
      "Ġbang": 3940,
      "Ġowe": 3941,
      "Ġooh": 3942,
      "Ġir": 3943,
      "Ġimm": 3944,
      "anking": 3945,
      "Ġtor": 3946,
      "Ġtoy": 3947,
      "Ġtops": 3948,
      "Ġtodd": 3949,
      "Ġfid": 3950,
      "Ġfra": 3951,
      "Ġfren": 3952,
      "Ġfacing": 3953,
      "Ġfield": 3954,
      "Ġcot": 3955,
      "Ġcass": 3956,
      "Ġcateg": 3957,
      "erc": 3958,
      "erm": 3959,
      "erole": 3960,
      "aty": 3961,
      "Ġnause": 3962,
      "Ġnames": 3963,
      "Ġdue": 3964,
      "Ġdried": 3965,
      "Ġdumb": 3966,
      "Ġdying": 3967,
      "Ġdren": 3968,
      "Ġdamm": 3969,
      "Ġdirty": 3970,
      "astered": 3971,
      "Ġped": 3972,
      "Ġpot": 3973,
      "Ġpac": 3974,
      "Ġpissed": 3975,
      "Ġpicking": 3976,
      "Ġpiece": 3977,
      "Ġlack": 3978,
      "Ġlinked": 3979,
      "Ġloung": 3980,
      "Ġthong": 3981,
      "Ġthick": 3982,
      "Ġgard": 3983,
      "Ġgif": 3984,
      "Ġgem": 3985,
      "Ġgather": 3986,
      "itude": 3987,
      "enger": 3988,
      "encing": 3989,
      "Ġine": 3990,
      "Ġinh": 3991,
      "Ġinapp": 3992,
      "arse": 3993,
      "aration": 3994,
      "Ġegg": 3995,
      "Ġetern": 3996,
      "Ġbeast": 3997,
      "Ġbegged": 3998,
      "Ġbeading": 3999,
      "Ġbelly": 4000,
      "Ġbeyond": 4001,
      "vement": 4002,
      "stop": 4003,
      "otch": 4004,
      "ottle": 4005,
      "eting": 4006,
      "Ġsty": 4007,
      "Ġsting": 4008,
      "Ġstat": 4009,
      "Ġstal": 4010,
      "Ġstall": 4011,
      "Ġstem": 4012,
      "Ġstars": 4013,
      "Ġstamm": 4014,
      "Ġret": 4015,
      "Ġrever": 4016,
      "Ġkick": 4017,
      "rolling": 4018,
      "ropriate": 4019,
      "Ġweird": 4020,
      "utation": 4021,
      "Ġatc": 4022,
      "Ġath": 4023,
      "sex": 4024,
      "seat": 4025,
      "seven": 4026,
      "selves": 4027,
      "ghters": 4028,
      "Ġlives": 4029,
      "Ġshh": 4030,
      "Ġshame": 4031,
      "Ġshake": 4032,
      "Ġshaft": 4033,
      "irled": 4034,
      "alf": 4035,
      "ores": 4036,
      "ants": 4037,
      "rif": 4038,
      "ribut": 4039,
      "ppy": 4040,
      "ppled": 4041,
      "Ġjet": 4042,
      "Ġsoot": 4043,
      "today": 4044,
      "think": 4045,
      "through": 4046,
      "Ġnoises": 4047,
      "Ġknot": 4048,
      "making": 4049,
      "Ġbackseat": 4050,
      "Ġsafet": 4051,
      "Ġhanding": 4052,
      "Ġsuc": 4053,
      "Ġsult": 4054,
      "Ġsuff": 4055,
      "rage": 4056,
      "Ġcapac": 4057,
      "Ġfrank": 4058,
      "Ġfrantically": 4059,
      "liz": 4060,
      "Ġability": 4061,
      "Ġlikely": 4062,
      "ainted": 4063,
      "Ġtapped": 4064,
      "rying": 4065,
      "Ġsmiling": 4066,
      "Ġleague": 4067,
      "Ġsem": 4068,
      "Ġsean": 4069,
      "Ġseven": 4070,
      "Ġworn": 4071,
      "Ġworse": 4072,
      "Ġallow": 4073,
      "Ġalluring": 4074,
      "Ġalluding": 4075,
      "wels": 4076,
      "Ġalt": 4077,
      "Ġpump": 4078,
      "Ġpuzz": 4079,
      "Ġlock": 4080,
      "inkle": 4081,
      "quila": 4082,
      "quainted": 4083,
      "ledged": 4084,
      "Ġplat": 4085,
      "Ġplastered": 4086,
      "Ġanytime": 4087,
      "Ġtex": 4088,
      "Ġteam": 4089,
      "Ġtequila": 4090,
      "Ġspace": 4091,
      "Ġcheating": 4092,
      "Ġoffic": 4093,
      "Ġoffered": 4094,
      "Ġdef": 4095,
      "Ġdear": 4096,
      "Ġgaped": 4097,
      "Ġarjan": 4098,
      "ify": 4099,
      "Ġreputation": 4100,
      "Ġfla": 4101,
      "Ġfling": 4102,
      "Ġgrind": 4103,
      "Ġtwin": 4104,
      "Ġtwinkle": 4105,
      "Ġquir": 4106,
      "Ġways": 4107,
      "Ġris": 4108,
      "Ġrad": 4109,
      "Ġraced": 4110,
      "aths": 4111,
      "Ġblind": 4112,
      "Ġblame": 4113,
      "Ġblushed": 4114,
      "Ġblinked": 4115,
      "Ġhole": 4116,
      "Ġcozy": 4117,
      "Ġribc": 4118,
      "Ġrippled": 4119,
      "uses": 4120,
      "usually": 4121,
      "people": 4122,
      "gger": 4123,
      "ggered": 4124,
      "Ġpres": 4125,
      "Ġensure": 4126,
      "Ġwaking": 4127,
      "Ġruin": 4128,
      "Ġrush": 4129,
      "Ġrude": 4130,
      "Ġrushed": 4131,
      "Ġrushing": 4132,
      "Ġrumor": 4133,
      "Ġprop": 4134,
      "Ġpropped": 4135,
      "Ġprodu": 4136,
      "Ġmouths": 4137,
      "ument": 4138,
      "please": 4139,
      "Ġbecoming": 4140,
      "Ġscen": 4141,
      "Ġscent": 4142,
      "Ġscra": 4143,
      "Ġscree": 4144,
      "aping": 4145,
      "Ġyep": 4146,
      "Ġhappening": 4147,
      "olve": 4148,
      "olog": 4149,
      "Ġthankfully": 4150,
      "shirt": 4151,
      "shiane": 4152,
      "ending": 4153,
      "Ġcalls": 4154,
      "Ġgavel": 4155,
      "Ġunex": 4156,
      "Ġunivers": 4157,
      "rising": 4158,
      "Ġsort": 4159,
      "Ġaccess": 4160,
      "Ġpleased": 4161,
      "Ġpleading": 4162,
      "Ġpleaded": 4163,
      "Ġappet": 4164,
      "Ġintention": 4165,
      "Ġintently": 4166,
      "Ġintens": 4167,
      "Ġcontain": 4168,
      "anger": 4169,
      "Ġguided": 4170,
      "Ġstole": 4171,
      "Ġadored": 4172,
      "Ġtran": 4173,
      "ertility": 4174,
      "coll": 4175,
      "wardly": 4176,
      "iping": 4177,
      "Ġsurprising": 4178,
      "Ġsized": 4179,
      "Ġsweaty": 4180,
      "Ġpelv": 4181,
      "Ġsexy": 4182,
      "Ġsexually": 4183,
      "Ġnail": 4184,
      "Ġrain": 4185,
      "Ġraise": 4186,
      "Ġraging": 4187,
      "Ġshowing": 4188,
      "Ġhuge": 4189,
      "Ġstrange": 4190,
      "Ġstradd": 4191,
      "Ġcourt": 4192,
      "Ġsnort": 4193,
      "Ġdisg": 4194,
      "Ġdisplay": 4195,
      "Ġcrad": 4196,
      "Ġcranked": 4197,
      "Ġcrotch": 4198,
      "Ġsatisfied": 4199,
      "pected": 4200,
      "Ġsounded": 4201,
      "Ġoldest": 4202,
      "Ġspeaking": 4203,
      "Ġbuy": 4204,
      "Ġacting": 4205,
      "Ġbiting": 4206,
      "Ġdesired": 4207,
      "Ġperio": 4208,
      "Ġrunaway": 4209,
      "Ġpanted": 4210,
      "Ġserv": 4211,
      "Ġserved": 4212,
      "Ġhurting": 4213,
      "Ġattribut": 4214,
      "Ġjerk": 4215,
      "Ġplacement": 4216,
      "Ġkey": 4217,
      "Ġshopping": 4218,
      "Ġenter": 4219,
      "Ġdrag": 4220,
      "Ġdrape": 4221,
      "Ġchildhood": 4222,
      "Ġdecide": 4223,
      "Ġsilver": 4224,
      "Ġsilenced": 4225,
      "Ġresolve": 4226,
      "Ġdipping": 4227,
      "Ġdigging": 4228,
      "Ġdiaper": 4229,
      "idding": 4230,
      "Ġstung": 4231,
      "Ġnews": 4232,
      "Ġnewest": 4233,
      "Ġtucked": 4234,
      "Ġdressy": 4235,
      "Ġpursed": 4236,
      "Ġpained": 4237,
      "Ġpainful": 4238,
      "Ġbottles": 4239,
      "Ġtightened": 4240,
      "Ġtightening": 4241,
      "Ġwrap": 4242,
      "Ġcraz": 4243,
      "Ġgladly": 4244,
      "Ġwaistband": 4245,
      "Ġawak": 4246,
      "Ġawfully": 4247,
      "Ġawake": 4248,
      "Ġyoungest": 4249,
      "Ġhalfway": 4250,
      "Ġpointing": 4251,
      "Ġgroan": 4252,
      "Ġhurts": 4253,
      "Ġtrain": 4254,
      "Ġimpression": 4255,
      "Ġinsist": 4256,
      "Ġstraw": 4257,
      "Ġemotionally": 4258,
      "Ġcontinue": 4259,
      "Ġsetting": 4260,
      "Ġspoil": 4261,
      "Ġspoken": 4262,
      "apparently": 4263,
      "Ġboyfriend": 4264,
      "Ġeaten": 4265,
      "Ġpleasantly": 4266,
      "awy": 4267,
      "Ġcute": 4268,
      "Ġconfir": 4269,
      "Ġnervously": 4270,
      "Ġincre": 4271,
      "Ġincred": 4272,
      "Ġadmire": 4273,
      "iction": 4274,
      "Ġboxer": 4275,
      "does": 4276,
      "Ġpavement": 4277,
      "rupting": 4278,
      "Ġerupted": 4279,
      "ernity": 4280,
      "Ġjewel": 4281,
      "Ġjudgment": 4282,
      "Ġapprehens": 4283,
      "Ġexperiencing": 4284,
      "Ġaffection": 4285,
      "Ġcause": 4286,
      "Ġtotal": 4287,
      "Ġlesson": 4288,
      "Ġreturn": 4289,
      "Ġpunish": 4290,
      "Ġrelaxed": 4291,
      "everyone": 4292,
      "Ġhanging": 4293,
      "Ġthrusts": 4294,
      "trust": 4295,
      "Ġsongs": 4296,
      "Ġparis": 4297,
      "Ġlanded": 4298,
      "Ġphysically": 4299,
      "Ġstuffed": 4300,
      "ization": 4301,
      "osite": 4302,
      "Ġgrunt": 4303,
      "Ġwhirling": 4304,
      "Ġexcitem": 4305,
      "Ġsearching": 4306,
      "Ġclenching": 4307,
      "Ġlabor": 4308,
      "Ġlouder": 4309,
      "Ġstudent": 4310,
      "Ġstudied": 4311,
      "Ġcommon": 4312,
      "Ġfootball": 4313,
      "Ġobvious": 4314,
      "surely": 4315,
      "Ġbright": 4316,
      "Ġcorrupting": 4317,
      "Ġforkful": 4318,
      "Ġprepare": 4319,
      "Ġdrawer": 4320,
      "Ġhonorable": 4321,
      "Ġslip": 4322,
      "Ġdaughters": 4323,
      "Ġevent": 4324,
      "Ġencrusted": 4325,
      "Ġexplaining": 4326,
      "Ġslee": 4327,
      "Ġwildly": 4328,
      "Ġfascin": 4329,
      "Ġclasp": 4330,
      "Ġclasped": 4331,
      "Ġaccepted": 4332,
      "Ġsimple": 4333,
      "Ġwiped": 4334,
      "Ġpeek": 4335,
      "Ġstrip": 4336,
      "Ġstripped": 4337,
      "Ġsubject": 4338,
      "Ġcondition": 4339,
      "Ġstrangled": 4340,
      "Ġresponsible": 4341,
      "Ġaccidentally": 4342,
      "Ġembarrassing": 4343,
      "Ġembarrassment": 4344,
      "cloth": 4345,
      "Ġtentatively": 4346,
      "Ġflipped": 4347,
      "Ġfists": 4348,
      "Ġcandid": 4349,
      "Ġshiver": 4350,
      "Ġshivered": 4351,
      "Ġconnection": 4352,
      "Ġdefeated": 4353,
      "ificent": 4354,
      "Ġconsiderably": 4355,
      "Ġsensation": 4356,
      "Ġadding": 4357,
      "Ġfuss": 4358,
      "Ġdirection": 4359,
      "Ġlungs": 4360,
      "Ġlunged": 4361,
      "Ġbeginning": 4362,
      "Ġpulse": 4363,
      "Ġclouds": 4364,
      "Ġincluding": 4365,
      "knowing": 4366,
      "Ġtests": 4367,
      "Ġmcd": 4368,
      "Ġcousins": 4369,
      "Ġcircles": 4370,
      "Ġmember": 4371,
      "Ġhistory": 4372,
      "Ġresidents": 4373,
      "Ġoutfit": 4374,
      "Ġabandoned": 4375,
      "Ġabdomen": 4376,
      "Ġchicken": 4377,
      "Ġconsum": 4378,
      "Ġcontempl": 4379,
      "Ġexhausted": 4380,
      "Ġterrible": 4381,
      "Ġdetails": 4382,
      "Ġinfluence": 4383,
      "Ġoverwhelmed": 4384,
      "Ġmillion": 4385,
      "Ġmistake": 4386,
      "Ġdeny": 4387,
      "Ġpower": 4388,
      "Ġpaused": 4389,
      "seeing": 4390,
      "Ġannounced": 4391,
      "Ġsummation": 4392,
      "Ġissues": 4393,
      "Ġrocketed": 4394,
      "Ġconstantly": 4395,
      "Ġmultiple": 4396,
      "Ġblurted": 4397,
      "Ġpolitely": 4398,
      "Ġsigned": 4399,
      "Ġimposs": 4400,
      "Ġembrace": 4401,
      "Ġapologetic": 4402,
      "Ġanticip": 4403,
      "caroline": 4404,
      "Ġsmell": 4405,
      "Ġopposite": 4406,
      "Ġident": 4407,
      "Ġcooed": 4408,
      "Ġcenter": 4409,
      "Ġpoured": 4410,
      "Ġinformation": 4411,
      "Ġliquid": 4412,
      "Ġknuckles": 4413,
      "Ġsmirk": 4414,
      "Ġlocal": 4415,
      "Ġteenager": 4416,
      "Ġmagnificent": 4417,
      "Ġbodice": 4418,
      "Ġglittering": 4419,
      "Ġstrictly": 4420,
      "Ġsquealed": 4421,
      "Ġimportant": 4422,
      "Ġhorrified": 4423,
      "Ġskeptical": 4424,
      "surpris": 4425,
      "tentatively": 4426,
      "Ġaisle": 4427,
      "Ġhigher": 4428,
      "Ġmachine": 4429,
      "Ġmixture": 4430,
      "Ġbastard": 4431,
      "Ġbiceps": 4432,
      "Ġfidget": 4433,
      "Ġcotton": 4434,
      "Ġcasserole": 4435,
      "Ġdrenched": 4436,
      "Ġdammit": 4437,
      "Ġgarden": 4438,
      "Ġinappropriate": 4439,
      "Ġeternity": 4440,
      "Ġstammered": 4441,
      "Ġsafety": 4442,
      "Ġsultry": 4443,
      "Ġfrankly": 4444,
      "Ġribcage": 4445,
      "Ġunexpected": 4446,
      "Ġintentions": 4447,
      "Ġintensity": 4448,
      "Ġperiod": 4449,
      "Ġexcitement": 4450,
      "'s": 4451,
      "az": 4452,
      "ale": 4453,
      "aps": 4454,
      "ape": 4455,
      "azed": 4456,
      "bit": 4457,
      "back": 4458,
      "bag": 4459,
      "born": 4460,
      "cc": 4461,
      "can": 4462,
      "cle": 4463,
      "contro": 4464,
      "dri": 4465,
      "eled": 4466,
      "earing": 4467,
      "easing": 4468,
      "four": 4469,
      "found": 4470,
      "feeling": 4471,
      "function": 4472,
      "gi": 4473,
      "good": 4474,
      "ground": 4475,
      "give": 4476,
      "had": 4477,
      "hus": 4478,
      "hair": 4479,
      "half": 4480,
      "ias": 4481,
      "iest": 4482,
      "ipped": 4483,
      "iate": 4484,
      "ips": 4485,
      "iated": 4486,
      "kara": 4487,
      "lim": 4488,
      "luct": 4489,
      "laration": 4490,
      "mom": 4491,
      "mist": 4492,
      "made": 4493,
      "mary": 4494,
      "ooth": 4495,
      "pr": 4496,
      "pre": 4497,
      "ply": 4498,
      "pink": 4499,
      "pite": 4500,
      "rated": 4501,
      "sl": 4502,
      "sen": 4503,
      "six": 4504,
      "ti": 4505,
      "tu": 4506,
      "tra": 4507,
      "take": 4508,
      "talk": 4509,
      "uar": 4510,
      "ught": 4511,
      "uine": 4512,
      "unt": 4513,
      "uction": 4514,
      "vit": 4515,
      "val": 4516,
      "yn": 4517,
      "yes": 4518,
      "zzy": 4519,
      "Ġ7": 4520,
      "Ġrough": 4521,
      "hell": 4522,
      "Ġtan": 4523,
      "Ġtum": 4524,
      "Ġtough": 4525,
      "Ġtank": 4526,
      "Ġtumbled": 4527,
      "Ġah": 4528,
      "Ġaj": 4529,
      "Ġached": 4530,
      "Ġaff": 4531,
      "Ġauth": 4532,
      "Ġawards": 4533,
      "inal": 4534,
      "inion": 4535,
      "inct": 4536,
      "inum": 4537,
      "inwardly": 4538,
      "Ġsis": 4539,
      "Ġsac": 4540,
      "Ġsly": 4541,
      "Ġwis": 4542,
      "Ġwon": 4543,
      "Ġwad": 4544,
      "Ġwished": 4545,
      "Ġwiping": 4546,
      "Ġhem": 4547,
      "Ġhust": 4548,
      "Ġhous": 4549,
      "Ġhooking": 4550,
      "Ġhooded": 4551,
      "Ġhooked": 4552,
      "Ġmad": 4553,
      "Ġmic": 4554,
      "Ġmild": 4555,
      "Ġmix": 4556,
      "ref": 4557,
      "rell": 4558,
      "reshing": 4559,
      "reluct": 4560,
      "Ġbom": 4561,
      "Ġboo": 4562,
      "Ġbore": 4563,
      "Ġbank": 4564,
      "Ġbacked": 4565,
      "Ġbanging": 4566,
      "Ġow": 4567,
      "Ġobed": 4568,
      "Ġocc": 4569,
      "Ġtoes": 4570,
      "Ġtoys": 4571,
      "Ġfat": 4572,
      "Ġfee": 4573,
      "Ġfart": 4574,
      "Ġfully": 4575,
      "Ġfash": 4576,
      "Ġfancy": 4577,
      "Ġfumbled": 4578,
      "Ġcwe": 4579,
      "Ġcooking": 4580,
      "ery": 4581,
      "eral": 4582,
      "erally": 4583,
      "atur": 4584,
      "atic": 4585,
      "attered": 4586,
      "Ġnine": 4587,
      "Ġnud": 4588,
      "Ġniece": 4589,
      "Ġnatur": 4590,
      "Ġdart": 4591,
      "Ġdum": 4592,
      "Ġdys": 4593,
      "Ġdanger": 4594,
      "nded": 4595,
      "asion": 4596,
      "asive": 4597,
      "ison": 4598,
      "Ġpet": 4599,
      "Ġpout": 4600,
      "Ġpiss": 4601,
      "Ġpool": 4602,
      "Ġpadd": 4603,
      "Ġparent": 4604,
      "Ġpager": 4605,
      "Ġlad": 4606,
      "Ġloun": 4607,
      "Ġlawy": 4608,
      "especially": 4609,
      "Ġyard": 4610,
      "Ġthin": 4611,
      "Ġthous": 4612,
      "Ġgy": 4613,
      "Ġgain": 4614,
      "Ġgau": 4615,
      "itory": 4616,
      "only": 4617,
      "Ġinj": 4618,
      "Ġinn": 4619,
      "Ġinit": 4620,
      "Ġinde": 4621,
      "Ġinquis": 4622,
      "oring": 4623,
      "oric": 4624,
      "orting": 4625,
      "orized": 4626,
      "arled": 4627,
      "ario": 4628,
      "ades": 4629,
      "Ġbee": 4630,
      "Ġbear": 4631,
      "Ġbeck": 4632,
      "Ġbending": 4633,
      "omp": 4634,
      "omfort": 4635,
      "Ġwaste": 4636,
      "Ġhiss": 4637,
      "lem": 4638,
      "velo": 4639,
      "Ġones": 4640,
      "stem": 4641,
      "ote": 4642,
      "oted": 4643,
      "otive": 4644,
      "otten": 4645,
      "imm": 4646,
      "imbo": 4647,
      "acious": 4648,
      "across": 4649,
      "ety": 4650,
      "Ġstair": 4651,
      "Ġstairs": 4652,
      "Ġstumbled": 4653,
      "vering": 4654,
      "Ġrev": 4655,
      "Ġrece": 4656,
      "Ġreel": 4657,
      "Ġreading": 4658,
      "Ġrecent": 4659,
      "Ġreaching": 4660,
      "Ġretre": 4661,
      "Ġaspect": 4662,
      "Ġaspir": 4663,
      "lying": 4664,
      "Ġwithdra": 4665,
      "Ġkicking": 4666,
      "rog": 4667,
      "Ġfort": 4668,
      "Ġwhist": 4669,
      "Ġweight": 4670,
      "Ġweeping": 4671,
      "urance": 4672,
      "icit": 4673,
      "Ġliam": 4674,
      "Ġlived": 4675,
      "ential": 4676,
      "Ġshak": 4677,
      "Ġsharing": 4678,
      "Ġshining": 4679,
      "Ġshrie": 4680,
      "Ġshattered": 4681,
      "always": 4682,
      "hern": 4683,
      "antily": 4684,
      "Ġupon": 4685,
      "Ġupper": 4686,
      "Ġupcoming": 4687,
      "right": 4688,
      "rived": 4689,
      "terior": 4690,
      "Ġja": 4691,
      "Ġjag": 4692,
      "Ġneg": 4693,
      "top": 4694,
      "thr": 4695,
      "those": 4696,
      "Ġnope": 4697,
      "Ġknight": 4698,
      "make": 4699,
      "ilty": 4700,
      "Ġnoticing": 4701,
      "Ġbacking": 4702,
      "Ġsamo": 4703,
      "Ġoverd": 4704,
      "Ġovernight": 4705,
      "Ġsunday": 4706,
      "Ġintoxic": 4707,
      "rain": 4708,
      "Ġfrantic": 4709,
      "Ġfriction": 4710,
      "lia": 4711,
      "lifting": 4712,
      "ruly": 4713,
      "Ġtail": 4714,
      "Ġtaxi": 4715,
      "Ġtaught": 4716,
      "Ġroad": 4717,
      "Ġrode": 4718,
      "Ġrocking": 4719,
      "Ġroses": 4720,
      "Ġchanging": 4721,
      "Ġsmoot": 4722,
      "Ġsmooth": 4723,
      "Ġexit": 4724,
      "Ġleis": 4725,
      "Ġlease": 4726,
      "Ġleaning": 4727,
      "Ġemerg": 4728,
      "Ġsending": 4729,
      "Ġfeed": 4730,
      "Ġfears": 4731,
      "Ġfeeding": 4732,
      "Ġaltern": 4733,
      "aughter": 4734,
      "Ġpuff": 4735,
      "Ġpumped": 4736,
      "Ġpuppy": 4737,
      "Ġclad": 4738,
      "Ġclic": 4739,
      "Ġclass": 4740,
      "Ġclaw": 4741,
      "Ġclamped": 4742,
      "ammed": 4743,
      "Ġload": 4744,
      "Ġlover": 4745,
      "Ġloss": 4746,
      "Ġlobb": 4747,
      "Ġlosing": 4748,
      "Ġloaded": 4749,
      "Ġlodged": 4750,
      "illa": 4751,
      "ests": 4752,
      "Ġanybody": 4753,
      "Ġknowledge": 4754,
      "Ġteach": 4755,
      "Ġtearing": 4756,
      "Ġspun": 4757,
      "Ġspanking": 4758,
      "Ġcheated": 4759,
      "Ġchecked": 4760,
      "Ġchemist": 4761,
      "Ġoffend": 4762,
      "Ġoffering": 4763,
      "abl": 4764,
      "ables": 4765,
      "Ġdel": 4766,
      "istening": 4767,
      "Ġarr": 4768,
      "Ġthemselves": 4769,
      "ifier": 4770,
      "Ġmanners": 4771,
      "Ġrepres": 4772,
      "Ġflung": 4773,
      "Ġgrat": 4774,
      "Ġgras": 4775,
      "Ġgritted": 4776,
      "Ġgrowled": 4777,
      "Ġbye": 4778,
      "Ġtwice": 4779,
      "Ġtwirled": 4780,
      "Ġbobbing": 4781,
      "Ġride": 4782,
      "Ġridden": 4783,
      "Ġrotten": 4784,
      "ula": 4785,
      "ulner": 4786,
      "Ġbrick": 4787,
      "Ġbraced": 4788,
      "Ġglared": 4789,
      "Ġglazed": 4790,
      "Ġglistening": 4791,
      "Ġbliss": 4792,
      "Ġblushing": 4793,
      "Ġhoarse": 4794,
      "Ġcoy": 4795,
      "Ġcold": 4796,
      "Ġcoast": 4797,
      "Ġcode": 4798,
      "Ġslammed": 4799,
      "pels": 4800,
      "Ġwhoa": 4801,
      "Ġarmor": 4802,
      "herent": 4803,
      "Ġcommand": 4804,
      "dding": 4805,
      "Ġbree": 4806,
      "Ġmoan": 4807,
      "Ġmoves": 4808,
      "Ġmoans": 4809,
      "Ġmonday": 4810,
      "ggled": 4811,
      "ggie": 4812,
      "ggling": 4813,
      "Ġlovely": 4814,
      "Ġprecept": 4815,
      "Ġprevious": 4816,
      "Ġenvelo": 4817,
      "Ġhelping": 4818,
      "being": 4819,
      "belie": 4820,
      "becky": 4821,
      "ures": 4822,
      "Ġmouthed": 4823,
      "Ġproce": 4824,
      "Ġlongest": 4825,
      "Ġmakeup": 4826,
      "ressing": 4827,
      "bbles": 4828,
      "Ġscrat": 4829,
      "Ġscript": 4830,
      "Ġscantily": 4831,
      "Ġeverybody": 4832,
      "ieces": 4833,
      "fted": 4834,
      "Ġopinion": 4835,
      "apism": 4836,
      "Ġprick": 4837,
      "whirling": 4838,
      "olored": 4839,
      "Ġsurgeon": 4840,
      "getting": 4841,
      "getables": 4842,
      "shit": 4843,
      "shveta": 4844,
      "shield": 4845,
      "Ġvo": 4846,
      "Ġvulner": 4847,
      "Ġmargar": 4848,
      "Ġunless": 4849,
      "Ġunable": 4850,
      "Ġunlike": 4851,
      "Ġunsure": 4852,
      "Ġunzi": 4853,
      "Ġtells": 4854,
      "Ġacquainted": 4855,
      "assing": 4856,
      "owsily": 4857,
      "angie": 4858,
      "Ġguilty": 4859,
      "Ġstocking": 4860,
      "Ġadam": 4861,
      "Ġfoam": 4862,
      "ages": 4863,
      "Ġtrack": 4864,
      "Ġtrick": 4865,
      "Ġlasted": 4866,
      "unable": 4867,
      "Ġamused": 4868,
      "Ġswear": 4869,
      "Ġnails": 4870,
      "Ġraked": 4871,
      "Ġrage": 4872,
      "Ġgives": 4873,
      "Ġhugs": 4874,
      "Ġplays": 4875,
      "Ġplayer": 4876,
      "Ġminions": 4877,
      "orts": 4878,
      "Ġtongues": 4879,
      "onceived": 4880,
      "avior": 4881,
      "Ġdishes": 4882,
      "Ġpartying": 4883,
      "Ġpartners": 4884,
      "Ġbehavior": 4885,
      "Ġimages": 4886,
      "Ġimagining": 4887,
      "Ġdrank": 4888,
      "Ġdrowsily": 4889,
      "Ġmaternity": 4890,
      "Ġearth": 4891,
      "Ġearlier": 4892,
      "Ġgodparents": 4893,
      "Ġdesk": 4894,
      "Ġdescent": 4895,
      "Ġperce": 4896,
      "Ġperfection": 4897,
      "Ġwrath": 4898,
      "Ġwritten": 4899,
      "reamy": 4900,
      "Ġreality": 4901,
      "Ġrealization": 4902,
      "Ġswitched": 4903,
      "Ġburn": 4904,
      "Ġthrottle": 4905,
      "Ġattract": 4906,
      "Ġleaking": 4907,
      "Ġjoined": 4908,
      "Ġdevour": 4909,
      "Ġskirt": 4910,
      "Ġskimmed": 4911,
      "never": 4912,
      "next": 4913,
      "neither": 4914,
      "Ġshocked": 4915,
      "Ġhottest": 4916,
      "Ġentering": 4917,
      "Ġenthus": 4918,
      "Ġdriving": 4919,
      "Ġdraped": 4920,
      "Ġdrained": 4921,
      "Ġbeauty": 4922,
      "Ġanswering": 4923,
      "Ġchuckle": 4924,
      "Ġdecent": 4925,
      "Ġdeclaration": 4926,
      "mpled": 4927,
      "Ġdarkness": 4928,
      "Ġgrilled": 4929,
      "Ġchairs": 4930,
      "Ġhospitals": 4931,
      "john": 4932,
      "formed": 4933,
      "Ġtug": 4934,
      "Ġtux": 4935,
      "Ġtugging": 4936,
      "Ġdressing": 4937,
      "Ġpurs": 4938,
      "Ġeleven": 4939,
      "Ġrobes": 4940,
      "Ġtighter": 4941,
      "Ġtighten": 4942,
      "Ġcrawled": 4943,
      "Ġawa": 4944,
      "Ġlatest": 4945,
      "Ġsoftened": 4946,
      "Ġsoftness": 4947,
      "Ġargument": 4948,
      "Ġprotection": 4949,
      "Ġmrs": 4950,
      "Ġsinger": 4951,
      "Ġgroans": 4952,
      "Ġexamine": 4953,
      "Ġtrailed": 4954,
      "Ġinterrog": 4955,
      "Ġurging": 4956,
      "Ġstraps": 4957,
      "Ġwhispering": 4958,
      "Ġexpecting": 4959,
      "Ġpersonally": 4960,
      "standing": 4961,
      "Ġstrokes": 4962,
      "Ġspoiling": 4963,
      "Ġhopefully": 4964,
      "Ġdoug": 4965,
      "Ġlighten": 4966,
      "Ġcomplain": 4967,
      "Ġcomplim": 4968,
      "Ġcontrols": 4969,
      "Ġcurved": 4970,
      "Ġcurls": 4971,
      "fected": 4972,
      "Ġairbag": 4973,
      "Ġwallet": 4974,
      "lets": 4975,
      "Ġconfidence": 4976,
      "Ġsisters": 4977,
      "Ġremembered": 4978,
      "Ġangle": 4979,
      "Ġunderstandable": 4980,
      "dopted": 4981,
      "Ġmorris": 4982,
      "Ġpaid": 4983,
      "Ġpriapism": 4984,
      "Ġknocking": 4985,
      "Ġknobs": 4986,
      "bye": 4987,
      "Ġaubur": 4988,
      "Ġmenu": 4989,
      "Ġbrain": 4990,
      "Ġbrakes": 4991,
      "Ġdrumm": 4992,
      "Ġbusinessman": 4993,
      "Ġexperienced": 4994,
      "someone": 4995,
      "Ġlapels": 4996,
      "Ġrefle": 4997,
      "Ġrefined": 4998,
      "Ġrefused": 4999,
      "Ġrefreshing": 5000,
      "Ġdemanding": 5001,
      "maya": 5002,
      "Ġtermin": 5003,
      "Ġpassenger": 5004,
      "Ġformal": 5005,
      "Ġformally": 5006,
      "Ġswallowing": 5007,
      "Ġdoubted": 5008,
      "Ġankles": 5009,
      "Ġrelaxing": 5010,
      "fortun": 5011,
      "going": 5012,
      "Ġballroom": 5013,
      "Ġbrush": 5014,
      "Ġcroaked": 5015,
      "Ġsuggestion": 5016,
      "Ġglasses": 5017,
      "Ġmovement": 5018,
      "Ġthrusting": 5019,
      "Ġsqueeze": 5020,
      "truth": 5021,
      "Ġflex": 5022,
      "Ġengaged": 5023,
      "Ġdisappro": 5024,
      "Ġdistract": 5025,
      "Ġpounds": 5026,
      "Ġgrunts": 5027,
      "Ġundone": 5028,
      "Ġremaining": 5029,
      "Ġforgive": 5030,
      "Ġjuice": 5031,
      "Ġclench": 5032,
      "Ġcollaps": 5033,
      "Ġwindow": 5034,
      "Ġwindshield": 5035,
      "Ġdeterm": 5036,
      "Ġstudio": 5037,
      "Ġcorre": 5038,
      "Ġspotlight": 5039,
      "Ġpractice": 5040,
      "Ġdrunken": 5041,
      "ective": 5042,
      "Ġforever": 5043,
      "Ġfabulous": 5044,
      "Ġdrying": 5045,
      "Ġencoun": 5046,
      "Ġexplained": 5047,
      "Ġtrip": 5048,
      "Ġsystem": 5049,
      "Ġhesitantly": 5050,
      "Ġrecovered": 5051,
      "Ġanxious": 5052,
      "Ġclasping": 5053,
      "Ġconvin": 5054,
      "Ġconvul": 5055,
      "Ġchewing": 5056,
      "Ġflower": 5057,
      "Ġflowers": 5058,
      "berries": 5059,
      "haps": 5060,
      "word": 5061,
      "Ġvegetables": 5062,
      "Ġsimply": 5063,
      "Ġfailed": 5064,
      "Ġpeeked": 5065,
      "Ġpills": 5066,
      "Ġstaff": 5067,
      "Ġsubmiss": 5068,
      "Ġfrustration": 5069,
      "Ġselfish": 5070,
      "Ġtempt": 5071,
      "Ġdelivered": 5072,
      "Ġadoption": 5073,
      "Ġreluctant": 5074,
      "Ġengagements": 5075,
      "ocol": 5076,
      "Ġtenth": 5077,
      "Ġsadly": 5078,
      "Ġmischie": 5079,
      "Ġflip": 5080,
      "Ġcandle": 5081,
      "Ġsmacking": 5082,
      "Ġconnected": 5083,
      "Ġdefeat": 5084,
      "ification": 5085,
      "Ġprecise": 5086,
      "Ġpreconceived": 5087,
      "Ġresponding": 5088,
      "Ġsensual": 5089,
      "phant": 5090,
      "something": 5091,
      "Ġbounce": 5092,
      "Ġgenuine": 5093,
      "Ġwashcloth": 5094,
      "Ġnecessarily": 5095,
      "Ġpulsing": 5096,
      "Ġromance": 5097,
      "Ġinclined": 5098,
      "Ġjealousy": 5099,
      "Ġacknowledged": 5100,
      "Ġhealthy": 5101,
      "Ġmccoll": 5102,
      "Ġmask": 5103,
      "Ġcousin": 5104,
      "Ġdazed": 5105,
      "Ġpanic": 5106,
      "Ġpanicked": 5107,
      "Ġthreatened": 5108,
      "Ġmembers": 5109,
      "Ġhistoric": 5110,
      "Ġstorm": 5111,
      "Ġstorage": 5112,
      "Ġrecord": 5113,
      "Ġfrowned": 5114,
      "Ġabdominal": 5115,
      "Ġseedy": 5116,
      "Ġgrades": 5117,
      "Ġgraduation": 5118,
      "Ġrattled": 5119,
      "Ġrattling": 5120,
      "Ġblessings": 5121,
      "Ġcombination": 5122,
      "Ġcontempt": 5123,
      "Ġadjusted": 5124,
      "Ġterribly": 5125,
      "Ġdetail": 5126,
      "Ġechoed": 5127,
      "Ġoverwhelming": 5128,
      "Ġavoided": 5129,
      "Ġillicit": 5130,
      "Ġnuzzled": 5131,
      "Ġgleam": 5132,
      "Ġgleaming": 5133,
      "Ġgulped": 5134,
      "Ġbelonged": 5135,
      "immediately": 5136,
      "Ġrequest": 5137,
      "Ġchallenge": 5138,
      "Ġchallenged": 5139,
      "Ġmuscles": 5140,
      "Ġadorned": 5141,
      "Ġsniffled": 5142,
      "Ġnormally": 5143,
      "brush": 5144,
      "Ġtickets": 5145,
      "Ġsouthern": 5146,
      "Ġheights": 5147,
      "Ġhiccu": 5148,
      "Ġbump": 5149,
      "Ġbullshit": 5150,
      "Ġfrozen": 5151,
      "Ġfaltered": 5152,
      "Ġdanced": 5153,
      "Ġpansy": 5154,
      "Ġstretched": 5155,
      "Ġsuperv": 5156,
      "Ġcameras": 5157,
      "Ġfridge": 5158,
      "Ġchaste": 5159,
      "Ġsparkled": 5160,
      "Ġsurveyed": 5161,
      "Ġsurrounded": 5162,
      "Ġassistant": 5163,
      "Ġassumpt": 5164,
      "Ġexplode": 5165,
      "Ġtransfer": 5166,
      "Ġamerican": 5167,
      "Ġsnatched": 5168,
      "Ġdiscussing": 5169,
      "Ġimpressive": 5170,
      "Ġinterns": 5171,
      "Ġerectile": 5172,
      "Ġterritory": 5173,
      "Ġgranddaughter": 5174,
      "Ġdisappoint": 5175,
      "Ġcollege": 5176,
      "Ġresponsibility": 5177,
      "bringing": 5178,
      "Ġtsked": 5179,
      "Ġseduction": 5180,
      "Ġwreaths": 5181,
      "Ġbasically": 5182,
      "Ġtoddler": 5183,
      "Ġpotential": 5184,
      "Ġpacifier": 5185,
      "Ġlounging": 5186,
      "Ġgift": 5187,
      "Ġgems": 5188,
      "Ġinhaled": 5189,
      "Ġstyle": 5190,
      "Ġstalked": 5191,
      "Ġsuccess": 5192,
      "Ġcapacity": 5193,
      "Ġpuzzled": 5194,
      "Ġplatinum": 5195,
      "Ġofficial": 5196,
      "Ġflailed": 5197,
      "Ġquirked": 5198,
      "Ġradio": 5199,
      "Ġrumors": 5200,
      "Ġscenario": 5201,
      "Ġscrambled": 5202,
      "Ġuniversity": 5203,
      "Ġappetizing": 5204,
      "Ġpelvis": 5205,
      "Ġcourtroom": 5206,
      "Ġdisgust": 5207,
      "Ġdisplays": 5208,
      "Ġcradled": 5209,
      "Ġservice": 5210,
      "Ġattributes": 5211,
      "Ġawakened": 5212,
      "Ġjewelry": 5213,
      "Ġcandidate": 5214,
      "Ġmcdreamy": 5215,
      "Ġconsumm": 5216,
      "Ġimpossible": 5217,
      "Ġsmells": 5218,
      "Ġidentical": 5219,
      "control": 5220,
      "founded": 5221,
      "haired": 5222,
      "Ġauthorized": 5223,
      "Ġsacrif": 5224,
      "Ġhouses": 5225,
      "rella": 5226,
      "reluctantly": 5227,
      "Ġobedi": 5228,
      "Ġfeebly": 5229,
      "Ġfarther": 5230,
      "Ġfashion": 5231,
      "Ġcweam": 5232,
      "Ġnudged": 5233,
      "Ġdarted": 5234,
      "Ġdysfunction": 5235,
      "Ġpaddles": 5236,
      "Ġlounge": 5237,
      "Ġlawyers": 5238,
      "Ġthousand": 5239,
      "Ġstairwell": 5240,
      "Ġreeling": 5241,
      "Ġshrieked": 5242,
      "Ġjaguar": 5243,
      "Ġsamosa": 5244,
      "Ġsmoothed": 5245,
      "Ġemergency": 5246,
      "Ġlobby": 5247,
      "Ġchemistry": 5248,
      "Ġpreceptor": 5249,
      "Ġmargarit": 5250,
      "Ġunzipped": 5251,
      "Ġauburn": 5252,
      "Ġcollapsing": 5253,
      "Ġmischievous": 5254,
      "Ġmccollum": 5255,
      "'m": 5256,
      "60": 5257,
      "aj": 5258,
      "ama": 5259,
      "alet": 5260,
      "aos": 5261,
      "ails": 5262,
      "bre": 5263,
      "bor": 5264,
      "bid": 5265,
      "bet": 5266,
      "bri": 5267,
      "book": 5268,
      "bul": 5269,
      "bble": 5270,
      "bum": 5271,
      "buck": 5272,
      "bating": 5273,
      "bushed": 5274,
      "call": 5275,
      "cast": 5276,
      "cating": 5277,
      "colored": 5278,
      "din": 5279,
      "der": 5280,
      "dro": 5281,
      "dam": 5282,
      "davis": 5283,
      "diving": 5284,
      "eful": 5285,
      "ected": 5286,
      "fy": 5287,
      "fto": 5288,
      "fry": 5289,
      "fuck": 5290,
      "flow": 5291,
      "fitted": 5292,
      "fold": 5293,
      "fume": 5294,
      "gu": 5295,
      "gre": 5296,
      "ges": 5297,
      "gress": 5298,
      "gical": 5299,
      "gued": 5300,
      "hh": 5301,
      "hor": 5302,
      "ii": 5303,
      "ighed": 5304,
      "iag": 5305,
      "ience": 5306,
      "ibbling": 5307,
      "iety": 5308,
      "jer": 5309,
      "jected": 5310,
      "kno": 5311,
      "lit": 5312,
      "land": 5313,
      "lers": 5314,
      "luck": 5315,
      "law": 5316,
      "licking": 5317,
      "lored": 5318,
      "listed": 5319,
      "lines": 5320,
      "lterior": 5321,
      "mat": 5322,
      "men": 5323,
      "mro": 5324,
      "mest": 5325,
      "mous": 5326,
      "mure": 5327,
      "mia": 5328,
      "nch": 5329,
      "nched": 5330,
      "nel": 5331,
      "name": 5332,
      "nibbling": 5333,
      "ocks": 5334,
      "py": 5335,
      "pow": 5336,
      "pic": 5337,
      "pee": 5338,
      "part": 5339,
      "port": 5340,
      "pose": 5341,
      "pils": 5342,
      "ral": 5343,
      "ride": 5344,
      "ration": 5345,
      "raction": 5346,
      "rimp": 5347,
      "rational": 5348,
      "ser": 5349,
      "sat": 5350,
      "sara": 5351,
      "sized": 5352,
      "sitting": 5353,
      "sense": 5354,
      "sudd": 5355,
      "too": 5356,
      "tter": 5357,
      "tiqu": 5358,
      "two": 5359,
      "tti": 5360,
      "truly": 5361,
      "uv": 5362,
      "uro": 5363,
      "uous": 5364,
      "under": 5365,
      "uating": 5366,
      "uage": 5367,
      "vent": 5368,
      "vul": 5369,
      "vision": 5370,
      "win": 5371,
      "wing": 5372,
      "wat": 5373,
      "wis": 5374,
      "would": 5375,
      "wra": 5376,
      "west": 5377,
      "wide": 5378,
      "ware": 5379,
      "waving": 5380,
      "walk": 5381,
      "xim": 5382,
      "your": 5383,
      "ysts": 5384,
      "zard": 5385,
      "Ġ2": 5386,
      "Ġ3": 5387,
      "Ġ5": 5388,
      "Ġ6": 5389,
      "ĠĠ": 5390,
      "Ġver": 5391,
      "Ġest": 5392,
      "Ġven": 5393,
      "held": 5394,
      "heard": 5395,
      "hetti": 5396,
      "Ġtas": 5397,
      "Ġtall": 5398,
      "Ġtile": 5399,
      "Ġtang": 5400,
      "Ġtun": 5401,
      "Ġtied": 5402,
      "Ġties": 5403,
      "Ġtinged": 5404,
      "Ġarou": 5405,
      "Ġapt": 5406,
      "inut": 5407,
      "inched": 5408,
      "Ġsand": 5409,
      "Ġsill": 5410,
      "Ġsway": 5411,
      "Ġsour": 5412,
      "Ġsides": 5413,
      "Ġwinking": 5414,
      "Ġwings": 5415,
      "edily": 5416,
      "ouch": 5417,
      "oules": 5418,
      "ounted": 5419,
      "Ġheating": 5420,
      "Ġheaping": 5421,
      "Ġhom": 5422,
      "Ġhire": 5423,
      "Ġms": 5424,
      "Ġmau": 5425,
      "Ġmound": 5426,
      "Ġmirth": 5427,
      "Ġmerc": 5428,
      "Ġmotive": 5429,
      "remon": 5430,
      "Ġbou": 5431,
      "Ġbon": 5432,
      "Ġbust": 5433,
      "Ġbook": 5434,
      "Ġbared": 5435,
      "Ġbows": 5436,
      "Ġbud": 5437,
      "Ġbash": 5438,
      "Ġbanged": 5439,
      "Ġbumped": 5440,
      "Ġbio": 5441,
      "Ġbunch": 5442,
      "Ġbusted": 5443,
      "Ġbooked": 5444,
      "Ġbones": 5445,
      "Ġbird": 5446,
      "Ġboring": 5447,
      "Ġbimbo": 5448,
      "Ġoo": 5449,
      "Ġome": 5450,
      "Ġodd": 5451,
      "Ġovul": 5452,
      "anilla": 5453,
      "Ġtoss": 5454,
      "Ġtoile": 5455,
      "Ġtossed": 5456,
      "Ġtown": 5457,
      "Ġtooth": 5458,
      "Ġtowels": 5459,
      "Ġfi": 5460,
      "Ġfoo": 5461,
      "Ġfant": 5462,
      "Ġfri": 5463,
      "Ġfain": 5464,
      "Ġfled": 5465,
      "Ġfiled": 5466,
      "Ġfue": 5467,
      "Ġfig": 5468,
      "Ġfaced": 5469,
      "Ġfading": 5470,
      "Ġfake": 5471,
      "Ġfisted": 5472,
      "Ġfertility": 5473,
      "Ġct": 5474,
      "Ġcy": 5475,
      "Ġcust": 5476,
      "Ġcong": 5477,
      "Ġcast": 5478,
      "Ġcure": 5479,
      "Ġcrew": 5480,
      "Ġcush": 5481,
      "Ġcial": 5482,
      "erk": 5483,
      "ersed": 5484,
      "erald": 5485,
      "erial": 5486,
      "ats": 5487,
      "atable": 5488,
      "atory": 5489,
      "atern": 5490,
      "Ġherit": 5491,
      "Ġnut": 5492,
      "Ġnau": 5493,
      "Ġnast": 5494,
      "Ġnate": 5495,
      "Ġnick": 5496,
      "Ġnature": 5497,
      "Ġnamed": 5498,
      "Ġninet": 5499,
      "Ġdom": 5500,
      "Ġdim": 5501,
      "Ġdiss": 5502,
      "Ġdip": 5503,
      "Ġdash": 5504,
      "Ġditched": 5505,
      "Ġdoting": 5506,
      "ndo": 5507,
      "ndar": 5508,
      "aser": 5509,
      "ashes": 5510,
      "istered": 5511,
      "isions": 5512,
      "isfy": 5513,
      "Ġpent": 5514,
      "Ġprou": 5515,
      "Ġpile": 5516,
      "Ġpage": 5517,
      "Ġpaced": 5518,
      "Ġpaled": 5519,
      "Ġpacked": 5520,
      "Ġpacing": 5521,
      "Ġprying": 5522,
      "Ġpomp": 5523,
      "Ġlang": 5524,
      "Ġlun": 5525,
      "Ġlined": 5526,
      "Ġlaced": 5527,
      "Ġlane": 5528,
      "Ġlacy": 5529,
      "Ġlugg": 5530,
      "Ġlines": 5531,
      "Ġlub": 5532,
      "ester": 5533,
      "esus": 5534,
      "Ġyess": 5535,
      "Ġthru": 5536,
      "Ġthus": 5537,
      "Ġgest": 5538,
      "Ġgained": 5539,
      "ithed": 5540,
      "itive": 5541,
      "itingly": 5542,
      "eness": 5543,
      "ences": 5544,
      "oni": 5545,
      "ons": 5546,
      "ller": 5547,
      "llow": 5548,
      "llably": 5549,
      "Ġink": 5550,
      "Ġinher": 5551,
      "Ġinched": 5552,
      "Ġinfin": 5553,
      "Ġinput": 5554,
      "ork": 5555,
      "orous": 5556,
      "orched": 5557,
      "ority": 5558,
      "ories": 5559,
      "ording": 5560,
      "ormous": 5561,
      "arp": 5562,
      "aran": 5563,
      "arch": 5564,
      "arching": 5565,
      "arms": 5566,
      "arls": 5567,
      "Ġshell": 5568,
      "adas": 5569,
      "adow": 5570,
      "Ġeh": 5571,
      "Ġears": 5572,
      "Ġetiqu": 5573,
      "Ġeuro": 5574,
      "Ġbeg": 5575,
      "Ġbeaded": 5576,
      "omatic": 5577,
      "idated": 5578,
      "Ġmeat": 5579,
      "Ġmeas": 5580,
      "Ġmeal": 5581,
      "Ġmeth": 5582,
      "Ġmelted": 5583,
      "Ġmeggie": 5584,
      "leen": 5585,
      "lete": 5586,
      "leaving": 5587,
      "levision": 5588,
      "lendar": 5589,
      "velled": 5590,
      "Ġonboard": 5591,
      "stood": 5592,
      "otic": 5593,
      "ache": 5594,
      "Ġushe": 5595,
      "Ġumm": 5596,
      "Ġumb": 5597,
      "Ġulterior": 5598,
      "Ġutter": 5599,
      "ithouse": 5600,
      "aying": 5601,
      "etic": 5602,
      "ette": 5603,
      "Ġstain": 5604,
      "Ġstard": 5605,
      "Ġstuck": 5606,
      "Ġstream": 5607,
      "Ġsticking": 5608,
      "Ġstern": 5609,
      "Ġreve": 5610,
      "Ġreact": 5611,
      "Ġreapp": 5612,
      "Ġretr": 5613,
      "Ġitch": 5614,
      "Ġitching": 5615,
      "outfitted": 5616,
      "Ġdog": 5617,
      "Ġdope": 5618,
      "Ġdodged": 5619,
      "Ġkur": 5620,
      "Ġkink": 5621,
      "Ġkather": 5622,
      "Ġkitten": 5623,
      "Ġwhoo": 5624,
      "Ġweather": 5625,
      "Ġwealth": 5626,
      "Ġweighed": 5627,
      "urt": 5628,
      "ury": 5629,
      "urry": 5630,
      "urred": 5631,
      "urbs": 5632,
      "uriated": 5633,
      "Ġham": 5634,
      "Ġhawa": 5635,
      "sean": 5636,
      "icy": 5637,
      "iculously": 5638,
      "icures": 5639,
      "ghty": 5640,
      "keys": 5641,
      "Ġliz": 5642,
      "Ġlilt": 5643,
      "Ġlifet": 5644,
      "Ġlifting": 5645,
      "Ġlibid": 5646,
      "entory": 5647,
      "Ġshall": 5648,
      "Ġshri": 5649,
      "Ġshitt": 5650,
      "Ġshowed": 5651,
      "Ġshits": 5652,
      "Ġshield": 5653,
      "Ġshimm": 5654,
      "Ġshrimp": 5655,
      "Ġsharp": 5656,
      "Ġshadow": 5657,
      "Ġshithouse": 5658,
      "irting": 5659,
      "almost": 5660,
      "already": 5661,
      "alize": 5662,
      "aluation": 5663,
      "Ġupward": 5664,
      "Ġuptur": 5665,
      "Ġupsc": 5666,
      "Ġanal": 5667,
      "rigued": 5668,
      "tery": 5669,
      "Ġjun": 5670,
      "Ġjets": 5671,
      "Ġjoules": 5672,
      "Ġjesus": 5673,
      "Ġgoss": 5674,
      "Ġsol": 5675,
      "Ġsoak": 5676,
      "Ġsoaped": 5677,
      "Ġsoaked": 5678,
      "Ġsocks": 5679,
      "Ġnect": 5680,
      "Ġneare": 5681,
      "Ġneigh": 5682,
      "ustion": 5683,
      "Ġouts": 5684,
      "Ġoutrage": 5685,
      "Ġoutright": 5686,
      "chal": 5687,
      "chil": 5688,
      "chair": 5689,
      "ackled": 5690,
      "toes": 5691,
      "thm": 5692,
      "thinking": 5693,
      "Ġnodding": 5694,
      "celer": 5695,
      "male": 5696,
      "mama": 5697,
      "mage": 5698,
      "ilar": 5699,
      "ilot": 5700,
      "iless": 5701,
      "ilure": 5702,
      "Ġnotice": 5703,
      "Ġnotions": 5704,
      "Ġwhatso": 5705,
      "Ġsake": 5706,
      "Ġsaving": 5707,
      "Ġsauce": 5708,
      "Ġsampled": 5709,
      "Ġoverl": 5710,
      "Ġoverste": 5711,
      "Ġoverlo": 5712,
      "Ġoverpow": 5713,
      "Ġoverride": 5714,
      "Ġoverheard": 5715,
      "arting": 5716,
      "artment": 5717,
      "Ġhandled": 5718,
      "Ġsuits": 5719,
      "Ġsugar": 5720,
      "raking": 5721,
      "raising": 5722,
      "Ġheadrest": 5723,
      "Ġheadlines": 5724,
      "Ġisland": 5725,
      "Ġbutt": 5726,
      "Ġbutter": 5727,
      "Ġcafe": 5728,
      "Ġcalendar": 5729,
      "Ġfru": 5730,
      "Ġfratern": 5731,
      "Ġaback": 5732,
      "Ġabus": 5733,
      "Ġabrupt": 5734,
      "rubbing": 5735,
      "Ġtakes": 5736,
      "Ġtamest": 5737,
      "cture": 5738,
      "Ġroared": 5739,
      "Ġrocked": 5740,
      "Ġchoo": 5741,
      "Ġchang": 5742,
      "Ġchrist": 5743,
      "Ġchip": 5744,
      "Ġchattering": 5745,
      "Ġchocol": 5746,
      "Ġchaos": 5747,
      "Ġexcess": 5748,
      "Ġexited": 5749,
      "Ġexquis": 5750,
      "Ġexerc": 5751,
      "Ġextra": 5752,
      "Ġleap": 5753,
      "Ġleather": 5754,
      "Ġlefto": 5755,
      "Ġlewis": 5756,
      "Ġemerald": 5757,
      "Ġsevent": 5758,
      "ckered": 5759,
      "ckets": 5760,
      "Ġfeared": 5761,
      "Ġfemale": 5762,
      "Ġseeking": 5763,
      "Ġalbum": 5764,
      "Ġpure": 5765,
      "Ġpupils": 5766,
      "Ġpuckered": 5767,
      "Ġclicked": 5768,
      "Ġclapped": 5769,
      "Ġclattering": 5770,
      "Ġclerk": 5771,
      "Ġlobe": 5772,
      "Ġplain": 5773,
      "Ġplenty": 5774,
      "Ġplush": 5775,
      "Ġplacing": 5776,
      "Ġplaz": 5777,
      "Ġtea": 5778,
      "Ġtend": 5779,
      "Ġteary": 5780,
      "Ġtelevision": 5781,
      "Ġconce": 5782,
      "Ġconqu": 5783,
      "Ġconso": 5784,
      "Ġconsc": 5785,
      "Ġconcuss": 5786,
      "Ġconception": 5787,
      "Ġspat": 5788,
      "Ġspare": 5789,
      "Ġspite": 5790,
      "Ġspag": 5791,
      "Ġspleen": 5792,
      "ability": 5793,
      "Ġdeme": 5794,
      "Ġdeple": 5795,
      "Ġdemure": 5796,
      "istration": 5797,
      "Ġart": 5798,
      "astic": 5799,
      "astated": 5800,
      "Ġorgan": 5801,
      "ified": 5802,
      "ifully": 5803,
      "Ġmaze": 5804,
      "Ġmaga": 5805,
      "atever": 5806,
      "Ġmanage": 5807,
      "Ġmanhood": 5808,
      "Ġflashing": 5809,
      "Ġflinched": 5810,
      "Ġflashes": 5811,
      "Ġflurry": 5812,
      "Ġflirting": 5813,
      "Ġgrits": 5814,
      "Ġhowled": 5815,
      "Ġhowever": 5816,
      "Ġgoodnight": 5817,
      "Ġgoodness": 5818,
      "Ġtwisted": 5819,
      "Ġquit": 5820,
      "ptic": 5821,
      "Ġbond": 5822,
      "Ġboard": 5823,
      "Ġboss": 5824,
      "Ġboys": 5825,
      "Ġrit": 5826,
      "Ġrow": 5827,
      "Ġrand": 5828,
      "Ġrich": 5829,
      "Ġrise": 5830,
      "Ġrational": 5831,
      "Ġrhy": 5832,
      "Ġridding": 5833,
      "athy": 5834,
      "athon": 5835,
      "feated": 5836,
      "ulations": 5837,
      "Ġturbul": 5838,
      "Ġbrown": 5839,
      "Ġnowhere": 5840,
      "Ġglo": 5841,
      "Ġglow": 5842,
      "Ġglimp": 5843,
      "Ġblank": 5844,
      "Ġblush": 5845,
      "Ġblades": 5846,
      "Ġhost": 5847,
      "Ġholy": 5848,
      "Ġhoist": 5849,
      "Ġhoisted": 5850,
      "Ġhoping": 5851,
      "Ġhovering": 5852,
      "Ġsurely": 5853,
      "ounding": 5854,
      "Ġcoke": 5855,
      "Ġcovers": 5856,
      "Ġcoherent": 5857,
      "Ġcolored": 5858,
      "ickered": 5859,
      "Ġripped": 5860,
      "Ġslick": 5861,
      "Ġslap": 5862,
      "Ġslowing": 5863,
      "Ġslapped": 5864,
      "Ġslapping": 5865,
      "Ġcomment": 5866,
      "Ġcomfor": 5867,
      "Ġcomments": 5868,
      "dder": 5869,
      "Ġtakeoff": 5870,
      "Ġmod": 5871,
      "Ġmoon": 5872,
      "Ġmock": 5873,
      "Ġpresc": 5874,
      "Ġenvious": 5875,
      "Ġenerg": 5876,
      "Ġenormous": 5877,
      "Ġenchil": 5878,
      "Ġwagged": 5879,
      "Ġwavered": 5880,
      "Ġwavy": 5881,
      "Ġbeds": 5882,
      "Ġbedside": 5883,
      "Ġpost": 5884,
      "Ġpoked": 5885,
      "Ġpoking": 5886,
      "Ġpopping": 5887,
      "Ġpockets": 5888,
      "Ġdoorkno": 5889,
      "ission": 5890,
      "Ġrupt": 5891,
      "Ġrung": 5892,
      "Ġrules": 5893,
      "Ġruff": 5894,
      "Ġrueful": 5895,
      "Ġrudder": 5896,
      "Ġknelt": 5897,
      "uendo": 5898,
      "urely": 5899,
      "Ġproced": 5900,
      "Ġafterwards": 5901,
      "Ġharden": 5902,
      "Ġhardness": 5903,
      "Ġthroughout": 5904,
      "ump": 5905,
      "umphant": 5906,
      "anced": 5907,
      "bbly": 5908,
      "Ġclock": 5909,
      "Ġscared": 5910,
      "Ġscary": 5911,
      "Ġscoot": 5912,
      "Ġscorched": 5913,
      "Ġeverywhere": 5914,
      "apers": 5915,
      "Ġprince": 5916,
      "Ġpricked": 5917,
      "whatever": 5918,
      "dying": 5919,
      "Ġhappier": 5920,
      "Ġcarl": 5921,
      "Ġcaring": 5922,
      "Ġcarrying": 5923,
      "sho": 5924,
      "shot": 5925,
      "shine": 5926,
      "Ġstilled": 5927,
      "Ġvir": 5928,
      "Ġvowed": 5929,
      "Ġvib": 5930,
      "Ġvision": 5931,
      "Ġvalet": 5932,
      "Ġvanilla": 5933,
      "Ġmarathon": 5934,
      "Ġfingered": 5935,
      "Ġfingert": 5936,
      "Ġfingern": 5937,
      "Ġunh": 5938,
      "Ġunmo": 5939,
      "Ġunste": 5940,
      "Ġunlo": 5941,
      "Ġunbl": 5942,
      "Ġunwant": 5943,
      "Ġunthink": 5944,
      "Ġunknowing": 5945,
      "Ġkisser": 5946,
      "defeated": 5947,
      "aks": 5948,
      "akes": 5949,
      "Ġhairs": 5950,
      "Ġsorority": 5951,
      "Ġacceler": 5952,
      "Ġwoke": 5953,
      "Ġwoken": 5954,
      "Ġwobbled": 5955,
      "Ġwobbly": 5956,
      "Ġmeaning": 5957,
      "Ġassured": 5958,
      "Ġassault": 5959,
      "Ġassigned": 5960,
      "Ġassume": 5961,
      "Ġnightstand": 5962,
      "Ġapple": 5963,
      "Ġintric": 5964,
      "Ġintended": 5965,
      "Ġintending": 5966,
      "Ġintrigued": 5967,
      "Ġcontent": 5968,
      "Ġcontained": 5969,
      "xteen": 5970,
      "Ġgun": 5971,
      "Ġguests": 5972,
      "Ġstoked": 5973,
      "Ġstopping": 5974,
      "Ġexpand": 5975,
      "Ġbabysit": 5976,
      "Ġhearty": 5977,
      "aging": 5978,
      "again": 5979,
      "agues": 5980,
      "Ġtrash": 5981,
      "Ġunderstood": 5982,
      "Ġplanet": 5983,
      "Ġfamous": 5984,
      "Ġbreathtaking": 5985,
      "moon": 5986,
      "Ġameth": 5987,
      "Ġambushed": 5988,
      "Ġamorous": 5989,
      "ipate": 5990,
      "Ġsurprises": 5991,
      "Ġsurprisingly": 5992,
      "Ġsixteen": 5993,
      "Ġsincerely": 5994,
      "Ġmurder": 5995,
      "Ġpea": 5996,
      "Ġpearls": 5997,
      "Ġnavy": 5998,
      "Ġrav": 5999,
      "Ġraining": 6000,
      "Ġrapid": 6001,
      "Ġramro": 6002,
      "Ġsidewalk": 6003,
      "Ġcareful": 6004,
      "Ġcaressed": 6005,
      "mbling": 6006,
      "steps": 6007,
      "Ġminor": 6008,
      "Ġsteal": 6009,
      "Ġstring": 6010,
      "Ġsne": 6011,
      "Ġsnake": 6012,
      "Ġsnores": 6013,
      "Ġsnorting": 6014,
      "Ġsnarled": 6015,
      "Ġsnickered": 6016,
      "Ġdish": 6017,
      "Ġdisin": 6018,
      "Ġdisbelie": 6019,
      "Ġpharm": 6020,
      "Ġpartied": 6021,
      "Ġparties": 6022,
      "Ġpartake": 6023,
      "Ġimage": 6024,
      "Ġcraned": 6025,
      "Ġcrashed": 6026,
      "Ġcringed": 6027,
      "Ġbehave": 6028,
      "Ġtalents": 6029,
      "Ġtalented": 6030,
      "Ġsatisfy": 6031,
      "ressions": 6032,
      "Ġtruck": 6033,
      "Ġdrinking": 6034,
      "pective": 6035,
      "Ġsoundly": 6036,
      "Ġcups": 6037,
      "Ġcudd": 6038,
      "Ġclearing": 6039,
      "Ġspect": 6040,
      "Ġspeeding": 6041,
      "Ġspecul": 6042,
      "Ġwarning": 6043,
      "Ġmatch": 6044,
      "Ġmaterial": 6045,
      "Ġbuz": 6046,
      "Ġbucked": 6047,
      "Ġbuying": 6048,
      "Ġbuzz": 6049,
      "Ġearned": 6050,
      "Ġearshot": 6051,
      "Ġfloored": 6052,
      "Ġdeepen": 6053,
      "Ġsweetest": 6054,
      "Ġacted": 6055,
      "Ġbites": 6056,
      "Ġdesign": 6057,
      "Ġdespite": 6058,
      "Ġperman": 6059,
      "Ġperhaps": 6060,
      "Ġperfume": 6061,
      "Ġwonderment": 6062,
      "Ġwrithed": 6063,
      "Ġmonster": 6064,
      "Ġrestless": 6065,
      "Ġswi": 6066,
      "Ġswig": 6067,
      "Ġsworn": 6068,
      "Ġswamped": 6069,
      "Ġswirling": 6070,
      "Ġseries": 6071,
      "Ġwider": 6072,
      "Ġhurry": 6073,
      "Ġbury": 6074,
      "Ġattack": 6075,
      "Ġattending": 6076,
      "Ġalongside": 6077,
      "iseptic": 6078,
      "Ġends": 6079,
      "Ġending": 6080,
      "Ġendured": 6081,
      "Ġbelieving": 6082,
      "Ġbelieved": 6083,
      "Ġjoked": 6084,
      "Ġjolt": 6085,
      "Ġjocks": 6086,
      "Ġjolted": 6087,
      "Ġdevotion": 6088,
      "Ġdevoted": 6089,
      "lessly": 6090,
      "Ġskipped": 6091,
      "Ġfriendly": 6092,
      "Ġnibbling": 6093,
      "Ġnibbles": 6094,
      "Ġshooting": 6095,
      "Ġbestowing": 6096,
      "Ġbusied": 6097,
      "Ġbushy": 6098,
      "Ġentertain": 6099,
      "Ġfarm": 6100,
      "Ġdriven": 6101,
      "Ġdripping": 6102,
      "Ġdrizz": 6103,
      "Ġdrifted": 6104,
      "Ġanswers": 6105,
      "Ġdeciding": 6106,
      "Ġguessing": 6107,
      "Ġdarkened": 6108,
      "Ġgripping": 6109,
      "Ġreserv": 6110,
      "umbling": 6111,
      "Ġpatiently": 6112,
      "Ġsleepy": 6113,
      "rences": 6114,
      "ankle": 6115,
      "Ġdiving": 6116,
      "Ġdizzy": 6117,
      "Ġdiapers": 6118,
      "idded": 6119,
      "Ġstudying": 6120,
      "Ġstandard": 6121,
      "Ġnewborn": 6122,
      "Ġpurpose": 6123,
      "Ġelement": 6124,
      "Ġsupply": 6125,
      "love": 6126,
      "lock": 6127,
      "restling": 6128,
      "Ġcrazed": 6129,
      "Ġperspective": 6130,
      "Ġnerve": 6131,
      "Ġdroo": 6132,
      "Ġdrove": 6133,
      "Ġlatter": 6134,
      "Ġlatched": 6135,
      "Ġarguing": 6136,
      "Ġhonored": 6137,
      "Ġclosest": 6138,
      "Ġtouches": 6139,
      "Ġsingular": 6140,
      "Ġsitter": 6141,
      "Ġgroin": 6142,
      "Ġexamined": 6143,
      "Ġtrait": 6144,
      "Ġtrapped": 6145,
      "Ġtravelled": 6146,
      "Ġsights": 6147,
      "Ġsightseeing": 6148,
      "Ġimpact": 6149,
      "Ġimpressed": 6150,
      "Ġinsin": 6151,
      "Ġinsurance": 6152,
      "Ġinterior": 6153,
      "Ġstrap": 6154,
      "Ġcharm": 6155,
      "Ġcharging": 6156,
      "Ġmatters": 6157,
      "Ġpersonnel": 6158,
      "Ġsettle": 6159,
      "Ġspoon": 6160,
      "Ġspooning": 6161,
      "Ġwarming": 6162,
      "Ġwarmly": 6163,
      "cupping": 6164,
      "Ġwetter": 6165,
      "Ġlightly": 6166,
      "Ġcompany": 6167,
      "Ġcompartment": 6168,
      "Ġcompressions": 6169,
      "Ġcontrolled": 6170,
      "Ġcontrolling": 6171,
      "rict": 6172,
      "ricity": 6173,
      "Ġwinning": 6174,
      "Ġhitched": 6175,
      "Ġcursing": 6176,
      "Ġclothing": 6177,
      "awned": 6178,
      "Ġairport": 6179,
      "Ġfallen": 6180,
      "Ġfilling": 6181,
      "Ġconfron": 6182,
      "Ġcomplex": 6183,
      "Ġpromises": 6184,
      "zzically": 6185,
      "Ġincon": 6186,
      "Ġregister": 6187,
      "Ġregular": 6188,
      "Ġregistration": 6189,
      "Ġadmin": 6190,
      "Ġadmon": 6191,
      "Ġadmission": 6192,
      "Ġhormon": 6193,
      "Ġstomp": 6194,
      "Ġcockhead": 6195,
      "Ġscreams": 6196,
      "Ġpale": 6197,
      "Ġknock": 6198,
      "Ġeyebr": 6199,
      "Ġbrake": 6200,
      "Ġobli": 6201,
      "Ġcatering": 6202,
      "Ġcatching": 6203,
      "Ġdrummed": 6204,
      "Ġpinch": 6205,
      "Ġpinching": 6206,
      "Ġthirteen": 6207,
      "Ġgreatest": 6208,
      "Ġinvitingly": 6209,
      "Ġinventory": 6210,
      "Ġwelcoming": 6211,
      "Ġjewels": 6212,
      "Ġchecks": 6213,
      "Ġgiggle": 6214,
      "Ġwheels": 6215,
      "Ġwheelchair": 6216,
      "somewhere": 6217,
      "Ġaffect": 6218,
      "Ġlazy": 6219,
      "Ġrefer": 6220,
      "Ġrefuses": 6221,
      "Ġrefrain": 6222,
      "Ġexhaling": 6223,
      "Ġreduce": 6224,
      "boy": 6225,
      "Ġterry": 6226,
      "Ġtasted": 6227,
      "Ġtasting": 6228,
      "Ġmessing": 6229,
      "Ġmessage": 6230,
      "Ġmessages": 6231,
      "Ġformula": 6232,
      "Ġconversations": 6233,
      "Ġdealt": 6234,
      "Ġdealing": 6235,
      "Ġcleaning": 6236,
      "Ġescal": 6237,
      "Ġescort": 6238,
      "Ġescorted": 6239,
      "Ġescaping": 6240,
      "Ġescape": 6241,
      "Ġtensing": 6242,
      "Ġinstinct": 6243,
      "Ġreturning": 6244,
      "Ġquizzically": 6245,
      "Ġaccording": 6246,
      "Ġrelaxation": 6247,
      "Ġsenses": 6248,
      "Ġhangers": 6249,
      "Ġhangover": 6250,
      "Ġbrushing": 6251,
      "Ġfreed": 6252,
      "Ġfreaked": 6253,
      "Ġcroo": 6254,
      "Ġduh": 6255,
      "Ġliterally": 6256,
      "Ġstreaked": 6257,
      "Ġsuggest": 6258,
      "Ġclimax": 6259,
      "Ġuncles": 6260,
      "Ġuncontro": 6261,
      "Ġuncomfort": 6262,
      "Ġintroductions": 6263,
      "Ġappreciates": 6264,
      "lowering": 6265,
      "Ġeduc": 6266,
      "Ġwedged": 6267,
      "Ġfleeting": 6268,
      "Ġcasc": 6269,
      "Ġparked": 6270,
      "Ġparamed": 6271,
      "Ġshyly": 6272,
      "Ġshyness": 6273,
      "thanks": 6274,
      "Ġgrandmother": 6275,
      "Ġgrandparents": 6276,
      "Ġengine": 6277,
      "Ġsigns": 6278,
      "Ġsignature": 6279,
      "Ġstronger": 6280,
      "Ġdisappear": 6281,
      "Ġhonesty": 6282,
      "hole": 6283,
      "izes": 6284,
      "rowave": 6285,
      "hearted": 6286,
      "Ġtypes": 6287,
      "Ġcornflow": 6288,
      "Ġdistrict": 6289,
      "Ġpounded": 6290,
      "Ġpapers": 6291,
      "Ġgrunted": 6292,
      "Ġundo": 6293,
      "Ġundid": 6294,
      "Ġundress": 6295,
      "Ġjulia": 6296,
      "Ġexcuses": 6297,
      "Ġdeaths": 6298,
      "Ġorders": 6299,
      "Ġevenings": 6300,
      "Ġhungwy": 6301,
      "cons": 6302,
      "Ġbirthday": 6303,
      "Ġlabia": 6304,
      "Ġlabeled": 6305,
      "Ġlistened": 6306,
      "Ġthrilling": 6307,
      "Ġinfertility": 6308,
      "Ġinfuriated": 6309,
      "Ġstudies": 6310,
      "Ġpositive": 6311,
      "Ġpositions": 6312,
      "Ġwalker": 6313,
      "Ġelbowed": 6314,
      "Ġclearly": 6315,
      "Ġclearance": 6316,
      "Ġreminding": 6317,
      "Ġhusbands": 6318,
      "Ġbaptismal": 6319,
      "Ġsalon": 6320,
      "Ġsalute": 6321,
      "Ġharm": 6322,
      "Ġharassed": 6323,
      "Ġceremon": 6324,
      "Ġuseful": 6325,
      "Ġkilled": 6326,
      "Ġtablo": 6327,
      "Ġspotted": 6328,
      "Ġmovies": 6329,
      "Ġinstructions": 6330,
      "Ġquieter": 6331,
      "Ġquietly": 6332,
      "Ġtremble": 6333,
      "Ġtrembling": 6334,
      "Ġtiptoes": 6335,
      "Ġdryer": 6336,
      "itorial": 6337,
      "Ġevident": 6338,
      "Ġevaluation": 6339,
      "Ġweakness": 6340,
      "Ġanti": 6341,
      "Ġantiqu": 6342,
      "Ġantiseptic": 6343,
      "Ġlovingly": 6344,
      "Ġdepth": 6345,
      "Ġdeprived": 6346,
      "Ġencirc": 6347,
      "Ġwillingly": 6348,
      "Ġtriple": 6349,
      "Ġtriggered": 6350,
      "Ġtriumphant": 6351,
      "Ġmassaged": 6352,
      "anything": 6353,
      "Ġdreams": 6354,
      "Ġanxiety": 6355,
      "Ġjawline": 6356,
      "Ġconvince": 6357,
      "Ġconvention": 6358,
      "Ġarrive": 6359,
      "Ġarrival": 6360,
      "Ġflattered": 6361,
      "Ġacceptance": 6362,
      "Ġdesperate": 6363,
      "Ġbursting": 6364,
      "Ġpointedly": 6365,
      "Ġpersonality": 6366,
      "Ġregretted": 6367,
      "Ġregretfully": 6368,
      "Ġprivy": 6369,
      "Ġprivacy": 6370,
      "earlier": 6371,
      "hausted": 6372,
      "hazard": 6373,
      "Ġvein": 6374,
      "Ġsimilar": 6375,
      "Ġwipe": 6376,
      "Ġwives": 6377,
      "Ġbothering": 6378,
      "Ġbulge": 6379,
      "Ġbulging": 6380,
      "Ġfailure": 6381,
      "Ġcumming": 6382,
      "Ġnarrowing": 6383,
      "Ġpillow": 6384,
      "Ġpillows": 6385,
      "Ġstaggered": 6386,
      "Ġstalem": 6387,
      "Ġsuburbs": 6388,
      "Ġagreem": 6389,
      "ammatory": 6390,
      "Ġsplashed": 6391,
      "Ġscrunched": 6392,
      "Ġmarks": 6393,
      "Ġadopted": 6394,
      "Ġstranger": 6395,
      "Ġstrangle": 6396,
      "Ġdeserved": 6397,
      "Ġperforming": 6398,
      "Ġskyline": 6399,
      "Ġskydiving": 6400,
      "Ġshifts": 6401,
      "Ġconcerns": 6402,
      "Ġapologized": 6403,
      "overcome": 6404,
      "whether": 6405,
      "edings": 6406,
      "Ġhoneymoon": 6407,
      "Ġbarg": 6408,
      "Ġbarked": 6409,
      "Ġbasement": 6410,
      "Ġimmediate": 6411,
      "Ġflipping": 6412,
      "Ġcarted": 6413,
      "Ġpaying": 6414,
      "Ġgender": 6415,
      "Ġcolors": 6416,
      "Ġprecious": 6417,
      "Ġpopular": 6418,
      "Ġintimidated": 6419,
      "Ġsilky": 6420,
      "Ġconsideration": 6421,
      "Ġresponded": 6422,
      "Ġprofessionalism": 6423,
      "Ġbuckle": 6424,
      "Ġbounced": 6425,
      "Ġbouncy": 6426,
      "Ġfucking": 6427,
      "Ġnonsense": 6428,
      "Ġnonchal": 6429,
      "Ġdirect": 6430,
      "Ġpigeon": 6431,
      "Ġlingering": 6432,
      "Ġgeneral": 6433,
      "Ġgenetic": 6434,
      "Ġwashboard": 6435,
      "Ġremove": 6436,
      "Ġlively": 6437,
      "Ġsunlight": 6438,
      "Ġsunshine": 6439,
      "Ġexchanging": 6440,
      "black": 6441,
      "exhausted": 6442,
      "izingly": 6443,
      "known": 6444,
      "ratulations": 6445,
      "Ġmaster": 6446,
      "Ġbigger": 6447,
      "Ġbiolog": 6448,
      "Ġblew": 6449,
      "Ġbleeding": 6450,
      "Ġbounds": 6451,
      "Ġbounding": 6452,
      "Ġcreased": 6453,
      "Ġcreeping": 6454,
      "Ġcircle": 6455,
      "Ġdaily": 6456,
      "Ġdamage": 6457,
      "Ġpooling": 6458,
      "Ġparkman": 6459,
      "Ġthreatening": 6460,
      "Ġresident": 6461,
      "Ġgolden": 6462,
      "Ġoutfits": 6463,
      "Ġsuspicion": 6464,
      "Ġabandon": 6465,
      "Ġconsult": 6466,
      "Ġrepeated": 6467,
      "Ġblessing": 6468,
      "Ġscrewed": 6469,
      "Ġscrewing": 6470,
      "Ġthoughtfulness": 6471,
      "Ġapproached": 6472,
      "Ġpossibilities": 6473,
      "Ġexhaustion": 6474,
      "Ġfreshman": 6475,
      "Ġechoing": 6476,
      "ronic": 6477,
      "wait": 6478,
      "Ġavoiding": 6479,
      "Ġmistakes": 6480,
      "Ġfanned": 6481,
      "Ġnuzzle": 6482,
      "Ġdenied": 6483,
      "Ġpaul": 6484,
      "Ġgulp": 6485,
      "Ġrequested": 6486,
      "rieved": 6487,
      "Ġissue": 6488,
      "Ġcabinet": 6489,
      "Ġfluff": 6490,
      "Ġmuscled": 6491,
      "Ġblurry": 6492,
      "Ġpolite": 6493,
      "Ġadoration": 6494,
      "Ġadults": 6495,
      "Ġcounting": 6496,
      "aguely": 6497,
      "Ġsigning": 6498,
      "Ġgirlfriends": 6499,
      "Ġdecorations": 6500,
      "Ġelectricity": 6501,
      "Ġelectronic": 6502,
      "Ġimposing": 6503,
      "Ġembraced": 6504,
      "Ġapologetically": 6505,
      "Ġnormal": 6506,
      "Ġantics": 6507,
      "Ġcondoms": 6508,
      "Ġfamiliarity": 6509,
      "brushing": 6510,
      "poster": 6511,
      "putting": 6512,
      "Ġtreatment": 6513,
      "Ġsouth": 6514,
      "Ġhyped": 6515,
      "Ġhickeys": 6516,
      "Ġmiles": 6517,
      "Ġbathed": 6518,
      "Ġivf": 6519,
      "Ġignored": 6520,
      "Ġdamned": 6521,
      "Ġpalms": 6522,
      "Ġpierced": 6523,
      "Ġpiercing": 6524,
      "Ġstretching": 6525,
      "Ġrehears": 6526,
      "Ġresearch": 6527,
      "Ġcaptured": 6528,
      "Ġcamera": 6529,
      "Ġfriday": 6530,
      "Ġchoked": 6531,
      "Ġchoices": 6532,
      "Ġchastised": 6533,
      "Ġemplo": 6534,
      "Ġempathy": 6535,
      "Ġagony": 6536,
      "Ġagonizingly": 6537,
      "Ġclaimed": 6538,
      "Ġsprinted": 6539,
      "Ġsparkling": 6540,
      "Ġridiculously": 6541,
      "Ġbloom": 6542,
      "Ġscanned": 6543,
      "Ġassuming": 6544,
      "Ġfolded": 6545,
      "Ġfolder": 6546,
      "Ġamerica": 6547,
      "Ġdiscounted": 6548,
      "Ġdiscussion": 6549,
      "Ġbitchy": 6550,
      "Ġdiamonds": 6551,
      "Ġsquirmed": 6552,
      "Ġinsulted": 6553,
      "Ġinsulting": 6554,
      "Ġcompassionate": 6555,
      "Ġterritorial": 6556,
      "Ġgranddad": 6557,
      "Ġdisappointed": 6558,
      "Ġsecrets": 6559,
      "Ġcolleagues": 6560,
      "Ġcelebrating": 6561,
      "Ġtemperature": 6562,
      "Ġresponsibilities": 6563,
      "Ġreassuringly": 6564,
      "Ġextremely": 6565,
      "Ġexasperatedly": 6566,
      "downstairs": 6567,
      "looks": 6568,
      "taining": 6569,
      "yeah": 6570,
      "Ġhunched": 6571,
      "realizing": 6572,
      "Ġirrational": 6573,
      "Ġimmersed": 6574,
      "Ġtorn": 6575,
      "Ġframe": 6576,
      "Ġfrench": 6577,
      "Ġcategory": 6578,
      "Ġnauseous": 6579,
      "Ġdumbfounded": 6580,
      "Ġgathering": 6581,
      "Ġinevit": 6582,
      "Ġinebri": 6583,
      "Ġeggs": 6584,
      "Ġeggpl": 6585,
      "Ġstatus": 6586,
      "Ġstemmed": 6587,
      "Ġretrieved": 6588,
      "Ġathlet": 6589,
      "Ġathlete": 6590,
      "sexual": 6591,
      "Ġsoothe": 6592,
      "Ġsoothed": 6593,
      "Ġsuffer": 6594,
      "Ġsemi": 6595,
      "Ġaltar": 6596,
      "Ġaltitude": 6597,
      "Ġpumping": 6598,
      "Ġtexting": 6599,
      "Ġtexted": 6600,
      "Ġdefense": 6601,
      "Ġgrinding": 6602,
      "Ġrisk": 6603,
      "Ġpresent": 6604,
      "Ġproposed": 6605,
      "Ġproducing": 6606,
      "Ġscreech": 6607,
      "Ġscreeching": 6608,
      "ology": 6609,
      "Ġcontainer": 6610,
      "Ġtranqu": 6611,
      "Ġtransp": 6612,
      "Ġstraddled": 6613,
      "Ġcraziness": 6614,
      "Ġcrazier": 6615,
      "Ġstrawberries": 6616,
      "Ġconfirm": 6617,
      "Ġincreased": 6618,
      "Ġincredulously": 6619,
      "Ġapprehension": 6620,
      "Ġapprehensive": 6621,
      "Ġeventually": 6622,
      "Ġsleeve": 6623,
      "Ġfascinated": 6624,
      "Ġfascinating": 6625,
      "Ġfussy": 6626,
      "Ġcontemplating": 6627,
      "Ġcontemplative": 6628,
      "surprise": 6629,
      "surprisingly": 6630,
      "Ġunexpectedly": 6631,
      "clearing": 6632,
      "given": 6633,
      "iasm": 6634,
      "mommy": 6635,
      "sliding": 6636,
      "sensing": 6637,
      "tugging": 6638,
      "Ġroughly": 6639,
      "Ġtummy": 6640,
      "Ġaffair": 6641,
      "Ġmadness": 6642,
      "Ġmicrowave": 6643,
      "refusing": 6644,
      "Ġbomb": 6645,
      "Ġnatural": 6646,
      "Ġdangerous": 6647,
      "Ġladies": 6648,
      "Ġyards": 6649,
      "Ġgauze": 6650,
      "Ġinjury": 6651,
      "Ġinnuendo": 6652,
      "Ġinitially": 6653,
      "Ġindex": 6654,
      "Ġinquisitive": 6655,
      "Ġbeeped": 6656,
      "Ġbeckoning": 6657,
      "Ġretreating": 6658,
      "Ġaspirated": 6659,
      "Ġwithdrawn": 6660,
      "Ġfortun": 6661,
      "Ġwhistle": 6662,
      "Ġshaky": 6663,
      "Ġnegative": 6664,
      "Ġoverdue": 6665,
      "Ġleisurely": 6666,
      "Ġalternating": 6667,
      "Ġcliche": 6668,
      "Ġclawed": 6669,
      "ablished": 6670,
      "Ġdelayed": 6671,
      "Ġarrange": 6672,
      "Ġrepresent": 6673,
      "Ġgratification": 6674,
      "Ġcommanded": 6675,
      "Ġbreezed": 6676,
      "Ġenvelopes": 6677,
      "Ġproceedings": 6678,
      "Ġscratch": 6679,
      "Ġvoices": 6680,
      "Ġvulnerability": 6681,
      "Ġstockings": 6682,
      "Ġtracks": 6683,
      "Ġperceive": 6684,
      "Ġenthusiasm": 6685,
      "Ġpursue": 6686,
      "Ġawaiting": 6687,
      "Ġinterrogator": 6688,
      "Ġcompliments": 6689,
      "Ġdrummer": 6690,
      "Ġreflection": 6691,
      "Ġterminology": 6692,
      "fortunately": 6693,
      "Ġflexed": 6694,
      "Ġdisapproving": 6695,
      "Ġdetermined": 6696,
      "Ġcorrect": 6697,
      "Ġencounter": 6698,
      "Ġconvincing": 6699,
      "Ġsubmissive": 6700,
      "Ġprecisely": 6701,
      "Ġhiccupped": 6702,
      "Ġassumptions": 6703,
      "Ġdisappointment": 6704,
      "Ġconsummating": 6705,
      "Ġsacrificed": 6706,
      "Ġobediently": 6707,
      "Ġmargarita": 6708,
      "borhood": 6709,
      "between": 6710,
      "dinner": 6711,
      "damn": 6712,
      "jerking": 6713,
      "peeking": 6714,
      "satisfied": 6715,
      "suddenly": 6716,
      "water": 6717,
      "Ġestablished": 6718,
      "Ġtangle": 6719,
      "inutive": 6720,
      "Ġsilly": 6721,
      "Ġswayed": 6722,
      "Ġmauling": 6723,
      "Ġmirthless": 6724,
      "Ġmerciless": 6725,
      "Ġbashful": 6726,
      "Ġbiohazard": 6727,
      "Ġbirds": 6728,
      "Ġovulating": 6729,
      "Ġtoilet": 6730,
      "Ġtoothbrush": 6731,
      "Ġfooled": 6732,
      "Ġfrilly": 6733,
      "Ġfigure": 6734,
      "Ġcustom": 6735,
      "Ġcongratulations": 6736,
      "Ġcastle": 6737,
      "Ġcialis": 6738,
      "Ġnuts": 6739,
      "Ġnaughty": 6740,
      "Ġnickname": 6741,
      "Ġdiminutive": 6742,
      "Ġdissipate": 6743,
      "Ġproud": 6744,
      "Ġlanguage": 6745,
      "Ġluggage": 6746,
      "Ġlubric": 6747,
      "Ġyessss": 6748,
      "Ġgesture": 6749,
      "Ġinherited": 6750,
      "Ġinfinite": 6751,
      "Ġetiquette": 6752,
      "Ġushered": 6753,
      "Ġumbrella": 6754,
      "Ġstardom": 6755,
      "Ġstreamed": 6756,
      "Ġreacted": 6757,
      "Ġretraction": 6758,
      "Ġdopey": 6759,
      "Ġkurta": 6760,
      "Ġkinky": 6761,
      "Ġkatherine": 6762,
      "Ġwealthy": 6763,
      "Ġhawaii": 6764,
      "Ġlifetime": 6765,
      "Ġlibido": 6766,
      "Ġshriek": 6767,
      "Ġshitty": 6768,
      "Ġshimmered": 6769,
      "Ġupturned": 6770,
      "Ġupscale": 6771,
      "Ġgossip": 6772,
      "Ġnectar": 6773,
      "Ġneighborhood": 6774,
      "Ġwhatsoever": 6775,
      "Ġoverload": 6776,
      "Ġfraternal": 6777,
      "Ġabusive": 6778,
      "Ġabruptly": 6779,
      "Ġchanges": 6780,
      "Ġchocolate": 6781,
      "Ġexercises": 6782,
      "Ġleftover": 6783,
      "Ġseventeen": 6784,
      "Ġplaza": 6785,
      "Ġconsole": 6786,
      "Ġconscious": 6787,
      "Ġconcussion": 6788,
      "Ġspaghetti": 6789,
      "Ġdepleting": 6790,
      "Ġmagaz": 6791,
      "Ġrhythm": 6792,
      "Ġturbulence": 6793,
      "Ġglimpse": 6794,
      "Ġblanket": 6795,
      "Ġcomforting": 6796,
      "Ġenergy": 6797,
      "Ġenchiladas": 6798,
      "Ġdoorknob": 6799,
      "Ġruffled": 6800,
      "Ġprocedure": 6801,
      "Ġscooted": 6802,
      "Ġfingernails": 6803,
      "Ġunmoving": 6804,
      "Ġunsteady": 6805,
      "Ġunblinking": 6806,
      "Ġunwanted": 6807,
      "Ġunthinkable": 6808,
      "Ġunknowingly": 6809,
      "Ġintricate": 6810,
      "Ġamethysts": 6811,
      "Ġrapidly": 6812,
      "Ġramrod": 6813,
      "Ġdisbelief": 6814,
      "Ġpharmacy": 6815,
      "Ġspeculation": 6816,
      "Ġdesigns": 6817,
      "Ġpermanent": 6818,
      "Ġcompartmentalize": 6819,
      "Ġconfronted": 6820,
      "Ġhormones": 6821,
      "Ġeyebrows": 6822,
      "Ġuncontrollably": 6823,
      "Ġparamedic": 6824,
      "Ġcornflower": 6825,
      "Ġceremony": 6826,
      "Ġencircled": 6827,
      "Ġstalemate": 6828,
      "Ġbiological": 6829,
      "Ġinevitable": 6830,
      "Ġinebriated": 6831,
      "Ġmercilessly": 6832
    },
    "merges": [
      "h e",
      "Ġ t",
      "Ġ a",
      "i n",
      "Ġ s",
      "Ġ w",
      "e d",
      "Ġ '",
      "o u",
      "Ġ he",
      "Ġ ,",
      "Ġ h",
      "Ġ m",
      "Ġt he",
      "r e",
      "Ġ b",
      "in g",
      "Ġ o",
      "Ġ i",
      "a n",
      "Ġt o",
      "Ġ f",
      "Ġ' '",
      "Ġ c",
      "e r",
      "a t",
      "Ġhe r",
      "Ġ n",
      "Ġ d",
      "n d",
      "a s",
      "i s",
      "Ġ p",
      "Ġ l",
      "e s",
      "Ġ y",
      "Ġt h",
      "Ġ g",
      "i t",
      "e n",
      "Ġy ou",
      "o n",
      "l l",
      "Ġ in",
      "Ġa nd",
      "o r",
      "a r",
      "Ġs he",
      "a d",
      "Ġo f",
      "Ġ e",
      "Ġb e",
      "o w",
      "o m",
      "i d",
      "Ġm e",
      "Ġw as",
      "Ġh is",
      "l e",
      "v e",
      "Ġo n",
      "s t",
      "o t",
      "i m",
      "l d",
      "' t",
      "a c",
      "g h",
      "Ġth at",
      "Ġ u",
      "Ġ ?",
      "it h",
      "a y",
      "e t",
      "Ġs t",
      "v er",
      "Ġ re",
      "Ġa s",
      "Ġi t",
      "ou t",
      "g an",
      "l y",
      "Ġw ith",
      "Ġd o",
      "Ġ k",
      "ou ld",
      "r o",
      "s he",
      "Ġf or",
      "Ġw h",
      "Ġw e",
      "es h",
      "u t",
      "Ġa t",
      "Ġh im",
      "u r",
      "Ġh a",
      "s e",
      "Ġm y",
      "o o",
      "i c",
      "gh t",
      "k e",
      "Ġl i",
      "Ġh ad",
      "en t",
      "Ġs h",
      "i r",
      "k ed",
      "e e",
      "a l",
      "he r",
      "an d",
      "i on",
      "a ll",
      "o re",
      "he n",
      "an t",
      "Ġme gan",
      "m e",
      "Ġu p",
      "Ġa n",
      "r i",
      "p p",
      "t er",
      "Ġ j",
      "Ġp esh",
      "Ġg o",
      "Ġs o",
      "Ġn e",
      "u st",
      "Ġ out",
      "r ou",
      "c h",
      "ac k",
      "t o",
      "t h",
      "ow n",
      "Ġha ve",
      "Ġn o",
      "Ġk n",
      "c e",
      "k ing",
      "om e",
      "m a",
      "i l",
      "Ġd id",
      "Ġn ot",
      "Ġc ould",
      "Ġwh at",
      "Ġw ant",
      "Ġb ack",
      "Ġs a",
      "Ġo ver",
      "ar t",
      "Ġh and",
      "Ġs u",
      "Ġin to",
      "r a",
      "Ġhe ad",
      "Ġi s",
      "all y",
      "Ġd own",
      "Ġb ut",
      "Ġc a",
      "Ġf r",
      "l i",
      "Ġa b",
      "r u",
      "Ġli ke",
      "he d",
      "f ore",
      "a in",
      "Ġt a",
      "Ġj ust",
      "s ed",
      "c t",
      "Ġ ro",
      "Ġe y",
      "Ġc h",
      "r y",
      "Ġbe fore",
      "Ġs m",
      "Ġw ould",
      "oo d",
      "on e",
      "Ġe x",
      "i ght",
      "Ġl e",
      "es s",
      "Ġe m",
      "Ġt im",
      "Ġs e",
      "Ġw or",
      "Ġa ll",
      "Ġw hen",
      "me gan",
      "Ġg et",
      "c k",
      "Ġf e",
      "id an",
      "Ġyou r",
      "Ġs ee",
      "w e",
      "Ġa l",
      "ar d",
      "in e",
      "Ġfr om",
      "a u",
      "Ġa g",
      "Ġp u",
      "* *",
      "Ġc l",
      "Ġon e",
      "Ġwe re",
      "t he",
      "Ġey es",
      "a m",
      "h ing",
      "Ġl o",
      "Ġto o",
      "Ġtim e",
      "p esh",
      "in k",
      "oo k",
      "s s",
      "Ġab out",
      "i ll",
      "n ed",
      "q u",
      "Ġthe y",
      "f ter",
      "w hen",
      "ac e",
      "rou nd",
      "in d",
      "es t",
      "l ed",
      "on g",
      "i le",
      "Ġth is",
      "Ġp l",
      "Ġan y",
      "id e",
      "Ġkn ow",
      "Ġt e",
      "l f",
      "Ġc on",
      "Ġs p",
      "Ġc he",
      "Ġbe en",
      "Ġsa id",
      "ver y",
      "as on",
      "Ġof f",
      "a b",
      "Ġthe n",
      "Ġa round",
      "Ġgo ing",
      "pp ed",
      "Ġag ain",
      "Ġi f",
      "w ay",
      "Ġd e",
      "is t",
      "Ġg a",
      "g e",
      "Ġa r",
      "Ġa re",
      "Ġs ome",
      "Ġthe m",
      "as t",
      "Ġo r",
      "Ġth an",
      "it t",
      "i f",
      "l t",
      "ou r",
      "Ġa idan",
      "Ġthe re",
      "Ġm a",
      "at e",
      "a h",
      "n t",
      "Ġm ore",
      "er s",
      "Ġm an",
      "Ġre p",
      "v ing",
      "ou s",
      "Ġem ma",
      "se lf",
      "Ġf l",
      "Ġg r",
      "v en",
      "ad e",
      "Ġm u",
      "Ġth ink",
      "Ġh ow",
      "Ġg ood",
      "Ġb y",
      "Ġt w",
      "ot her",
      "Ġ qu",
      "Ġas ked",
      "ee l",
      "p t",
      "Ġf eel",
      "i ve",
      "Ġm ason",
      "Ġw ay",
      "p s",
      "Ġst art",
      "as e",
      "Ġb o",
      "li ed",
      "Ġ r",
      "at h",
      "Ġrep lied",
      "f e",
      "u l",
      "at ion",
      "Ġt ur",
      "Ġb r",
      "Ġn ow",
      "Ġth ou",
      "Ġne ed",
      "Ġg l",
      "Ġl itt",
      "Ġlitt le",
      "Ġb l",
      "Ġh o",
      "Ġsu re",
      "ou nd",
      "Ġc o",
      "ic k",
      "Ġro om",
      "Ġ ri",
      "Ġs l",
      "en ed",
      "Ġre ally",
      "u s",
      "Ġg ot",
      "il ed",
      "p e",
      "Ġwh o",
      "Ġne ver",
      "Ġar m",
      "he re",
      "n g",
      "Ġc om",
      "th ing",
      "d d",
      "Ġb re",
      "Ġta ke",
      "Ġm o",
      "nd er",
      "om et",
      "Ġsh ould",
      "Ġhand s",
      "b le",
      "Ġy es",
      "Ġmu ch",
      "g g",
      "t ing",
      "Ġbe t",
      "Ġca me",
      "Ġlo ve",
      "Ġp re",
      "Ġ en",
      "ac t",
      "p er",
      "t her",
      "Ġw a",
      "Ġe ven",
      "Ġtoo k",
      "a fter",
      "Ġs omet",
      "Ġri ght",
      "Ġm om",
      "Ġb ed",
      "Ġc an",
      "Ġp o",
      "Ġdo or",
      "l p",
      "is s",
      "ar ed",
      "Ġwant ed",
      "Ġtw o",
      "Ġ ru",
      "Ġf ace",
      "Ġl ook",
      "a re",
      "Ġhe lp",
      "Ġkn e",
      "Ġsm iled",
      "b e",
      "u e",
      "u re",
      "Ġm out",
      "Ġl et",
      "Ġstart ed",
      "ic e",
      "ri ed",
      "rou gh",
      "h is",
      "w ith",
      "Ġp ro",
      "Ġl ong",
      "Ġth ing",
      "Ġmout h",
      "ll ed",
      "Ġu s",
      "k ay",
      "Ġf in",
      "Ġtur ned",
      "Ġsomet hing",
      "v ed",
      "Ġa fter",
      "Ġo ther",
      "Ġh ard",
      "Ġth rough",
      "Ġsm ile",
      "Ġma ke",
      "i ly",
      "u m",
      "re ss",
      "an c",
      "b b",
      "p le",
      "y ou",
      "Ġf ir",
      "Ġno ah",
      "Ġfe lt",
      "Ġs ay",
      "Ġbe c",
      "Ġm ade",
      "Ġo kay",
      "Ġd ay",
      "Ġl au",
      "Ġon ly",
      "Ġcl o",
      "Ġs c",
      "Ġhe re",
      "Ġe very",
      "Ġagain st",
      "i e",
      "ee p",
      "Ġthou ght",
      "f t",
      "Ġw ent",
      "Ġw here",
      "Ġo p",
      "a p",
      "s ide",
      "ou gh",
      "Ġp r",
      "Ġy e",
      "w h",
      "d y",
      "ad y",
      "Ġsh ook",
      "Ġfir st",
      "e k",
      "Ġthe ir",
      "Ġl oo",
      "Ġha pp",
      "Ġwe ll",
      "e m",
      "i ous",
      "o l",
      "Ġs ur",
      "Ġc ar",
      "b ut",
      "c hed",
      "Ġw om",
      "Ġb ot",
      "at ed",
      "ac h",
      "Ġche st",
      "Ġt ry",
      "m ed",
      "Ġthan k",
      "Ġli ps",
      "au se",
      "Ġmom ent",
      "at her",
      "Ġbe ing",
      "g et",
      "s h",
      "it e",
      "Ġst ill",
      "Ġ v",
      "Ġkne w",
      "e nd",
      "Ġa way",
      "Ġb ab",
      "Ġf ine",
      "Ġc all",
      "g hed",
      "n ing",
      "Ġm ar",
      "Ġf ing",
      "Ġga ve",
      "a ir",
      "Ġarm s",
      "z e",
      "Ġu n",
      "Ġk iss",
      "r is",
      "Ġte ll",
      "d e",
      "t ed",
      "Ġc ome",
      "ow ed",
      "a k",
      "Ġ very",
      "Ġha ir",
      "in ce",
      "Ġs or",
      "Ġo h",
      "Ġwor d",
      "Ġa c",
      "Ġw o",
      "we en",
      "Ġany thing",
      "z ed",
      "Ġher self",
      "as s",
      "Ġme an",
      "Ġas s",
      "Ġgr in",
      "Ġn ight",
      "ow s",
      "ro om",
      "Ġbet ween",
      "Ġbec ause",
      "er ed",
      "Ġp le",
      "dd ed",
      "Ġa pp",
      "Ġw al",
      "Ġw ill",
      "an ed",
      "Ġin t",
      "Ġcon t",
      "m ent",
      "x t",
      "an g",
      "Ġp at",
      "Ġg u",
      "it y",
      "Ġst o",
      "ur ed",
      "Ġsor ry",
      "c ked",
      "u ck",
      "Ġa d",
      "Ġf o",
      "Ġc ou",
      "Ġex p",
      "p ed",
      "s p",
      "Ġ !",
      "Ġw at",
      "Ġin side",
      "Ġbab y",
      "Ġhe art",
      "a g",
      "r ist",
      "Ġt r",
      "Ġm ind",
      "an ce",
      "Ġl ast",
      "Ġu nder",
      "Ġpl an",
      "Ġfeel ing",
      "p ris",
      "Ġf am",
      "er t",
      "est ion",
      "Ġbre ath",
      "c o",
      "e p",
      "m o",
      "u n",
      "er ing",
      "at ing",
      "Ġfe w",
      "u ll",
      "w ard",
      "Ġa m",
      "Ġbo dy",
      "Ġlau ghed",
      "a idan",
      "i p",
      "Ġu nt",
      "Ġwh ile",
      "Ġloo ked",
      "Ġpu lled",
      "Ġqu estion",
      "Ġfin is",
      "Ġsur pris",
      "Ġunt il",
      "a ge",
      "Ġs i",
      "Ġs we",
      "Ġs ince",
      "Ġgl anc",
      "em ma",
      "rist i",
      "f ul",
      "Ġ our",
      "ar s",
      "Ġe l",
      "Ġm ur",
      "as ed",
      "Ġp e",
      "Ġli fe",
      "Ġno dded",
      "m m",
      "ar ing",
      "ic ked",
      "Ġse x",
      "ase y",
      "Ġbot h",
      "Ġfing ers",
      "m ured",
      "t y",
      "re w",
      "Ġn a",
      "li e",
      "ct ion",
      "Ġche ek",
      "Ġfam ily",
      "Ġmur mured",
      "l es",
      "Ġ ra",
      "Ġs ide",
      "Ġp ut",
      "Ġg i",
      "Ġdo ing",
      "Ġsh ow",
      "Ġan other",
      "Ġglanc ed",
      "Ġb rou",
      "Ġto get",
      "Ġe ver",
      "Ġca re",
      "Ġwom an",
      "Ġbrou ght",
      "Ġtoget her",
      "m b",
      "n er",
      "Ġh u",
      "Ġd in",
      "st e",
      "Ġwh y",
      "Ġpl ay",
      "u ally",
      "Ġm in",
      "re e",
      "or t",
      "Ġre l",
      "Ġnot hing",
      "i ld",
      "s o",
      "Ġne xt",
      "Ġsl id",
      "Ġtry ing",
      "e l",
      "Ġhe ld",
      "Ġm ay",
      "Ġst e",
      "Ġst r",
      "Ġk eep",
      "Ġwa it",
      "Ġthing s",
      "Ġop en",
      "g n",
      "Ġto ng",
      "Ġc our",
      "Ġg ive",
      "on ce",
      "a v",
      "o ice",
      "z ing",
      "Ġs n",
      "Ġd is",
      "Ġp h",
      "Ġp art",
      "Ġbe gan",
      "Ġsa me",
      "Ġta ble",
      "Ġle g",
      "l ing",
      "Ġh ome",
      "Ġi ma",
      "Ġc r",
      "th at",
      "mo st",
      "ste ad",
      "f f",
      "Ġbe h",
      "she d",
      "Ġget ting",
      "Ġgrin ned",
      "Ġtong ue",
      "Ġt al",
      "Ġf ather",
      "ro ss",
      "Ġta king",
      "Ġwor k",
      "Ġword s",
      "Ġmin ut",
      "Ġima g",
      "i re",
      "m y",
      "Ġs at",
      "Ġh as",
      "Ġf ound",
      "en ce",
      "Ġha ving",
      "way s",
      "Ġga ze",
      "ress ion",
      "Ġt ru",
      "Ġd r",
      "ar k",
      "Ġon to",
      "ot ion",
      "Ġqu ick",
      "Ġbr ows",
      "pe ct",
      "bb ed",
      "Ġel se",
      "i ed",
      "i es",
      "in ed",
      "Ġm other",
      "Ġher s",
      "Ġe ach",
      "Ġst ay",
      "ri end",
      "ter ed",
      "th ough",
      "Ġse at",
      "the y",
      "Ġye ah",
      "Ġcour se",
      "u d",
      "Ġm ight",
      "Ġf act",
      "Ġg ir",
      "Ġre ady",
      "Ġle ft",
      "Ġal ways",
      "gg ed",
      "o or",
      "s sed",
      "Ġs ound",
      "Ġo ld",
      "Ġc u",
      "Ġc le",
      "ow ing",
      "Ġon ce",
      "ct or",
      "Ġsee med",
      "Ġsp e",
      "Ġsome one",
      "ious ly",
      "s id",
      "Ġdo ctor",
      "ic h",
      "ic al",
      "pp ing",
      "nt s",
      "Ġen ough",
      "Ġbeh ind",
      "c ess",
      "Ġw ar",
      "Ġm at",
      "Ġb u",
      "Ġe ar",
      "ac hed",
      "Ġal most",
      "Ġfl oor",
      "Ġwal ked",
      "Ġexp ression",
      "o se",
      "Ġhe ll",
      "Ġf ind",
      "Ġd eep",
      "Ġg ra",
      "ent ion",
      "Ġgo d",
      "Ġne ck",
      "Ġsa w",
      "wh at",
      "Ġcall ed",
      "Ġswe et",
      "Ġleg s",
      "c i",
      "Ġa ct",
      "Ġb it",
      "Ġd es",
      "Ġp er",
      "le ep",
      "Ġwh ich",
      "Ġru n",
      "Ġwo nder",
      "Ġfinis hed",
      "k en",
      "t e",
      "v es",
      "Ġs on",
      "Ġw r",
      "Ġm on",
      "re am",
      "Ġto ld",
      "Ġp ant",
      "Ġre st",
      "Ġre al",
      "Ġsu ch",
      "Ġthou gh",
      "Ġbet ter",
      "Ġv oice",
      "Ġpat i",
      "Ġdin ner",
      "Ġgir l",
      "i gh",
      "u sed",
      "w n",
      "Ġt ried",
      "Ġs w",
      "Ġs er",
      "Ġw id",
      "Ġh ur",
      "Ġd ate",
      "on t",
      "Ġre ached",
      "Ġdo es",
      "Ġop ened",
      "d ay",
      "i g",
      "y s",
      "Ġb ur",
      "Ġl ot",
      "Ġth r",
      "Ġat t",
      "Ġle a",
      "Ġal ong",
      "ull y",
      "is e",
      "is sed",
      "Ġe nd",
      "Ġbe lie",
      "Ġme t",
      "oo l",
      "Ġj o",
      "Ġpu ll",
      "Ġde v",
      "Ġbed room",
      "Ġple ase",
      "Ġapp e",
      "Ġsurpris e",
      "l ess",
      "n o",
      "o ple",
      "Ġs k",
      "Ġn ur",
      "Ġj er",
      "Ġpl ace",
      "Ġevery thing",
      "c ed",
      "j ust",
      "n e",
      "in stead",
      "Ġhe ar",
      "Ġf riend",
      "ar a",
      "ab le",
      "Ġclo sed",
      "a ut",
      "Ġc asey",
      "Ġn i",
      "Ġst ared",
      "Ġk e",
      "Ġmy self",
      "Ġsh o",
      "Ġsl ow",
      "Ġmo st",
      "Ġfin ally",
      "Ġac ross",
      "Ġplan e",
      "a king",
      "f ully",
      "i an",
      "s w",
      "s ing",
      "t ty",
      "ou se",
      "Ġh ot",
      "Ġb est",
      "Ġb ath",
      "Ġb us",
      "Ġd one",
      "Ġwith out",
      "Ġk risti",
      "Ġfr ont",
      "ab ly",
      "Ġho ld",
      "n ight",
      "Ġ ;",
      "Ġ ent",
      "Ġf ar",
      "Ġd ri",
      "Ġd ra",
      "it al",
      "Ġbe aut",
      "al though",
      "Ġan sw",
      "Ġch uck",
      "Ġch ild",
      "Ġde c",
      "Ġpre tty",
      "Ġhapp y",
      "Ġgu ess",
      "co nd",
      "Ġpe ople",
      "Ġbelie ve",
      "e ver",
      "g ed",
      "h ow",
      "m p",
      "s it",
      "Ġs il",
      "Ġd ark",
      "Ġg ri",
      "Ġch air",
      "Ġle aned",
      "Ġse cond",
      "Ġho sp",
      "Ġcheek s",
      "Ġwid ened",
      "Ġhosp ital",
      "j o",
      "o f",
      "u ed",
      "or n",
      "or y",
      "ac ed",
      "Ġre s",
      "ch ing",
      "Ġro se",
      "ade en",
      "Ġbr other",
      "are nts",
      "um b",
      "wh ile",
      "Ġfo ll",
      "Ġpati ent",
      "c king",
      "t en",
      "y ing",
      "Ġs leep",
      "Ġw if",
      "re n",
      "an k",
      "Ġd i",
      "as sed",
      "id d",
      "Ġha ll",
      "Ġcon sid",
      "if ul",
      "Ġcom ing",
      "Ġclo se",
      "Ġwom en",
      "Ġact ually",
      "Ġwif e",
      "f or",
      "n ess",
      "t hen",
      "he s",
      "Ġh ouse",
      "re ady",
      "Ġb ro",
      "Ġo wn",
      "Ġst u",
      "Ġst and",
      "Ġso on",
      "Ġne w",
      "Ġbr ing",
      "Ġshould er",
      "Ġye ars",
      "ol ine",
      "Ġbeaut iful",
      "m s",
      "o nd",
      "s on",
      "Ġt u",
      "in king",
      "Ġb es",
      "Ġd ress",
      "Ġp ur",
      "Ġp ain",
      "Ġy et",
      "Ġe le",
      "Ġfor ward",
      "Ġwe ek",
      "Ġhim self",
      "Ġli p",
      "Ġsu pp",
      "Ġro b",
      "Ġex act",
      "Ġwor ld",
      "Ġal so",
      "Ġlo ved",
      "Ġman y",
      "Ġbot t",
      "Ġsto p",
      "Ġwat er",
      "Ġjer ked",
      "l o",
      "Ġ es",
      "Ġt ight",
      "in ess",
      "Ġw ra",
      "re at",
      "re st",
      "Ġto night",
      "Ġc ra",
      "Ġd ad",
      "Ġd if",
      "Ġp ers",
      "Ġe as",
      "Ġme et",
      "ic ally",
      "Ġab le",
      "Ġwor ry",
      "Ġal ready",
      "Ġma king",
      "Ġgl ad",
      "Ġen jo",
      "Ġwa ist",
      "Ġhapp ened",
      "Ġminut es",
      "Ġquick ly",
      "Ġbath room",
      "b ably",
      "k risti",
      "n ow",
      "Ġa p",
      "Ġa w",
      "Ġw he",
      "Ġm ed",
      "Ġn er",
      "Ġd ro",
      "Ġp arents",
      "Ġl at",
      "Ġk ind",
      "Ġk issed",
      "ir t",
      "Ġso ft",
      "li ght",
      "Ġar g",
      "Ġneed ed",
      "Ġpo ss",
      "Ġpro bably",
      "Ġpr ot",
      "Ġste pped",
      "Ġmon th",
      "Ġke pt",
      "Ġchuck led",
      "Ġexact ly",
      "Ġdif fe",
      "g er",
      "i zed",
      "k es",
      "t ur",
      "z y",
      "Ġa ma",
      "ou ght",
      "Ġh on",
      "Ġm r",
      "Ġi de",
      "is ed",
      "Ġth rew",
      "en ing",
      "Ġyou ng",
      "ver ed",
      "Ġha lf",
      "Ġr an",
      "Ġpo in",
      "Ġlau gh",
      "Ġclo s",
      "Ġcar oline",
      "ert son",
      "Ġshow er",
      "Ġwr ong",
      "Ġrob ertson",
      "i a",
      "u al",
      "Ġt ou",
      "Ġs ing",
      "Ġs it",
      "Ġs qu",
      "Ġto day",
      "Ġc ry",
      "Ġg ro",
      "id es",
      "Ġst ood",
      "Ġre sp",
      "ant ly",
      "Ġey ed",
      "Ġex am",
      "the re",
      "Ġbre ak",
      "Ġevery one",
      "sh ip",
      "ert ain",
      "Ġquestion ed",
      "Ġmay be",
      "Ġph one",
      "Ġimag ine",
      "Ġhur t",
      "Ġama zing",
      "v ous",
      "Ġt ra",
      "Ġs ight",
      "Ġi mp",
      "is per",
      "Ġl ow",
      "Ġth ose",
      "Ġg ent",
      "it c",
      "Ġin s",
      "Ġin ter",
      "Ġe re",
      "Ġu r",
      "Ġst ra",
      "Ġas k",
      "Ġk ara",
      "Ġwh isper",
      "Ġsh ot",
      "ch ap",
      "Ġro lled",
      "Ġch ar",
      "Ġex pect",
      "Ġem otion",
      "itt ing",
      "with out",
      "Ġcont in",
      "Ġsto pped",
      "Ġgi ving",
      "Ġtal k",
      "Ġtru e",
      "Ġmat ter",
      "Ġpers on",
      "Ġide a",
      "chap ter",
      "c asey",
      "w here",
      "he ad",
      "Ġs et",
      "Ġf ur",
      "is h",
      "is ter",
      "en se",
      "st and",
      "Ġst ro",
      "Ġk itc",
      "ut tered",
      "ce pt",
      "Ġta ken",
      "Ġfe et",
      "est ed",
      "Ġsp o",
      "Ġho pe",
      "bb ing",
      "Ġmar y",
      "Ġwar m",
      "Ġlea ve",
      "Ġappe ared",
      "Ġkitc hen",
      "a pp",
      "c u",
      "e rest",
      "n ot",
      "in ing",
      "Ġw et",
      "Ġhe y",
      "Ġc ertain",
      "Ġn ice",
      "Ġd ou",
      "as ing",
      "Ġth ree",
      "Ġg one",
      "ar r",
      "Ġe ased",
      "ver s",
      "Ġre ason",
      "Ġli ght",
      "Ġli ving",
      "Ġsh ru",
      "Ġle ast",
      "Ġyour self",
      "Ġpu shed",
      "Ġany one",
      "Ġsp ent",
      "Ġbo y",
      "Ġcom p",
      "Ġday s",
      "Ġcont ro",
      "Ġcou n",
      "Ġtr ace",
      "mb led",
      "a me",
      "f in",
      "i er",
      "o g",
      "r ic",
      "t on",
      "y ed",
      "Ġw in",
      "Ġhe ard",
      "Ġh it",
      "Ġh our",
      "Ġf ood",
      "Ġc ur",
      "Ġn adeen",
      "Ġp ast",
      "Ġe at",
      "ent y",
      "Ġse en",
      "Ġcl ot",
      "Ġte ased",
      "fe ct",
      "us ing",
      "Ġshould ers",
      "Ġkne es",
      "Ġmar ried",
      "Ġple as",
      "Ġint erest",
      "Ġrel ation",
      "Ġfriend s",
      "Ġansw er",
      "a w",
      "m ason",
      "Ġa ir",
      "Ġw all",
      "re nt",
      "Ġb ad",
      "Ġf all",
      "Ġf ill",
      "Ġc ut",
      "Ġc ried",
      "at or",
      "ad ing",
      "id ed",
      "le t",
      "al ed",
      "me mb",
      "Ġfe ll",
      "Ġcon f",
      "Ġtur n",
      "Ġbl ue",
      "Ġcom ple",
      "Ġpre gn",
      "Ġpr om",
      "Ġgra bbed",
      "Ġdad dy",
      "Ġner vous",
      "Ġlat er",
      "Ġmonth s",
      "Ġrelation ship",
      "b ed",
      "i ble",
      "m an",
      "z z",
      "Ġs ister",
      "Ġhe at",
      "an s",
      "Ġf un",
      "as h",
      "en e",
      "Ġin c",
      "Ġu m",
      "Ġre g",
      "Ġre memb",
      "Ġk id",
      "ut h",
      "Ġca used",
      "Ġem b",
      "Ġsp end",
      "Ġtw enty",
      "Ġsay ing",
      "Ġloo king",
      "Ġad m",
      "Ġminut e",
      "Ġpant s",
      "Ġatt ention",
      "Ġweek s",
      "Ġdiffe rent",
      "Ġcontin ued",
      "a ke",
      "i x",
      "i ze",
      "m and",
      "ou d",
      "Ġh i",
      "Ġh or",
      "Ġm ust",
      "Ġm mm",
      "re t",
      "an ge",
      "Ġth igh",
      "Ġth inking",
      "ad ed",
      "Ġst om",
      "Ġst aring",
      "Ġre m",
      "ur ing",
      "ic t",
      "Ġsh irt",
      "Ġan g",
      "Ġtim es",
      "Ġga zed",
      "ate ly",
      "Ġbo x",
      "Ġbl ack",
      "Ġco ck",
      "Ġother s",
      "Ġsc ream",
      "Ġcou ple",
      "Ġunder stand",
      "Ġtru ly",
      "Ġwra pped",
      "Ġere ction",
      "Ġcomple te",
      "a x",
      "c ome",
      "d o",
      "d u",
      "l s",
      "o sed",
      "r ed",
      "r ick",
      "v ator",
      "ou n",
      "Ġm or",
      "Ġm otion",
      "Ġp a",
      "Ġp ri",
      "Ġg as",
      "it s",
      "ic king",
      "Ġout side",
      "th is",
      "Ġkn o",
      "Ġsu cked",
      "Ġab s",
      "ru pt",
      "Ġey e",
      "Ġman ag",
      "Ġgr im",
      "Ġqu ite",
      "Ġwho le",
      "Ġhard er",
      "Ġthought s",
      "Ġsound s",
      "Ġspe ak",
      "Ġpull ing",
      "Ġsk in",
      "Ġhold ing",
      "Ġfoll owed",
      "Ġele vator",
      "Ġcertain ly",
      "b y",
      "e ven",
      "s es",
      "s hing",
      "u lt",
      "u dd",
      "Ġ er",
      "Ġa u",
      "Ġm en",
      "Ġb ra",
      "Ġb ig",
      "Ġo b",
      "Ġto p",
      "Ġc at",
      "er n",
      "Ġd ru",
      "Ġp in",
      "Ġl ed",
      "Ġl ap",
      "Ġth ir",
      "Ġg reat",
      "Ġin v",
      "Ġfor th",
      "Ġwe l",
      "Ġj e",
      "Ġj ade",
      "Ġj ud",
      "Ġkn own",
      "il ing",
      "Ġwhat ever",
      "li ke",
      "Ġex per",
      "Ġwor king",
      "Ġte asing",
      "Ġche ck",
      "Ġbre at",
      "Ġmom my",
      "be fore",
      "anc ing",
      "Ġapp re",
      "ang ed",
      "Ġwat ched",
      "Ġsurpris ed",
      "Ġgi gg",
      "Ġpart y",
      "Ġbus iness",
      "Ġdri ve",
      "Ġconsid ering",
      "Ġwhe el",
      "Ġresp on",
      "Ġgent le",
      "Ġpleas ure",
      "Ġexper i",
      "f ather",
      "s ome",
      "t a",
      "Ġa f",
      "Ġh mm",
      "Ġm ine",
      "Ġm idd",
      "Ġm uttered",
      "re ssed",
      "Ġf ought",
      "is m",
      "Ġl a",
      "Ġth ro",
      "it her",
      "ll ing",
      "Ġme ant",
      "Ġre f",
      "Ġit s",
      "Ġwh ite",
      "Ġsh it",
      "ion s",
      "Ġca u",
      "Ġca using",
      "Ġex h",
      "Ġsee m",
      "Ġde mand",
      "ive ly",
      "Ġr ed",
      "us h",
      "Ġna me",
      "Ġbes ide",
      "Ġtou ch",
      "Ġgro aned",
      "Ġwhisper ed",
      "vers ation",
      "Ġrememb er",
      "Ġthigh s",
      "Ġcomplete ly",
      "Ġmidd le",
      "b o",
      "m ay",
      "u ng",
      "Ġt er",
      "Ġt ast",
      "Ġa head",
      "in s",
      "in cess",
      "Ġs itting",
      "Ġm ess",
      "Ġm ention",
      "re ly",
      "Ġf our",
      "Ġd ating",
      "Ġp ass",
      "ar ily",
      "Ġu sed",
      "Ġfor m",
      "ut e",
      "Ġsh if",
      "Ġsh udd",
      "Ġhead ed",
      "Ġch in",
      "Ġsm all",
      "Ġle ar",
      "Ġal one",
      "Ġcl it",
      "Ġcon versation",
      "Ġde al",
      "Ġpre ss",
      "Ġfing er",
      "Ġfinis h",
      "av an",
      "Ġdr ink",
      "Ġcle an",
      "Ġsw all",
      "Ġser ious",
      "Ġnur se",
      "Ġbott om",
      "Ġes c",
      "Ġmed ic",
      "Ġdou b",
      "Ġshru gged",
      "Ġcontro l",
      "Ġcoun ter",
      "Ġfill ed",
      "Ġpregn ant",
      "Ġstom ach",
      "Ġmor ning",
      "Ġthro at",
      "b s",
      "b and",
      "m or",
      "p l",
      "r ing",
      "u ation",
      "Ġt en",
      "Ġt rou",
      "Ġh igh",
      "Ġto t",
      "Ġp en",
      "Ġl ess",
      "Ġl icked",
      "Ġg round",
      "Ġin st",
      "or ed",
      "ow d",
      "im es",
      "ac ked",
      "Ġst are",
      "Ġre tur",
      "ght er",
      "Ġan k",
      "Ġch ance",
      "Ġpu n",
      "am ing",
      "Ġcon c",
      "Ġqu i",
      "Ġlook s",
      "Ġlet ting",
      "Ġlong er",
      "Ġpr incess",
      "air s",
      "Ġac c",
      "Ġwal king",
      "Ġcou ch",
      "Ġtr uth",
      "Ġra ised",
      "Ġrel ax",
      "Ġstr and",
      "Ġimag ined",
      "Ġhell o",
      "Ġbring ing",
      "Ġcra zy",
      "fin ally",
      "Ġhour s",
      "Ġwel come",
      "avan i",
      "Ġtrou ble",
      "a ld",
      "e very",
      "f ort",
      "g o",
      "i b",
      "l ic",
      "m ore",
      "r or",
      "s et",
      "Ġs en",
      "Ġh ang",
      "Ġm iss",
      "Ġb ent",
      "Ġb all",
      "Ġb ru",
      "Ġf re",
      "Ġf it",
      "Ġf ly",
      "Ġf ut",
      "Ġf ull",
      "Ġc ro",
      "at es",
      "Ġd u",
      "Ġd ance",
      "is ing",
      "Ġp icked",
      "Ġp assed",
      "Ġl it",
      "Ġin stead",
      "ve ta",
      "ac ing",
      "et h",
      "Ġst re",
      "Ġst age",
      "ro du",
      "ic ed",
      "ir th",
      "Ġsu gg",
      "ct ed",
      "one y",
      "Ġwor ked",
      "Ġcl im",
      "Ġgl ass",
      "Ġbl ood",
      "Ġco cked",
      "Ġgot ten",
      "pe ci",
      "Ġmo ve",
      "Ġru bbed",
      "Ġthank s",
      "Ġun c",
      "Ġint rodu",
      "Ġpat rick",
      "Ġwat ch",
      "Ġsi ghed",
      "Ġwait ing",
      "Ġcr owd",
      "Ġtal king",
      "Ġwonder ful",
      "Ġthr ust",
      "Ġhot el",
      "Ġdro pped",
      "Ġsqu ee",
      "Ġur ge",
      "Ġemotion s",
      "Ġprom ise",
      "Ġappre ci",
      "Ġfut ure",
      "peci ally",
      "d ing",
      "d ian",
      "g l",
      "l ow",
      "r owed",
      "t r",
      "t aking",
      "Ġ ed",
      "Ġs ch",
      "Ġs ong",
      "Ġw ed",
      "Ġw ine",
      "Ġb a",
      "an ing",
      "Ġto ward",
      "Ġf le",
      "Ġf air",
      "Ġc as",
      "Ġd rew",
      "Ġp ar",
      "Ġl and",
      "Ġl ine",
      "Ġin dian",
      "Ġu h",
      "et s",
      "ic es",
      "Ġli ked",
      "Ġli ft",
      "Ġsh y",
      "Ġsh ort",
      "pp le",
      "th ank",
      "Ġno se",
      "Ġwant s",
      "Ġbut ton",
      "Ġro be",
      "Ġch ange",
      "Ġem pt",
      "Ġfe ar",
      "Ġsee ing",
      "we l",
      "Ġgr and",
      "Ġbl ond",
      "Ġmo aned",
      "Ġen g",
      "Ġhelp ed",
      "um ped",
      "Ġsi gn",
      "Ġcare er",
      "Ġhu h",
      "Ġdin ing",
      "Ġplay ing",
      "Ġstr ong",
      "Ġdis app",
      "Ġph ys",
      "Ġcu pped",
      "Ġrun ning",
      "Ġser iously",
      "Ġbur ied",
      "Ġgri pped",
      "Ġbro ke",
      "Ġstu ff",
      "Ġap art",
      "Ġap ol",
      "Ġarg ue",
      "Ġhon est",
      "Ġclos er",
      "Ġcry ing",
      "Ġinter rupt",
      "Ġstra ight",
      "Ġfur rowed",
      "Ġclot hes",
      "Ġemb arr",
      "Ġjud ge",
      "Ġcau ght",
      "g in",
      "h o",
      "i o",
      "i z",
      "l ain",
      "o s",
      "r ow",
      "he art",
      "Ġt y",
      "Ġs light",
      "Ġh us",
      "re ad",
      "Ġb are",
      "Ġf ight",
      "Ġc orn",
      "Ġd ist",
      "nd ing",
      "Ġp ound",
      "Ġp ap",
      "Ġg own",
      "Ġg ru",
      "or ted",
      "ar y",
      "st s",
      "st airs",
      "ot h",
      "Ġu nd",
      "Ġre ma",
      "Ġfor g",
      "Ġwh ir",
      "ir ed",
      "ter ing",
      "Ġj u",
      "ra p",
      "Ġch art",
      "Ġex c",
      "Ġse c",
      "Ġse ar",
      "Ġcl in",
      "Ġcl en",
      "Ġpl ate",
      "Ġte ars",
      "Ġde ath",
      "ist ed",
      "Ġor d",
      "Ġmu sed",
      "Ġtur ning",
      "Ġco ll",
      "Ġco ver",
      "Ġcom es",
      "Ġpre ssed",
      "Ġeven ing",
      "Ġpro ble",
      "Ġbec ome",
      "Ġye ar",
      "ol ute",
      "Ġtell ing",
      "de v",
      "ment s",
      "Ġpat ted",
      "Ġgu y",
      "Ġsi gh",
      "Ġhu ng",
      "Ġmay a",
      "Ġgod father",
      "Ġper fect",
      "Ġni pple",
      "Ġsho ck",
      "Ġslow ly",
      "ian e",
      "Ġent ire",
      "Ġdec ided",
      "for m",
      "Ġpur se",
      "Ġeas y",
      "Ġenjo yed",
      "Ġpoin t",
      "Ġwin ked",
      "Ġgas ped",
      "Ġabs olute",
      "Ġmanag ed",
      "Ġtast e",
      "Ġswall owed",
      "Ġpen is",
      "Ġank le",
      "gl ancing",
      "Ġba pt",
      "Ġempt y",
      "b es",
      "c y",
      "c ing",
      "c on",
      "g as",
      "i al",
      "m med",
      "r om",
      "u shed",
      "Ġa dded",
      "Ġw ink",
      "Ġw ind",
      "Ġm ia",
      "Ġb ite",
      "Ġb irth",
      "Ġf ree",
      "Ġf ix",
      "Ġd et",
      "as hed",
      "Ġl ust",
      "Ġl ab",
      "Ġl ist",
      "Ġl oud",
      "Ġth ri",
      "Ġg on",
      "it ed",
      "ll y",
      "Ġin f",
      "id ent",
      "Ġst ud",
      "Ġst ory",
      "Ġre le",
      "Ġwe ar",
      "Ġsh are",
      "Ġsh veta",
      "il s",
      "il ity",
      "Ġnot iced",
      "Ġwor ried",
      "ck et",
      "Ġsee ms",
      "Ġag o",
      "Ġany more",
      "Ġte eth",
      "Ġor gas",
      "itt ed",
      "Ġfl ush",
      "Ġr ing",
      "Ġcom m",
      "gg ing",
      "Ġpo sit",
      "Ġdoor s",
      "Ġpro cess",
      "Ġus ually",
      "Ġwal k",
      "Ġfo ot",
      "un ch",
      "Ġel b",
      "Ġcu p",
      "Ġcle ar",
      "Ġbus y",
      "Ġsil ence",
      "Ġbrother s",
      "Ġstand ing",
      "Ġbes ides",
      "Ġes pecially",
      "Ġmeet ing",
      "Ġposs ible",
      "Ġprot ested",
      "Ġkid s",
      "Ġadm it",
      "Ġrem ind",
      "Ġgrim aced",
      "Ġob v",
      "Ġgentle man",
      "Ġexperi ence",
      "Ġdemand ed",
      "Ġtot ally",
      "Ġstrand s",
      "Ġsch ool",
      "Ġblond e",
      "Ġhus band",
      "Ġbare ly",
      "Ġclin ical",
      "Ġproble m",
      "Ġbapt ism",
      "a pped",
      "e f",
      "f et",
      "f ess",
      "g th",
      "m other",
      "s c",
      "s ure",
      "u p",
      "u ct",
      "z ger",
      "Ġt in",
      "in t",
      "Ġs ent",
      "Ġs al",
      "Ġh ar",
      "Ġthe se",
      "Ġb ri",
      "Ġb ene",
      "Ġc e",
      "Ġc or",
      "Ġc ity",
      "Ġn or",
      "Ġd ressed",
      "Ġl ate",
      "en gth",
      "Ġbe au",
      "Ġbe lt",
      "im e",
      "Ġu se",
      "Ġst ar",
      "Ġas king",
      "Ġk ill",
      "Ġfor k",
      "Ġwe aring",
      "ent s",
      "Ġsh ut",
      "ee per",
      "ust ed",
      "Ġhand ed",
      "ra id",
      "Ġta b",
      "Ġch oice",
      "Ġch anged",
      "Ġsp ot",
      "Ġsp read",
      "Ġga me",
      "Ġsome what",
      "Ġneed s",
      "Ġmo v",
      "Ġpre p",
      "Ġwa ved",
      "Ġpr act",
      "Ġmoment arily",
      "Ġkiss ing",
      "Ġad v",
      "Ġfo c",
      "Ġfeeling s",
      "Ġste ering",
      "Ġwait ed",
      "av or",
      "Ġstay ed",
      "Ġsweet heart",
      "ci al",
      "Ġreal ized",
      "Ġlea ving",
      "Ġend ed",
      "no ah",
      "Ġdra w",
      "Ġchild ren",
      "Ġsupp osed",
      "Ġmed ical",
      "Ġhon or",
      "Ġlaugh ing",
      "Ġhi ps",
      "Ġdru n",
      "Ġthir ty",
      "Ġbreat hing",
      "Ġaf raid",
      "Ġla id",
      "Ġpress ure",
      "Ġdoub t",
      "Ġinst ru",
      "Ġqui et",
      "Ġclim bed",
      "Ġsquee zed",
      "Ġwed ding",
      "Ġlift ed",
      "Ġpap a",
      "bes ides",
      "zger ald",
      "c ent",
      "e ct",
      "f rom",
      "g ing",
      "s ince",
      "t ress",
      "u es",
      "z i",
      "Ġt re",
      "Ġt ip",
      "Ġs li",
      "Ġhe av",
      "Ġh ated",
      "Ġto mor",
      "Ġf ore",
      "Ġf ab",
      "Ġf avor",
      "Ġc ore",
      "Ġd ry",
      "Ġd au",
      "Ġd ick",
      "Ġd eeper",
      "Ġp ict",
      "Ġl ength",
      "Ġth umb",
      "Ġg re",
      "it or",
      "Ġe v",
      "Ġe ating",
      "om ing",
      "Ġst ate",
      "Ġas leep",
      "Ġwe ak",
      "oo king",
      "Ġan t",
      "Ġsa fe",
      "ard less",
      "am es",
      "Ġlo ving",
      "Ġlo ves",
      "Ġde p",
      "Ġare a",
      "Ġma le",
      "Ġma kes",
      "Ġstart ing",
      "Ġbo bbed",
      "dd y",
      "Ġen c",
      "Ġsomet imes",
      "Ġpro fess",
      "Ġbec ame",
      "ap ed",
      "Ġhapp en",
      "Ġwill ing",
      "Ġgu ys",
      "Ġexp lain",
      "Ġmat tress",
      "Ġbu ddy",
      "Ġwonder ed",
      "Ġpant ies",
      "Ġappe ar",
      "Ġnur sing",
      "Ġnur ses",
      "Ġhall way",
      "Ġtu b",
      "Ġsupp ose",
      "Ġclos et",
      "Ġsit uation",
      "Ġinterest ed",
      "Ġwall s",
      "Ġmotion ed",
      "Ġgigg led",
      "may be",
      "Ġpass ion",
      "Ġretur ned",
      "Ġfit zgerald",
      "Ġsugg ested",
      "Ġappreci ate",
      "Ġed ge",
      "Ġabsolute ly",
      "Ġtin y",
      "Ġbene ath",
      "Ġtomor row",
      "a ked",
      "g a",
      "h n",
      "h ood",
      "l or",
      "m iss",
      "n adeen",
      "p ing",
      "r as",
      "t led",
      "Ġt ri",
      "Ġs y",
      "Ġs le",
      "Ġw ore",
      "Ġw ild",
      "Ġhe sit",
      "Ġm ass",
      "an e",
      "an y",
      "Ġf as",
      "Ġf ive",
      "Ġf ire",
      "Ġc al",
      "Ġc ared",
      "at ively",
      "Ġd ream",
      "Ġd uring",
      "is es",
      "Ġp ink",
      "Ġp ick",
      "es sed",
      "Ġof ten",
      "Ġe ither",
      "Ġbe aming",
      "ow led",
      "Ġme rely",
      "im per",
      "Ġu lt",
      "Ġst ep",
      "Ġre co",
      "Ġre lie",
      "Ġwith in",
      "Ġfor get",
      "Ġwh imper",
      "Ġsh iane",
      "Ġan x",
      "Ġj aw",
      "Ġj umped",
      "ust r",
      "Ġwant ing",
      "Ġsu it",
      "Ġex cu",
      "Ġle ad",
      "we ll",
      "au lt",
      "Ġag e",
      "Ġcl as",
      "Ġcon v",
      "Ġche w",
      "Ġar ri",
      "Ġfl at",
      "Ġfl ow",
      "Ġfl icked",
      "Ġby p",
      "Ġco vered",
      "Ġmo ved",
      "act ion",
      "Ġru bbing",
      "Ġus ing",
      "bb led",
      "Ġmoment s",
      "Ġkiss es",
      "Ġac cept",
      "Ġmean s",
      "av is",
      "Ġsn orted",
      "Ġold er",
      "Ġspe cial",
      "Ġwar med",
      "Ġgod mother",
      "Ġdes per",
      "Ġdes ire",
      "Ġgirl s",
      "Ġbur st",
      "Ġbott le",
      "Ġkind a",
      "Ġarg ued",
      "Ġprot est",
      "tur ning",
      "Ġpoin ted",
      "Ġexam ining",
      "Ġperson al",
      "Ġspo ke",
      "Ġreg ret",
      "Ġpri v",
      "Ġau nts",
      "Ġdrive way",
      "Ġrespon se",
      "Ġexh aled",
      "Ġmedic ine",
      "Ġfly ing",
      "Ġcro ssed",
      "Ġfle w",
      "Ġinterrupt ed",
      "Ġty pe",
      "Ġcorn ers",
      "Ġforg ot",
      "Ġthri lled",
      "Ġtab les",
      "Ġmov ie",
      "Ġheav y",
      "Ġpict ure",
      "Ġprofess ion",
      "ras ound",
      "Ġcal m",
      "Ġult rasound",
      "Ġexcu se",
      "b er",
      "e ar",
      "e ach",
      "f ied",
      "h a",
      "i ately",
      "l er",
      "o pt",
      "s pect",
      "w or",
      "Ġ ve",
      "Ġt ant",
      "Ġt its",
      "Ġs im",
      "Ġw i",
      "Ġw ow",
      "Ġb other",
      "Ġb ul",
      "Ġb ag",
      "ing ed",
      "Ġi ce",
      "an n",
      "Ġf a",
      "Ġf ast",
      "Ġf uck",
      "Ġc um",
      "Ġc ool",
      "Ġn arr",
      "is ion",
      "is hed",
      "Ġp ee",
      "Ġp ill",
      "Ġl uck",
      "Ġl unch",
      "it ies",
      "ad d",
      "id ing",
      "Ġst a",
      "Ġst ri",
      "Ġno d",
      "il t",
      "Ġsa v",
      "Ġhand le",
      "Ġsu b",
      "Ġhead set",
      "Ġfr ustr",
      "Ġsm acked",
      "Ġse lf",
      "Ġall owed",
      "ck y",
      "Ġal pesh",
      "Ġag re",
      "Ġag ree",
      "am m",
      "Ġlo cked",
      "Ġte m",
      "Ġsp l",
      "Ġde li",
      "Ġde lic",
      "Ġsome where",
      "Ġfl esh",
      "Ġgr owing",
      "Ġmu mbled",
      "Ġtw ins",
      "Ġfeel s",
      "Ġco at",
      "Ġco nd",
      "Ġcom fort",
      "Ġbre ast",
      "Ġus ual",
      "Ġsc ru",
      "wh y",
      "ite ly",
      "Ġcall ing",
      "Ġmar k",
      "Ġad opt",
      "Ġput ting",
      "Ġrel uct",
      "el s",
      "Ġstr ang",
      "Ġph ot",
      "Ġcle ared",
      "Ġgra b",
      "Ġdes er",
      "Ġper form",
      "Ġreal ize",
      "Ġjo b",
      "Ġjo in",
      "Ġsk y",
      "ne y",
      "Ġent ered",
      "Ġgri p",
      "Ġsecond s",
      "Ġenjo y",
      "Ġsoft ly",
      "Ġlow ered",
      "og rap",
      "Ġspend ing",
      "Ġang ie",
      "Ġpa per",
      "Ġrespon s",
      "some how",
      "Ġshif t",
      "Ġlear ned",
      "Ġconc ern",
      "Ġacc ident",
      "Ġbru shed",
      "Ġeng age",
      "Ġapol og",
      "Ġembarr ass",
      "Ġrema ined",
      "Ġobv iously",
      "Ġdrun k",
      "Ġinstru cted",
      "c l",
      "d id",
      "i or",
      "j ay",
      "k ward",
      "l avani",
      "o c",
      "o ver",
      "t ime",
      "w he",
      "w as",
      "Ġt ent",
      "Ġt ie",
      "Ġt ense",
      "in ation",
      "Ġs ou",
      "Ġs ar",
      "Ġs ad",
      "Ġw ide",
      "ed ing",
      "Ġhe els",
      "Ġh oney",
      "Ġm is",
      "Ġm ir",
      "Ġb ar",
      "Ġb ase",
      "Ġi mmed",
      "an jay",
      "Ġf li",
      "Ġf ist",
      "Ġf ool",
      "Ġf ault",
      "Ġc and",
      "Ġc art",
      "Ġc ase",
      "Ġn ap",
      "Ġd on",
      "Ġd ess",
      "Ġd avis",
      "as hing",
      "Ġp ay",
      "Ġl avani",
      "es e",
      "Ġg e",
      "Ġg ur",
      "Ġg rou",
      "Ġg rew",
      "on ed",
      "Ġhis sed",
      "ac y",
      "ac hing",
      "Ġst ir",
      "ver al",
      "Ġli kes",
      "ent ly",
      "Ġsh i",
      "ir c",
      "al th",
      "ri es",
      "pp er",
      "Ġro of",
      "Ġsm ack",
      "Ġwhen ever",
      "Ġal though",
      "Ġlo st",
      "Ġlo se",
      "ink led",
      "Ġany where",
      "Ġte xt",
      "Ġcon ne",
      "Ġde fe",
      "Ġsome how",
      "if ic",
      "lt ure",
      "Ġrep ly",
      "ul ar",
      "ul ous",
      "Ġco lor",
      "Ġroom s",
      "Ġmo ving",
      "Ġpre c",
      "Ġpo p",
      "be ll",
      "anc y",
      "Ġsc ene",
      "ie ld",
      "Ġint im",
      "Ġcont act",
      "Ġgi ven",
      "Ġhu ff",
      "Ġsn apped",
      "ud ing",
      "Ġcu lture",
      "Ġbu ild",
      "Ġmon itor",
      "Ġpati ence",
      "Ġthr own",
      "Ġthr owing",
      "Ġsil k",
      "umb led",
      "Ġsleep ing",
      "idd en",
      "Ġconsid er",
      "Ġbro ken",
      "Ġresp ond",
      "Ġur ged",
      "Ġhor ror",
      "Ġcat ch",
      "Ġpin ched",
      "Ġinv ol",
      "Ġshif ted",
      "Ġesc aped",
      "Ġsen s",
      "Ġball s",
      "Ġunc le",
      "ho ld",
      "Ġwhir led",
      "Ġsec ur",
      "Ġposit ion",
      "Ġpract ically",
      "Ġfavor ite",
      "Ġstate ment",
      "Ġbyp assed",
      "Ġprofession al",
      "ann ah",
      "Ġsav annah",
      "Ġdelic ious",
      "Ġcomfort able",
      "Ġphot ograp",
      "Ġsar i",
      "Ġdess ert",
      "Ġgrou p",
      "Ġphotograp her",
      "a ur",
      "a ving",
      "c es",
      "c ause",
      "f ast",
      "g s",
      "k in",
      "l ine",
      "m r",
      "m ing",
      "m er",
      "m on",
      "n or",
      "p h",
      "p id",
      "s omet",
      "t re",
      "t il",
      "u se",
      "u gg",
      "Ġ esh",
      "Ġ zi",
      "Ġa ck",
      "Ġa dd",
      "in ked",
      "Ġs ick",
      "Ġw an",
      "Ġw ish",
      "Ġhe ated",
      "Ġb and",
      "Ġb uck",
      "Ġb oun",
      "ing ly",
      "Ġo per",
      "Ġf u",
      "Ġf if",
      "Ġc ru",
      "Ġc ream",
      "Ġn on",
      "Ġd ire",
      "Ġd ied",
      "Ġp i",
      "Ġp ack",
      "Ġp air",
      "Ġl ing",
      "Ġl am",
      "Ġl ady",
      "Ġl icking",
      "Ġl ung",
      "Ġg en",
      "Ġg ar",
      "it ion",
      "en s",
      "Ġe ight",
      "Ġe ase",
      "Ġbe gin",
      "Ġwas h",
      "le aning",
      "ac ter",
      "Ġst ru",
      "Ġre ass",
      "Ġre mo",
      "Ġk icked",
      "Ġfor ced",
      "Ġwe e",
      "Ġli ve",
      "Ġsh aking",
      "al ous",
      "ant ic",
      "Ġan ger",
      "Ġne cess",
      "Ġsu n",
      "Ġsu cking",
      "Ġdown stairs",
      "Ġch os",
      "ood ed",
      "Ġex ch",
      "Ġse veral",
      "Ġget s",
      "we ar",
      "Ġpu l",
      "Ġpu sh",
      "Ġpu shing",
      "Ġcl oud",
      "led ge",
      "Ġpl ates",
      "Ġany way",
      "Ġknow s",
      "Ġte nder",
      "Ġche ese",
      "Ġga zing",
      "Ġma ma",
      "ate ful",
      "Ġfl ushed",
      "Ġgr ow",
      "Ġgr ateful",
      "pt ed",
      "Ġr om",
      "Ġr ice",
      "Ġr ather",
      "Ġr ising",
      "ation s",
      "Ġneed le",
      "Ġho pped",
      "Ġco ff",
      "Ġpo pped",
      "Ġpo cket",
      "Ġdoor way",
      "Ġru b",
      "are nt",
      "be at",
      "Ġpro spect",
      "anc es",
      "Ġsc owled",
      "Ġhapp ily",
      "Ġhapp iness",
      "sh aking",
      "Ġbab ies",
      "ang ing",
      "sp ic",
      "Ġheart beat",
      "Ġunder wear",
      "Ġplan s",
      "Ġplan ned",
      "Ġbreath s",
      "Ġquestion ing",
      "Ġsi x",
      "Ġswe pt",
      "Ġplay fully",
      "ross ing",
      "Ġrun way",
      "te en",
      "Ġwr inkled",
      "Ġrest aur",
      "Ġhur ried",
      "ig ned",
      "Ġjo hn",
      "Ġsho es",
      "Ġansw ered",
      "Ġfoll owing",
      "ren ce",
      "Ġdi pped",
      "Ġaw kward",
      "Ġwhe ther",
      "Ġyoung er",
      "Ġgent ly",
      "Ġchar ge",
      "Ġchar acter",
      "Ġwarm th",
      "cu ss",
      "Ġcoun tered",
      "Ġinterest ing",
      "Ġinc l",
      "Ġang ry",
      "Ġscream ed",
      "Ġscream ing",
      "Ġkno cked",
      "Ġje alous",
      "Ġlear n",
      "Ġdrink s",
      "Ġmedic ation",
      "Ġhang er",
      "Ġintrodu ce",
      "thank fully",
      "Ġpound ing",
      "Ġclen ched",
      "Ġord er",
      "Ġprocess ing",
      "Ġdoubt s",
      "Ġfab ric",
      "Ġdau ghter",
      "Ġgre en",
      "ga zing",
      "Ġmass ive",
      "Ġchew ed",
      "Ġdesper ately",
      "Ġtant ric",
      "Ġagre ed",
      "Ġscru bs",
      "Ġsou l",
      "Ġmir ror",
      "Ġgur ney",
      "Ġinvol ved",
      "Ġsecur ity",
      "Ġack now",
      "Ġoper a",
      "Ġchos en",
      "Ġcoff ee",
      "Ġrestaur ant",
      "b l",
      "b r",
      "b lic",
      "c oming",
      "c rossing",
      "d om",
      "e x",
      "e en",
      "e yed",
      "g ra",
      "h ol",
      "i zing",
      "j ect",
      "k n",
      "l ace",
      "m ory",
      "n y",
      "n ers",
      "n ie",
      "o h",
      "o ll",
      "p at",
      "p ull",
      "r at",
      "r act",
      "s low",
      "u zz",
      "v o",
      "w ood",
      "z ie",
      "Ġt v",
      "Ġt il",
      "Ġt est",
      "Ġa ction",
      "Ġhe alth",
      "Ġh ide",
      "Ġh ip",
      "Ġm c",
      "Ġm as",
      "Ġm id",
      "Ġm issed",
      "Ġm oney",
      "re g",
      "Ġb i",
      "Ġb le",
      "Ġb ound",
      "Ġb owed",
      "Ġb orn",
      "ing s",
      "Ġto w",
      "Ġto wel",
      "Ġf ed",
      "Ġc re",
      "Ġc ous",
      "Ġc irc",
      "er ia",
      "at ure",
      "Ġn umb",
      "Ġd a",
      "Ġd ated",
      "nd ay",
      "Ġp an",
      "Ġp oo",
      "Ġp ark",
      "Ġl ying",
      "Ġth reat",
      "en ly",
      "en ced",
      "en zie",
      "or d",
      "Ġshe ep",
      "Ġshe ets",
      "Ġe ch",
      "om y",
      "id s",
      "Ġme mb",
      "Ġme mory",
      "Ġhis t",
      "ve l",
      "st er",
      "st ill",
      "im p",
      "Ġst or",
      "Ġst ool",
      "Ġre c",
      "Ġre ad",
      "Ġre ach",
      "Ġre sid",
      "Ġre action",
      "ur ch",
      "oo ked",
      "ke nd",
      "ent ed",
      "al ing",
      "ant age",
      "ter n",
      "Ġj ack",
      "Ġgo ld",
      "Ġout f",
      "Ġkn ee",
      "il i",
      "Ġsa ve",
      "Ġover whe",
      "Ġsu spic",
      "Ġhead ing",
      "Ġca fet",
      "Ġfr own",
      "Ġab and",
      "Ġab dom",
      "Ġch ick",
      "Ġch urch",
      "Ġex cept",
      "Ġse ed",
      "Ġse nd",
      "ck s",
      "ck enzie",
      "Ġyour s",
      "Ġal co",
      "Ġpu blic",
      "Ġcl ut",
      "am ed",
      "Ġcon s",
      "Ġche cking",
      "Ġga p",
      "if f",
      "Ġrep e",
      "Ġfl uttered",
      "Ġfl ashed",
      "Ġgr ad",
      "Ġbo lly",
      "Ġr at",
      "fe ction",
      "Ġbl ess",
      "Ġho ped",
      "us ion",
      "Ġcom b",
      "Ġmo ist",
      "Ġmo de",
      "be cause",
      "Ġhard ened",
      "bb orn",
      "Ġfir m",
      "Ġlau ghter",
      "Ġsc rew",
      "ie w",
      "ie ce",
      "Ġthought ful",
      "Ġloo se",
      "Ġbab e",
      "Ġapp ro",
      "Ġint ense",
      "Ġcont em",
      "Ġsto ve",
      "Ġad just",
      "Ġexp osed",
      "ag ed",
      "ag er",
      "Ġtr ust",
      "Ġplan ning",
      "Ġswe lling",
      "Ġra gged",
      "Ġslid ing",
      "Ġstay ing",
      "Ġspe ed",
      "Ġdoctor s",
      "Ġbu ilt",
      "Ġear ly",
      "Ġfind ing",
      "Ġneck lace",
      "Ġsweet ie",
      "Ġwonder ing",
      "Ġbur ning",
      "Ġni bbled",
      "Ġres ist",
      "Ġres pect",
      "Ġres ult",
      "Ġfoll ow",
      "Ġbro ad",
      "Ġstu bborn",
      "Ġeas ier",
      "Ġenjo ying",
      "Ġposs ib",
      "Ġdiffe rence",
      "Ġtou ched",
      "Ġsing ing",
      "Ġlow er",
      "Ġemotion al",
      "Ġstro ke",
      "Ġstro de",
      "cept ion",
      "Ġshru g",
      "Ġconf used",
      "Ġconf usion",
      "Ġmanag er",
      "Ġau nt",
      "Ġbreat he",
      "Ġgigg ling",
      "Ġexh a",
      "bo ard",
      "Ġter ri",
      "Ġshudd er",
      "Ġshudd ered",
      "every thing",
      "Ġfre sh",
      "Ġdu g",
      "Ġstre et",
      "Ġtoward s",
      "Ġcas es",
      "Ġshort s",
      "Ġphys ical",
      "Ġhonest ly",
      "Ġdist ance",
      "Ġju ices",
      "Ġhung ry",
      "Ġdet a",
      "Ġinf l",
      "Ġrele ased",
      "Ġorgas m",
      "Ġorgas ms",
      "Ġclinical s",
      "Ġbri ef",
      "Ġadv antage",
      "Ġsli pped",
      "Ġwhimper ed",
      "Ġarri ved",
      "Ġpriv ate",
      "Ġpicture s",
      "wor k",
      "Ġnarr owed",
      "Ġfrustr ated",
      "Ġreluct antly",
      "Ġpaper work",
      "Ġengage ment",
      "Ġapolog ize",
      "Ġimmed iately",
      "Ġnap kin",
      "Ġdon nie",
      "til ting",
      "Ġwee kend",
      "pull ing",
      "slow ly",
      "Ġtil ted",
      "Ġech o",
      "Ġoverwhe l",
      "Ġcafet eria",
      "Ġbolly wood",
      "a im",
      "a pping",
      "b ly",
      "b all",
      "c in",
      "c hes",
      "c lo",
      "e ared",
      "f l",
      "f riend",
      "f fect",
      "i ving",
      "i ves",
      "l ong",
      "l ooking",
      "n oun",
      "o p",
      "o ve",
      "o ot",
      "o kay",
      "o get",
      "p ri",
      "p led",
      "r on",
      "t le",
      "u ma",
      "v y",
      "v ious",
      "w a",
      "Ġ 1",
      "Ġt our",
      "Ġt ired",
      "Ġa vo",
      "Ġs ink",
      "Ġs ara",
      "Ġs ense",
      "Ġw icked",
      "Ġhe a",
      "Ġh ook",
      "Ġh ate",
      "Ġh itting",
      "Ġh idden",
      "Ġm ill",
      "Ġm ist",
      "Ġm ort",
      "Ġm ckenzie",
      "Ġb en",
      "Ġo ri",
      "Ġi ll",
      "Ġi ris",
      "Ġto ne",
      "Ġf an",
      "Ġf light",
      "Ġc ard",
      "Ġc ook",
      "er ned",
      "er ie",
      "at ive",
      "at ives",
      "Ġn one",
      "Ġn uzz",
      "Ġd en",
      "Ġd ab",
      "Ġd ie",
      "Ġd ancing",
      "Ġd inged",
      "nd red",
      "is fied",
      "Ġp or",
      "Ġp ow",
      "Ġp au",
      "Ġl ar",
      "Ġl ay",
      "Ġl ace",
      "Ġy o",
      "Ġg le",
      "Ġg ul",
      "Ġg ames",
      "it ing",
      "on ing",
      "on es",
      "Ġin ch",
      "or g",
      "ar m",
      "Ġshe et",
      "Ġe ffect",
      "Ġbe er",
      "Ġbe at",
      "Ġbe cky",
      "Ġbe long",
      "id ence",
      "im med",
      "ac es",
      "ay ed",
      "Ġst ation",
      "Ġre qu",
      "Ġk ing",
      "Ġfor ce",
      "se e",
      "ic ing",
      "Ġli e",
      "ent ive",
      "Ġsh out",
      "Ġsh own",
      "ir d",
      "ee ch",
      "al k",
      "al s",
      "all en",
      "Ġup set",
      "Ġan noun",
      "ri e",
      "ri age",
      "ter s",
      "Ġgo es",
      "Ġne ar",
      "ch ar",
      "th ree",
      "Ġno ise",
      "il a",
      "Ġsu v",
      "Ġsu ck",
      "Ġsu mm",
      "Ġis s",
      "Ġca b",
      "Ġab ove",
      "ain ed",
      "ct omy",
      "Ġro ll",
      "Ġro ck",
      "Ġro cket",
      "Ġey el",
      "Ġch ances",
      "Ġch allen",
      "Ġle ading",
      "am ped",
      "Ġpl aced",
      "Ġknow ing",
      "lf riend",
      "Ġcon st",
      "Ġcon nor",
      "Ġsp eech",
      "lt ed",
      "nt ed",
      "Ġfl u",
      "Ġmu s",
      "Ġmu lt",
      "Ġmu sc",
      "ase ctomy",
      "Ġgl ance",
      "Ġbl ow",
      "Ġbl ur",
      "Ġho vered",
      "Ġsl ide",
      "Ġsl ung",
      "Ġwa ve",
      "Ġpo l",
      "Ġpo or",
      "be nding",
      "Ġpro ve",
      "Ġfin al",
      "Ġafter no",
      "Ġhard ly",
      "Ġsur m",
      "Ġv iew",
      "Ġv asectomy",
      "Ġmar ry",
      "Ġmar riage",
      "Ġac he",
      "Ġad or",
      "Ġad ult",
      "Ġcou nt",
      "Ġcou pled",
      "Ġwat ching",
      "ag ue",
      "Ġtr ay",
      "Ġfam ili",
      "co cking",
      "ward s",
      "Ġquestion s",
      "Ġfinis hing",
      "Ġsi g",
      "Ġsex ual",
      "Ġna ked",
      "Ġhu ndred",
      "Ġplay ed",
      "Ġkeep ing",
      "Ġwait er",
      "gn ized",
      "Ġsn ugg",
      "Ġsn iff",
      "Ġdis miss",
      "Ġcr ack",
      "Ġcr ash",
      "Ġtal ked",
      "Ġgir lfriend",
      "Ġcu nt",
      "Ġcle aned",
      "Ġgra bbing",
      "Ġpant ing",
      "Ġrest ed",
      "Ġatt entive",
      "ne ath",
      "Ġdra gged",
      "Ġdec or",
      "Ġsil ent",
      "Ġgri ef",
      "Ġtu gged",
      "Ġpur ple",
      "Ġele ct",
      "Ġsupp ort",
      "Ġeas ily",
      "Ġworry ing",
      "Ġdro pping",
      "Ġposs ess",
      "Ġbreak fast",
      "Ġtra uma",
      "Ġimp o",
      "Ġins isted",
      "Ġins ane",
      "Ġexpect ed",
      "Ġexpect antly",
      "Ġset tled",
      "Ġfur iously",
      "Ġlight s",
      "Ġclot h",
      "Ġpregn ancy",
      "Ġfun ny",
      "Ġreg ardless",
      "Ġemb r",
      "Ġhor iz",
      "Ġbox ers",
      "Ġpri est",
      "Ġgas p",
      "Ġkno b",
      "Ġgrim ace",
      "Ġthir d",
      "Ġteasing ly",
      "bo dy",
      "pl ay",
      "ring s",
[...]
