{
  "version": "1.0",
  "truncation": null,
  "padding": null,
  "added_tokens": [
    {
      "id": 0,
      "content": "[START]",
      "single_word": false,
      "lstrip": false,
      "rstrip": false,
      "normalized": false,
      "special": true
    },
    {
      "id": 1,
      "content": "[END]",
      "single_word": false,
      "lstrip": false,
      "rstrip": false,
      "normalized": false,
      "special": true
    },
    {
      "id": 2,
      "content": "[SEP]",
      "single_word": false,
      "lstrip": false,
      "rstrip": false,
      "normalized": false,
      "special": true
    },
    {
      "id": 3,
      "content": "[PAD]",
      "single_word": false,
      "lstrip": false,
      "rstrip": false,
      "normalized": false,
      "special": true
    }
  ],
  "normalizer": null,
  "pre_tokenizer": {
    "type": "ByteLevel",
    "add_prefix_space": false,
    "trim_offsets": true,
    "use_regex": true
  },
  "post_processor": {
    "type": "BertProcessing",
    "sep": [
      "[SEP]",
      2
    ],
    "cls": [
      "[START]",
      0
    ]
  },
  "decoder": {
    "type": "ByteLevel",
    "add_prefix_space": true,
    "trim_offsets": true,
    "use_regex": true
  },
  "model": {
    "type": "BPE",
    "dropout": null,
    "unk_token": null,
    "continuing_subword_prefix": null,
    "end_of_word_suffix": null,
    "fuse_unk": false,
    "byte_fallback": false,
    "vocab": {
      "[START]": 0,
      "[END]": 1,
      "[SEP]": 2,
      "[PAD]": 3,
      "!": 4,
      "\"": 5,
      "#": 6,
      "$": 7,
      "%": 8,
      "&": 9,
      "'": 10,
      "(": 11,
      ")": 12,
      "*": 13,
      "+": 14,
      ",": 15,
      "-": 16,
      ".": 17,
      "/": 18,
      "0": 19,
      "1": 20,
      "2": 21,
      "3": 22,
      "4": 23,
      "5": 24,
      "6": 25,
      "7": 26,
      "8": 27,
      "9": 28,
      ":": 29,
      ";": 30,
      "<": 31,
      "=": 32,
      ">": 33,
      "?": 34,
      "@": 35,
      "A": 36,
      "B": 37,
      "C": 38,
      "D": 39,
      "E": 40,
      "F": 41,
      "G": 42,
      "H": 43,
      "I": 44,
      "J": 45,
      "K": 46,
      "L": 47,
      "M": 48,
      "N": 49,
      "O": 50,
      "P": 51,
      "Q": 52,
      "R": 53,
      "S": 54,
      "T": 55,
      "U": 56,
      "V": 57,
      "W": 58,
      "X": 59,
      "Y": 60,
      "Z": 61,
      "[": 62,
      "\\": 63,
      "]": 64,
      "^": 65,
      "_": 66,
      "`": 67,
      "a": 68,
      "b": 69,
      "c": 70,
      "d": 71,
      "e": 72,
      "f": 73,
      "g": 74,
      "h": 75,
      "i": 76,
      "j": 77,
      "k": 78,
      "l": 79,
      "m": 80,
      "n": 81,
      "o": 82,
      "p": 83,
      "q": 84,
      "r": 85,
      "s": 86,
      "t": 87,
      "u": 88,
      "v": 89,
      "w": 90,
      "x": 91,
      "y": 92,
      "z": 93,
      "{": 94,
      "|": 95,
      "}": 96,
      "~": 97,
      "¡": 98,
      "¢": 99,
      "£": 100,
      "¤": 101,
      "¥": 102,
      "¦": 103,
      "§": 104,
      "¨": 105,
      "©": 106,
      "ª": 107,
      "«": 108,
      "¬": 109,
      "®": 110,
      "¯": 111,
      "°": 112,
      "±": 113,
      "²": 114,
      "³": 115,
      "´": 116,
      "µ": 117,
      "¶": 118,
      "·": 119,
      "¸": 120,
      "¹": 121,
      "º": 122,
      "»": 123,
      "¼": 124,
      "½": 125,
      "¾": 126,
      "¿": 127,
      "À": 128,
      "Á": 129,
      "Â": 130,
      "Ã": 131,
      "Ä": 132,
      "Å": 133,
      "Æ": 134,
      "Ç": 135,
      "È": 136,
      "É": 137,
      "Ê": 138,
      "Ë": 139,
      "Ì": 140,
      "Í": 141,
      "Î": 142,
      "Ï": 143,
      "Ð": 144,
      "Ñ": 145,
      "Ò": 146,
      "Ó": 147,
      "Ô": 148,
      "Õ": 149,
      "Ö": 150,
      "×": 151,
      "Ø": 152,
      "Ù": 153,
      "Ú": 154,
      "Û": 155,
      "Ü": 156,
      "Ý": 157,
      "Þ": 158,
      "ß": 159,
      "à": 160,
      "á": 161,
      "â": 162,
      "ã": 163,
      "ä": 164,
      "å": 165,
      "æ": 166,
      "ç": 167,
      "è": 168,
      "é": 169,
      "ê": 170,
      "ë": 171,
      "ì": 172,
      "í": 173,
      "î": 174,
      "ï": 175,
      "ð": 176,
      "ñ": 177,
      "ò": 178,
      "ó": 179,
      "ô": 180,
      "õ": 181,
      "ö": 182,
      "÷": 183,
      "ø": 184,
      "ù": 185,
      "ú": 186,
      "û": 187,
      "ü": 188,
      "ý": 189,
      "þ": 190,
      "ÿ": 191,
      "Ā": 192,
      "ā": 193,
      "Ă": 194,
      "ă": 195,
      "Ą": 196,
      "ą": 197,
      "Ć": 198,
      "ć": 199,
      "Ĉ": 200,
      "ĉ": 201,
      "Ċ": 202,
      "ċ": 203,
      "Č": 204,
      "č": 205,
      "Ď": 206,
      "ď": 207,
      "Đ": 208,
      "đ": 209,
      "Ē": 210,
      "ē": 211,
      "Ĕ": 212,
      "ĕ": 213,
      "Ė": 214,
      "ė": 215,
      "Ę": 216,
      "ę": 217,
      "Ě": 218,
      "ě": 219,
      "Ĝ": 220,
      "ĝ": 221,
      "Ğ": 222,
      "ğ": 223,
      "Ġ": 224,
      "ġ": 225,
      "Ģ": 226,
      "ģ": 227,
      "Ĥ": 228,
      "ĥ": 229,
      "Ħ": 230,
      "ħ": 231,
      "Ĩ": 232,
      "ĩ": 233,
      "Ī": 234,
      "ī": 235,
      "Ĭ": 236,
      "ĭ": 237,
      "Į": 238,
      "į": 239,
      "İ": 240,
      "ı": 241,
      "Ĳ": 242,
      "ĳ": 243,
      "Ĵ": 244,
      "ĵ": 245,
      "Ķ": 246,
      "ķ": 247,
      "ĸ": 248,
      "Ĺ": 249,
      "ĺ": 250,
      "Ļ": 251,
      "ļ": 252,
      "Ľ": 253,
      "ľ": 254,
      "Ŀ": 255,
      "ŀ": 256,
      "Ł": 257,
      "ł": 258,
      "Ń": 259,
      "he": 260,
      "Ġt": 261,
      "Ġa": 262,
      "in": 263,
      "Ġs": 264,
      "Ġw": 265,
      "ou": 266,
      "Ġ,": 267,
      "ed": 268,
      "Ġhe": 269,
      "Ġh": 270,
      "Ġthe": 271,
      "Ġ'": 272,
      "re": 273,
      "Ġb": 274,
      "ing": 275,
      "Ġo": 276,
      "nd": 277,
      "Ġto": 278,
      "Ġm": 279,
      "Ġc": 280,
      "er": 281,
      "Ġf": 282,
      "at": 283,
      "Ġd": 284,
      "Ġi": 285,
      "Ġn": 286,
      "Ġher": 287,
      "is": 288,
      "Ġth": 289,
      "as": 290,
      "Ġl": 291,
      "an": 292,
      "Ġ''": 293,
      "ll": 294,
      "Ġand": 295,
      "en": 296,
      "or": 297,
      "Ġp": 298,
      "on": 299,
      "it": 300,
      "ar": 301,
      "Ġshe": 302,
      "Ġg": 303,
      "Ġin": 304,
      "Ġof": 305,
      "es": 306,
      "Ġy": 307,
      "om": 308,
      "Ġe": 309,
      "Ġha": 310,
      "ow": 311,
      "Ġyou": 312,
      "Ġwas": 313,
      "Ġbe": 314,
      "id": 315,
      "ld": 316,
      "gh": 317,
      "ac": 318,
      "Ġhis": 319,
      "im": 320,
      "st": 321,
      "ly": 322,
      "le": 323,
      "Ġon": 324,
      "'t": 325,
      "Ġthat": 326,
      "ve": 327,
      "ut": 328,
      "ot": 329,
      "Ġst": 330,
      "ay": 331,
      "et": 332,
      "out": 333,
      "Ġu": 334,
      "she": 335,
      "Ġr": 336,
      "Ġas": 337,
      "Ġ?": 338,
      "se": 339,
      "ould": 340,
      "ver": 341,
      "Ġre": 342,
      "ght": 343,
      "Ġwh": 344,
      "Ġit": 345,
      "ith": 346,
      "ic": 347,
      "Ġk": 348,
      "ad": 349,
      "oo": 350,
      "al": 351,
      "Ġfor": 352,
      "Ġwith": 353,
      "Ġhim": 354,
      "Ġwe": 355,
      "ent": 356,
      "ke": 357,
      "Ġdo": 358,
      "ir": 359,
      "Ġme": 360,
      "Ġan": 361,
      "Ġat": 362,
      "Ġj": 363,
      "her": 364,
      "ight": 365,
      "ur": 366,
      "Ġhad": 367,
      "Ġsh": 368,
      "ion": 369,
      "all": 370,
      "ked": 371,
      "ee": 372,
      "Ġli": 373,
      "ant": 374,
      "Ġsa": 375,
      "Ġbut": 376,
      "ch": 377,
      "pp": 378,
      "Ġout": 379,
      "ro": 380,
      "Ġup": 381,
      "Ġso": 382,
      "ri": 383,
      "ack": 384,
      "Ġne": 385,
      "ain": 386,
      "th": 387,
      "il": 388,
      "Ġmy": 389,
      "ore": 390,
      "am": 391,
      "ce": 392,
      "ter": 393,
      "ust": 394,
      "rou": 395,
      "Ġkn": 396,
      "hen": 397,
      "Ġcould": 398,
      "ome": 399,
      "Ġdid": 400,
      "Ġwhat": 401,
      "ab": 402,
      "king": 403,
      "Ġab": 404,
      "Ġback": 405,
      "Ġsaid": 406,
      "Ġint": 407,
      "Ġfr": 408,
      "one": 409,
      "Ġnot": 410,
      "own": 411,
      "Ġall": 412,
      "Ġhave": 413,
      "Ġwould": 414,
      "and": 415,
      "Ġsu": 416,
      "Ġthis": 417,
      "the": 418,
      "Ġag": 419,
      "Ġwant": 420,
      "Ġgo": 421,
      "ind": 422,
      "ss": 423,
      "ard": 424,
      "ill": 425,
      "ake": 426,
      "ct": 427,
      "Ġloo": 428,
      "ry": 429,
      "Ġcl": 430,
      "Ġjust": 431,
      "Ġhand": 432,
      "Ġro": 433,
      "Ġal": 434,
      "Ġch": 435,
      "Ġle": 436,
      "Ġwor": 437,
      "Ġinto": 438,
      "hed": 439,
      "Ġwere": 440,
      "Ġabout": 441,
      "ally": 442,
      "Ġdown": 443,
      "au": 444,
      "Ġse": 445,
      "art": 446,
      "ers": 447,
      "Ġagain": 448,
      "Ġex": 449,
      "Ġover": 450,
      "ess": 451,
      "Ġfrom": 452,
      "Ġno": 453,
      "Ġcon": 454,
      "Ġthey": 455,
      "Ġlike": 456,
      "ra": 457,
      "ate": 458,
      "Ġwhen": 459,
      "Ġget": 460,
      "Ġone": 461,
      "way": 462,
      "ast": 463,
      "ace": 464,
      "Ġany": 465,
      "Ġtoo": 466,
      "hing": 467,
      "Ġis": 468,
      "ge": 469,
      "un": 470,
      "us": 471,
      "Ġfe": 472,
      "ide": 473,
      "if": 474,
      "ong": 475,
      "Ġde": 476,
      "Ġtim": 477,
      "Ġif": 478,
      "ous": 479,
      "lf": 480,
      "round": 481,
      "Ġey": 482,
      "ood": 483,
      "ven": 484,
      "Ġknow": 485,
      "ull": 486,
      "Ġthem": 487,
      "Ġman": 488,
      "are": 489,
      "Ġte": 490,
      "ie": 491,
      "Ġlo": 492,
      "Ġsp": 493,
      "ck": 494,
      "Ġyour": 495,
      "Ġbeen": 496,
      "um": 497,
      "very": 498,
      "qu": 499,
      "est": 500,
      "Ġpl": 501,
      "Ġoff": 502,
      "Ġmo": 503,
      "Ġtime": 504,
      "our": 505,
      "ul": 506,
      "Ġsm": 507,
      "Ġthou": 508,
      "Ġar": 509,
      "ig": 510,
      "op": 511,
      "nt": 512,
      "Ġ!": 513,
      "Ġaround": 514,
      "Ġbo": 515,
      "Ġmore": 516,
      "ation": 517,
      "Ġsee": 518,
      "Ġhead": 519,
      "Ġeyes": 520,
      "ink": 521,
      "self": 522,
      "Ġor": 523,
      "nder": 524,
      "Ġgoing": 525,
      "Ġsome": 526,
      "Ġsl": 527,
      "Ġcom": 528,
      "ist": 529,
      "Ġare": 530,
      "Ġv": 531,
      "Ġwho": 532,
      "fe": 533,
      "pped": 534,
      "we": 535,
      "eel": 536,
      "ned": 537,
      "Ġhow": 538,
      "Ġway": 539,
      "Ġthere": 540,
      "ting": 541,
      "Ġeven": 542,
      "Ġthen": 543,
      "ved": 544,
      "Ġfeel": 545,
      "other": 546,
      "ther": 547,
      "ive": 548,
      "ving": 549,
      "Ġpre": 550,
      "Ġpo": 551,
      "Ġthought": 552,
      "Ġgr": 553,
      "Ġco": 554,
      "ire": 555,
      "Ġtheir": 556,
      "fore": 557,
      "ine": 558,
      "Ġnow": 559,
      "ice": 560,
      "ure": 561,
      "Ġby": 562,
      "sed": 563,
      "ft": 564,
      "gan": 565,
      "Ġother": 566,
      "Ġqu": 567,
      "led": 568,
      "ile": 569,
      "lt": 570,
      "Ġbefore": 571,
      "Ġasked": 572,
      "but": 573,
      "pt": 574,
      "Ġen": 575,
      "Ġthan": 576,
      "Ġaf": 577,
      "Ġthink": 578,
      "Ġneed": 579,
      "Ġpull": 580,
      "Ġbre": 581,
      "ort": 582,
      "Ġwanted": 583,
      "Ġright": 584,
      "Ġaway": 585,
      "Ġlooked": 586,
      "Ġkne": 587,
      "Ġsay": 588,
      "Ġem": 589,
      "pl": 590,
      "Ġhere": 591,
      "ick": 592,
      "ade": 593,
      "act": 594,
      "omet": 595,
      "thing": 596,
      "Ġwom": 597,
      "per": 598,
      "ru": 599,
      "dy": 600,
      "Ġfl": 601,
      "Ġtw": 602,
      "Ġtur": 603,
      "Ġevery": 604,
      "Ġshould": 605,
      "ps": 606,
      "Ġmom": 607,
      "ried": 608,
      "Ġwa": 609,
      "Ġmu": 610,
      "Ġbl": 611,
      "here": 612,
      "be": 613,
      "ning": 614,
      "rough": 615,
      "Ġclo": 616,
      "na": 617,
      "end": 618,
      "Ġknew": 619,
      "Ġthrough": 620,
      "Ġhands": 621,
      "Ġpro": 622,
      "Ġcan": 623,
      "ite": 624,
      "Ġarm": 625,
      "ious": 626,
      "ound": 627,
      "Ġonly": 628,
      "omething": 629,
      "Ġbet": 630,
      "ag": 631,
      "ear": 632,
      "ment": 633,
      "wh": 634,
      "Ġmuch": 635,
      "able": 636,
      "ame": 637,
      "ak": 638,
      "Ġgu": 639,
      "aking": 640,
      "Ġlong": 641,
      "Ġdoor": 642,
      "ach": 643,
      "Ġthing": 644,
      "ated": 645,
      "Ġche": 646,
      "Ġbr": 647,
      "Ġgl": 648,
      "Ġsomething": 649,
      "Ġlet": 650,
      "Ġagainst": 651,
      "ath": 652,
      "Ġday": 653,
      "Ġroom": 654,
      "Ġstill": 655,
      "ress": 656,
      "me": 657,
      "Ġmake": 658,
      "Ġmade": 659,
      "Ġnight": 660,
      "ady": 661,
      "Ġunder": 662,
      "ward": 663,
      "Ġlook": 664,
      "Ġgood": 665,
      "dd": 666,
      "Ġtry": 667,
      "Ġafter": 668,
      "pe": 669,
      "Ġbec": 670,
      "ched": 671,
      "ble": 672,
      "Ġun": 673,
      "tle": 674,
      "Ġface": 675,
      "Ġnever": 676,
      "Ġbody": 677,
      "eep": 678,
      "Ġstart": 679,
      "iz": 680,
      "Ġsure": 681,
      "Ġwat": 682,
      "de": 683,
      "you": 684,
      "ened": 685,
      "ass": 686,
      "wn": 687,
      "ough": 688,
      "Ġac": 689,
      "Ġwal": 690,
      "Ġgot": 691,
      "erson": 692,
      "Ġwell": 693,
      "Ġho": 694,
      "Ġtake": 695,
      "Ġfir": 696,
      "Ġpr": 697,
      "Ġsc": 698,
      "ause": 699,
      "Ġtook": 700,
      "Ġtell": 701,
      "Ġmoment": 702,
      "Ġwo": 703,
      "Ġmar": 704,
      "Ġherself": 705,
      "ree": 706,
      "ance": 707,
      "Ġreally": 708,
      "Ġcar": 709,
      "Ġwoman": 710,
      "ity": 711,
      "Ġcont": 712,
      "Ġtwo": 713,
      "Ġbed": 714,
      "ered": 715,
      "iss": 716,
      "Ġim": 717,
      "when": 718,
      "ip": 719,
      "ies": 720,
      "lla": 721,
      "Ġmind": 722,
      "Ġlau": 723,
      "ather": 724,
      "Ġhel": 725,
      "Ġtr": 726,
      "Ġwhere": 727,
      "Ġhapp": 728,
      "ied": 729,
      "Ġcome": 730,
      "Ġfelt": 731,
      "Ġwhy": 732,
      "co": 733,
      "Ġlit": 734,
      "Ġca": 735,
      "anna": 736,
      "Ġmor": 737,
      "Ġdes": 738,
      "ep": 739,
      "ks": 740,
      "Ġlove": 741,
      "ouse": 742,
      "Ġop": 743,
      "ang": 744,
      "so": 745,
      "Ġhard": 746,
      "Ġfo": 747,
      "xt": 748,
      "ff": 749,
      "ik": 750,
      "Ġarms": 751,
      "Ġwill": 752,
      "age": 753,
      "Ġhelp": 754,
      "med": 755,
      "Ġlittle": 756,
      "Ġpulled": 757,
      "Ġ-": 758,
      "ave": 759,
      "gg": 760,
      "air": 761,
      "Ġdis": 762,
      "Ġbecause": 763,
      "row": 764,
      "ose": 765,
      "get": 766,
      "Ġfirst": 767,
      "anc": 768,
      "ily": 769,
      "Ġwork": 770,
      "ila": 771,
      "Ġlife": 772,
      "Ġanything": 773,
      "Ġturned": 774,
      "side": 775,
      "Ġtrying": 776,
      "ild": 777,
      "mo": 778,
      "ook": 779,
      "Ġfin": 780,
      "Ġwait": 781,
      "Ġcou": 782,
      "ase": 783,
      "ap": 784,
      "Ġput": 785,
      "Ġfeeling": 786,
      "Ġyear": 787,
      "Ġcomp": 788,
      "Ġreal": 789,
      "ia": 790,
      "Ġmight": 791,
      "ince": 792,
      "Ġtou": 793,
      "Ġjo": 794,
      "ue": 795,
      "Ġcare": 796,
      "aire": 797,
      "ted": 798,
      "Ġhouse": 799,
      "Ġfing": 800,
      "Ġrel": 801,
      "outh": 802,
      "no": 803,
      "Ġtold": 804,
      "Ġnext": 805,
      "ful": 806,
      "cl": 807,
      "Ġfind": 808,
      "his": 809,
      "Ġcall": 810,
      "Ġbot": 811,
      "Ġmouth": 812,
      "sh": 813,
      "az": 814,
      "Ġlast": 815,
      "Ġword": 816,
      "Ġbeh": 817,
      "Ġanother": 818,
      "Ġam": 819,
      "Ġcame": 820,
      "Ġpe": 821,
      "Ġsmil": 822,
      "ont": 823,
      "Ġshow": 824,
      "Ġunt": 825,
      "than": 826,
      "Ġapp": 827,
      "Ġsur": 828,
      "ict": 829,
      "Ġown": 830,
      "ching": 831,
      "Ġbu": 832,
      "Ġran": 833,
      "Ġthings": 834,
      "ling": 835,
      "Ġus": 836,
      "they": 837,
      "Ġbeing": 838,
      "Ġuntil": 839,
      "esh": 840,
      "Ġton": 841,
      "Ġste": 842,
      "that": 843,
      "Ġact": 844,
      "ions": 845,
      "Ġhome": 846,
      "Ġtal": 847,
      "what": 848,
      "Ġbehind": 849,
      "Ġvo": 850,
      "ared": 851,
      "umn": 852,
      "ty": 853,
      "te": 854,
      "amie": 855,
      "Ġfather": 856,
      "utumn": 857,
      "Ġrest": 858,
      "Ġpart": 859,
      "annah": 860,
      "Ġvery": 861,
      "riend": 862,
      "to": 863,
      "ence": 864,
      "Ġwhile": 865,
      "most": 866,
      "ner": 867,
      "hes": 868,
      "ool": 869,
      "igh": 870,
      "Ġrob": 871,
      "Ġres": 872,
      "Ġstr": 873,
      "ason": 874,
      "Ġnew": 875,
      "ually": 876,
      "Ġenough": 877,
      "Ġide": 878,
      "Ġkeep": 879,
      "Ġph": 880,
      "Ġyes": 881,
      "Ġkiss": 882,
      "Ġhor": 883,
      "Ġlooking": 884,
      "Ġel": 885,
      "ich": 886,
      "Ġeach": 887,
      "Ġever": 888,
      "Ġear": 889,
      "Ġwee": 890,
      "pping": 891,
      "Ġleft": 892,
      "ating": 893,
      "Ġthose": 894,
      "uck": 895,
      "Ġsle": 896,
      "ready": 897,
      "Ġethan": 898,
      "Ġquick": 899,
      "Ġour": 900,
      "Ġmat": 901,
      "Ġper": 902,
      "Ġmean": 903,
      "aring": 904,
      "Ġvoice": 905,
      "Ġev": 906,
      "Ġalready": 907,
      "Ġalmost": 908,
      "Ġsince": 909,
      "Ġmin": 910,
      "Ġplan": 911,
      "Ġbetter": 912,
      "mor": 913,
      "Ġmoved": 914,
      "Ġad": 915,
      "ise": 916,
      "ens": 917,
      "hel": 918,
      "Ġfriend": 919,
      "Ġsoft": 920,
      "Ġhold": 921,
      "Ġyears": 922,
      "ped": 923,
      "ross": 924,
      "Ġwr": 925,
      "Ġemerson": 926,
      "pect": 927,
      "Ġfew": 928,
      "ness": 929,
      "Ġsk": 930,
      "Ġwonder": 931,
      "ves": 932,
      "Ġidea": 933,
      "gether": 934,
      "Ġfront": 935,
      "Ġstarted": 936,
      "Ġgive": 937,
      "Ġopen": 938,
      "Ġhop": 939,
      "aybe": 940,
      "ople": 941,
      "ully": 942,
      "Ġset": 943,
      "Ġsmiled": 944,
      "ren": 945,
      "Ġsmile": 946,
      "Ġhair": 947,
      "Ġra": 948,
      "Ġplace": 949,
      "Ġtried": 950,
      "Ġstand": 951,
      "room": 952,
      "ber": 953,
      "Ġdone": 954,
      "Ġside": 955,
      "day": 956,
      "arr": 957,
      "Ġshook": 958,
      "Ġang": 959,
      "Ġsto": 960,
      "Ġtogether": 961,
      "Ġass": 962,
      "Ġclos": 963,
      "Ġsit": 964,
      "shed": 965,
      "ne": 966,
      "Ġdoing": 967,
      "Ġbreath": 968,
      "Ġwords": 969,
      "there": 970,
      "Ġboth": 971,
      "with": 972,
      "Ġrepl": 973,
      "Ġpeople": 974,
      "Ġfound": 975,
      "Ġgre": 976,
      "owed": 977,
      "Ġwent": 978,
      "orm": 979,
      "Ġrealiz": 980,
      "Ġmove": 981,
      "Ġbel": 982,
      "Ġwalked": 983,
      "ways": 984,
      "Ġonce": 985,
      "ately": 986,
      "Ġsat": 987,
      "Ġrun": 988,
      "Ġtable": 989,
      "Ġhur": 990,
      "Ġminut": 991,
      "Ġend": 992,
      "Ġcab": 993,
      "Ġfingers": 994,
      "Ġok": 995,
      "Ġsaw": 996,
      "ater": 997,
      "Ġhimself": 998,
      "Ġ*": 999,
      "Ġdin": 1000,
      "ween": 1001,
      "gn": 1002,
      "Ġinside": 1003,
      "Ġatt": 1004,
      "Ġsw": 1005,
      "Ġcur": 1006,
      "Ġstop": 1007,
      "Ġsomeone": 1008,
      "ably": 1009,
      "Ġtoward": 1010,
      "Ġmen": 1011,
      "Ġjake": 1012,
      "Ġinst": 1013,
      "Ġeverything": 1014,
      "Ġautumn": 1015,
      "Ġclaire": 1016,
      "ark": 1017,
      "ghed": 1018,
      "Ġfam": 1019,
      "int": 1020,
      "Ġrose": 1021,
      "Ġbetween": 1022,
      "Ġquickly": 1023,
      "oy": 1024,
      "Ġmorning": 1025,
      "aught": 1026,
      "Ġsho": 1027,
      "Ġmother": 1028,
      "Ġbit": 1029,
      "Ġlaughed": 1030,
      "oney": 1031,
      "Ġunderst": 1032,
      "Ġpast": 1033,
      "Ġneeded": 1034,
      "Ġent": 1035,
      "ell": 1036,
      "Ġdress": 1037,
      "Ġranch": 1038,
      "Ġjamie": 1039,
      "ply": 1040,
      "ised": 1041,
      "Ġmegan": 1042,
      "Ġalways": 1043,
      "ding": 1044,
      "achel": 1045,
      "Ġsoon": 1046,
      "how": 1047,
      "Ġple": 1048,
      "ssi": 1049,
      "ushed": 1050,
      "Ġwhich": 1051,
      "Ġclose": 1052,
      "Ġkind": 1053,
      "Ġbus": 1054,
      "irt": 1055,
      "fully": 1056,
      "Ġquest": 1057,
      "Ġelse": 1058,
      "Ġcour": 1059,
      "ightly": 1060,
      "Ġsmall": 1061,
      "Ġthough": 1062,
      "bed": 1063,
      "Ġheart": 1064,
      "ish": 1065,
      "Ġchest": 1066,
      "Ġstu": 1067,
      "cked": 1068,
      "ect": 1069,
      "ently": 1070,
      "Ġexpl": 1071,
      "Ġlean": 1072,
      "pr": 1073,
      "Ġpret": 1074,
      "Ġstood": 1075,
      "arent": 1076,
      "ier": 1077,
      "Ġonto": 1078,
      "em": 1079,
      "sw": 1080,
      "inking": 1081,
      "Ġhour": 1082,
      "Ġstay": 1083,
      "Ġsleep": 1084,
      "les": 1085,
      "Ġgetting": 1086,
      "Ġsig": 1087,
      "veral": 1088,
      "Ġpress": 1089,
      "Ġleg": 1090,
      "red": 1091,
      "ished": 1092,
      "Ġbella": 1093,
      "Ġtru": 1094,
      "dded": 1095,
      "Ġcle": 1096,
      "Ġsound": 1097,
      "Ġchild": 1098,
      "Ġcons": 1099,
      "Ġsame": 1100,
      "Ġimp": 1101,
      "Ġpain": 1102,
      "Ġansw": 1103,
      "Ġbelie": 1104,
      "Ġoh": 1105,
      "Ġfig": 1106,
      "Ġpesh": 1107,
      "Ġhannah": 1108,
      "Ġold": 1109,
      "Ġreac": 1110,
      "Ġwhole": 1111,
      "ys": 1112,
      "Ġnothing": 1113,
      "iness": 1114,
      "Ġdri": 1115,
      "ush": 1116,
      "iously": 1117,
      "ci": 1118,
      "Ġmorgan": 1119,
      "ictor": 1120,
      "Ġhu": 1121,
      "Ġhas": 1122,
      "Ġsupp": 1123,
      "aut": 1124,
      "arm": 1125,
      "icked": 1126,
      "Ġheard": 1127,
      "bably": 1128,
      "this": 1129,
      "Ġdec": 1130,
      "Ġalong": 1131,
      "Ġdeep": 1132,
      "Ġseveral": 1133,
      "ced": 1134,
      "ured": 1135,
      "Ġtouch": 1136,
      "Ġlater": 1137,
      "Ġcover": 1138,
      "Ġke": 1139,
      "Ġmeet": 1140,
      "Ġfoll": 1141,
      "Ġokay": 1142,
      "ars": 1143,
      "Ġactually": 1144,
      "Ġphone": 1145,
      "ower": 1146,
      "Ġspe": 1147,
      "sit": 1148,
      "ten": 1149,
      "ention": 1150,
      "Ġleave": 1151,
      "harr": 1152,
      "Ġbeaut": 1153,
      "ail": 1154,
      "Ġtra": 1155,
      "Ġwomen": 1156,
      "Ġfinally": 1157,
      "Ġsor": 1158,
      "Ġob": 1159,
      "Ġdif": 1160,
      "now": 1161,
      "rent": 1162,
      "ictoria": 1163,
      "Ġsim": 1164,
      "Ġswe": 1165,
      "ons": 1166,
      "Ġtaking": 1167,
      "ream": 1168,
      "Ġpossi": 1169,
      "ah": 1170,
      "Ġwithout": 1171,
      "Ġsays": 1172,
      "Ġfamily": 1173,
      "Ġdoes": 1174,
      "ax": 1175,
      "ense": 1176,
      "Ġsex": 1177,
      "not": 1178,
      "Ġcourse": 1179,
      "cept": 1180,
      "ever": 1181,
      "ani": 1182,
      "Ġlips": 1183,
      "Ġreplied": 1184,
      "Ġheld": 1185,
      "Ġgone": 1186,
      "Ġacross": 1187,
      "Ġkit": 1188,
      "Ġprobably": 1189,
      "Ġbig": 1190,
      "Ġcoming": 1191,
      "Ġsurpr": 1192,
      "Ġsorry": 1193,
      "Ġmoney": 1194,
      "issed": 1195,
      "Ġcr": 1196,
      "Ġeye": 1197,
      "my": 1198,
      "Ġsil": 1199,
      "Ġfar": 1200,
      "Ġbelieve": 1201,
      "aced": 1202,
      "Ġplay": 1203,
      "Ġmost": 1204,
      "Ġstopped": 1205,
      "Ġap": 1206,
      "Ġhell": 1207,
      "Ġslow": 1208,
      "fect": 1209,
      "Ġgi": 1210,
      "ol": 1211,
      "Ġnodded": 1212,
      "Ġturn": 1213,
      "Ġsch": 1214,
      "Ġtonight": 1215,
      "Ġmany": 1216,
      "Ġdays": 1217,
      "Ġunderstand": 1218,
      "Ġdro": 1219,
      "Ġdark": 1220,
      "Ġready": 1221,
      "ple": 1222,
      "Ġser": 1223,
      "Ġmaking": 1224,
      "Ġglanc": 1225,
      "gged": 1226,
      "fort": 1227,
      "Ġable": 1228,
      "Ġdr": 1229,
      "Ġexp": 1230,
      "Ġshoulders": 1231,
      "ory": 1232,
      "ipped": 1233,
      "Ġlot": 1234,
      "af": 1235,
      "ither": 1236,
      "arents": 1237,
      "mem": 1238,
      "Ġconf": 1239,
      "Ġjob": 1240,
      "cond": 1241,
      "Ġcomple": 1242,
      "Ġdinner": 1243,
      "Ġtalk": 1244,
      "Ġdel": 1245,
      "vers": 1246,
      "el": 1247,
      "Ġmon": 1248,
      "rew": 1249,
      "Ġfall": 1250,
      "Ġexc": 1251,
      "Ġwatched": 1252,
      "Ġschool": 1253,
      "Ġinter": 1254,
      "ips": 1255,
      "mand": 1256,
      "Ġago": 1257,
      "Ġseemed": 1258,
      "Ġwed": 1259,
      "Ġthree": 1260,
      "Ġthinking": 1261,
      "Ġremem": 1262,
      "Ġworld": 1263,
      "Ġlaugh": 1264,
      "by": 1265,
      "Ġfact": 1266,
      "Ġcloser": 1267,
      "Ġminutes": 1268,
      "Ġacc": 1269,
      "av": 1270,
      "ert": 1271,
      "eth": 1272,
      "Ġslightly": 1273,
      "ret": 1274,
      "Ġask": 1275,
      "Ġmus": 1276,
      "owing": 1277,
      "Ġgrab": 1278,
      "app": 1279,
      "ead": 1280,
      "ined": 1281,
      "Ġnik": 1282,
      "ained": 1283,
      "Ġeas": 1284,
      "Ġevan": 1285,
      "Ġrealized": 1286,
      "ange": 1287,
      "less": 1288,
      "Ġforward": 1289,
      "Ġsecond": 1290,
      "ung": 1291,
      "Ġcomplete": 1292,
      "Ġfine": 1293,
      "ere": 1294,
      "ma": 1295,
      "Ġaw": 1296,
      "Ġhear": 1297,
      "Ġgas": 1298,
      "Ġwedding": 1299,
      "Ġcor": 1300,
      "Ġfur": 1301,
      "ically": 1302,
      "ering": 1303,
      "Ġpoint": 1304,
      "Ġpretty": 1305,
      "Ġchance": 1306,
      "Ġbeautif": 1307,
      "Ġbest": 1308,
      "for": 1309,
      "Ġtak": 1310,
      "itha": 1311,
      "abitha": 1312,
      "Ġfila": 1313,
      "Ġwhis": 1314,
      "Ġexact": 1315,
      "Ġlegs": 1316,
      "Ġgave": 1317,
      "Ġcontro": 1318,
      "Ġdiffe": 1319,
      "Ġneck": 1320,
      "Ġhurt": 1321,
      "Ġdad": 1322,
      "Ġinc": 1323,
      "ix": 1324,
      "arila": 1325,
      "lect": 1326,
      "Ġmoving": 1327,
      "why": 1328,
      "Ġstra": 1329,
      "Ġanyone": 1330,
      "Ġchee": 1331,
      "als": 1332,
      "Ġquestion": 1333,
      "Ġseen": 1334,
      "used": 1335,
      "ary": 1336,
      "Ġleast": 1337,
      "where": 1338,
      "Ġsec": 1339,
      "iding": 1340,
      "after": 1341,
      "Ġalone": 1342,
      "Ġcalled": 1343,
      "Ġreached": 1344,
      "Ġkept": 1345,
      "Ġbeautiful": 1346,
      "Ġconsid": 1347,
      "Ġhers": 1348,
      "irl": 1349,
      "Ġthese": 1350,
      "Ġwrong": 1351,
      "ub": 1352,
      "Ġparents": 1353,
      "arge": 1354,
      "Ġgaz": 1355,
      "oor": 1356,
      "Ġbare": 1357,
      "Ġchair": 1358,
      "Ġbusiness": 1359,
      "chen": 1360,
      "Ġhigh": 1361,
      "umb": 1362,
      "Ġguess": 1363,
      "Ġkitchen": 1364,
      "ening": 1365,
      "gin": 1366,
      "Ġ;": 1367,
      "Ġbreak": 1368,
      "up": 1369,
      "Ġhaving": 1370,
      "Ġdef": 1371,
      "Ġter": 1372,
      "Ġalso": 1373,
      "Ġopened": 1374,
      "ying": 1375,
      "ans": 1376,
      "Ġperson": 1377,
      "Ġwra": 1378,
      "Ġloved": 1379,
      "just": 1380,
      "Ġclot": 1381,
      "Ġapart": 1382,
      "Ġexactly": 1383,
      "Ġpushed": 1384,
      "Ġwin": 1385,
      "Ġwind": 1386,
      "ife": 1387,
      "Ġfriends": 1388,
      "Ġbad": 1389,
      "ings": 1390,
      "Ġnear": 1391,
      "Ġhappened": 1392,
      "Ġtop": 1393,
      "Ġmaybe": 1394,
      "Ġfigure": 1395,
      "Ġmonth": 1396,
      "Ġlight": 1397,
      "Ġbedroom": 1398,
      "Ġbur": 1399,
      "ash": 1400,
      "ides": 1401,
      "Ġfeet": 1402,
      "Ġeveryone": 1403,
      "Ġnate": 1404,
      "ank": 1405,
      "Ġsuch": 1406,
      "os": 1407,
      "lled": 1408,
      "Ġbreast": 1409,
      "Ġglanced": 1410,
      "Ġret": 1411,
      "Ġord": 1412,
      "uring": 1413,
      "tered": 1414,
      "Ġoffice": 1415,
      "Ġwater": 1416,
      "Ġtoday": 1417,
      "Ġmarried": 1418,
      "Ġwhisper": 1419,
      "Ġlist": 1420,
      "ki": 1421,
      "Ġrachel": 1422,
      "rob": 1423,
      "asar": 1424,
      "Ġstom": 1425,
      "Ġchuck": 1426,
      "Ġcra": 1427,
      "Ġlift": 1428,
      "Ġpal": 1429,
      "Ġhalf": 1430,
      "Ġref": 1431,
      "Ġkid": 1432,
      "Ġdifferent": 1433,
      "Ġpulling": 1434,
      "Ġholding": 1435,
      "Ġtre": 1436,
      "jake": 1437,
      "ows": 1438,
      "Ġseat": 1439,
      "Ġresp": 1440,
      "Ġrem": 1441,
      "Ġmarry": 1442,
      "Ġhours": 1443,
      "ond": 1444,
      "Ġshoulder": 1445,
      "ual": 1446,
      "Ġcat": 1447,
      "Ġcaught": 1448,
      "Ġpur": 1449,
      "Ġeither": 1450,
      "Ġguest": 1451,
      "dden": 1452,
      "Ġstanding": 1453,
      "ged": 1454,
      "ents": 1455,
      "antly": 1456,
      "Ġstrong": 1457,
      "Ġbro": 1458,
      "Ġprom": 1459,
      "Ġsoftly": 1460,
      "erest": 1461,
      "Ġair": 1462,
      "Ġner": 1463,
      "Ġgrin": 1464,
      "Ġcontrol": 1465,
      "Ġinv": 1466,
      "Ġclosed": 1467,
      "Ġwalk": 1468,
      "ib": 1469,
      "Ġperfect": 1470,
      "Ġned": 1471,
      "Ġguard": 1472,
      "Ġgirl": 1473,
      "apter": 1474,
      "Ġthank": 1475,
      "Ġleaned": 1476,
      "Ġsighed": 1477,
      "maybe": 1478,
      "Ġfill": 1479,
      "Ġinterest": 1480,
      "Ġwaist": 1481,
      "iver": 1482,
      "Ġhot": 1483,
      "Ġdharr": 1484,
      "Ġmyself": 1485,
      "ations": 1486,
      "Ġstepped": 1487,
      "Ġskin": 1488,
      "Ġcompletely": 1489,
      "Ġanswer": 1490,
      "Ġje": 1491,
      "Ġdemand": 1492,
      "Ġsimply": 1493,
      "chapter": 1494,
      "Ġfloor": 1495,
      "Ġwaiting": 1496,
      "joy": 1497,
      "Ġpass": 1498,
      "nik": 1499,
      "ased": 1500,
      "Ġmust": 1501,
      "ided": 1502,
      "rianna": 1503,
      "**": 1504,
      "pected": 1505,
      "Ġfour": 1506,
      "Ġdet": 1507,
      "ana": 1508,
      "osed": 1509,
      "rose": 1510,
      "head": 1511,
      "Ġmeant": 1512,
      "Ġbuild": 1513,
      "Ġwife": 1514,
      "Ġmet": 1515,
      "Ġdist": 1516,
      "ets": 1517,
      "Ġchildren": 1518,
      "Ġz": 1519,
      "iri": 1520,
      "Ġenjoy": 1521,
      "Ġdisapp": 1522,
      "ited": 1523,
      "enty": 1524,
      "ction": 1525,
      "Ġcount": 1526,
      "Ġhappy": 1527,
      "Ġweek": 1528,
      "Ġstomach": 1529,
      "aving": 1530,
      "Ġbarely": 1531,
      "Ġused": 1532,
      "ger": 1533,
      "Ġpat": 1534,
      "vel": 1535,
      "Ġring": 1536,
      "Ġlear": 1537,
      "Ġmatter": 1538,
      "Ġmess": 1539,
      "Ġyet": 1540,
      "itely": 1541,
      "Ġhorse": 1542,
      "Ġslowly": 1543,
      "Ġstraight": 1544,
      "Ġgaze": 1545,
      "Ġshirt": 1546,
      "Ġworking": 1547,
      "Ġwall": 1548,
      "Ġdire": 1549,
      "Ġhall": 1550,
      "Ġsun": 1551,
      "Ġprot": 1552,
      "Ġcontin": 1553,
      "Ġspend": 1554,
      "ms": 1555,
      "Ġbes": 1556,
      "Ġlarge": 1557,
      "Ġreason": 1558,
      "though": 1559,
      "Ġexper": 1560,
      "Ġed": 1561,
      "Ġgri": 1562,
      "ayn": 1563,
      "Ġign": 1564,
      "Ġkissed": 1565,
      "rought": 1566,
      "gue": 1567,
      "Ġtears": 1568,
      "Ġgreat": 1569,
      "aid": 1570,
      "Ġbar": 1571,
      "Ġstep": 1572,
      "aw": 1573,
      "ton": 1574,
      "Ġwarm": 1575,
      "Ġknowing": 1576,
      "Ġsqu": 1577,
      "Ġbrought": 1578,
      "Ġtaken": 1579,
      "Ġless": 1580,
      "Ġlifted": 1581,
      "hannah": 1582,
      "Ġpossible": 1583,
      "ored": 1584,
      "Ġoutside": 1585,
      "Ġworked": 1586,
      "ract": 1587,
      "Ġcam": 1588,
      "raid": 1589,
      "unch": 1590,
      "ression": 1591,
      "Ġsn": 1592,
      "Ġtimes": 1593,
      "eared": 1594,
      "Ġcoun": 1595,
      "Ġread": 1596,
      "cc": 1597,
      "cco": 1598,
      "ued": 1599,
      "was": 1600,
      "Ġobv": 1601,
      "ushing": 1602,
      "Ġdeal": 1603,
      "Ġcut": 1604,
      "Ġclothes": 1605,
      "Ġsudden": 1606,
      "megan": 1607,
      "Ġadm": 1608,
      "Ġdra": 1609,
      "any": 1610,
      "Ġbreat": 1611,
      "Ġes": 1612,
      "Ġconvers": 1613,
      "cking": 1614,
      "cab": 1615,
      "eah": 1616,
      "Ġtu": 1617,
      "Ġfore": 1618,
      "Ġfive": 1619,
      "alik": 1620,
      "airs": 1621,
      "Ġattention": 1622,
      "Ġdou": 1623,
      "Ġliving": 1624,
      "ship": 1625,
      "ph": 1626,
      "Ġtown": 1627,
      "Ġve": 1628,
      "Ġgently": 1629,
      "ired": 1630,
      "Ġafraid": 1631,
      "vous": 1632,
      "then": 1633,
      "Ġcarl": 1634,
      "dani": 1635,
      "Ġins": 1636,
      "Ġlonger": 1637,
      "ud": 1638,
      "zy": 1639,
      "iet": 1640,
      "Ġnice": 1641,
      "rif": 1642,
      "Ġweeks": 1643,
      "do": 1644,
      "iv": 1645,
      "Ġbab": 1646,
      "Ġpicked": 1647,
      "idd": 1648,
      "Ġshru": 1649,
      "Ġwanting": 1650,
      "ult": 1651,
      "Ġanger": 1652,
      "ses": 1653,
      "Ġhips": 1654,
      "alil": 1655,
      "Ġfinger": 1656,
      "Ġcru": 1657,
      "Ġconc": 1658,
      "Ġbring": 1659,
      "Ġwatch": 1660,
      "morgan": 1661,
      "ha": 1662,
      "Ġslid": 1663,
      "Ġrais": 1664,
      "Ġsens": 1665,
      "Ġhit": 1666,
      "Ġblack": 1667,
      "Ġtalking": 1668,
      "bing": 1669,
      "Ġimag": 1670,
      "Ġyeah": 1671,
      "Ġbegin": 1672,
      "Ġangry": 1673,
      "pesh": 1674,
      "amn": 1675,
      "initely": 1676,
      "Ġext": 1677,
      "Ġafterno": 1678,
      "Ġgasped": 1679,
      "com": 1680,
      "Ġstared": 1681,
      "anger": 1682,
      "Ġfood": 1683,
      "Ġremember": 1684,
      "Ġhope": 1685,
      "Ġsna": 1686,
      "Ġcree": 1687,
      "Ġtrust": 1688,
      "Ġapartment": 1689,
      "Ġfull": 1690,
      "Ġshot": 1691,
      "Ġcoff": 1692,
      "claire": 1693,
      "Ġnervous": 1694,
      "ev": 1695,
      "Ġland": 1696,
      "Ġglass": 1697,
      "Ġplease": 1698,
      "Ġafternoon": 1699,
      "ipp": 1700,
      "ical": 1701,
      "Ġjack": 1702,
      "bella": 1703,
      "Ġexpression": 1704,
      "Ġfight": 1705,
      "Ġpower": 1706,
      "Ġwalking": 1707,
      "Ġtelling": 1708,
      "Ġcoffee": 1709,
      "ors": 1710,
      "Ġleaving": 1711,
      "medi": 1712,
      "ject": 1713,
      "victoria": 1714,
      "Ġled": 1715,
      "Ġbegan": 1716,
      "Ġarri": 1717,
      "Ġsitting": 1718,
      "Ġsupposed": 1719,
      "lectra": 1720,
      "read": 1721,
      "Ġwhite": 1722,
      "ular": 1723,
      "Ġvictoria": 1724,
      "Ġeng": 1725,
      "Ġdesire": 1726,
      "jamie": 1727,
      "Ġtight": 1728,
      "ister": 1729,
      "anged": 1730,
      "Ġtouched": 1731,
      "ial": 1732,
      "use": 1733,
      "Ġlost": 1734,
      "Ġbrother": 1735,
      "Ġheat": 1736,
      "Ġappro": 1737,
      "Ġtomor": 1738,
      "Ġworry": 1739,
      "Ġfear": 1740,
      "ign": 1741,
      "Ġgrand": 1742,
      "ures": 1743,
      "Ġsaying": 1744,
      "Ġretur": 1745,
      "Ġchuckled": 1746,
      "Ġtomorrow": 1747,
      "sp": 1748,
      "sing": 1749,
      "Ġfun": 1750,
      "Ġlace": 1751,
      "Ġinf": 1752,
      "Ġsweet": 1753,
      "ount": 1754,
      "Ġcry": 1755,
      "Ġpay": 1756,
      "Ġgro": 1757,
      "Ġliked": 1758,
      "Ġrelax": 1759,
      "more": 1760,
      "og": 1761,
      "ock": 1762,
      "Ġrep": 1763,
      "Ġshaking": 1764,
      "Ġlip": 1765,
      "Ġspo": 1766,
      "Ġrunning": 1767,
      "Ġinstead": 1768,
      "Ġdefinitely": 1769,
      "Ġwhispered": 1770,
      "Ġconversation": 1771,
      "sarila": 1772,
      "Ġbath": 1773,
      "Ġexperi": 1774,
      "Ġhoped": 1775,
      "ethan": 1776,
      "Ġground": 1777,
      "Ġits": 1778,
      "Ġproble": 1779,
      "Ġwaited": 1780,
      "ought": 1781,
      "Ġcal": 1782,
      "ative": 1783,
      "ison": 1784,
      "Ġuse": 1785,
      "Ġknown": 1786,
      "Ġposit": 1787,
      "Ġcold": 1788,
      "Ġlu": 1789,
      "Ġchange": 1790,
      "rachel": 1791,
      "Ġjum": 1792,
      "Ġpleas": 1793,
      "Ġanim": 1794,
      "riage": 1795,
      "Ġlow": 1796,
      "Ġdemanded": 1797,
      "mediately": 1798,
      "acing": 1799,
      "Ġpol": 1800,
      "Ġgrabbed": 1801,
      "Ġson": 1802,
      "Ġline": 1803,
      "Ġwatching": 1804,
      "Ġfollowed": 1805,
      "oud": 1806,
      "Ġgiving": 1807,
      "Ġten": 1808,
      "Ġgotten": 1809,
      "Ġrelie": 1810,
      "cu": 1811,
      "uth": 1812,
      "Ġshort": 1813,
      "Ġfinished": 1814,
      "Ġpalace": 1815,
      "mm": 1816,
      "Ġwhatever": 1817,
      "Ġclim": 1818,
      "sol": 1819,
      "cles": 1820,
      "Ġguards": 1821,
      "Ġfree": 1822,
      "ize": 1823,
      "Ġwonderful": 1824,
      "Ġtrail": 1825,
      "Ġbaby": 1826,
      "Ġtri": 1827,
      "Ġsuit": 1828,
      "Ġfell": 1829,
      "Ġtongue": 1830,
      "ible": 1831,
      "tic": 1832,
      "Ġhide": 1833,
      "Ġworried": 1834,
      "assed": 1835,
      "lyn": 1836,
      "Ġevening": 1837,
      "Ġpregn": 1838,
      "Ġholt": 1839,
      "Ġguests": 1840,
      "ping": 1841,
      "Ġbag": 1842,
      "Ġcross": 1843,
      "Ġreact": 1844,
      "Ġspent": 1845,
      "Ġdropped": 1846,
      "every": 1847,
      "sure": 1848,
      "ute": 1849,
      "Ġseeing": 1850,
      "Ġrelation": 1851,
      "Ġamaz": 1852,
      "Ġraised": 1853,
      "Ġpressed": 1854,
      "Ġsurprise": 1855,
      "Ġbeside": 1856,
      "br": 1857,
      "Ġpict": 1858,
      "oth": 1859,
      "Ġbreasts": 1860,
      "autumn": 1861,
      "ming": 1862,
      "oun": 1863,
      "Ġfast": 1864,
      "Ġir": 1865,
      "ants": 1866,
      "Ġtruck": 1867,
      "ertain": 1868,
      "Ġfilled": 1869,
      "ken": 1870,
      "Ġaid": 1871,
      "Ġsix": 1872,
      "Ġconsidered": 1873,
      "Ġshif": 1874,
      "iew": 1875,
      "Ġquiet": 1876,
      "Ġclean": 1877,
      "Ġprotect": 1878,
      "Ġred": 1879,
      "Ġimmediately": 1880,
      "Ġminute": 1881,
      "tabitha": 1882,
      "iced": 1883,
      "Ġsub": 1884,
      "Ġpres": 1885,
      "Ġcreek": 1886,
      "ishing": 1887,
      "Ġtrue": 1888,
      "Ġeyeb": 1889,
      "Ġpar": 1890,
      "Ġhum": 1891,
      "Ġlay": 1892,
      "Ġturning": 1893,
      "fortable": 1894,
      "Ġdream": 1895,
      "Ġride": 1896,
      "aged": 1897,
      "Ġsurprised": 1898,
      "Ġname": 1899,
      "ility": 1900,
      "Ġdrive": 1901,
      "Ġeyebrow": 1902,
      "Ġyoun": 1903,
      "Ġfoc": 1904,
      "Ġsitu": 1905,
      "Ġsense": 1906,
      "Ġhon": 1907,
      "Ġhus": 1908,
      "Ġreply": 1909,
      "icking": 1910,
      "Ġfirm": 1911,
      "Ġdesk": 1912,
      "Ġcouple": 1913,
      "ierce": 1914,
      "Ġdecided": 1915,
      "Ġwrapped": 1916,
      "li": 1917,
      "Ġpa": 1918,
      "allen": 1919,
      "Ġwondering": 1920,
      "Ġcovered": 1921,
      "Ġhesit": 1922,
      "oring": 1923,
      "Ġfeelings": 1924,
      "Ġtast": 1925,
      "Ġrele": 1926,
      "Ġchallen": 1927,
      "wel": 1928,
      "Ġbuilding": 1929,
      "Ġobviously": 1930,
      "Ġshrugged": 1931,
      "Ġaidan": 1932,
      "Ġbent": 1933,
      "Ġiss": 1934,
      "emerson": 1935,
      "Ġcrazy": 1936,
      "Ġshut": 1937,
      "Ġcheeks": 1938,
      "Ġcruz": 1939,
      "even": 1940,
      "Ġnorm": 1941,
      "Ġhappen": 1942,
      "Ġcarefully": 1943,
      "Ġclear": 1944,
      "Ġorder": 1945,
      "Ġsuddenly": 1946,
      "Ġbathroom": 1947,
      "Ġadd": 1948,
      "Ġeat": 1949,
      "Ġcho": 1950,
      "cess": 1951,
      "ho": 1952,
      "Ġcre": 1953,
      "ork": 1954,
      "acked": 1955,
      "Ġkasar": 1956,
      "iff": 1957,
      "Ġslipped": 1958,
      "Ġpossib": 1959,
      "Ġella": 1960,
      "Ġlooks": 1961,
      "Ġdesper": 1962,
      "Ġduring": 1963,
      "Ġna": 1964,
      "Ġlate": 1965,
      "Ġele": 1966,
      "ime": 1967,
      "Ġzayn": 1968,
      "Ġrelationship": 1969,
      "aur": 1970,
      "iny": 1971,
      "Ġreg": 1972,
      "Ġarea": 1973,
      "Ġtwenty": 1974,
      "ging": 1975,
      "Ġmur": 1976,
      "ates": 1977,
      "ition": 1978,
      "ooking": 1979,
      "Ġmarriage": 1980,
      "evan": 1981,
      "Ġposition": 1982,
      "Ġmiss": 1983,
      "ery": 1984,
      "ene": 1985,
      "Ġbox": 1986,
      "inted": 1987,
      "orn": 1988,
      "Ġexpect": 1989,
      "Ġrestaur": 1990,
      "Ġdrink": 1991,
      "Ġmonths": 1992,
      "gth": 1993,
      "Ġcow": 1994,
      "Ġpri": 1995,
      "Ġwithin": 1996,
      "ments": 1997,
      "Ġimport": 1998,
      "Ġwindow": 1999,
      "Ġstre": 2000,
      "Ġemma": 2001,
      "Ġcheek": 2002,
      "Ġpleasure": 2003,
      "Ġhung": 2004,
      "Ġmine": 2005,
      "Ġmalik": 2006,
      "Ġfas": 2007,
      "Ġgen": 2008,
      "Ġjason": 2009,
      "Ġsear": 2010,
      "Ġanymore": 2011,
      "Ġcried": 2012,
      "once": 2013,
      "did": 2014,
      "of": 2015,
      "ror": 2016,
      "Ġmention": 2017,
      "Ġblue": 2018,
      "Ġmoments": 2019,
      "Ġsituation": 2020,
      "Ġtabitha": 2021,
      "inst": 2022,
      "Ġsight": 2023,
      "Ġbrianna": 2024,
      "Ġpick": 2025,
      "ager": 2026,
      "Ġkids": 2027,
      "Ġcity": 2028,
      "Ġcrow": 2029,
      "asing": 2030,
      "Ġreve": 2031,
      "Ġgod": 2032,
      "Ġsign": 2033,
      "Ġmeeting": 2034,
      "rit": 2035,
      "Ġsort": 2036,
      "Ġopp": 2037,
      "Ġcase": 2038,
      "ident": 2039,
      "Ġru": 2040,
      "kend": 2041,
      "roat": 2042,
      "ables": 2043,
      "Ġlead": 2044,
      "umber": 2045,
      "Ġtowards": 2046,
      "son": 2047,
      "Ġlive": 2048,
      "Ġgrow": 2049,
      "Ġweekend": 2050,
      "Ġentire": 2051,
      "Ġhallway": 2052,
      "bered": 2053,
      "ric": 2054,
      "some": 2055,
      "Ġthir": 2056,
      "Ġsafe": 2057,
      "Ġcol": 2058,
      "Ġcontinued": 2059,
      "Ġtrou": 2060,
      "Ġstro": 2061,
      "Ġreach": 2062,
      "Ġclass": 2063,
      "Ġvis": 2064,
      "Ġaccept": 2065,
      "Ġsteps": 2066,
      "Ġsecret": 2067,
      "Ġbra": 2068,
      "Ġthroat": 2069,
      "ities": 2070,
      "Ġanyway": 2071,
      "Ġlose": 2072,
      "Ġyourself": 2073,
      "Ġcompany": 2074,
      "Ġtouching": 2075,
      "Ġbott": 2076,
      "Ġgiven": 2077,
      "Ġadmit": 2078,
      "Ġtoss": 2079,
      "Ġquestions": 2080,
      "Ġexplain": 2081,
      "Ġesc": 2082,
      "Ġwood": 2083,
      "Ġbill": 2084,
      "Ġocc": 2085,
      "Ġlunch": 2086,
      "let": 2087,
      "Ġthoughts": 2088,
      "Ġothers": 2089,
      "Ġwide": 2090,
      "Ġmason": 2091,
      "Ġlim": 2092,
      "Ġlower": 2093,
      "enc": 2094,
      "Ġpie": 2095,
      "Ġalthough": 2096,
      "Ġball": 2097,
      "Ġfre": 2098,
      "Ġmemor": 2099,
      "Ġspace": 2100,
      "Ġguy": 2101,
      "Ġdelic": 2102,
      "Ġmurm": 2103,
      "dharr": 2104,
      "ze": 2105,
      "Ġsent": 2106,
      "lling": 2107,
      "Ġind": 2108,
      "Ġkalil": 2109,
      "Ġdep": 2110,
      "Ġexplained": 2111,
      "nikki": 2112,
      "Ġwar": 2113,
      "Ġheav": 2114,
      "Ġmia": 2115,
      "Ġeff": 2116,
      "Ġsugg": 2117,
      "Ġspot": 2118,
      "Ġnikki": 2119,
      "solute": 2120,
      "Ġpregnant": 2121,
      "Ġsuggest": 2122,
      "band": 2123,
      "erm": 2124,
      "Ġstory": 2125,
      "well": 2126,
      "Ġwilling": 2127,
      "Ġhorses": 2128,
      "Ġsnapped": 2129,
      "ipping": 2130,
      "Ġfut": 2131,
      "Ġfire": 2132,
      "Ġdani": 2133,
      "Ġstate": 2134,
      "Ġasks": 2135,
      "Ġpract": 2136,
      "Ġkissing": 2137,
      "Ġearl": 2138,
      "Ġadv": 2139,
      "cial": 2140,
      "Ġnearly": 2141,
      "Ġrestaurant": 2142,
      "got": 2143,
      "ient": 2144,
      "Ġsing": 2145,
      "Ġsad": 2146,
      "Ġsiri": 2147,
      "Ġstru": 2148,
      "Ġsus": 2149,
      "Ġtem": 2150,
      "Ġremembered": 2151,
      "Ġthrow": 2152,
      "Ġgent": 2153,
      "Ġrolled": 2154,
      "Ġboys": 2155,
      "Ġfoot": 2156,
      "Ġspeak": 2157,
      "Ġmuscles": 2158,
      "its": 2159,
      "Ġnoticed": 2160,
      "Ġboy": 2161,
      "Ġterrif": 2162,
      "haps": 2163,
      "Ġgroan": 2164,
      "instead": 2165,
      "boy": 2166,
      "Ġnipp": 2167,
      "Ġtruth": 2168,
      "Ġcounter": 2169,
      "Ġahead": 2170,
      "Ġloud": 2171,
      "Ġwondered": 2172,
      "Ġsleeping": 2173,
      "Ġconcer": 2174,
      "Ġcrowd": 2175,
      "mon": 2176,
      "Ġallowed": 2177,
      "Ġlovely": 2178,
      "aughter": 2179,
      "Ġdeterm": 2180,
      "Ġfuture": 2181,
      "ape": 2182,
      "ian": 2183,
      "ior": 2184,
      "Ġhated": 2185,
      "Ġdanger": 2186,
      "otion": 2187,
      "Ġstaring": 2188,
      "Ġasking": 2189,
      "Ġarg": 2190,
      "Ġletting": 2191,
      "Ġearly": 2192,
      "Ġeasy": 2193,
      "Ġimportant": 2194,
      "Ġwid": 2195,
      "Ġmain": 2196,
      "Ġstairs": 2197,
      "Ġspread": 2198,
      "akes": 2199,
      "Ġglad": 2200,
      "Ġparty": 2201,
      "Ġlaughing": 2202,
      "Ġtrouble": 2203,
      "Ġgentle": 2204,
      "Ġtiny": 2205,
      "Ġsigh": 2206,
      "Ġsister": 2207,
      "Ġbecome": 2208,
      "electra": 2209,
      "Ġabsolute": 2210,
      "Ġplans": 2211,
      "Ġjeans": 2212,
      "Ġcell": 2213,
      "Ġdon": 2214,
      "aces": 2215,
      "Ġrub": 2216,
      "Ġprep": 2217,
      "Ġcorner": 2218,
      "Ġdoub": 2219,
      "Ġpierce": 2220,
      "Ġshower": 2221,
      "Ġlacey": 2222,
      "Ġav": 2223,
      "Ġden": 2224,
      "Ġdate": 2225,
      "Ġpush": 2226,
      "iting": 2227,
      "Ġrec": 2228,
      "Ġbottom": 2229,
      "Ġputting": 2230,
      "Ġplane": 2231,
      "Ġcamer": 2232,
      "iddle": 2233,
      "Ġearlier": 2234,
      "ob": 2235,
      "ues": 2236,
      "Ġmis": 2237,
      "Ġthigh": 2238,
      "anie": 2239,
      "imes": 2240,
      "Ġsmo": 2241,
      "Ġpock": 2242,
      "ized": 2243,
      "Ġedge": 2244,
      "cuss": 2245,
      "Ġyoung": 2246,
      "Ġsarila": 2247,
      "Ġcir": 2248,
      "Ġkill": 2249,
      "ili": 2250,
      "Ġinterested": 2251,
      "mb": 2252,
      "Ġcau": 2253,
      "Ġcertain": 2254,
      "Ġdamn": 2255,
      "isa": 2256,
      "Ġbeat": 2257,
      "Ġform": 2258,
      "neath": 2259,
      "Ġamazing": 2260,
      "ision": 2261,
      "Ġur": 2262,
      "Ġview": 2263,
      "Ġdiscuss": 2264,
      "du": 2265,
      "gr": 2266,
      "Ġhang": 2267,
      "Ġbir": 2268,
      "Ġnumber": 2269,
      "Ġeight": 2270,
      "Ġwearing": 2271,
      "Ġmeal": 2272,
      "rie": 2273,
      "ists": 2274,
      "Ġsmiling": 2275,
      "Ġarrived": 2276,
      "Ġproblem": 2277,
      "bo": 2278,
      "nding": 2279,
      "Ġmiddle": 2280,
      "ator": 2281,
      "Ġhanded": 2282,
      "Ġconv": 2283,
      "Ġdirect": 2284,
      "pid": 2285,
      "Ġtired": 2286,
      "ott": 2287,
      "Ġrid": 2288,
      "Ġshiver": 2289,
      "ulous": 2290,
      "Ġsilence": 2291,
      "Ġpurse": 2292,
      "Ġcountry": 2293,
      "Ġcowboy": 2294,
      "Ġbother": 2295,
      "ising": 2296,
      "Ġknees": 2297,
      "Ġunderneath": 2298,
      "Ġstarting": 2299,
      "Ġfigured": 2300,
      "fila": 2301,
      "Ġcup": 2302,
      "Ġintim": 2303,
      "Ġchanged": 2304,
      "Ġcoll": 2305,
      "Ġemb": 2306,
      "Ġglance": 2307,
      "Ġbuy": 2308,
      "Ġhoping": 2309,
      "rence": 2310,
      "Ġrealize": 2311,
      "Ġhusband": 2312,
      "Ġwine": 2313,
      "Ġfair": 2314,
      "Ġpu": 2315,
      "Ġreco": 2316,
      "unt": 2317,
      "Ġdirection": 2318,
      "ls": 2319,
      "ices": 2320,
      "illy": 2321,
      "Ġhelped": 2322,
      "Ġremind": 2323,
      "Ġirrit": 2324,
      "can": 2325,
      "cle": 2326,
      "would": 2327,
      "urity": 2328,
      "Ġdeb": 2329,
      "Ġseem": 2330,
      "Ġblank": 2331,
      "Ġmadelyn": 2332,
      "Ġincred": 2333,
      "Ġlearn": 2334,
      "Ġanimals": 2335,
      "Ġhey": 2336,
      "leep": 2337,
      "ilt": 2338,
      "ressed": 2339,
      "cially": 2340,
      "Ġfollowing": 2341,
      "Ġhonest": 2342,
      "Ġsuspected": 2343,
      "man": 2344,
      "pite": 2345,
      "Ġtent": 2346,
      "Ġwhe": 2347,
      "Ġcrew": 2348,
      "ord": 2349,
      "Ġgard": 2350,
      "Ġrocco": 2351,
      "ometimes": 2352,
      "Ġguys": 2353,
      "Ġinstantly": 2354,
      "Ġaware": 2355,
      "Ġdisappeared": 2356,
      "ny": 2357,
      "Ġself": 2358,
      "Ġcheck": 2359,
      "fer": 2360,
      "od": 2361,
      "ining": 2362,
      "Ġhig": 2363,
      "Ġbas": 2364,
      "Ġfab": 2365,
      "Ġforced": 2366,
      "iling": 2367,
      "ustr": 2368,
      "Ġdidn": 2369,
      "Ġroad": 2370,
      "Ġthanks": 2371,
      "gging": 2372,
      "Ġnews": 2373,
      "Ġassum": 2374,
      "Ġunderstood": 2375,
      "Ġsexy": 2376,
      "Ġsecurity": 2377,
      "Ġinform": 2378,
      "Ġce": 2379,
      "ashed": 2380,
      "Ġchin": 2381,
      "Ġdoors": 2382,
      "pecially": 2383,
      "Ġserious": 2384,
      "cing": 2385,
      "Ġdaughter": 2386,
      "Ġlap": 2387,
      "Ġcond": 2388,
      "Ġscream": 2389,
      "fortun": 2390,
      "Ġexperience": 2391,
      "ĠĠ": 2392,
      "Ġwished": 2393,
      "Ġantic": 2394,
      "Ġsuite": 2395,
      "rupt": 2396,
      "ended": 2397,
      "Ġhandsome": 2398,
      "Ġbusy": 2399,
      "come": 2400,
      "Ġpack": 2401,
      "unk": 2402,
      "Ġteeth": 2403,
      "isted": 2404,
      "Ġsurround": 2405,
      "Ġmathes": 2406,
      "Ġsounds": 2407,
      "Ġsal": 2408,
      "Ġallow": 2409,
      "Ġleaning": 2410,
      "Ġhuge": 2411,
      "Ġrelief": 2412,
      "een": 2413,
      "Ġtall": 2414,
      "Ġcook": 2415,
      "Ġquite": 2416,
      "Ġstupid": 2417,
      "Ġfurious": 2418,
      "Ġpromise": 2419,
      "like": 2420,
      "Ġmissed": 2421,
      "ane": 2422,
      "Ġreaction": 2423,
      "Ġnormal": 2424,
      "Ġpriv": 2425,
      "Ġembarr": 2426,
      "fortunately": 2427,
      "res": 2428,
      "Ġmag": 2429,
      "Ġpushing": 2430,
      "ached": 2431,
      "Ġfrown": 2432,
      "Ġfrustr": 2433,
      "Ġexcept": 2434,
      "Ġcomfortable": 2435,
      "Ġprev": 2436,
      "Ġbright": 2437,
      "Ġcarry": 2438,
      "Ġtone": 2439,
      "holt": 2440,
      "brianna": 2441,
      "could": 2442,
      "ella": 2443,
      "fast": 2444,
      "Ġasleep": 2445,
      "Ġpressing": 2446,
      "Ġexcited": 2447,
      "Ġmont": 2448,
      "Ġfit": 2449,
      "rocco": 2450,
      "ters": 2451,
      "Ġfollow": 2452,
      "ails": 2453,
      "Ġserv": 2454,
      "Ġfirmly": 2455,
      "ove": 2456,
      "Ġdanie": 2457,
      "Ġthr": 2458,
      "igg": 2459,
      "Ġreveal": 2460,
      "Ġhigher": 2461,
      "ination": 2462,
      "onse": 2463,
      "ries": 2464,
      "Ġhandle": 2465,
      "Ġcabin": 2466,
      "Ġstuff": 2467,
      "Ġhesitated": 2468,
      "aim": 2469,
      "had": 2470,
      "uff": 2471,
      "Ġjer": 2472,
      "Ġwants": 2473,
      "Ġnights": 2474,
      "wards": 2475,
      "Ġchallenge": 2476,
      "Ġanticip": 2477,
      "Ġmist": 2478,
      "Ġcent": 2479,
      "Ġpill": 2480,
      "Ġpassed": 2481,
      "Ġstore": 2482,
      "Ġwear": 2483,
      "rible": 2484,
      "Ġdev": 2485,
      "assan": 2486,
      "Ġbroke": 2487,
      "Ġgrinned": 2488,
      "Ġshifted": 2489,
      "Ġstreet": 2490,
      "Ġinformation": 2491,
      "rom": 2492,
      "Ġsilly": 2493,
      "Ġma": 2494,
      "Ġthri": 2495,
      "amed": 2496,
      "Ġheaded": 2497,
      "ancing": 2498,
      "Ġappeared": 2499,
      "Ġkeeping": 2500,
      "Ġdressed": 2501,
      "Ġplaying": 2502,
      "Ġresponse": 2503,
      "Ġpassion": 2504,
      "Ġeffort": 2505,
      "ky": 2506,
      "ring": 2507,
      "Ġnaz": 2508,
      "Ġthrew": 2509,
      "ster": 2510,
      "ield": 2511,
      "Ġappear": 2512,
      "Ġdraw": 2513,
      "Ġspoke": 2514,
      "Ġcalm": 2515,
      "Ġpaper": 2516,
      "Ġmontana": 2517,
      "Ġnazar": 2518,
      "lves": 2519,
      "Ġheel": 2520,
      "Ġhoney": 2521,
      "Ġbene": 2522,
      "Ġcas": 2523,
      "idence": 2524,
      "Ġund": 2525,
      "Ġnipple": 2526,
      "ches": 2527,
      "Ġmay": 2528,
      "Ġsomehow": 2529,
      "Ġcatch": 2530,
      "Ġcrossed": 2531,
      "Ġdetermined": 2532,
      "Ġgarden": 2533,
      "cious": 2534,
      "something": 2535,
      "Ġsy": 2536,
      "lly": 2537,
      "Ġpan": 2538,
      "Ġeager": 2539,
      "teen": 2540,
      "Ġreplies": 2541,
      "Ġdining": 2542,
      "Ġbreakfast": 2543,
      "Ġtaste": 2544,
      "Ġjaw": 2545,
      "Ġunable": 2546,
      "Ġshowed": 2547,
      "Ġplanned": 2548,
      "Ġspecial": 2549,
      "umbled": 2550,
      "rist": 2551,
      "ines": 2552,
      "reed": 2553,
      "Ġgame": 2554,
      "Ġharder": 2555,
      "Ġevent": 2556,
      "Ġsett": 2557,
      "Ġimagine": 2558,
      "Ġabsolutely": 2559,
      "nn": 2560,
      "Ġtree": 2561,
      "Ġfu": 2562,
      "Ġnone": 2563,
      "Ġyell": 2564,
      "ots": 2565,
      "Ġflat": 2566,
      "Ġhappening": 2567,
      "ces": 2568,
      "Ġnor": 2569,
      "asm": 2570,
      "Ġstiff": 2571,
      "ghter": 2572,
      "aded": 2573,
      "Ġnoah": 2574,
      "Ġsomewhere": 2575,
      "Ġlaughter": 2576,
      "thank": 2577,
      "Ġluke": 2578,
      "Ġfocus": 2579,
      "cause": 2580,
      "house": 2581,
      "light": 2582,
      "zz": 2583,
      "Ġmill": 2584,
      "Ġforgot": 2585,
      "rynn": 2586,
      "Ġheading": 2587,
      "while": 2588,
      "Ġdoorway": 2589,
      "Ġfinish": 2590,
      "Ġgreen": 2591,
      "Ġcurrent": 2592,
      "Ġnaked": 2593,
      "Ġgener": 2594,
      "since": 2595,
      "inic": 2596,
      "reat": 2597,
      "Ġcool": 2598,
      "Ġfly": 2599,
      "isf": 2600,
      "alth": 2601,
      "amp": 2602,
      "Ġempt": 2603,
      "Ġcapt": 2604,
      "Ġfinding": 2605,
      "Ġsquee": 2606,
      "Ġbat": 2607,
      "Ġbrynn": 2608,
      "Ġlif": 2609,
      "Ġsol": 2610,
      "Ġexpected": 2611,
      "Ġplate": 2612,
      "ending": 2613,
      "Ġappre": 2614,
      "Ġpiece": 2615,
      "kasar": 2616,
      "ins": 2617,
      "Ġmir": 2618,
      "Ġmakes": 2619,
      "Ġla": 2620,
      "Ġpool": 2621,
      "Ġsof": 2622,
      "Ġoverw": 2623,
      "because": 2624,
      "Ġbirth": 2625,
      "Ġhate": 2626,
      "Ġboo": 2627,
      "Ġcoo": 2628,
      "Ġforce": 2629,
      "Ġforget": 2630,
      "Ġsmell": 2631,
      "ploy": 2632,
      "Ġswall": 2633,
      "Ġreturned": 2634,
      "Ġpicture": 2635,
      "Ġfasc": 2636,
      "Ġavo": 2637,
      "bb": 2638,
      "Ġtor": 2639,
      "Ġmas": 2640,
      "Ġmax": 2641,
      "aining": 2642,
      "ames": 2643,
      "Ġagree": 2644,
      "ift": 2645,
      "Ġhowever": 2646,
      "Ġenc": 2647,
      "ages": 2648,
      "Ġperhaps": 2649,
      "Ġjumped": 2650,
      "Ġdoubt": 2651,
      "set": 2652,
      "vered": 2653,
      "Ġrooms": 2654,
      "ances": 2655,
      "Ġsounded": 2656,
      "olog": 2657,
      "Ġfalling": 2658,
      "Ġpersonal": 2659,
      "Ġperfectly": 2660,
      "Ġenjoying": 2661,
      "Ġcolor": 2662,
      "Ġwidened": 2663,
      "Ġoverwhel": 2664,
      "Ġhi": 2665,
      "Ġhar": 2666,
      "Ġbite": 2667,
      "Ġmr": 2668,
      "utter": 2669,
      "Ġplaced": 2670,
      "Ġboard": 2671,
      "Ġmark": 2672,
      "Ġentered": 2673,
      "Ġexcuse": 2674,
      "Ġeasily": 2675,
      "der": 2676,
      "lo": 2677,
      "right": 2678,
      "sc": 2679,
      "Ġdance": 2680,
      "Ġpot": 2681,
      "Ġstall": 2682,
      "Ġdoct": 2683,
      "Ġabove": 2684,
      "geous": 2685,
      "Ġdeath": 2686,
      "Ġmoan": 2687,
      "Ġways": 2688,
      "ively": 2689,
      "Ġstud": 2690,
      "Ġanswered": 2691,
      "Ġrespond": 2692,
      "Ġhotel": 2693,
      "Ġbreathing": 2694,
      "Ġdesperately": 2695,
      "Ġterrified": 2696,
      "Ġgroaned": 2697,
      "gs": 2698,
      "port": 2699,
      "siri": 2700,
      "Ġdu": 2701,
      "Ġteasing": 2702,
      "Ġoffer": 2703,
      "Ġslam": 2704,
      "Ġgrate": 2705,
      "Ġneeds": 2706,
      "Ġuncom": 2707,
      "Ġlearned": 2708,
      "Ġreturn": 2709,
      "Ġrelaxed": 2710,
      "bes": 2711,
      "time": 2712,
      "Ġcu": 2713,
      "Ġdied": 2714,
      "Ġid": 2715,
      "Ġpath": 2716,
      "Ġpair": 2717,
      "Ġinch": 2718,
      "although": 2719,
      "Ġlives": 2720,
      "Ġchar": 2721,
      "Ġcompl": 2722,
      "Ġwaved": 2723,
      "itement": 2724,
      "Ġhelping": 2725,
      "Ġphot": 2726,
      "Ġsimple": 2727,
      "Ġextra": 2728,
      "Ġprevious": 2729,
      "cy": 2730,
      "kes": 2731,
      "yed": 2732,
      "inked": 2733,
      "Ġsometimes": 2734,
      "Ġthumb": 2735,
      "Ġgrou": 2736,
      "Ġstare": 2737,
      "Ġbutton": 2738,
      "Ġintense": 2739,
      "Ġnose": 2740,
      "Ġemploy": 2741,
      "ggled": 2742,
      "Ġcouch": 2743,
      "Ġjoke": 2744,
      "Ġexcitement": 2745,
      "avor": 2746,
      "Ġtakes": 2747,
      "Ġrespons": 2748,
      "Ġignored": 2749,
      "Ġcountered": 2750,
      "Ġsingle": 2751,
      "Ġappreci": 2752,
      "Ġwishing": 2753,
      "ndred": 2754,
      "Ġloc": 2755,
      "Ġcommand": 2756,
      "Ġshowing": 2757,
      "Ġrelease": 2758,
      "Ġpocket": 2759,
      "zayn": 2760,
      "Ġcard": 2761,
      "Ġfro": 2762,
      "Ġstun": 2763,
      "acks": 2764,
      "ific": 2765,
      "Ġdead": 2766,
      "Ġpointed": 2767,
      "Ġtalked": 2768,
      "Ġreaching": 2769,
      "Ġdrove": 2770,
      "Ġheavy": 2771,
      "line": 2772,
      "Ġsick": 2773,
      "Ġwish": 2774,
      "still": 2775,
      "Ġdoll": 2776,
      "Ġshit": 2777,
      "Ġabby": 2778,
      "rap": 2779,
      "unfortunately": 2780,
      "Ġdespite": 2781,
      "Ġcloset": 2782,
      "without": 2783,
      "Ġolder": 2784,
      "Ġhundred": 2785,
      "Ġdistance": 2786,
      "Ġdouble": 2787,
      "Ġsubject": 2788,
      "Ġissue": 2789,
      "Ġempty": 2790,
      "car": 2791,
      "ex": 2792,
      "lu": 2793,
      "work": 2794,
      "Ġthick": 2795,
      "selves": 2796,
      "Ġshare": 2797,
      "Ġagreed": 2798,
      "ault": 2799,
      "Ġanywhere": 2800,
      "ancy": 2801,
      "Ġincre": 2802,
      "Ġclimbed": 2803,
      "ners": 2804,
      "Ġlying": 2805,
      "Ġoften": 2806,
      "Ġstren": 2807,
      "Ġlived": 2808,
      "Ġsumm": 2809,
      "Ġglared": 2810,
      "Ġbecame": 2811,
      "Ġcontract": 2812,
      "Ġdeser": 2813,
      "Ġsupport": 2814,
      "Ġmemory": 2815,
      "Ġrecogn": 2816,
      "fic": 2817,
      "Ġfi": 2818,
      "Ġstor": 2819,
      "Ġweak": 2820,
      "Ġemory": 2821,
      "Ġdisco": 2822,
      "Ġhorrible": 2823,
      "Ġwoods": 2824,
      "Ġlimous": 2825,
      "Ġcertainly": 2826,
      "Ġmatheson": 2827,
      "zed": 2828,
      "Ġtest": 2829,
      "Ġtens": 2830,
      "Ġfix": 2831,
      "Ġluck": 2832,
      "Ġpound": 2833,
      "Ġrather": 2834,
      "Ġrequ": 2835,
      "Ġworth": 2836,
      "Ġlosing": 2837,
      "Ġspl": 2838,
      "ope": 2839,
      "Ġcomm": 2840,
      "before": 2841,
      "Ġprof": 2842,
      "Ġhurry": 2843,
      "Ġstaying": 2844,
      "hood": 2845,
      "looking": 2846,
      "Ġwild": 2847,
      "Ġhassan": 2848,
      "Ġmid": 2849,
      "Ġmil": 2850,
      "Ġpin": 2851,
      "Ġpet": 2852,
      "Ġgor": 2853,
      "Ġinno": 2854,
      "Ġsand": 2855,
      "Ġcovering": 2856,
      "Ġbreathe": 2857,
      "Ġcamera": 2858,
      "Ġfabric": 2859,
      "con": 2860,
      "Ġlisa": 2861,
      "enced": 2862,
      "Ġstuck": 2863,
      "Ġround": 2864,
      "Ġriding": 2865,
      "Ġshar": 2866,
      "Ġclinic": 2867,
      "Ġexam": 2868,
      "Ġknows": 2869,
      "Ġboss": 2870,
      "Ġslept": 2871,
      "Ġhurried": 2872,
      "Ġshoes": 2873,
      "Ġshock": 2874,
      "Ġconfused": 2875,
      "Ġpromised": 2876,
      "Ġinvest": 2877,
      "Ġpowerful": 2878,
      "Ġdelicious": 2879,
      "Ġtemper": 2880,
      "Ġbeneath": 2881,
      "ience": 2882,
      "rect": 2883,
      "Ġnod": 2884,
      "Ġspun": 2885,
      "Ġprefer": 2886,
      "Ġgrowing": 2887,
      "Ġscr": 2888,
      "Ġtrans": 2889,
      "Ġdriving": 2890,
      "Ġmessage": 2891,
      "Ġpresent": 2892,
      "Ġdaniel": 2893,
      "Ġstrength": 2894,
      "damn": 2895,
      "oh": 2896,
      "Ġfif": 2897,
      "Ġfought": 2898,
      "Ġdi": 2899,
      "Ġpant": 2900,
      "Ġgun": 2901,
      "Ġbutt": 2902,
      "Ġprop": 2903,
      "Ġusual": 2904,
      "Ġmusc": 2905,
      "Ġchairs": 2906,
      "Ġwindows": 2907,
      "Ġpossibly": 2908,
      "Ġlimousine": 2909,
      "Ġgorgeous": 2910,
      "made": 2911,
      "Ġer": 2912,
      "Ġnat": 2913,
      "arrow": 2914,
      "Ġgather": 2915,
      "Ġann": 2916,
      "Ġabs": 2917,
      "Ġrock": 2918,
      "Ġworse": 2919,
      "Ġslip": 2920,
      "Ġprocess": 2921,
      "who": 2922,
      "Ġscared": 2923,
      "Ġconsider": 2924,
      "Ġbroken": 2925,
      "Ġjacket": 2926,
      "aff": 2927,
      "Ġty": 2928,
      "atures": 2929,
      "ital": 2930,
      "Ġstret": 2931,
      "Ġrul": 2932,
      "Ġrepe": 2933,
      "Ġclen": 2934,
      "Ġmanaged": 2935,
      "Ġplenty": 2936,
      "Ġcarried": 2937,
      "Ġcontact": 2938,
      "Ġdesign": 2939,
      "Ġbuilt": 2940,
      "Ġassist": 2941,
      "Ġsatisf": 2942,
      "Ġrefused": 2943,
      "Ġcrying": 2944,
      "Ġcenter": 2945,
      "ially": 2946,
      "tur": 2947,
      "erg": 2948,
      "ength": 2949,
      "Ġlie": 2950,
      "umped": 2951,
      "Ġcomes": 2952,
      "Ġvar": 2953,
      "ference": 2954,
      "Ġgrim": 2955,
      "Ġcared": 2956,
      "Ġfold": 2957,
      "Ġphys": 2958,
      "Ġbeauty": 2959,
      "Ġdiffic": 2960,
      "Ġespecially": 2961,
      "Ġchoice": 2962,
      "Ġprivate": 2963,
      "Ġhiding": 2964,
      "Ġodd": 2965,
      "Ġfle": 2966,
      "Ġfavor": 2967,
      "Ġshake": 2968,
      "terday": 2969,
      "Ġart": 2970,
      "Ġblinked": 2971,
      "Ġresist": 2972,
      "Ġshoot": 2973,
      "Ġdistract": 2974,
      "Ġsettled": 2975,
      "Ġdoctor": 2976,
      "besides": 2977,
      "oint": 2978,
      "Ġwet": 2979,
      "reme": 2980,
      "Ġtot": 2981,
      "Ġmot": 2982,
      "Ġlad": 2983,
      "Ġlaid": 2984,
      "Ġrush": 2985,
      "ading": 2986,
      "Ġsave": 2987,
      "Ġsend": 2988,
      "usion": 2989,
      "Ġbod": 2990,
      "Ġsliding": 2991,
      "Ġbrown": 2992,
      "Ġjoin": 2993,
      "Ġbottle": 2994,
      "Ġrespect": 2995,
      "Ġclosing": 2996,
      "Ġbeginning": 2997,
      "Ġeyebrows": 2998,
      "Ġissues": 2999,
      "Ġelev": 3000,
      "Ġconcerned": 3001,
      "Ġgroup": 3002,
      "case": 3003,
      "kalil": 3004,
      "Ġtables": 3005,
      "Ġmad": 3006,
      "Ġmort": 3007,
      "Ġthreat": 3008,
      "alous": 3009,
      "Ġyours": 3010,
      "Ġgrown": 3011,
      "agement": 3012,
      "Ġpainfully": 3013,
      "Ġdriver": 3014,
      "Ġintern": 3015,
      "Ġlights": 3016,
      "Ġlisten": 3017,
      "Ġbrothers": 3018,
      "Ġapproached": 3019,
      "Ġincredible": 3020,
      "Ġsofa": 3021,
      "gant": 3022,
      "land": 3023,
      "tw": 3024,
      "Ġlat": 3025,
      "stairs": 3026,
      "Ġones": 3027,
      "Ġrough": 3028,
      "iculous": 3029,
      "usted": 3030,
      "rage": 3031,
      "Ġplaces": 3032,
      "Ġcomment": 3033,
      "izing": 3034,
      "Ġstrange": 3035,
      "Ġyesterday": 3036,
      "Ġmater": 3037,
      "Ġfocused": 3038,
      "Ġgrowled": 3039,
      "Ġcolle": 3040,
      "Ġgrateful": 3041,
      "apped": 3042,
      "kward": 3043,
      "Ġwip": 3044,
      "Ġfool": 3045,
      "Ġpau": 3046,
      "oming": 3047,
      "aled": 3048,
      "iled": 3049,
      "Ġsetting": 3050,
      "Ġstayed": 3051,
      "Ġtruly": 3052,
      "Ġdelight": 3053,
      "Ġbroad": 3054,
      "Ġbringing": 3055,
      "atively": 3056,
      "Ġsuggested": 3057,
      "Ġcaused": 3058,
      "malik": 3059,
      "Ġbought": 3060,
      "inging": 3061,
      "Ġstri": 3062,
      "Ġum": 3063,
      "Ġking": 3064,
      "Ġconne": 3065,
      "Ġteased": 3066,
      "Ġseems": 3067,
      "Ġemotion": 3068,
      "Ġmusic": 3069,
      "Ġgasp": 3070,
      "osite": 3071,
      "Ġjealous": 3072,
      "Ġgrandp": 3073,
      "Ġopposite": 3074,
      "Ġtossed": 3075,
      "Ġmurmur": 3076,
      "Ġdifficult": 3077,
      "night": 3078,
      "ray": 3079,
      "su": 3080,
      "ser": 3081,
      "uous": 3082,
      "Ġbal": 3083,
      "Ġnarrow": 3084,
      "acy": 3085,
      "Ġstaff": 3086,
      "Ġash": 3087,
      "Ġchore": 3088,
      "unity": 3089,
      "Ġtext": 3090,
      "Ġaccom": 3091,
      "Ġfurther": 3092,
      "Ġgripped": 3093,
      "Ġrelieved": 3094,
      "Ġmurmured": 3095,
      "iliar": 3096,
      "Ġridiculous": 3097,
      "dana": 3098,
      "good": 3099,
      "yond": 3100,
      "Ġsched": 3101,
      "Ġdee": 3102,
      "Ġdana": 3103,
      "Ġpink": 3104,
      "Ġelectra": 3105,
      "Ġbeyond": 3106,
      "tern": 3107,
      "uncan": 3108,
      "Ġproper": 3109,
      "Ġstartled": 3110,
      "aped": 3111,
      "Ġpartic": 3112,
      "Ġskirt": 3113,
      "Ġsilk": 3114,
      "Ġawkward": 3115,
      "Ġdetails": 3116,
      "Ġthighs": 3117,
      "Ġblanket": 3118,
      "Ġtension": 3119,
      "io": 3120,
      "Ġbru": 3121,
      "Ġbison": 3122,
      "Ġtowel": 3123,
      "Ġpen": 3124,
      "Ġpants": 3125,
      "ety": 3126,
      "Ġaside": 3127,
      "icated": 3128,
      "ionaire": 3129,
      "Ġsucc": 3130,
      "using": 3131,
      "Ġtear": 3132,
      "Ġoffic": 3133,
      "wear": 3134,
      "Ġcost": 3135,
      "Ġcock": 3136,
      "ledge": 3137,
      "Ġcontest": 3138,
      "Ġcalling": 3139,
      "Ġkisses": 3140,
      "Ġstudy": 3141,
      "Ġinterrupt": 3142,
      "Ġburst": 3143,
      "Ġordered": 3144,
      "Ġinteresting": 3145,
      "Ġignore": 3146,
      "idden": 3147,
      "Ġfighting": 3148,
      "Ġproblems": 3149,
      "Ġaccepted": 3150,
      "Ġcollege": 3151,
      "min": 3152,
      "Ġthin": 3153,
      "Ġpour": 3154,
      "Ġrile": 3155,
      "Ġrece": 3156,
      "Ġforth": 3157,
      "Ġweight": 3158,
      "Ġnote": 3159,
      "Ġnotice": 3160,
      "Ġroll": 3161,
      "ession": 3162,
      "Ġteac": 3163,
      "ruct": 3164,
      "Ġblond": 3165,
      "Ġwoke": 3166,
      "Ġcaress": 3167,
      "Ġsexual": 3168,
      "Ġforever": 3169,
      "Ġforehead": 3170,
      "Ġdangerous": 3171,
      "Ġargum": 3172,
      "Ġfrustration": 3173,
      "gl": 3174,
      "Ġtick": 3175,
      "Ġfault": 3176,
      "Ġstick": 3177,
      "Ġrom": 3178,
      "Ġshu": 3179,
      "Ġshad": 3180,
      "Ġwhenever": 3181,
      "Ġbreaking": 3182,
      "Ġtrace": 3183,
      "Ġtrick": 3184,
      "Ġshocked": 3185,
      "Ġairport": 3186,
      "Ġvisit": 3187,
      "Ġheels": 3188,
      "Ġmirror": 3189,
      "go": 3190,
      "ived": 3191,
      "ients": 3192,
      "lic": 3193,
      "mia": 3194,
      "par": 3195,
      "Ġbook": 3196,
      "Ġmass": 3197,
      "Ġdig": 3198,
      "Ġlength": 3199,
      "Ġbeer": 3200,
      "Ġshout": 3201,
      "ains": 3202,
      "Ġexha": 3203,
      "Ġcareer": 3204,
      "Ġgrew": 3205,
      "Ġended": 3206,
      "Ġdecor": 3207,
      "Ġplayed": 3208,
      "Ġcorrect": 3209,
      "Ġextreme": 3210,
      "Ġanimal": 3211,
      "Ġtrip": 3212,
      "Ġquietly": 3213,
      "Ġfascin": 3214,
      "Ġmuscular": 3215,
      "ler": 3216,
      "ossi": 3217,
      "Ġsides": 3218,
      "Ġwore": 3219,
      "Ġwake": 3220,
      "Ġcream": 3221,
      "Ġdry": 3222,
      "omed": 3223,
      "Ġell": 3224,
      "Ġrushed": 3225,
      "ump": 3226,
      "Ġoffered": 3227,
      "Ġunderwear": 3228,
      "Ġusually": 3229,
      "Ġopening": 3230,
      "Ġhug": 3231,
      "ception": 3232,
      "Ġapolog": 3233,
      "Ġseriously": 3234,
      "Ġtremb": 3235,
      "Ġcontinue": 3236,
      "Ġobvious": 3237,
      "Ġpresence": 3238,
      "Ġfresh": 3239,
      "Ġthrilled": 3240,
      "bor": 3241,
      "taking": 3242,
      "under": 3243,
      "hell": 3244,
      "Ġdare": 3245,
      "Ġgigg": 3246,
      "Ġyork": 3247,
      "Ġequ": 3248,
      "Ġwel": 3249,
      "entr": 3250,
      "ented": 3251,
      "antic": 3252,
      "astic": 3253,
      "Ġlock": 3254,
      "Ġmov": 3255,
      "Ġideas": 3256,
      "Ġelb": 3257,
      "Ġearth": 3258,
      "arently": 3259,
      "Ġhello": 3260,
      "Ġbesides": 3261,
      "Ġconcentr": 3262,
      "Ġengagement": 3263,
      "Ġmentioned": 3264,
      "Ġescape": 3265,
      "Ġoccur": 3266,
      "cent": 3267,
      "cul": 3268,
      "fin": 3269,
      "Ġsink": 3270,
      "Ġfully": 3271,
      "atically": 3272,
      "oof": 3273,
      "Ġwealth": 3274,
      "rodu": 3275,
      "Ġdear": 3276,
      "Ġarr": 3277,
      "Ġslide": 3278,
      "Ġsurve": 3279,
      "Ġmatt": 3280,
      "Ġmeans": 3281,
      "Ġdarkness": 3282,
      "Ġglancing": 3283,
      "Ġspending": 3284,
      "Ġgrip": 3285,
      "Ġhungry": 3286,
      "board": 3287,
      "Ġannoun": 3288,
      "Ġdeeper": 3289,
      "Ġriley": 3290,
      "ges": 3291,
      "pri": 3292,
      "Ġfail": 3293,
      "Ġpor": 3294,
      "Ġgown": 3295,
      "abor": 3296,
      "Ġcharm": 3297,
      "Ġconst": 3298,
      "ousand": 3299,
      "Ġslight": 3300,
      "anging": 3301,
      "Ġusing": 3302,
      "Ġattract": 3303,
      "Ġawful": 3304,
      "Ġsunsh": 3305,
      "Ġrepor": 3306,
      "Ġthirty": 3307,
      "Ġprepared": 3308,
      "Ġconvince": 3309,
      "Ġuncomfortable": 3310,
      "Ġsummer": 3311,
      "form": 3312,
      "nate": 3313,
      "vision": 3314,
      "Ġopt": 3315,
      "Ġnur": 3316,
      "itted": 3317,
      "Ġupset": 3318,
      "tering": 3319,
      "Ġtwice": 3320,
      "Ġblood": 3321,
      "clock": 3322,
      "Ġangri": 3323,
      "Ġwalls": 3324,
      "Ġnervously": 3325,
      "Ġjump": 3326,
      "everyone": 3327,
      "Ġfaster": 3328,
      "Ġstatement": 3329,
      "Ġreminded": 3330,
      "Ġswallowed": 3331,
      "Ġdollars": 3332,
      "cri": 3333,
      "friend": 3334,
      "pting": 3335,
      "Ġhat": 3336,
      "Ġdam": 3337,
      "Ġprou": 3338,
      "Ġpaid": 3339,
      "ones": 3340,
      "otions": 3341,
      "Ġstar": 3342,
      "Ġshy": 3343,
      "aint": 3344,
      "Ġthemselves": 3345,
      "Ġpost": 3346,
      "Ġneeding": 3347,
      "orted": 3348,
      "Ġemotions": 3349,
      "Ġflight": 3350,
      "Ġunc": 3351,
      "Ġfinal": 3352,
      "Ġinstruct": 3353,
      "Ġcovers": 3354,
      "Ġtrave": 3355,
      "Ġaccident": 3356,
      "Ġignoring": 3357,
      "Ġbarn": 3358,
      "Ġreading": 3359,
      "Ġreleased": 3360,
      "Ġdesperate": 3361,
      "Ġsurrounded": 3362,
      "madelyn": 3363,
      "Ġvarious": 3364,
      "Ġsuccess": 3365,
      "Ġsunshine": 3366,
      "bled": 3367,
      "yer": 3368,
      "your": 3369,
      "Ġ1": 3370,
      "Ġbow": 3371,
      "Ġbowed": 3372,
      "Ġmount": 3373,
      "Ġcooking": 3374,
      "Ġdim": 3375,
      "Ġpun": 3376,
      "oned": 3377,
      "Ġjud": 3378,
      "Ġsam": 3379,
      "Ġintrodu": 3380,
      "Ġenorm": 3381,
      "Ġsteady": 3382,
      "Ġstepping": 3383,
      "tem": 3384,
      "Ġraise": 3385,
      "Ġswung": 3386,
      "Ġpainful": 3387,
      "Ġspeed": 3388,
      "aidan": 3389,
      "Ġengaged": 3390,
      "Ġpolice": 3391,
      "Ġdriveway": 3392,
      "Ġconcern": 3393,
      "Ġstunned": 3394,
      "Ġproud": 3395,
      "ives": 3396,
      "mother": 3397,
      "Ġah": 3398,
      "Ġsip": 3399,
      "Ġdancing": 3400,
      "anned": 3401,
      "Ġinde": 3402,
      "Ġgoes": 3403,
      "Ġcharge": 3404,
      "Ġgets": 3405,
      "ified": 3406,
      "Ġtender": 3407,
      "Ġflash": 3408,
      "Ġbecoming": 3409,
      "Ġmeetings": 3410,
      "Ġspeaking": 3411,
      "Ġaccount": 3412,
      "Ġprotest": 3413,
      "Ġexperienced": 3414,
      "Ġparking": 3415,
      "Ġclasses": 3416,
      "Ġbooks": 3417,
      "dle": 3418,
      "iently": 3419,
      "yes": 3420,
      "Ġadded": 3421,
      "Ġdrew": 3422,
      "Ġthousand": 3423,
      "itch": 3424,
      "Ġgra": 3425,
      "Ġstorm": 3426,
      "Ġstables": 3427,
      "Ġlevel": 3428,
      "Ġseven": 3429,
      "Ġexcl": 3430,
      "pted": 3431,
      "Ġbride": 3432,
      "Ġtrack": 3433,
      "Ġcomput": 3434,
      "Ġsky": 3435,
      "Ġcurled": 3436,
      "Ġshoved": 3437,
      "emma": 3438,
      "Ġturns": 3439,
      "Ġdrop": 3440,
      "Ġfallen": 3441,
      "Ġbadly": 3442,
      "Ġrubbing": 3443,
      "Ġanticipation": 3444,
      "Ġpanic": 3445,
      "risti": 3446,
      "Ġbuttons": 3447,
      "Ġextremely": 3448,
      "from": 3449,
      "ivers": 3450,
      "vy": 3451,
      "inting": 3452,
      "Ġba": 3453,
      "Ġmer": 3454,
      "Ġcore": 3455,
      "Ġnib": 3456,
      "Ġrich": 3457,
      "see": 3458,
      "ilities": 3459,
      "Ġknock": 3460,
      "their": 3461,
      "Ġsepar": 3462,
      "Ġblushed": 3463,
      "Ġscott": 3464,
      "Ġgreet": 3465,
      "Ġfamiliar": 3466,
      "Ġdeliver": 3467,
      "Ġpoints": 3468,
      "Ġlistened": 3469,
      "Ġtucked": 3470,
      "Ġsearched": 3471,
      "Ġmiser": 3472,
      "Ġurge": 3473,
      "Ġfrowned": 3474,
      "Ġbirthday": 3475,
      "Ġphotog": 3476,
      "Ġchores": 3477,
      "bs": 3478,
      "nday": 3479,
      "Ġlack": 3480,
      "Ġpop": 3481,
      "ara": 3482,
      "Ġgar": 3483,
      "Ġgest": 3484,
      "Ġstable": 3485,
      "Ġrobe": 3486,
      "Ġmakeup": 3487,
      "Ġhosp": 3488,
      "Ġcompet": 3489,
      "Ġevents": 3490,
      "Ġcleared": 3491,
      "Ġconsidering": 3492,
      "Ġhighness": 3493,
      "Ġwrapping": 3494,
      "Ġfunny": 3495,
      "Ġhanging": 3496,
      "Ġeventually": 3497,
      "Ġlifting": 3498,
      "Ġbodies": 3499,
      "Ġelevator": 3500,
      "Ġenormous": 3501,
      "oc": 3502,
      "Ġ2": 3503,
      "Ġtense": 3504,
      "Ġsne": 3505,
      "Ġsnow": 3506,
      "Ġms": 3507,
      "Ġmed": 3508,
      "Ġlang": 3509,
      "Ġpace": 3510,
      "Ġeating": 3511,
      "stem": 3512,
      "othed": 3513,
      "oose": 3514,
      "urday": 3515,
      "Ġdefe": 3516,
      "Ġtele": 3517,
      "Ġteach": 3518,
      "Ġsmart": 3519,
      "Ġcap": 3520,
      "Ġamuse": 3521,
      "Ġhorrif": 3522,
      "elle": 3523,
      "Ġcattle": 3524,
      "Ġenjoyed": 3525,
      "Ġimagined": 3526,
      "Ġdreams": 3527,
      "Ġshivered": 3528,
      "Ġassistant": 3529,
      "Ġshudd": 3530,
      "Ġamusement": 3531,
      "iot": 3532,
      "uct": 3533,
      "Ġ:": 3534,
      "Ġda": 3535,
      "anelle": 3536,
      "Ġgut": 3537,
      "Ġincl": 3538,
      "Ġraced": 3539,
      "Ġrising": 3540,
      "icing": 3541,
      "Ġneigh": 3542,
      "Ġintens": 3543,
      "Ġfeatures": 3544,
      "Ġprodu": 3545,
      "Ġhappiness": 3546,
      "Ġjoined": 3547,
      "ensive": 3548,
      "Ġsweat": 3549,
      "Ġunderstanding": 3550,
      "Ġinterior": 3551,
      "Ġwrap": 3552,
      "Ġtreat": 3553,
      "Ġpurp": 3554,
      "Ġdisappear": 3555,
      "Ġpictures": 3556,
      "Ġopport": 3557,
      "rief": 3558,
      "Ġirritated": 3559,
      "Ġembarrassed": 3560,
      "Ġcarrying": 3561,
      "Ġsystem": 3562,
      "Ġforgotten": 3563,
      "Ġstories": 3564,
      "Ġtrembling": 3565,
      "finally": 3566,
      "back": 3567,
      "ef": 3568,
      "fir": 3569,
      "sl": 3570,
      "Ġtour": 3571,
      "inct": 3572,
      "Ġbrief": 3573,
      "Ġfil": 3574,
      "Ġill": 3575,
      "ashing": 3576,
      "Ġhist": 3577,
      "lea": 3578,
      "Ġuh": 3579,
      "aming": 3580,
      "Ġrode": 3581,
      "Ġrolling": 3582,
      "Ġresting": 3583,
      "Ġcorr": 3584,
      "Ġsensation": 3585,
      "Ġreport": 3586,
      "Ġpossibility": 3587,
      "Ġmissing": 3588,
      "Ġoccas": 3589,
      "Ġpractically": 3590,
      "Ġcondom": 3591,
      "Ġembarrass": 3592,
      "Ġjerked": 3593,
      "Ġavoid": 3594,
      "two": 3595,
      "Ġhospital": 3596,
      "Ġlangu": 3597,
      "Ġtelevision": 3598,
      "ocked": 3599,
      "will": 3600,
      "zar": 3601,
      "Ġheight": 3602,
      "Ġbul": 3603,
      "Ġcash": 3604,
      "Ġpap": 3605,
      "ony": 3606,
      "acob": 3607,
      "Ġrang": 3608,
      "Ġreass": 3609,
      "Ġattem": 3610,
      "Ġage": 3611,
      "Ġclaim": 3612,
      "ief": 3613,
      "Ġloving": 3614,
      "Ġvill": 3615,
      "Ġcoat": 3616,
      "nazar": 3617,
      "Ġhardly": 3618,
      "Ġcalls": 3619,
      "Ġstranger": 3620,
      "Ġimpossi": 3621,
      "Ġsilent": 3622,
      "Ġseconds": 3623,
      "Ġlistening": 3624,
      "Ġinvol": 3625,
      "Ġthird": 3626,
      "Ġporch": 3627,
      "pro": 3628,
      "uing": 3629,
      "Ġast": 3630,
      "Ġaching": 3631,
      "reen": 3632,
      "itive": 3633,
      "Ġinit": 3634,
      "Ġbeck": 3635,
      "uttered": 3636,
      "Ġshop": 3637,
      "Ġshared": 3638,
      "Ġintent": 3639,
      "Ġmoves": 3640,
      "Ġvir": 3641,
      "Ġfeels": 3642,
      "Ġposs": 3643,
      "Ġpulls": 3644,
      "Ġprov": 3645,
      "which": 3646,
      "Ġbrain": 3647,
      "Ġhappily": 3648,
      "shirt": 3649,
      "Ġsaturday": 3650,
      "Ġswept": 3651,
      "nothing": 3652,
      "Ġconfusion": 3653,
      "ford": 3654,
      "Ġstraightened": 3655,
      "Ġwhether": 3656,
      "Ġfavorite": 3657,
      "Ġparticular": 3658,
      "des": 3659,
      "old": 3660,
      "sy": 3661,
      "wal": 3662,
      "Ġtightly": 3663,
      "oul": 3664,
      "Ġease": 3665,
      "imer": 3666,
      "lebr": 3667,
      "ics": 3668,
      "aling": 3669,
      "Ġintell": 3670,
      "Ġspin": 3671,
      "Ġcody": 3672,
      "Ġflow": 3673,
      "Ġprove": 3674,
      "dding": 3675,
      "Ġwrist": 3676,
      "Ġbelong": 3677,
      "Ġexplan": 3678,
      "please": 3679,
      "Ġgirls": 3680,
      "Ġtightened": 3681,
      "everything": 3682,
      "Ġregret": 3683,
      "Ġsearching": 3684,
      "Ġbillionaire": 3685,
      "ency": 3686,
      "Ġspotted": 3687,
      "Ġintimid": 3688,
      "Ġcelebr": 3689,
      "Ġsqueezed": 3690,
      "turning": 3691,
      "Ġcomputer": 3692,
      "first": 3693,
      "ule": 3694,
      "Ġtaught": 3695,
      "rest": 3696,
      "inged": 3697,
      "ises": 3698,
      "Ġpul": 3699,
      "ste": 3700,
      "Ġfrid": 3701,
      "ills": 3702,
      "Ġconference": 3703,
      "Ġlog": 3704,
      "Ġspark": 3705,
      "Ġarro": 3706,
      "lted": 3707,
      "Ġemph": 3708,
      "Ġbrows": 3709,
      "Ġdescri": 3710,
      "Ġamount": 3711,
      "Ġhorror": 3712,
      "Ġsettle": 3713,
      "Ġdresses": 3714,
      "Ġexpecting": 3715,
      "Ġsmooth": 3716,
      "Ġmaterial": 3717,
      "four": 3718,
      "five": 3719,
      "jason": 3720,
      "miss": 3721,
      "uc": 3722,
      "ude": 3723,
      "view": 3724,
      "wise": 3725,
      "Ġtough": 3726,
      "Ġdating": 3727,
      "asp": 3728,
      "Ġpicking": 3729,
      "only": 3730,
      "those": 3731,
      "Ġbackwards": 3732,
      "Ġsusp": 3733,
      "Ġchat": 3734,
      "Ġexch": 3735,
      "ational": 3736,
      "Ġcomfort": 3737,
      "Ġgrad": 3738,
      "Ġafford": 3739,
      "Ġthroughout": 3740,
      "Ġunless": 3741,
      "col": 3742,
      "male": 3743,
      "Ġbreathed": 3744,
      "Ġtugged": 3745,
      "Ġindic": 3746,
      "Ġgrandparents": 3747,
      "Ġoccurred": 3748,
      "priate": 3749,
      "ole": 3750,
      "Ġsong": 3751,
      "Ġble": 3752,
      "ndon": 3753,
      "eric": 3754,
      "Ġfuck": 3755,
      "Ġduncan": 3756,
      "Ġlaw": 3757,
      "Ġwasn": 3758,
      "Ġbeg": 3759,
      "Ġrent": 3760,
      "ria": 3761,
      "Ġnecess": 3762,
      "Ġspill": 3763,
      "Ġorg": 3764,
      "Ġscene": 3765,
      "Ġimage": 3766,
      "Ġwrit": 3767,
      "Ġhugged": 3768,
      "Ġsuppose": 3769,
      "Ġremained": 3770,
      "Ġbegins": 3771,
      "surely": 3772,
      "Ġnormally": 3773,
      "Ġclearly": 3774,
      "Ġmemories": 3775,
      "Ġcausing": 3776,
      "Ġassumed": 3777,
      "Ġthrust": 3778,
      "Ġencou": 3779,
      "Ġslammed": 3780,
      "Ġresponsib": 3781,
      "Ġconnect": 3782,
      "Ġopportunity": 3783,
      "cum": 3784,
      "ware": 3785,
      "Ġtil": 3786,
      "Ġhearing": 3787,
      "Ġsheets": 3788,
      "Ġstir": 3789,
      "Ġanx": 3790,
      "Ġsaf": 3791,
      "Ġsuper": 3792,
      "Ġfeed": 3793,
      "Ġfemale": 3794,
      "Ġeyed": 3795,
      "Ġlondon": 3796,
      "igned": 3797,
      "Ġenerg": 3798,
      "Ġblush": 3799,
      "Ġbetray": 3800,
      "Ġscrew": 3801,
      "Ġsmiles": 3802,
      "Ġstopping": 3803,
      "Ġassured": 3804,
      "Ġmovement": 3805,
      "Ġlots": 3806,
      "Ġfurn": 3807,
      "Ġtrees": 3808,
      "Ġheavily": 3809,
      "Ġintimate": 3810,
      "ointment": 3811,
      "Ġmortimer": 3812,
      "Ġschedule": 3813,
      "Ġpurpose": 3814,
      "Ġvirgin": 3815,
      "both": 3816,
      "fit": 3817,
      "iest": 3818,
      "over": 3819,
      "Ġack": 3820,
      "rection": 3821,
      "Ġband": 3822,
      "Ġbound": 3823,
      "Ġnon": 3824,
      "asy": 3825,
      "Ġll": 3826,
      "Ġris": 3827,
      "Ġriver": 3828,
      "Ġfork": 3829,
      "pper": 3830,
      "Ġplat": 3831,
      "Ġenvel": 3832,
      "ague": 3833,
      "adys": 3834,
      "Ġgoodness": 3835,
      "Ġameric": 3836,
      "ney": 3837,
      "Ġhuh": 3838,
      "Ġsilver": 3839,
      "lessly": 3840,
      "Ġkidding": 3841,
      "Ġmarrying": 3842,
      "Ġlesson": 3843,
      "Ġraising": 3844,
      "Ġlowered": 3845,
      "Ġboyfriend": 3846,
      "Ġhonestly": 3847,
      "Ġcasual": 3848,
      "thankfully": 3849,
      "Ġlawn": 3850,
      "Ġcooper": 3851,
      "Ġhistory": 3852,
      "Ġattempt": 3853,
      "Ġacknow": 3854,
      "bar": 3855,
      "ffect": 3856,
      "give": 3857,
      "rick": 3858,
      "Ġsize": 3859,
      "Ġhea": 3860,
      "Ġcot": 3861,
      "Ġice": 3862,
      "Ġlady": 3863,
      "Ġerection": 3864,
      "Ġbelly": 3865,
      "Ġranc": 3866,
      "Ġsell": 3867,
      "Ġafgh": 3868,
      "action": 3869,
      "ancee": 3870,
      "Ġreality": 3871,
      "Ġaction": 3872,
      "Ġkinds": 3873,
      "Ġpretend": 3874,
      "Ġtravel": 3875,
      "Ġeased": 3876,
      "Ġremain": 3877,
      "ddenly": 3878,
      "ibly": 3879,
      "Ġjewel": 3880,
      "Ġgrandmother": 3881,
      "welve": 3882,
      "Ġstruck": 3883,
      "Ġwheel": 3884,
      "Ġfifteen": 3885,
      "Ġpanties": 3886,
      "Ġwiped": 3887,
      "suddenly": 3888,
      "Ġteacher": 3889,
      "Ġangrily": 3890,
      "Ġpossess": 3891,
      "cer": 3892,
      "Ġaria": 3893,
      "Ġhidden": 3894,
      "Ġmotion": 3895,
      "Ġcere": 3896,
      "ern": 3897,
      "Ġfant": 3898,
      "att": 3899,
      "Ġlust": 3900,
      "Ġbear": 3901,
      "ote": 3902,
      "shes": 3903,
      "Ġrag": 3904,
      "Ġju": 3905,
      "Ġchoose": 3906,
      "Ġworst": 3907,
      "Ġargue": 3908,
      "Ġembr": 3909,
      "perhaps": 3910,
      "anced": 3911,
      "Ġacting": 3912,
      "Ġactiv": 3913,
      "Ġpressure": 3914,
      "Ġorders": 3915,
      "Ġchuckle": 3916,
      "Ġcatching": 3917,
      "Ġcamp": 3918,
      "Ġlaying": 3919,
      "somehow": 3920,
      "Ġmistake": 3921,
      "Ġflying": 3922,
      "Ġcaptured": 3923,
      "Ġlatest": 3924,
      "Ġcotton": 3925,
      "lisa": 3926,
      "tr": 3927,
      "Ġtwelve": 3928,
      "Ġbank": 3929,
      "Ġfield": 3930,
      "Ġshel": 3931,
      "Ġreception": 3932,
      "Ġkicked": 3933,
      "Ġship": 3934,
      "Ġsore": 3935,
      "Ġneither": 3936,
      "Ġarab": 3937,
      "Ġarched": 3938,
      "Ġslipping": 3939,
      "Ġwave": 3940,
      "Ġchecked": 3941,
      "Ġbrid": 3942,
      "Ġhost": 3943,
      "ggling": 3944,
      "Ġbud": 3945,
      "Ġkeys": 3946,
      "Ġbigger": 3947,
      "Ġgrabbing": 3948,
      "Ġpatient": 3949,
      "Ġsnu": 3950,
      "Ġpaying": 3951,
      "Ġpillow": 3952,
      "Ġoverwhelmed": 3953,
      "Ġbrushed": 3954,
      "Ġargument": 3955,
      "Ġmiserable": 3956,
      "Ġsafety": 3957,
      "Ġenergy": 3958,
      "iqu": 3959,
      "Ġhip": 3960,
      "Ġbacked": 3961,
      "Ġtow": 3962,
      "Ġdiv": 3963,
      "Ġthor": 3964,
      "Ġeffect": 3965,
      "Ġbelt": 3966,
      "stery": 3967,
      "Ġuna": 3968,
      "Ġnotes": 3969,
      "Ġlover": 3970,
      "Ġpointing": 3971,
      "Ġaff": 3972,
      "Ġtrain": 3973,
      "Ġdisg": 3974,
      "should": 3975,
      "Ġamong": 3976,
      "Ġpeace": 3977,
      "Ġattend": 3978,
      "Ġinstant": 3979,
      "Ġshopping": 3980,
      "Ġconfidence": 3981,
      "Ġmaint": 3982,
      "Ġdiscovered": 3983,
      "Ġblonde": 3984,
      "Ġexhausted": 3985,
      "Ġhorrified": 3986,
      "Ġimpossible": 3987,
      "xur": 3988,
      "Ġsons": 3989,
      "Ġoper": 3990,
      "Ġfat": 3991,
      "Ġfists": 3992,
      "Ġherd": 3993,
      "arily": 3994,
      "Ġge": 3995,
      "stand": 3996,
      "Ġaband": 3997,
      "Ġsuv": 3998,
      "inda": 3999,
      "Ġhanding": 4000,
      "Ġleather": 4001,
      "Ġsending": 4002,
      "acey": 4003,
      "Ġknowledge": 4004,
      "Ġlocked": 4005,
      "Ġspring": 4006,
      "Ġthinks": 4007,
      "Ġacce": 4008,
      "Ġscent": 4009,
      "Ġcompan": 4010,
      "Ġenter": 4011,
      "Ġdecision": 4012,
      "Ġdeeply": 4013,
      "Ġconfident": 4014,
      "bye": 4015,
      "Ġeasier": 4016,
      "Ġwinery": 4017,
      "ashion": 4018,
      "Ġcraw": 4019,
      "Ġpurch": 4020,
      "Ġgripping": 4021,
      "Ġgrief": 4022,
      "Ġluxur": 4023,
      "Ġtossing": 4024,
      "Ġrubbed": 4025,
      "Ġdeny": 4026,
      "Ġconvin": 4027,
      "Ġmillion": 4028,
      "ampag": 4029,
      "Ġfiancee": 4030,
      "Ġmiles": 4031,
      "Ġgrimaced": 4032,
      "Ġtotally": 4033,
      "Ġproperty": 4034,
      "Ġmovie": 4035,
      "Ġexclaim": 4036,
      "Ġinvolved": 4037,
      "Ġsuspic": 4038,
      "Ġarabic": 4039,
      "bl": 4040,
      "bling": 4041,
      "ok": 4042,
      "sion": 4043,
      "nded": 4044,
      "Ġdirt": 4045,
      "ism": 4046,
      "Ġpile": 4047,
      "Ġpub": 4048,
      "Ġsheik": 4049,
      "Ġgift": 4050,
      "Ġgoal": 4051,
      "Ġblame": 4052,
      "Ġtray": 4053,
      "Ġslee": 4054,
      "Ġbiting": 4055,
      "Ġsilently": 4056,
      "Ġpalm": 4057,
      "Ġhuman": 4058,
      "Ġgenu": 4059,
      "Ġsearch": 4060,
      "Ġballs": 4061,
      "Ġsolid": 4062,
      "Ġlocal": 4063,
      "Ġincreased": 4064,
      "Ġsharp": 4065,
      "Ġexplanation": 4066,
      "ground": 4067,
      "lies": 4068,
      "off": 4069,
      "ts": 4070,
      "tens": 4071,
      "yard": 4072,
      "Ġting": 4073,
      "Ġtas": 4074,
      "Ġwon": 4075,
      "Ġder": 4076,
      "Ġnud": 4077,
      "imp": 4078,
      "imin": 4079,
      "Ġstern": 4080,
      "aying": 4081,
      "Ġrese": 4082,
      "Ġitem": 4083,
      "Ġank": 4084,
      "alled": 4085,
      "cho": 4086,
      "Ġnoting": 4087,
      "Ġchick": 4088,
      "Ġnoise": 4089,
      "Ġslacks": 4090,
      "Ġpopped": 4091,
      "Ġflushed": 4092,
      "Ġblind": 4093,
      "Ġgladys": 4094,
      "Ġache": 4095,
      "Ġmary": 4096,
      "Ġcareful": 4097,
      "Ġbuck": 4098,
      "Ġslender": 4099,
      "Ġplanning": 4100,
      "Ġattack": 4101,
      "Ġcurious": 4102,
      "Ġinstinct": 4103,
      "Ġobl": 4104,
      "Ġcrack": 4105,
      "Ġconfir": 4106,
      "Ġquestioned": 4107,
      "Ġlearning": 4108,
      "Ġtrailed": 4109,
      "itional": 4110,
      "Ġdrinks": 4111,
      "mony": 4112,
      "Ġyelled": 4113,
      "Ġinterrupted": 4114,
      "Ġneighbor": 4115,
      "Ġceremony": 4116,
      "Ġthorough": 4117,
      "Ġgenuine": 4118,
      "ixt": 4119,
      "mber": 4120,
      "yle": 4121,
      "zen": 4122,
      "Ġtar": 4123,
      "Ġbri": 4124,
      "Ġbull": 4125,
      "Ġment": 4126,
      "Ġdest": 4127,
      "Ġnu": 4128,
      "Ġpause": 4129,
      "Ġsheri": 4130,
      "ley": 4131,
      "irty": 4132,
      "antically": 4133,
      "Ġmystery": 4134,
      "Ġallison": 4135,
      "Ġlikely": 4136,
      "Ġteam": 4137,
      "Ġboat": 4138,
      "Ġaffect": 4139,
      "Ġchees": 4140,
      "Ġpride": 4141,
      "Ġscra": 4142,
      "Ġscreen": 4143,
      "soon": 4144,
      "Ġamused": 4145,
      "Ġwrite": 4146,
      "Ġdecide": 4147,
      "Ġyounger": 4148,
      "Ġhusky": 4149,
      "ences": 4150,
      "Ġgentleman": 4151,
      "Ġmale": 4152,
      "Ġappreciate": 4153,
      "Ġrequest": 4154,
      "Ġsplit": 4155,
      "Ġrepeated": 4156,
      "Ġflew": 4157,
      "Ġorgasm": 4158,
      "Ġafghan": 4159,
      "Ġsheriff": 4160,
      "bby": 4161,
      "cons": 4162,
      "Ġwound": 4163,
      "Ġboun": 4164,
      "Ġori": 4165,
      "Ġfacing": 4166,
      "Ġdom": 4167,
      "Ġnap": 4168,
      "asped": 4169,
      "Ġlone": 4170,
      "Ġyard": 4171,
      "Ġyep": 4172,
      "Ġwhim": 4173,
      "Ġmeas": 4174,
      "urch": 4175,
      "Ġshown": 4176,
      "Ġlied": 4177,
      "antage": 4178,
      "Ġcouldn": 4179,
      "Ġlea": 4180,
      "Ġheads": 4181,
      "Ġcomb": 4182,
      "Ġvide": 4183,
      "Ġensure": 4184,
      "pered": 4185,
      "Ġproject": 4186,
      "Ġunf": 4187,
      "Ġscanned": 4188,
      "Ġreluct": 4189,
      "Ġbuying": 4190,
      "Ġparties": 4191,
      "Ġstock": 4192,
      "Ġimpressed": 4193,
      "Ġexpensive": 4194,
      "Ġsecure": 4195,
      "Ġwarmth": 4196,
      "Ġjackson": 4197,
      "Ġspoken": 4198,
      "Ġamazed": 4199,
      "Ġhumor": 4200,
      "Ġhumili": 4201,
      "Ġdelicate": 4202,
      "Ġpockets": 4203,
      "Ġincredibly": 4204,
      "Ġnorth": 4205,
      "Ġstiffened": 4206,
      "carl": 4207,
      "Ġsandw": 4208,
      "Ġnarrowed": 4209,
      "Ġpoured": 4210,
      "Ġreceived": 4211,
      "Ġromantic": 4212,
      "Ġsurveyed": 4213,
      "Ġdelivered": 4214,
      "Ġlanguage": 4215,
      "ointed": 4216,
      "Ġtip": 4217,
      "Ġsen": 4218,
      "Ġhous": 4219,
      "Ġbase": 4220,
      "Ġbunch": 4221,
      "Ġfart": 4222,
      "Ġdated": 4223,
      "Ġlines": 4224,
      "Ġpers": 4225,
      "Ġgames": 4226,
      "Ġrushing": 4227,
      "Ġreject": 4228,
      "add": 4229,
      "Ġforcing": 4230,
      "Ġmemb": 4231,
      "Ġjacob": 4232,
      "anted": 4233,
      "terin": 4234,
      "Ġgover": 4235,
      "Ġalive": 4236,
      "Ġchampag": 4237,
      "Ġnodding": 4238,
      "une": 4239,
      "Ġteen": 4240,
      "Ġpoor": 4241,
      "Ġflashed": 4242,
      "Ġbrush": 4243,
      "Ġcontain": 4244,
      "Ġcourt": 4245,
      "Ġanswering": 4246,
      "Ġdaddy": 4247,
      "Ġhalfway": 4248,
      "Ġarrive": 4249,
      "Ġclimax": 4250,
      "someone": 4251,
      "Ġbillings": 4252,
      "Ġpractical": 4253,
      "gram": 4254,
      "Ġtype": 4255,
      "Ġintensity": 4256,
      "Ġmembers": 4257,
      "Ġchampagne": 4258,
      "bly": 4259,
      "gar": 4260,
      "nor": 4261,
      "Ġta": 4262,
      "Ġtie": 4263,
      "Ġbast": 4264,
      "Ġfaced": 4265,
      "Ġpee": 4266,
      "especially": 4267,
      "Ġwash": 4268,
      "ution": 4269,
      "Ġstair": 4270,
      "Ġult": 4271,
      "ooked": 4272,
      "Ġange": 4273,
      "Ġfrantically": 4274,
      "Ġclit": 4275,
      "Ġtease": 4276,
      "Ġmode": 4277,
      "Ġslowed": 4278,
      "Ġvac": 4279,
      "Ġquit": 4280,
      "Ġblur": 4281,
      "Ġprogram": 4282,
      "Ġbrightly": 4283,
      "Ġletter": 4284,
      "Ġentr": 4285,
      "Ġfury": 4286,
      "Ġclothing": 4287,
      "Ġburied": 4288,
      "Ġcute": 4289,
      "Ġveterin": 4290,
      "Ġinsane": 4291,
      "coming": 4292,
      "Ġcleaning": 4293,
      "Ġpale": 4294,
      "Ġsaddle": 4295,
      "Ġmagaz": 4296,
      "Ġpillows": 4297,
      "Ġidiot": 4298,
      "Ġdeserved": 4299,
      "Ġabsor": 4300,
      "Ġstretched": 4301,
      "Ġladies": 4302,
      "Ġwelcome": 4303,
      "Ġoccasion": 4304,
      "probably": 4305,
      "Ġembrace": 4306,
      "Ġvideo": 4307,
      "Ġfarther": 4308,
      "ai": 4309,
      "each": 4310,
      "lish": 4311,
      "mar": 4312,
      "too": 4313,
      "wor": 4314,
      "Ġached": 4315,
      "Ġborn": 4316,
      "Ġfarm": 4317,
      "Ġfancy": 4318,
      "Ġecho": 4319,
      "ids": 4320,
      "Ġstation": 4321,
      "Ġknocked": 4322,
      "Ġsomewhat": 4323,
      "izz": 4324,
      "Ġwalks": 4325,
      "Ġopin": 4326,
      "shit": 4327,
      "Ġelabor": 4328,
      "Ġanswers": 4329,
      "Ġaccess": 4330,
      "Ġfilling": 4331,
      "Ġsensitive": 4332,
      "Ġpolitely": 4333,
      "Ġpregnancy": 4334,
      "Ġprotection": 4335,
      "Ġeffic": 4336,
      "Ġbasically": 4337,
      "Ġprofession": 4338,
      "Ġscram": 4339,
      "Ġpapers": 4340,
      "Ġvillage": 4341,
      "Ġintellig": 4342,
      "okay": 4343,
      "mer": 4344,
      "Ġhun": 4345,
      "Ġbunk": 4346,
      "Ġmood": 4347,
      "Ġcust": 4348,
      "Ġfake": 4349,
      "Ġdie": 4350,
      "asper": 4351,
      "Ġlately": 4352,
      "Ġpent": 4353,
      "othing": 4354,
      "Ġstated": 4355,
      "Ġrad": 4356,
      "Ġracing": 4357,
      "Ġweir": 4358,
      "Ġliqu": 4359,
      "Ġclients": 4360,
      "Ġdownstairs": 4361,
      "raph": 4362,
      "ify": 4363,
      "Ġplain": 4364,
      "Ġplacing": 4365,
      "Ġflesh": 4366,
      "Ġblo": 4367,
      "Ġbrand": 4368,
      "Ġpeered": 4369,
      "Ġbelow": 4370,
      "Ġcurt": 4371,
      "Ġsmaller": 4372,
      "Ġobser": 4373,
      "Ġawake": 4374,
      "Ġdemanding": 4375,
      "Ġpatted": 4376,
      "Ġreasons": 4377,
      "Ġeduc": 4378,
      "Ġsniff": 4379,
      "Ġelegant": 4380,
      "Ġwooden": 4381,
      "Ġthrowing": 4382,
      "Ġkilled": 4383,
      "Ġdirectly": 4384,
      "Ġceiling": 4385,
      "Ġmarket": 4386,
      "Ġmoaned": 4387,
      "Ġcommanded": 4388,
      "Ġpounding": 4389,
      "Ġaccompl": 4390,
      "Ġinstructions": 4391,
      "Ġcheese": 4392,
      "bbed": 4393,
      "gress": 4394,
      "hus": 4395,
      "iod": 4396,
      "kin": 4397,
      "know": 4398,
      "mit": 4399,
      "Ġtang": 4400,
      "ina": 4401,
      "Ġow": 4402,
      "Ġdates": 4403,
      "ases": 4404,
      "Ġpaced": 4405,
      "Ġpacked": 4406,
      "Ġelect": 4407,
      "acle": 4408,
      "Ġrow": 4409,
      "Ġrise": 4410,
      "Ġkick": 4411,
      "Ġate": 4412,
      "ural": 4413,
      "ilar": 4414,
      "ceed": 4415,
      "Ġallowing": 4416,
      "arely": 4417,
      "Ġtea": 4418,
      "Ġboots": 4419,
      "ptop": 4420,
      "Ġtwisted": 4421,
      "Ġsurf": 4422,
      "Ġpartner": 4423,
      "Ġperiod": 4424,
      "Ġmovements": 4425,
      "Ġswing": 4426,
      "Ġkittens": 4427,
      "Ġreflect": 4428,
      "Ġpassen": 4429,
      "Ġglasses": 4430,
      "Ġhonor": 4431,
      "Ġleading": 4432,
      "Ġentirely": 4433,
      "Ġpieces": 4434,
      "Ġcircles": 4435,
      "Ġsalad": 4436,
      "Ġlaptop": 4437,
      "Ġrecognize": 4438,
      "Ġphysical": 4439,
      "Ġmurmurs": 4440,
      "Ġbecka": 4441,
      "Ġenvelope": 4442,
      "aked": 4443,
      "iving": 4444,
      "ials": 4445,
      "nis": 4446,
      "pret": 4447,
      "val": 4448,
      "Ġtee": 4449,
      "Ġwow": 4450,
      "Ġhired": 4451,
      "Ġboring": 4452,
      "Ġmic": 4453,
      "Ġdut": 4454,
      "Ġlar": 4455,
      "Ġpit": 4456,
      "Ġsheet": 4457,
      "Ġgon": 4458,
      "Ġbegging": 4459,
      "Ġstage": 4460,
      "ayed": 4461,
      "icop": 4462,
      "amond": 4463,
      "Ġsucked": 4464,
      "Ġclut": 4465,
      "Ġchanging": 4466,
      "arted": 4467,
      "Ġdecl": 4468,
      "ulling": 4469,
      "Ġvi": 4470,
      "Ġvine": 4471,
      "bel": 4472,
      "Ġglaring": 4473,
      "Ġcontr": 4474,
      "Ġhelicop": 4475,
      "Ġstrang": 4476,
      "Ġevidence": 4477,
      "Ġstubb": 4478,
      "Ġpretending": 4479,
      "Ġpainting": 4480,
      "Ġkey": 4481,
      "Ġdropping": 4482,
      "Ġgazed": 4483,
      "Ġrefusing": 4484,
      "Ġnerves": 4485,
      "Ġsensuous": 4486,
      "Ġclimb": 4487,
      "Ġshift": 4488,
      "Ġparis": 4489,
      "Ġadvantage": 4490,
      "Ġnipples": 4491,
      "Ġbothering": 4492,
      "Ġfroze": 4493,
      "Ġfascinated": 4494,
      "Ġapologize": 4495,
      "Ġnecessary": 4496,
      "Ġpublic": 4497,
      "Ġhelicopter": 4498,
      "Ġtail": 4499,
      "Ġaut": 4500,
      "Ġalea": 4501,
      "Ġsank": 4502,
      "Ġoil": 4503,
      "Ġcand": 4504,
      "Ġling": 4505,
      "lex": 4506,
      "Ġstream": 4507,
      "Ġroof": 4508,
      "Ġupon": 4509,
      "Ġsoph": 4510,
      "Ġsocial": 4511,
      "Ġprecious": 4512,
      "Ġflir": 4513,
      "Ġtwist": 4514,
      "Ġblock": 4515,
      "Ġguar": 4516,
      "moon": 4517,
      "Ġsurged": 4518,
      "Ġskim": 4519,
      "within": 4520,
      "Ġrealizing": 4521,
      "Ġsooner": 4522,
      "Ġimpat": 4523,
      "Ġimpress": 4524,
      "Ġbelieved": 4525,
      "Ġspec": 4526,
      "Ġcringed": 4527,
      "Ġburning": 4528,
      "Ġengine": 4529,
      "Ġcrossing": 4530,
      "Ġstroke": 4531,
      "Ġadmitted": 4532,
      "Ġpractice": 4533,
      "Ġargued": 4534,
      "Ġtentatively": 4535,
      "Ġbask": 4536,
      "Ġfabulous": 4537,
      "Ġscreaming": 4538,
      "Ġcookies": 4539,
      "Ġappearance": 4540,
      "Ġclenched": 4541,
      "Ġpaused": 4542,
      "Ġshelter": 4543,
      "Ġneighborhood": 4544,
      "Ġorigin": 4545,
      "Ġbunkhouse": 4546,
      "hy": 4547,
      "hic": 4548,
      "lacey": 4549,
      "men": 4550,
      "Ġsir": 4551,
      "Ġsoul": 4552,
      "Ġwigg": 4553,
      "Ġhmm": 4554,
      "Ġdue": 4555,
      "Ġnine": 4556,
      "anked": 4557,
      "enne": 4558,
      "Ġport": 4559,
      "Ġwashing": 4560,
      "Ġbegged": 4561,
      "Ġitself": 4562,
      "Ġshame": 4563,
      "Ġsav": 4564,
      "Ġframe": 4565,
      "Ġsuck": 4566,
      "Ġloose": 4567,
      "Ġseated": 4568,
      "rais": 4569,
      "Ġplates": 4570,
      "Ġmoon": 4571,
      "uled": 4572,
      "Ġflood": 4573,
      "Ġflick": 4574,
      "beat": 4575,
      "Ġwatson": 4576,
      "Ġpred": 4577,
      "Ġmarble": 4578,
      "ffic": 4579,
      "Ġmenu": 4580,
      "Ġdifference": 4581,
      "Ġdisappointed": 4582,
      "Ġcamila": 4583,
      "Ġvehic": 4584,
      "Ġparked": 4585,
      "Ġaddress": 4586,
      "Ġstrode": 4587,
      "Ġsecrets": 4588,
      "Ġrevealing": 4589,
      "Ġhoneymoon": 4590,
      "Ġoverwhelming": 4591,
      "Ġharsh": 4592,
      "Ġsharply": 4593,
      "Ġgathered": 4594,
      "Ġdelighted": 4595,
      "Ġmattress": 4596,
      "Ġoptions": 4597,
      "Ġtraveled": 4598,
      "Ġaston": 4599,
      "Ġarrogant": 4600,
      "Ġgradu": 4601,
      "Ġresponsibility": 4602,
      "Ġtilted": 4603,
      "Ġheaven": 4604,
      "Ġunaware": 4605,
      "Ġstubborn": 4606,
      "Ġguarant": 4607,
      "00": 4608,
      "have": 4609,
      "uding": 4610,
      "zing": 4611,
      "Ġcott": 4612,
      "Ġfaces": 4613,
      "atul": 4614,
      "ature": 4615,
      "attered": 4616,
      "Ġdipped": 4617,
      "ority": 4618,
      "itor": 4619,
      "itude": 4620,
      "arch": 4621,
      "Ġbend": 4622,
      "Ġbending": 4623,
      "irled": 4624,
      "Ġjim": 4625,
      "Ġsake": 4626,
      "Ġbutter": 4627,
      "amped": 4628,
      "cture": 4629,
      "Ġworn": 4630,
      "Ġworks": 4631,
      "Ġfemin": 4632,
      "Ġartic": 4633,
      "istan": 4634,
      "eeling": 4635,
      "Ġcolla": 4636,
      "Ġqual": 4637,
      "Ġqueen": 4638,
      "Ġeverywhere": 4639,
      "Ġblouse": 4640,
      "bell": 4641,
      "Ġclock": 4642,
      "amel": 4643,
      "Ġacqu": 4644,
      "Ġprice": 4645,
      "ships": 4646,
      "Ġvol": 4647,
      "Ġrested": 4648,
      "Ġparts": 4649,
      "Ġimpact": 4650,
      "Ġdrunk": 4651,
      "osing": 4652,
      "Ġexpert": 4653,
      "Ġlanding": 4654,
      "Ġbags": 4655,
      "Ġboxes": 4656,
      "Ġstreets": 4657,
      "Ġcasey": 4658,
      "Ġcolors": 4659,
      "Ġcameras": 4660,
      "Ġeighteen": 4661,
      "body": 4662,
      "ordin": 4663,
      "Ġservice": 4664,
      "Ġresponded": 4665,
      "Ġlucky": 4666,
      "Ġinnocent": 4667,
      "Ġpreferred": 4668,
      "Ġdiamond": 4669,
      "glancing": 4670,
      "Ġdigging": 4671,
      "Ġdaily": 4672,
      "Ġinitially": 4673,
      "Ġchicken": 4674,
      "Ġpenthouse": 4675,
      "Ġviol": 4676,
      "fire": 4677,
      "uit": 4678,
      "yal": 4679,
      "Ġais": 4680,
      "Ġsar": 4681,
      "rely": 4682,
      "Ġmac": 4683,
      "Ġmix": 4684,
      "Ġmaid": 4685,
      "Ġcause": 4686,
      "Ġnumb": 4687,
      "another": 4688,
      "iture": 4689,
      "Ġinh": 4690,
      "Ġwashed": 4691,
      "vet": 4692,
      "Ġstab": 4693,
      "Ġstumbled": 4694,
      "Ġresol": 4695,
      "Ġkristi": 4696,
      "Ġshining": 4697,
      "roph": 4698,
      "Ġupstairs": 4699,
      "ribut": 4700,
      "Ġchrist": 4701,
      "Ġchurch": 4702,
      "Ġloves": 4703,
      "Ġspr": 4704,
      "Ġorgan": 4705,
      "Ġwhose": 4706,
      "Ġcocked": 4707,
      "Ġflicked": 4708,
      "Ġfluff": 4709,
      "Ġacres": 4710,
      "Ġprin": 4711,
      "Ġcaring": 4712,
      "Ġcourage": 4713,
      "aping": 4714,
      "Ġrelent": 4715,
      "Ġbehav": 4716,
      "Ġappet": 4717,
      "Ġapparently": 4718,
      "Ġears": 4719,
      "Ġgreg": 4720,
      "Ġtraffic": 4721,
      "Ġjobs": 4722,
      "Ġexciting": 4723,
      "Ġinches": 4724,
      "Ġterms": 4725,
      "Ġrefer": 4726,
      "Ġlessons": 4727,
      "Ġsnorted": 4728,
      "Ġremembering": 4729,
      "Ġappropriate": 4730,
      "hold": 4731,
      "Ġstruggled": 4732,
      "Ġsmoothed": 4733,
      "Ġformal": 4734,
      "Ġdiscussed": 4735,
      "Ġsurrounding": 4736,
      "Ġident": 4737,
      "Ġcards": 4738,
      "Ġdistracted": 4739,
      "Ġashamed": 4740,
      "Ġmassive": 4741,
      "Ġsneak": 4742,
      "Ġcapable": 4743,
      "Ġcorral": 4744,
      "despite": 4745,
      "Ġemphas": 4746,
      "Ġfurniture": 4747,
      "Ġjewelry": 4748,
      "Ġaffair": 4749,
      "Ġnuzz": 4750,
      "Ġafghanistan": 4751,
      "Ġelaborate": 4752,
      "husi": 4753,
      "knowing": 4754,
      "Ġcottage": 4755,
      "bet": 4756,
      "pulling": 4757,
      "wa": 4758,
      "Ġtax": 4759,
      "Ġsway": 4760,
      "Ġwink": 4761,
      "Ġheated": 4762,
      "reg": 4763,
      "Ġban": 4764,
      "Ġbored": 4765,
      "erv": 4766,
      "Ġfence": 4767,
      "ato": 4768,
      "atic": 4769,
      "Ġdirty": 4770,
      "ashes": 4771,
      "lle": 4772,
      "aching": 4773,
      "Ġstal": 4774,
      "Ġstif": 4775,
      "eter": 4776,
      "rienne": 4777,
      "Ġneat": 4778,
      "Ġgold": 4779,
      "Ġcha": 4780,
      "Ġexce": 4781,
      "Ġfears": 4782,
      "Ġmanage": 4783,
      "Ġtech": 4784,
      "Ġoffering": 4785,
      "Ġcomfor": 4786,
      "Ġvib": 4787,
      "Ġwaves": 4788,
      "Ġcheer": 4789,
      "Ġbraced": 4790,
      "Ġwaitress": 4791,
      "Ġsurv": 4792,
      "Ġsoftness": 4793,
      "Ġstole": 4794,
      "Ġpleased": 4795,
      "Ġsupplies": 4796,
      "Ġsweater": 4797,
      "olai": 4798,
      "Ġdeli": 4799,
      "apparently": 4800,
      "Ġtreated": 4801,
      "Ġdisappointment": 4802,
      "Ġsque": 4803,
      "iety": 4804,
      "Ġcleaned": 4805,
      "Ġrude": 4806,
      "goti": 4807,
      "Ġcircle": 4808,
      "Ġirritation": 4809,
      "Ġscreamed": 4810,
      "Ġmagn": 4811,
      "Ġdrawing": 4812,
      "Ġcurrently": 4813,
      "Ġgenerous": 4814,
      "Ġstudying": 4815,
      "Ġreporter": 4816,
      "Ġfriday": 4817,
      "Ġbasket": 4818,
      "Ġbehavior": 4819,
      "ker": 4820,
      "Ġauth": 4821,
      "ini": 4822,
      "Ġsixt": 4823,
      "Ġcy": 4824,
      "Ġdaring": 4825,
      "Ġnic": 4826,
      "itation": 4827,
      "Ġgau": 4828,
      "omatically": 4829,
      "Ġbeating": 4830,
      "stu": 4831,
      "Ġsunday": 4832,
      "Ġrole": 4833,
      "Ġplastic": 4834,
      "Ġsmother": 4835,
      "Ġvent": 4836,
      "Ġflush": 4837,
      "Ġblow": 4838,
      "being": 4839,
      "people": 4840,
      "Ġprince": 4841,
      "Ġscare": 4842,
      "Ġfingert": 4843,
      "Ġrange": 4844,
      "Ġadjust": 4845,
      "Ġcurls": 4846,
      "Ġchildhood": 4847,
      "Ġdriven": 4848,
      "Ġcrad": 4849,
      "Ġlaughs": 4850,
      "Ġmuscle": 4851,
      "Ġcontrolled": 4852,
      "Ġguessing": 4853,
      "Ġstronger": 4854,
      "Ġsunk": 4855,
      "Ġlanded": 4856,
      "Ġreacted": 4857,
      "Ġshifting": 4858,
      "Ġeaten": 4859,
      "Ġindust": 4860,
      "Ġadvice": 4861,
      "Ġbird": 4862,
      "Ġservant": 4863,
      "Ġrevealed": 4864,
      "Ġstuffed": 4865,
      "Ġmaj": 4866,
      "Ġcupped": 4867,
      "Ġrecognized": 4868,
      "Ġdiscover": 4869,
      "Ġnature": 4870,
      "omeday": 4871,
      "Ġfailed": 4872,
      "Ġjudge": 4873,
      "Ġgarage": 4874,
      "Ġspinning": 4875,
      "Ġencoura": 4876,
      "Ġamerican": 4877,
      "Ġsnuggled": 4878,
      "standing": 4879,
      "Ġtarget": 4880,
      "Ġmagazine": 4881,
      "Ġcustom": 4882,
      "Ġlarger": 4883,
      "Ġguarantee": 4884,
      "Ġaisle": 4885,
      "nic": 4886,
      "oot": 4887,
      "ron": 4888,
      "sometimes": 4889,
      "Ġest": 4890,
      "Ġsed": 4891,
      "Ġtoes": 4892,
      "Ġcush": 4893,
      "Ġfal": 4894,
      "Ġfist": 4895,
      "Ġfashion": 4896,
      "Ġdread": 4897,
      "Ġdumped": 4898,
      "Ġlung": 4899,
      "imate": 4900,
      "ota": 4901,
      "etime": 4902,
      "Ġrap": 4903,
      "Ġwhit": 4904,
      "icy": 4905,
      "Ġweather": 4906,
      "Ġdog": 4907,
      "iring": 4908,
      "Ġmember": 4909,
      "Ġshivers": 4910,
      "Ġsaved": 4911,
      "ssip": 4912,
      "Ġaltern": 4913,
      "Ġchose": 4914,
      "Ġisland": 4915,
      "Ġspine": 4916,
      "Ġspect": 4917,
      "Ġenv": 4918,
      "adeen": 4919,
      "Ġflo": 4920,
      "again": 4921,
      "ears": 4922,
      "Ġchef": 4923,
      "Ġchecking": 4924,
      "Ġhole": 4925,
      "Ġprison": 4926,
      "Ġcontem": 4927,
      "azed": 4928,
      "tell": 4929,
      "Ġadult": 4930,
      "Ġfriendly": 4931,
      "Ġhopes": 4932,
      "never": 4933,
      "Ġrealization": 4934,
      "Ġswift": 4935,
      "Ġexplo": 4936,
      "Ġexplore": 4937,
      "Ġinterview": 4938,
      "umbling": 4939,
      "Ġpalms": 4940,
      "Ġpassing": 4941,
      "Ġsenses": 4942,
      "Ġapproach": 4943,
      "Ġpolite": 4944,
      "Ġadditional": 4945,
      "Ġcreated": 4946,
      "Ġfreed": 4947,
      "Ġwarning": 4948,
      "Ġarguing": 4949,
      "Ġdirections": 4950,
      "Ġmathesons": 4951,
      "Ġfrustrated": 4952,
      "Ġmistress": 4953,
      "Ġgenerally": 4954,
      "Ġmaster": 4955,
      "Ġdug": 4956,
      "Ġducked": 4957,
      "Ġguns": 4958,
      "Ġruler": 4959,
      "Ġjealousy": 4960,
      "Ġbalance": 4961,
      "Ġshouted": 4962,
      "Ġellie": 4963,
      "Ġarrange": 4964,
      "Ġmerc": 4965,
      "Ġflowers": 4966,
      "Ġconvinced": 4967,
      "Ġtask": 4968,
      "Ġankle": 4969,
      "Ġgovern": 4970,
      "Ġentrance": 4971,
      "Ġwashington": 4972,
      "Ġvibr": 4973,
      "che": 4974,
      "dom": 4975,
      "pers": 4976,
      "ug": 4977,
      "Ġtied": 4978,
      "Ġwit": 4979,
      "Ġheir": 4980,
      "Ġcred": 4981,
      "Ġcries": 4982,
      "Ġfoo": 4983,
      "Ġdc": 4984,
      "Ġdak": 4985,
      "Ġthunder": 4986,
      "Ġlined": 4987,
      "llent": 4988,
      "Ġpark": 4989,
      "Ġgir": 4990,
      "Ġeh": 4991,
      "Ġbeach": 4992,
      "strom": 4993,
      "Ġstam": 4994,
      "Ġsticking": 4995,
      "Ġupper": 4996,
      "Ġrings": 4997,
      "Ġrev": 4998,
      "Ġreven": 4999,
      "Ġwhom": 5000,
      "Ġformed": 5001,
      "Ġmelted": 5002,
      "Ġsharing": 5003,
      "Ġlikes": 5004,
      "riley": 5005,
      "ils": 5006,
      "about": 5007,
      "Ġfright": 5008,
      "Ġfruit": 5009,
      "Ġgossip": 5010,
      "Ġmanager": 5011,
      "Ġspare": 5012,
      "Ġotherwise": 5013,
      "button": 5014,
      "pless": 5015,
      "Ġflutter": 5016,
      "Ġunbutton": 5017,
      "Ġcars": 5018,
      "Ġimm": 5019,
      "Ġfinishing": 5020,
      "shanelle": 5021,
      "Ġacted": 5022,
      "Ġentertain": 5023,
      "Ġenthusi": 5024,
      "Ġconscious": 5025,
      "ailable": 5026,
      "Ġguessed": 5027,
      "Ġwinked": 5028,
      "Ġseats": 5029,
      "Ġnerve": 5030,
      "Ġconversations": 5031,
      "Ġtug": 5032,
      "Ġforeign": 5033,
      "Ġpossibilities": 5034,
      "Ġrule": 5035,
      "Ġwarily": 5036,
      "Ġrecently": 5037,
      "Ġsqueeze": 5038,
      "rapes": 5039,
      "Ġdeserve": 5040,
      "Ġpinned": 5041,
      "Ġtotal": 5042,
      "Ġofficer": 5043,
      "Ġfascinating": 5044,
      "Ġgiggled": 5045,
      "seeing": 5046,
      "Ġphotograph": 5047,
      "Ġdisgust": 5048,
      "Ġaccepting": 5049,
      "Ġresearch": 5050,
      "Ġgenuinely": 5051,
      "Ġlonely": 5052,
      "Ġprofessional": 5053,
      "Ġweird": 5054,
      "Ġvineyard": 5055,
      "Ġfeminine": 5056,
      "Ġdakota": 5057,
      "father": 5058,
      "field": 5059,
      "osit": 5060,
      "pre": 5061,
      "por": 5062,
      "pes": 5063,
      "put": 5064,
      "pierce": 5065,
      "wom": 5066,
      "Ġbone": 5067,
      "Ġmach": 5068,
      "Ġcass": 5069,
      "Ġcult": 5070,
      "Ġfish": 5071,
      "Ġdiss": 5072,
      "Ġlicked": 5073,
      "aning": 5074,
      "Ġgall": 5075,
      "Ġgps": 5076,
      "Ġstat": 5077,
      "Ġstone": 5078,
      "Ġrout": 5079,
      "Ġrum": 5080,
      "Ġforming": 5081,
      "irling": 5082,
      "Ġshape": 5083,
      "Ġsaving": 5084,
      "Ġmyster": 5085,
      "Ġknee": 5086,
      "Ġabrupt": 5087,
      "Ġclicked": 5088,
      "Ġconven": 5089,
      "usually": 5090,
      "iforn": 5091,
      "ously": 5092,
      "Ġmansion": 5093,
      "Ġgritted": 5094,
      "Ġwaving": 5095,
      "Ġfired": 5096,
      "Ġscen": 5097,
      "Ġdisc": 5098,
      "Ġdishes": 5099,
      "Ġactions": 5100,
      "Ġearn": 5101,
      "Ġstands": 5102,
      "Ġcuriously": 5103,
      "Ġkitten": 5104,
      "oline": 5105,
      "Ġserved": 5106,
      "Ġexpress": 5107,
      "Ġwinter": 5108,
      "Ġnearby": 5109,
      "osal": 5110,
      "Ġgrins": 5111,
      "Ġcounted": 5112,
      "Ġsquare": 5113,
      "Ġcutting": 5114,
      "Ġdragged": 5115,
      "Ġveget": 5116,
      "Ġtrusted": 5117,
      "Ġshots": 5118,
      "Ġcaliforn": 5119,
      "Ġstruggling": 5120,
      "Ġavailable": 5121,
      "Ġurg": 5122,
      "Ġbothered": 5123,
      "Ġjerk": 5124,
      "Ġefforts": 5125,
      "Ġemployee": 5126,
      "luke": 5127,
      "Ġsatisfied": 5128,
      "Ġticket": 5129,
      "Ġarranged": 5130,
      "Ġannounce": 5131,
      "Ġsuccessful": 5132,
      "Ġphotograp": 5133,
      "Ġitems": 5134,
      "Ġopinion": 5135,
      "Ġliquid": 5136,
      "Ġsurface": 5137,
      "Ġsophist": 5138,
      "Ġflirting": 5139,
      "Ġexcellent": 5140,
      "Ġfingertips": 5141,
      "Ġcalifornia": 5142,
      "ale": 5143,
      "cam": 5144,
      "gest": 5145,
      "hn": 5146,
      "hol": 5147,
      "ipe": 5148,
      "jan": 5149,
      "making": 5150,
      "rard": 5151,
      "ront": 5152,
      "uce": 5153,
      "wed": 5154,
      "Ġutter": 5155,
      "Ġaud": 5156,
      "Ġwand": 5157,
      "Ġward": 5158,
      "rel": 5159,
      "Ġtore": 5160,
      "Ġmack": 5161,
      "Ġmmm": 5162,
      "Ġfer": 5163,
      "Ġdumb": 5164,
      "Ġpunch": 5165,
      "Ġbell": 5166,
      "Ġrib": 5167,
      "Ġremo": 5168,
      "ential": 5169,
      "Ġmeals": 5170,
      "Ġanno": 5171,
      "Ġoutfit": 5172,
      "Ġnegoti": 5173,
      "ama": 5174,
      "ardless": 5175,
      "Ġchos": 5176,
      "essert": 5177,
      "Ġcongr": 5178,
      "ateg": 5179,
      "ifting": 5180,
      "Ġlobby": 5181,
      "Ġspir": 5182,
      "ption": 5183,
      "Ġflirt": 5184,
      "Ġbliss": 5185,
      "Ġpros": 5186,
      "Ġprogress": 5187,
      "aging": 5188,
      "Ġglare": 5189,
      "Ġscru": 5190,
      "Ġtells": 5191,
      "Ġtrash": 5192,
      "Ġdesce": 5193,
      "Ġhardness": 5194,
      "Ġjoy": 5195,
      "Ġjohn": 5196,
      "iction": 5197,
      "Ġbuzz": 5198,
      "Ġmeaning": 5199,
      "Ġskills": 5200,
      "nel": 5201,
      "Ġdressing": 5202,
      "Ġdecis": 5203,
      "Ġobst": 5204,
      "Ġterror": 5205,
      "Ġhitting": 5206,
      "ipper": 5207,
      "Ġruin": 5208,
      "Ġescaped": 5209,
      "Ġprepare": 5210,
      "Ġdanielle": 5211,
      "Ġlifetime": 5212,
      "Ġinvestig": 5213,
      "Ġscrat": 5214,
      "Ġrules": 5215,
      "Ġrepeat": 5216,
      "Ġelbow": 5217,
      "Ġconcentrate": 5218,
      "Ġwealthy": 5219,
      "Ġcharming": 5220,
      "Ġattracted": 5221,
      "Ġexchanged": 5222,
      "Ġplatform": 5223,
      "Ġrancher": 5224,
      "Ġmaintain": 5225,
      "Ġhouses": 5226,
      "Ġgovernment": 5227,
      "Ġchosen": 5228,
      "Ġcongratul": 5229,
      "fl": 5230,
      "ios": 5231,
      "none": 5232,
      "tail": 5233,
      "Ġought": 5234,
      "Ġtuck": 5235,
      "Ġoven": 5236,
      "Ġdessert": 5237,
      "Ġlinda": 5238,
      "Ġpic": 5239,
      "Ġhay": 5240,
      "idly": 5241,
      "acter": 5242,
      "aches": 5243,
      "Ġstress": 5244,
      "Ġstars": 5245,
      "Ġkay": 5246,
      "ooped": 5247,
      "iron": 5248,
      "Ġjour": 5249,
      "alla": 5250,
      "Ġability": 5251,
      "Ġintended": 5252,
      "Ġwouldn": 5253,
      "Ġalert": 5254,
      "Ġchances": 5255,
      "Ġsped": 5256,
      "Ġboot": 5257,
      "Ġslapped": 5258,
      "Ġval": 5259,
      "place": 5260,
      "Ġblushing": 5261,
      "Ġstilled": 5262,
      "ddled": 5263,
      "Ġstartling": 5264,
      "Ġscow": 5265,
      "Ġcaramel": 5266,
      "anges": 5267,
      "Ġdish": 5268,
      "Ġshowered": 5269,
      "Ġrobert": 5270,
      "Ġresult": 5271,
      "Ġhoriz": 5272,
      "Ġwrists": 5273,
      "Ġsidewal": 5274,
      "Ġsatin": 5275,
      "Ġattached": 5276,
      "Ġswim": 5277,
      "Ġconsum": 5278,
      "Ġgives": 5279,
      "Ġcloth": 5280,
      "Ġkidna": 5281,
      "Ġdetail": 5282,
      "Ġforest": 5283,
      "Ġvet": 5284,
      "Ġledstrom": 5285,
      "Ġtasting": 5286,
      "Ġchallenged": 5287,
      "Ġchocol": 5288,
      "Ġoccup": 5289,
      "Ġdepart": 5290,
      "Ġterrifying": 5291,
      "Ġrecord": 5292,
      "Ġcircum": 5293,
      "Ġshivering": 5294,
      "Ġassume": 5295,
      "Ġprivacy": 5296,
      "Ġfascination": 5297,
      "scott": 5298,
      "Ġpotato": 5299,
      "except": 5300,
      "Ġdesigns": 5301,
      "Ġannounced": 5302,
      "Ġnurse": 5303,
      "Ġactivities": 5304,
      "Ġbridge": 5305,
      "Ġthoroughly": 5306,
      "Ġsandwich": 5307,
      "Ġvehicle": 5308,
      "Ġarticle": 5309,
      "aper": 5310,
      "gers": 5311,
      "kristi": 5312,
      "norm": 5313,
      "pet": 5314,
      "Ġtv": 5315,
      "Ġsomeday": 5316,
      "Ġhid": 5317,
      "Ġhire": 5318,
      "Ġharm": 5319,
      "Ġcro": 5320,
      "Ġpity": 5321,
      "Ġstyle": 5322,
      "Ġripp": 5323,
      "vert": 5324,
      "oop": 5325,
      "Ġshak": 5326,
      "Ġshanelle": 5327,
      "three": 5328,
      "iless": 5329,
      "ilty": 5330,
      "ament": 5331,
      "Ġabasar": 5332,
      "atever": 5333,
      "Ġload": 5334,
      "ources": 5335,
      "whatever": 5336,
      "Ġguilty": 5337,
      "Ġunex": 5338,
      "Ġprim": 5339,
      "Ġscary": 5340,
      "Ġappe": 5341,
      "together": 5342,
      "Ġmatch": 5343,
      "Ġcurl": 5344,
      "Ġheartbeat": 5345,
      "Ġdrift": 5346,
      "Ġtrap": 5347,
      "Ġsimilar": 5348,
      "Ġmostly": 5349,
      "Ġdrinking": 5350,
      "Ġtopic": 5351,
      "Ġburned": 5352,
      "Ġpatience": 5353,
      "Ġnervousness": 5354,
      "Ġreput": 5355,
      "Ġshorts": 5356,
      "Ġwarmed": 5357,
      "asmine": 5358,
      "Ġcharacter": 5359,
      "Ġproposal": 5360,
      "Ġladder": 5361,
      "Ġshadows": 5362,
      "Ġellis": 5363,
      "Ġintroduced": 5364,
      "Ġintentions": 5365,
      "Ġragged": 5366,
      "Ġdivor": 5367,
      "Ġleaves": 5368,
      "Ġreluctantly": 5369,
      "camila": 5370,
      "aly": 5371,
      "ey": 5372,
      "pend": 5373,
      "ris": 5374,
      "ti": 5375,
      "Ġ3": 5376,
      "Ġing": 5377,
      "Ġsan": 5378,
      "Ġwis": 5379,
      "Ġhy": 5380,
      "Ġfate": 5381,
      "Ġpizz": 5382,
      "Ġger": 5383,
      "acular": 5384,
      "str": 5385,
      "Ġstates": 5386,
      "Ġrate": 5387,
      "Ġripped": 5388,
      "Ġrever": 5389,
      "Ġdogs": 5390,
      "Ġshall": 5391,
      "Ġbackground": 5392,
      "anda": 5393,
      "Ġsuff": 5394,
      "Ġclar": 5395,
      "Ġhandcu": 5396,
      "Ġdeck": 5397,
      "Ġdevel": 5398,
      "Ġloss": 5399,
      "umph": 5400,
      "Ġcomments": 5401,
      "Ġquar": 5402,
      "ples": 5403,
      "Ġcanad": 5404,
      "ounded": 5405,
      "Ġunsure": 5406,
      "Ġholl": 5407,
      "Ġcaroline": 5408,
      "Ġhardened": 5409,
      "Ġjokes": 5410,
      "Ġowner": 5411,
      "Ġador": 5412,
      "Ġending": 5413,
      "Ġfamil": 5414,
      "Ġswear": 5415,
      "Ġcrush": 5416,
      "Ġcorners": 5417,
      "Ġwhispers": 5418,
      "Ġfourteen": 5419,
      "Ġinsist": 5420,
      "Ġinflu": 5421,
      "Ġrelaxing": 5422,
      "Ġtriumph": 5423,
      "Ġsuits": 5424,
      "Ġsignific": 5425,
      "Ġdoubted": 5426,
      "Ġcowboys": 5427,
      "until": 5428,
      "Ġcondition": 5429,
      "Ġservants": 5430,
      "Ġpaperwork": 5431,
      "Ġencoun": 5432,
      "Ġslamming": 5433,
      "Ġinnov": 5434,
      "Ġnatural": 5435,
      "Ġconnected": 5436,
      "ique": 5437,
      "Ġvacation": 5438,
      "Ġscrambled": 5439,
      "Ġeducation": 5440,
      "Ġpassenger": 5441,
      "Ġautomatically": 5442,
      "Ġspectacular": 5443,
      "Ġmerciless": 5444,
      "Ġsophisticated": 5445,
      "Ġrobertson": 5446,
      "Ġhorizon": 5447,
      "Ġchocolate": 5448,
      "Ġhandcuff": 5449,
      "Ġdevelop": 5450,
      "dad": 5451,
      "god": 5452,
      "hill": 5453,
      "rum": 5454,
      "hetic": 5455,
      "Ġtapped": 5456,
      "Ġhint": 5457,
      "Ġfren": 5458,
      "Ġdar": 5459,
      "Ġlab": 5460,
      "ench": 5461,
      "eness": 5462,
      "Ġpets": 5463,
      "oning": 5464,
      "iter": 5465,
      "itched": 5466,
      "Ġyanked": 5467,
      "idy": 5468,
      "iment": 5469,
      "Ġwhipped": 5470,
      "icted": 5471,
      "Ġkara": 5472,
      "Ġforgive": 5473,
      "Ġshrie": 5474,
      "chie": 5475,
      "Ġknife": 5476,
      "Ġsugar": 5477,
      "Ġcloud": 5478,
      "Ġaloud": 5479,
      "Ġovercome": 5480,
      "Ġnope": 5481,
      "iece": 5482,
      "Ġspell": 5483,
      "Ġenem": 5484,
      "Ġunh": 5485,
      "Ġunited": 5486,
      "Ġunlo": 5487,
      "Ġunivers": 5488,
      "Ġcontained": 5489,
      "Ġhappens": 5490,
      "ggle": 5491,
      "Ġwaiter": 5492,
      "Ġjoe": 5493,
      "Ġrelatively": 5494,
      "Ġsteal": 5495,
      "Ġvoices": 5496,
      "Ġphr": 5497,
      "Ġreplaced": 5498,
      "Ġdiner": 5499,
      "Ġcurves": 5500,
      "Ġimpression": 5501,
      "Ġobject": 5502,
      "Ġcorn": 5503,
      "Ġchuckling": 5504,
      "uded": 5505,
      "Ġhopefully": 5506,
      "Ġsnap": 5507,
      "Ġcalcul": 5508,
      "Ġstroked": 5509,
      "Ġsentence": 5510,
      "Ġsuggestion": 5511,
      "Ġurged": 5512,
      "Ġthrown": 5513,
      "Ġanticipated": 5514,
      "Ġeagerly": 5515,
      "Ġfucking": 5516,
      "Ġmascul": 5517,
      "Ġpersonality": 5518,
      "Ġresponsible": 5519,
      "Ġsatisfaction": 5520,
      "Ġshadow": 5521,
      "Ġelbows": 5522,
      "Ġuncaring": 5523,
      "Ġtraveling": 5524,
      "Ġmountain": 5525,
      "Ġreports": 5526,
      "Ġembarrassment": 5527,
      "Ġintimidated": 5528,
      "Ġwritten": 5529,
      "Ġacknowled": 5530,
      "Ġfatig": 5531,
      "Ġexclaimed": 5532,
      "Ġowned": 5533,
      "Ġreflection": 5534,
      "Ġjimmy": 5535,
      "Ġprincess": 5536,
      "Ġchaos": 5537,
      "Ġmagnific": 5538,
      "Ġwhitfield": 5539,
      "Ġfreedom": 5540,
      "Ġabruptly": 5541,
      "Ġdecisions": 5542,
      "Ġpicnic": 5543,
      "Ġunexpected": 5544,
      "Ġfamilies": 5545,
      "book": 5546,
      "hassan": 5547,
      "iven": 5548,
      "jack": 5549,
      "mare": 5550,
      "wing": 5551,
      "Ġtub": 5552,
      "Ġwicked": 5553,
      "eds": 5554,
      "Ġhealth": 5555,
      "Ġhook": 5556,
      "Ġmile": 5557,
      "Ġmult": 5558,
      "Ġcast": 5559,
      "Ġdared": 5560,
      "Ġdub": 5561,
      "Ġdanced": 5562,
      "asping": 5563,
      "Ġlabor": 5564,
      "aration": 5565,
      "arian": 5566,
      "omes": 5567,
      "Ġwaste": 5568,
      "ache": 5569,
      "Ġhissed": 5570,
      "ette": 5571,
      "Ġrust": 5572,
      "Ġrace": 5573,
      "Ġrarely": 5574,
      "several": 5575,
      "ado": 5576,
      "adar": 5577,
      "Ġweap": 5578,
      "rig": 5579,
      "riger": 5580,
      "Ġneare": 5581,
      "Ġnella": 5582,
      "Ġsund": 5583,
      "Ġsucking": 5584,
      "Ġclient": 5585,
      "Ġalco": 5586,
      "Ġchanges": 5587,
      "Ġleague": 5588,
      "Ġovernight": 5589,
      "Ġdeg": 5590,
      "Ġspar": 5591,
      "Ġsport": 5592,
      "Ġcommon": 5593,
      "Ġvictor": 5594,
      "Ġgrace": 5595,
      "Ġgrade": 5596,
      "Ġgrasp": 5597,
      "Ġnowhere": 5598,
      "play": 5599,
      "Ġflipped": 5600,
      "Ġglo": 5601,
      "Ġnightmare": 5602,
      "Ġunif": 5603,
      "Ġunfortunately": 5604,
      "ization": 5605,
      "issa": 5606,
      "ffed": 5607,
      "Ġfinanc": 5608,
      "Ġappl": 5609,
      "Ġstrand": 5610,
      "Ġadrienne": 5611,
      "Ġwriting": 5612,
      "Ġassure": 5613,
      "Ġbreaths": 5614,
      "Ġhurting": 5615,
      "Ġexploring": 5616,
      "Ġdecade": 5617,
      "Ġaccur": 5618,
      "Ġgasping": 5619,
      "Ġbedrooms": 5620,
      "Ġburn": 5621,
      "Ġrefriger": 5622,
      "Ġinvitation": 5623,
      "Ġmessed": 5624,
      "Ġvend": 5625,
      "Ġshrug": 5626,
      "Ġworrying": 5627,
      "Ġlucy": 5628,
      "Ġprotected": 5629,
      "Ġprotecting": 5630,
      "Ġcreating": 5631,
      "Ġescort": 5632,
      "Ġwarned": 5633,
      "Ġsinging": 5634,
      "Ġirritating": 5635,
      "Ġpacking": 5636,
      "Ġpassionate": 5637,
      "Ġtorn": 5638,
      "Ġagreement": 5639,
      "Ġstallion": 5640,
      "Ġstudents": 5641,
      "Ġphysically": 5642,
      "Ġwiping": 5643,
      "Ġstarving": 5644,
      "Ġmountains": 5645,
      "Ġnibbling": 5646,
      "Ġgesture": 5647,
      "Ġincluding": 5648,
      "Ġpulse": 5649,
      "mission": 5650,
      "Ġblew": 5651,
      "Ġrisk": 5652,
      "Ġacknowledge": 5653,
      "Ġcrawl": 5654,
      "Ġcollap": 5655,
      "Ġsidewalk": 5656,
      "Ġcircumst": 5657,
      "Ġreputation": 5658,
      "ald": 5659,
      "bit": 5660,
      "fits": 5661,
      "ike": 5662,
      "jo": 5663,
      "mason": 5664,
      "uh": 5665,
      "vent": 5666,
      "viously": 5667,
      "heart": 5668,
      "Ġmut": 5669,
      "Ġmare": 5670,
      "Ġfac": 5671,
      "Ġfile": 5672,
      "Ġdamp": 5673,
      "Ġnails": 5674,
      "Ġnames": 5675,
      "Ġthrob": 5676,
      "Ġshed": 5677,
      "Ġgle": 5678,
      "Ġgroom": 5679,
      "omy": 5680,
      "Ġeur": 5681,
      "otic": 5682,
      "etch": 5683,
      "Ġrain": 5684,
      "ication": 5685,
      "Ġkicking": 5686,
      "almost": 5687,
      "keep": 5688,
      "Ġshr": 5689,
      "ppy": 5690,
      "Ġnoted": 5691,
      "Ġsem": 5692,
      "Ġspit": 5693,
      "ulner": 5694,
      "Ġslap": 5695,
      "Ġvulner": 5696,
      "Ġcheap": 5697,
      "asses": 5698,
      "Ġcarriage": 5699,
      "Ġtraining": 5700,
      "Ġfoster": 5701,
      "Ġfoyer": 5702,
      "Ġrestr": 5703,
      "Ġnewsp": 5704,
      "Ġswore": 5705,
      "Ġclosely": 5706,
      "Ġtrapped": 5707,
      "Ġbiggest": 5708,
      "Ġaccent": 5709,
      "Ġdefense": 5710,
      "Ġretre": 5711,
      "Ġprompted": 5712,
      "Ġzipper": 5713,
      "Ġsquir": 5714,
      "Ġsnat": 5715,
      "Ġcuts": 5716,
      "Ġdrag": 5717,
      "Ġdrawn": 5718,
      "Ġjumping": 5719,
      "Ġpolit": 5720,
      "Ġclimbing": 5721,
      "Ġpictured": 5722,
      "Ġboxers": 5723,
      "Ġsigns": 5724,
      "Ġbrave": 5725,
      "Ġballroom": 5726,
      "Ġcrowded": 5727,
      "Ġcollar": 5728,
      "Ġcasually": 5729,
      "Ġsettling": 5730,
      "Ġsmelled": 5731,
      "Ġtort": 5732,
      "Ġstunning": 5733,
      "Ġmidnight": 5734,
      "Ġmilk": 5735,
      "Ġrounded": 5736,
      "Ġmotel": 5737,
      "casey": 5738,
      "Ġinternet": 5739,
      "Ġconstantly": 5740,
      "Ġreporters": 5741,
      "Ġnibbled": 5742,
      "Ġseparate": 5743,
      "Ġgreeted": 5744,
      "slow": 5745,
      "Ġembarrassing": 5746,
      "Ġprovide": 5747,
      "steps": 5748,
      "Ġindicating": 5749,
      "Ġbuddy": 5750,
      "Ġabandoned": 5751,
      "Ġnudged": 5752,
      "Ġconfirmed": 5753,
      "Ġnapkin": 5754,
      "Ġhumiliation": 5755,
      "pretty": 5756,
      "Ġtaxi": 5757,
      "Ġstifled": 5758,
      "Ġmajor": 5759,
      "Ġcontempl": 5760,
      "Ġrevenge": 5761,
      "Ġphotographer": 5762,
      "normally": 5763,
      "Ġhandcuffs": 5764,
      "Ġuniversity": 5765,
      "Ġfatigue": 5766,
      "Ġmagnificent": 5767,
      "Ġalcohol": 5768,
      "Ġrefrigerator": 5769,
      "ball": 5770,
      "xed": 5771,
      "Ġbord": 5772,
      "Ġmumbled": 5773,
      "Ġmutter": 5774,
      "Ġmuttered": 5775,
      "erted": 5776,
      "Ġfa": 5777,
      "Ġfaint": 5778,
      "Ġnamed": 5779,
      "Ġlightly": 5780,
      "Ġpow": 5781,
      "Ġpage": 5782,
      "Ġpitch": 5783,
      "Ġpony": 5784,
      "Ġgary": 5785,
      "Ġbeast": 5786,
      "Ġrear": 5787,
      "Ġreward": 5788,
      "Ġwhist": 5789,
      "ades": 5790,
      "urs": 5791,
      "Ġshade": 5792,
      "Ġliking": 5793,
      "Ġsale": 5794,
      "Ġupwards": 5795,
      "rous": 5796,
      "Ġaback": 5797,
      "Ġintention": 5798,
      "Ġnoticing": 5799,
      "Ġcla": 5800,
      "Ġchill": 5801,
      "Ġmanner": 5802,
      "Ġtearing": 5803,
      "Ġplus": 5804,
      "Ġmonday": 5805,
      "Ġarrow": 5806,
      "Ġslim": 5807,
      "Ġemerg": 5808,
      "things": 5809,
      "Ġflower": 5810,
      "agg": 5811,
      "Ġlonged": 5812,
      "deb": 5813,
      "Ġwoken": 5814,
      "Ġtrained": 5815,
      "Ġtracks": 5816,
      "Ġranching": 5817,
      "enses": 5818,
      "Ġruns": 5819,
      "Ġsawyer": 5820,
      "Ġcrimin": 5821,
      "Ġsilky": 5822,
      "appro": 5823,
      "Ġterm": 5824,
      "Ġgrinning": 5825,
      "Ġdistur": 5826,
      "Ġadmon": 5827,
      "Ġtightening": 5828,
      "Ġtensed": 5829,
      "Ġshortly": 5830,
      "Ġsuitcase": 5831,
      "othy": 5832,
      "Ġtasted": 5833,
      "Ġcreate": 5834,
      "Ġdonut": 5835,
      "Ġpreparing": 5836,
      "Ġdennis": 5837,
      "Ġdiscussing": 5838,
      "Ġundo": 5839,
      "Ġavoided": 5840,
      "Ġstudied": 5841,
      "Ġappreciated": 5842,
      "Ġweakness": 5843,
      "Ġerr": 5844,
      "Ġfolded": 5845,
      "Ġshooting": 5846,
      "Ġmotor": 5847,
      "Ġarguments": 5848,
      "Ġpunched": 5849,
      "Ġintroduce": 5850,
      "Ġindepend": 5851,
      "willing": 5852,
      "Ġbetrayal": 5853,
      "Ġpurchase": 5854,
      "Ġoblig": 5855,
      "Ġdestro": 5856,
      "Ġwhimpered": 5857,
      "Ġstaircase": 5858,
      "Ġelectric": 5859,
      "Ġcustomers": 5860,
      "Ġenviron": 5861,
      "Ġcredit": 5862,
      "iosity": 5863,
      "Ġpizza": 5864,
      "den": 5865,
      "dge": 5866,
      "daughter": 5867,
      "ees": 5868,
      "emor": 5869,
      "iant": 5870,
      "iated": 5871,
      "lor": 5872,
      "lting": 5873,
      "look": 5874,
      "met": 5875,
      "mate": 5876,
      "take": 5877,
      "Ġver": 5878,
      "Ġvers": 5879,
      "Ġtit": 5880,
      "Ġtack": 5881,
      "Ġai": 5882,
      "Ġbust": 5883,
      "Ġoce": 5884,
      "Ġmart": 5885,
      "Ġmeth": 5886,
      "Ġcart": 5887,
      "Ġnadeen": 5888,
      "Ġlashes": 5889,
      "orrow": 5890,
      "Ġgrapes": 5891,
      "ester": 5892,
      "Ġrhy": 5893,
      "Ġfort": 5894,
      "Ġmelt": 5895,
      "eech": 5896,
      "eeps": 5897,
      "these": 5898,
      "Ġalan": 5899,
      "aunt": 5900,
      "Ġexasper": 5901,
      "umble": 5902,
      "Ġplas": 5903,
      "Ġplant": 5904,
      "Ġoffices": 5905,
      "Ġsmir": 5906,
      "Ġbold": 5907,
      "Ġemily": 5908,
      "Ġchevy": 5909,
      "mean": 5910,
      "Ġunz": 5911,
      "Ġunwilling": 5912,
      "Ġcarpet": 5913,
      "Ġbeds": 5914,
      "Ġwherever": 5915,
      "Ġcaut": 5916,
      "uel": 5917,
      "Ġpeak": 5918,
      "Ġbuff": 5919,
      "today": 5920,
      "Ġstrict": 5921,
      "Ġwrink": 5922,
      "Ġsweep": 5923,
      "Ġcuriosity": 5924,
      "Ġsurprising": 5925,
      "fortably": 5926,
      "Ġdrank": 5927,
      "Ġfactory": 5928,
      "Ġquestioning": 5929,
      "Ġhighway": 5930,
      "Ġinvited": 5931,
      "Ġdistr": 5932,
      "comber": 5933,
      "event": 5934,
      "Ġenglish": 5935,
      "Ġprotective": 5936,
      "Ġhesitation": 5937,
      "Ġregular": 5938,
      "Ġmission": 5939,
      "obviously": 5940,
      "Ġbattle": 5941,
      "Ġhike": 5942,
      "Ġuncomfortably": 5943,
      "Ġfrozen": 5944,
      "Ġrequire": 5945,
      "Ġinnoc": 5946,
      "Ġexamining": 5947,
      "Ġfifty": 5948,
      "Ġpropose": 5949,
      "Ġclench": 5950,
      "Ġconnection": 5951,
      "Ġexhaust": 5952,
      "Ġdamned": 5953,
      "Ġbowl": 5954,
      "Ġcompetition": 5955,
      "Ġbegun": 5956,
      "Ġfantasy": 5957,
      "Ġluxurious": 5958,
      "Ġmental": 5959,
      "Ġaffected": 5960,
      "Ġrejected": 5961,
      "Ġbastian": 5962,
      "Ġintelligent": 5963,
      "Ġcontrad": 5964,
      "Ġtwisting": 5965,
      "Ġnumbers": 5966,
      "Ġwitness": 5967,
      "Ġdescended": 5968,
      "Ġingred": 5969,
      "Ġgerrard": 5970,
      "Ġadorable": 5971,
      "Ġcircumstances": 5972,
      "emory": 5973,
      "Ġocean": 5974,
      "Ġrhyth": 5975,
      "bbing": 5976,
      "cut": 5977,
      "cise": 5978,
      "eled": 5979,
      "gone": 5980,
      "lks": 5981,
      "mom": 5982,
      "tal": 5983,
      "Ġ6": 5984,
      "Ġtut": 5985,
      "Ġaunt": 5986,
      "Ġwest": 5987,
      "Ġobe": 5988,
      "Ġcake": 5989,
      "Ġdust": 5990,
      "Ġlam": 5991,
      "Ġlane": 5992,
      "orothy": 5993,
      "Ġpoo": 5994,
      "Ġpiled": 5995,
      "itable": 5996,
      "Ġgear": 5997,
      "Ġinher": 5998,
      "Ġinappro": 5999,
      "Ġegg": 6000,
      "imed": 6001,
      "imeter": 6002,
      "Ġug": 6003,
      "Ġreins": 6004,
      "adia": 6005,
      "Ġhadn": 6006,
      "Ġliz": 6007,
      "Ġlibr": 6008,
      "Ġoutright": 6009,
      "roll": 6010,
      "acking": 6011,
      "Ġknot": 6012,
      "ards": 6013,
      "Ġclip": 6014,
      "Ġclue": 6015,
      "essed": 6016,
      "lfriend": 6017,
      "Ġspeech": 6018,
      "ume": 6019,
      "umping": 6020,
      "istic": 6021,
      "Ġgrass": 6022,
      "Ġquiver": 6023,
      "ilet": 6024,
      "ileen": 6025,
      "Ġbread": 6026,
      "Ġflip": 6027,
      "Ġglimp": 6028,
      "Ġmarissa": 6029,
      "Ġimpl": 6030,
      "ipul": 6031,
      "Ġdismiss": 6032,
      "Ġcompared": 6033,
      "Ġjoking": 6034,
      "Ġamanda": 6035,
      "Ġresent": 6036,
      "Ġrespected": 6037,
      "Ġstrateg": 6038,
      "Ġourselves": 6039,
      "Ġperform": 6040,
      "pective": 6041,
      "Ġskill": 6042,
      "Ġangle": 6043,
      "Ġbreathless": 6044,
      "Ġswinging": 6045,
      "Ġcurve": 6046,
      "Ġshocking": 6047,
      "Ġpasture": 6048,
      "Ġenticing": 6049,
      "Ġhugging": 6050,
      "Ġcrash": 6051,
      "Ġconfront": 6052,
      "Ġfurrow": 6053,
      "Ġbreaks": 6054,
      "Ġterrible": 6055,
      "Ġmetal": 6056,
      "Ġpathetic": 6057,
      "Ġinsisted": 6058,
      "Ġdreamed": 6059,
      "Ġcreative": 6060,
      "ornhill": 6061,
      "Ġthirteen": 6062,
      "Ġstroking": 6063,
      "Ġdepth": 6064,
      "Ġdepend": 6065,
      "Ġassuming": 6066,
      "Ġmagic": 6067,
      "Ġyelling": 6068,
      "Ġpotential": 6069,
      "Ġstalls": 6070,
      "Ġincreasing": 6071,
      "Ġfiance": 6072,
      "Ġgathering": 6073,
      "Ġstretching": 6074,
      "Ġclenching": 6075,
      "Ġthreatened": 6076,
      "Ġemotional": 6077,
      "Ġgrandpa": 6078,
      "Ġbalcon": 6079,
      "Ġmovies": 6080,
      "Ġslightest": 6081,
      "Ġoption": 6082,
      "Ġindeed": 6083,
      "Ġgestured": 6084,
      "Ġdefeat": 6085,
      "Ġshuddered": 6086,
      "Ġreassure": 6087,
      "Ġclaimed": 6088,
      "Ġstirred": 6089,
      "Ġanxiety": 6090,
      "Ġsternly": 6091,
      "Ġmentally": 6092,
      "Ġveterinary": 6093,
      "Ġaccomplished": 6094,
      "Ġastonished": 6095,
      "Ġstalked": 6096,
      "Ġauthority": 6097,
      "Ġrapidly": 6098,
      "women": 6099,
      "Ġmachine": 6100,
      "Ġcongratulations": 6101,
      "Ġacknowledged": 6102,
      "Ġuniform": 6103,
      "Ġnewspaper": 6104,
      "Ġenvironment": 6105,
      "Ġmethod": 6106,
      "bal": 6107,
      "bur": 6108,
      "cr": 6109,
      "danie": 6110,
      "duncan": 6111,
      "eper": 6112,
      "hal": 6113,
      "kn": 6114,
      "long": 6115,
      "mble": 6116,
      "oll": 6117,
      "sm": 6118,
      "six": 6119,
      "Ġtant": 6120,
      "Ġade": 6121,
      "Ġsour": 6122,
      "Ġsinking": 6123,
      "Ġwary": 6124,
      "Ġwives": 6125,
      "Ġbump": 6126,
      "ators": 6127,
      "atives": 6128,
      "Ġdial": 6129,
      "Ġthornhill": 6130,
      "Ġlicking": 6131,
      "Ġpad": 6132,
      "ita": 6133,
      "ari": 6134,
      "aries": 6135,
      "aco": 6136,
      "imm": 6137,
      "stick": 6138,
      "Ġsteel": 6139,
      "Ġrage": 6140,
      "Ġassh": 6141,
      "Ġkeeps": 6142,
      "keeper": 6143,
      "urance": 6144,
      "Ġliv": 6145,
      "ribly": 6146,
      "think": 6147,
      "rying": 6148,
      "Ġclub": 6149,
      "Ġroyal": 6150,
      "Ġexer": 6151,
      "Ġnoon": 6152,
      "unte": 6153,
      "cks": 6154,
      "Ġsmacked": 6155,
      "Ġarina": 6156,
      "Ġvows": 6157,
      "Ġvague": 6158,
      "Ġwhoa": 6159,
      "Ġgrunt": 6160,
      "Ġgruff": 6161,
      "Ġbree": 6162,
      "Ġmomma": 6163,
      "Ġblown": 6164,
      "Ġguide": 6165,
      "Ġguilt": 6166,
      "Ġlonging": 6167,
      "Ġbrun": 6168,
      "Ġbrushing": 6169,
      "Ġbracing": 6170,
      "Ġuncle": 6171,
      "Ġscoff": 6172,
      "Ġdesig": 6173,
      "Ġfolks": 6174,
      "mod": 6175,
      "Ġamb": 6176,
      "Ġsteak": 6177,
      "Ġresources": 6178,
      "Ġentering": 6179,
      "Ġpretended": 6180,
      "Ġsigned": 6181,
      "Ġlegal": 6182,
      "Ġreaches": 6183,
      "Ġsuppressed": 6184,
      "Ġeyel": 6185,
      "Ġserve": 6186,
      "Ġexposed": 6187,
      "Ġfuriously": 6188,
      "Ġincident": 6189,
      "Ġstraw": 6190,
      "Ġthankfully": 6191,
      "Ġsnuck": 6192,
      "Ġtucking": 6193,
      "Ġtugging": 6194,
      "Ġsweetheart": 6195,
      "Ġtrips": 6196,
      "Ġpositioned": 6197,
      "Ġexplaining": 6198,
      "encing": 6199,
      "Ġadvis": 6200,
      "Ġsmoothing": 6201,
      "Ġfuss": 6202,
      "Ġstiffly": 6203,
      "lights": 6204,
      "Ġincrease": 6205,
      "Ġfixed": 6206,
      "Ġtransfer": 6207,
      "Ġcosts": 6208,
      "Ġteaching": 6209,
      "Ġcaressing": 6210,
      "Ġtracey": 6211,
      "Ġseparated": 6212,
      "Ġproduct": 6213,
      "Ġfridge": 6214,
      "Ġspilled": 6215,
      "Ġranches": 6216,
      "Ġhostess": 6217,
      "Ġcompanies": 6218,
      "conscious": 6219,
      "Ġefficiently": 6220,
      "Ġradio": 6221,
      "Ġduty": 6222,
      "Ġvolunte": 6223,
      "Ġmaccomber": 6224,
      "Ġinhaled": 6225,
      "Ġfluffy": 6226,
      "Ġsurvive": 6227,
      "Ġlungs": 6228,
      "Ġgirlfriend": 6229,
      "Ġannouncement": 6230,
      "Ġmasculine": 6231,
      "eventually": 6232,
      "Ġrhythm": 6233,
      "Ġlibrary": 6234,
      "away": 6235,
      "alea": 6236,
      "cast": 6237,
      "cceed": 6238,
      "door": 6239,
      "eling": 6240,
      "eyed": 6241,
      "gu": 6242,
      "len": 6243,
      "wood": 6244,
      "wanted": 6245,
      "Ġbik": 6246,
      "Ġtoast": 6247,
      "Ġfed": 6248,
      "atisf": 6249,
      "Ġpil": 6250,
      "Ġpeel": 6251,
      "Ġpissed": 6252,
      "Ġgain": 6253,
      "Ġgate": 6254,
      "Ġec": 6255,
      "ida": 6256,
      "ays": 6257,
      "Ġram": 6258,
      "Ġrip": 6259,
      "Ġkadar": 6260,
      "key": 6261,
      "Ġdocum": 6262,
      "Ġant": 6263,
      "Ġjet": 6264,
      "Ġjasmine": 6265,
      "Ġsha": 6266,
      "Ġsoothed": 6267,
      "ustered": 6268,
      "ability": 6269,
      "Ġsucceed": 6270,
      "Ġclasp": 6271,
      "Ġexh": 6272,
      "Ġconce": 6273,
      "Ġconcl": 6274,
      "uses": 6275,
      "Ġtend": 6276,
      "Ġarching": 6277,
      "were": 6278,
      "otherwise": 6279,
      "Ġthoughtful": 6280,
      "Ġgrat": 6281,
      "Ġgray": 6282,
      "Ġcoordin": 6283,
      "gance": 6284,
      "Ġfling": 6285,
      "beck": 6286,
      "Ġbrings": 6287,
      "Ġglit": 6288,
      "Ġunlike": 6289,
      "assion": 6290,
      "Ġpraying": 6291,
      "Ġcontent": 6292,
      "Ġlaun": 6293,
      "getting": 6294,
      "shaking": 6295,
      "azz": 6296,
      "azing": 6297,
      "Ġsurge": 6298,
      "Ġsteering": 6299,
      "Ġpartners": 6300,
      "ighing": 6301,
      "Ġadam": 6302,
      "Ġadop": 6303,
      "Ġfriendship": 6304,
      "Ġraw": 6305,
      "Ġassigned": 6306,
      "Ġbitch": 6307,
      "Ġpleading": 6308,
      "Ġleans": 6309,
      "ailed": 6310,
      "onsense": 6311,
      "Ġdelmon": 6312,
      "Ġwraps": 6313,
      "Ġbury": 6314,
      "Ġpurs": 6315,
      "Ġinviting": 6316,
      "iriam": 6317,
      "Ġcounty": 6318,
      "Ġhallways": 6319,
      "Ġsensual": 6320,
      "Ġimages": 6321,
      "Ġadding": 6322,
      "Ġchoices": 6323,
      "Ġelement": 6324,
      "Ġruined": 6325,
      "Ġclassroom": 6326,
      "Ġadvent": 6327,
      "Ġsadly": 6328,
      "Ġsadness": 6329,
      "Ġfootsteps": 6330,
      "Ġloudly": 6331,
      "Ġpuzz": 6332,
      "Ġblankets": 6333,
      "Ġselfish": 6334,
      "resa": 6335,
      "Ġdevast": 6336,
      "Ġcalmly": 6337,
      "Ġfund": 6338,
      "Ġfocusing": 6339,
      "Ġgeneral": 6340,
      "Ġsolve": 6341,
      "Ġtorment": 6342,
      "Ġcomplicated": 6343,
      "Ġemployer": 6344,
      "Ġcommunity": 6345,
      "Ġstripped": 6346,
      "going": 6347,
      "Ġdecorated": 6348,
      "Ġconcentration": 6349,
      "Ġbajan": 6350,
      "Ġshuddering": 6351,
      "Ġfilm": 6352,
      "walking": 6353,
      "Ġdescribed": 6354,
      "Ġencourage": 6355,
      "Ġbetrayed": 6356,
      "Ġactivity": 6357,
      "Ġcompanion": 6358,
      "Ġmeasure": 6359,
      "Ġsensed": 6360,
      "Ġperspective": 6361,
      "Ġcontainer": 6362,
      "Ġultimate": 6363,
      "Ġmodel": 6364,
      "Ġblurted": 6365,
      "Ġveterinarian": 6366,
      "Ġechoed": 6367,
      "Ġsniffed": 6368,
      "Ġpaintings": 6369,
      "Ġreferring": 6370,
      "Ġcomforter": 6371,
      "Ġsixteen": 6372,
      "Ġnicole": 6373,
      "Ġencouraged": 6374,
      "Ġprospect": 6375,
      "Ġnearest": 6376,
      "Ġeurope": 6377,
      "slowly": 6378,
      "ursday": 6379,
      "Ġglimpse": 6380,
      "Ġbalcony": 6381,
      "daniel": 6382,
      "either": 6383,
      "feeling": 6384,
      "hand": 6385,
      "mist": 6386,
      "pat": 6387,
      "pit": 6388,
      "sam": 6389,
      "sized": 6390,
      "tu": 6391,
      "tears": 6392,
      "vin": 6393,
      "yn": 6394,
      "Ġvel": 6395,
      "Ġhomes": 6396,
      "Ġmild": 6397,
      "Ġmail": 6398,
      "attering": 6399,
      "Ġdru": 6400,
      "Ġdried": 6401,
      "Ġlur": 6402,
      "orous": 6403,
      "ording": 6404,
      "Ġpure": 6405,
      "Ġinner": 6406,
      "Ġeileen": 6407,
      "idently": 6408,
      "stop": 6409,
      "Ġrot": 6410,
      "always": 6411,
      "Ġforty": 6412,
      "Ġjun": 6413,
      "ury": 6414,
      "Ġlies": 6415,
      "Ġsail": 6416,
      "rop": 6417,
      "Ġsold": 6418,
      "Ġfrank": 6419,
      "Ġfrantic": 6420,
      "Ġalarm": 6421,
      "Ġchief": 6422,
      "Ġseve": 6423,
      "Ġsevent": 6424,
      "Ġexist": 6425,
      "Ġmanners": 6426,
      "Ġmanipul": 6427,
      "Ġloft": 6428,
      "quate": 6429,
      "Ġplun": 6430,
      "Ġarrest": 6431,
      "Ġslick": 6432,
      "Ġpoked": 6433,
      "Ġgrit": 6434,
      "plus": 6435,
      "Ġmommy": 6436,
      "Ġblink": 6437,
      "Ġbrow": 6438,
      "Ġbrace": 6439,
      "wardly": 6440,
      "def": 6441,
      "Ġproof": 6442,
      "Ġscar": 6443,
      "Ġscore": 6444,
      "Ġwobb": 6445,
      "Ġtraced": 6446,
      "Ġjoining": 6447,
      "Ġhousekeeper": 6448,
      "Ġearned": 6449,
      "Ġmatching": 6450,
      "Ġperimeter": 6451,
      "Ġski": 6452,
      "Ġsets": 6453,
      "Ġsits": 6454,
      "neither": 6455,
      "Ġendure": 6456,
      "atern": 6457,
      "Ġshove": 6458,
      "Ġclearing": 6459,
      "Ġexpand": 6460,
      "Ġgazing": 6461,
      "Ġburger": 6462,
      "Ġpatiently": 6463,
      "Ġdealing": 6464,
      "Ġdraped": 6465,
      "anything": 6466,
      "Ġbabies": 6467,
      "Ġhitched": 6468,
      "Ġimagining": 6469,
      "Ġtighter": 6470,
      "ignation": 6471,
      "Ġpositive": 6472,
      "Ġtrailing": 6473,
      "Ġrelationships": 6474,
      "brother": 6475,
      "Ġiron": 6476,
      "Ġhesitate": 6477,
      "Ġexpectantly": 6478,
      "Ġvision": 6479,
      "Ġsuspect": 6480,
      "Ġterrific": 6481,
      "Ġdetermine": 6482,
      "Ġmaine": 6483,
      "Ġspreading": 6484,
      "Ġsighs": 6485,
      "Ġsisters": 6486,
      "Ġdirector": 6487,
      "Ġdebt": 6488,
      "Ġdevil": 6489,
      "Ġsym": 6490,
      "Ġcooked": 6491,
      "Ġcups": 6492,
      "Ġemployees": 6493,
      "Ġresistance": 6494,
      "Ġroughly": 6495,
      "Ġashir": 6496,
      "Ġequally": 6497,
      "Ġaccounts": 6498,
      "Ġmedical": 6499,
      "Ġdawn": 6500,
      "Ġheights": 6501,
      "Ġbulky": 6502,
      "Ġemphatically": 6503,
      "Ġexchange": 6504,
      "Ġanxious": 6505,
      "Ġgeor": 6506,
      "Ġderrick": 6507,
      "Ġresolve": 6508,
      "wait": 6509,
      "Ġexplode": 6510,
      "Ġscowled": 6511,
      "Ġcanada": 6512,
      "Ġinnovations": 6513,
      "Ġfrench": 6514,
      "Ġdegree": 6515,
      "Ġfinancial": 6516,
      "Ġplastered": 6517,
      "Ġingredients": 6518,
      "Ġdelmonaco": 6519,
      "bble": 6520,
      "cery": 6521,
      "down": 6522,
      "ham": 6523,
      "ipt": 6524,
      "luck": 6525,
      "lifting": 6526,
      "ns": 6527,
      "Ġted": 6528,
      "Ġaide": 6529,
      "inated": 6530,
      "Ġske": 6531,
      "Ġwan": 6532,
      "real": 6533,
      "really": 6534,
      "Ġbowing": 6535,
      "inge": 6536,
      "ndry": 6537,
      "Ġcig": 6538,
      "Ġfaded": 6539,
      "Ġdart": 6540,
      "Ġdun": 6541,
      "Ġthursday": 6542,
      "Ġlure": 6543,
      "orting": 6544,
      "Ġpang": 6545,
      "Ġhauled": 6546,
      "lend": 6547,
      "leaning": 6548,
      "Ġonline": 6549,
      "Ġrides": 6550,
      "seum": 6551,
      "ooks": 6552,
      "Ġmere": 6553,
      "Ġanton": 6554,
      "Ġjade": 6555,
      "Ġjail": 6556,
      "ros": 6557,
      "Ġsoothing": 6558,
      "Ġneg": 6559,
      "ustroph": 6560,
      "Ġknuck": 6561,
      "Ġintrig": 6562,
      "Ġalt": 6563,
      "Ġalright": 6564,
      "Ġselect": 6565,
      "Ġexit": 6566,
      "Ġexited": 6567,
      "Ġoverhe": 6568,
      "unted": 6569,
      "usive": 6570,
      "ifically": 6571,
      "Ġplants": 6572,
      "Ġslumped": 6573,
      "Ġvan": 6574,
      "Ġvint": 6575,
      "Ġcozy": 6576,
      "Ġrights": 6577,
      "Ġflared": 6578,
      "Ġflashing": 6579,
      "Ġtwins": 6580,
      "Ġmuff": 6581,
      "Ġmuseum": 6582,
      "ressing": 6583,
      "Ġune": 6584,
      "Ġuns": 6585,
      "Ġuncon": 6586,
      "Ġstarts": 6587,
      "Ġsurely": 6588,
      "Ġscrap": 6589,
      "Ġlaundry": 6590,
      "Ġtrad": 6591,
      "Ġdesert": 6592,
      "Ġdisbel": 6593,
      "Ġdisplay": 6594,
      "Ġcompassion": 6595,
      "Ġjoked": 6596,
      "Ġcares": 6597,
      "Ġshows": 6598,
      "Ġstring": 6599,
      "Ġelimin": 6600,
      "Ġends": 6601,
      "Ġattent": 6602,
      "Ġcurved": 6603,
      "Ġcursed": 6604,
      "Ġoldest": 6605,
      "Ġaccus": 6606,
      "Ġnikolai": 6607,
      "Ġweddings": 6608,
      "Ġstrap": 6609,
      "Ġcats": 6610,
      "Ġringing": 6611,
      "Ġmatters": 6612,
      "awned": 6613,
      "Ġinsul": 6614,
      "Ġextended": 6615,
      "Ġarriving": 6616,
      "Ġgrocery": 6617,
      "Ġchallenging": 6618,
      "Ġchallenges": 6619,
      "Ġeleven": 6620,
      "Ġstrokes": 6621,
      "Ġdetermination": 6622,
      "Ġdiscussion": 6623,
      "Ġcabinet": 6624,
      "Ġcases": 6625,
      "Ġswallow": 6626,
      "Ġcolorado": 6627,
      "Ġstudent": 6628,
      "Ġphoto": 6629,
      "cycle": 6630,
      "Ġworthy": 6631,
      "Ġcommit": 6632,
      "Ġpantry": 6633,
      "Ġmaterials": 6634,
      "Ġattraction": 6635,
      "Ġaccidentally": 6636,
      "Ġbriefly": 6637,
      "Ġreassuring": 6638,
      "Ġintimidating": 6639,
      "Ġcelebrate": 6640,
      "Ġcampus": 6641,
      "Ġfields": 6642,
      "Ġinstinctively": 6643,
      "Ġteenager": 6644,
      "Ġbastard": 6645,
      "Ġangel": 6646,
      "Ġabsorbed": 6647,
      "Ġclutched": 6648,
      "Ġspecifically": 6649,
      "Ġoriginally": 6650,
      "Ġdelivery": 6651,
      "Ġestab": 6652,
      "Ġalternative": 6653,
      "Ġfooled": 6654,
      "Ġfrightened": 6655,
      "Ġcassidy": 6656,
      "Ġculture": 6657,
      "Ġaudience": 6658,
      "Ġkayak": 6659,
      "Ġsemester": 6660,
      "Ġvulnerable": 6661,
      "Ġclaustroph": 6662,
      "Ġmotorcycle": 6663,
      "Ġtitle": 6664,
      "Ġinappropriate": 6665,
      "Ġugly": 6666,
      "Ġadvisors": 6667,
      "Ġecst": 6668,
      "Ġantoniv": 6669,
      "Ġclaustrophob": 6670,
      "bid": 6671,
      "cur": 6672,
      "call": 6673,
      "fting": 6674,
      "girl": 6675,
      "greg": 6676,
      "linda": 6677,
      "max": 6678,
      "obe": 6679,
      "pir": 6680,
      "xic": 6681,
      "Ġ4": 6682,
      "Ġ7": 6683,
      "Ġtus": 6684,
      "inte": 6685,
      "Ġheck": 6686,
      "Ġhunt": 6687,
      "Ġhooked": 6688,
      "rees": 6689,
      "Ġbones": 6690,
      "Ġbench": 6691,
      "Ġowe": 6692,
      "Ġtoys": 6693,
      "Ġciv": 6694,
      "Ġdying": 6695,
      "Ġdashed": 6696,
      "Ġhero": 6697,
      "Ġlac": 6698,
      "Ġped": 6699,
      "Ġpier": 6700,
      "Ġhalt": 6701,
      "acting": 6702,
      "Ġstool": 6703,
      "Ġrice": 6704,
      "vering": 6705,
      "Ġrevel": 6706,
      "Ġreview": 6707,
      "Ġanaly": 6708,
      "Ġath": 6709,
      "Ġjam": 6710,
      "Ġjasper": 6711,
      "Ġshor": 6712,
      "Ġshuff": 6713,
      "Ġoutfits": 6714,
      "Ġsoci": 6715,
      "tery": 6716,
      "Ġkneel": 6717,
      "Ġintru": 6718,
      "Ġsuited": 6719,
      "Ġclung": 6720,
      "Ġclapped": 6721,
      "Ġselling": 6722,
      "Ġoverly": 6723,
      "Ġoverhead": 6724,
      "lfill": 6725,
      "ummy": 6726,
      "Ġmoans": 6727,
      "Ġarch": 6728,
      "Ġwhoever": 6729,
      "tingly": 6730,
      "Ġpoker": 6731,
      "Ġgrumbled": 6732,
      "Ġflung": 6733,
      "Ġflicking": 6734,
      "Ġtwink": 6735,
      "Ġproceed": 6736,
      "Ġdoorbell": 6737,
      "Ġhopped": 6738,
      "Ġscoot": 6739,
      "Ġmomentarily": 6740,
      "Ġimpr": 6741,
      "Ġminds": 6742,
      "Ġhappier": 6743,
      "Ġliter": 6744,
      "Ġcalend": 6745,
      "Ġlovemaking": 6746,
      "ggage": 6747,
      "Ġdism": 6748,
      "Ġdisag": 6749,
      "Ġtouches": 6750,
      "Ġbund": 6751,
      "Ġresc": 6752,
      "Ġresignation": 6753,
      "icha": 6754,
      "Ġpermission": 6755,
      "Ġevil": 6756,
      "Ġrailing": 6757,
      "Ġentice": 6758,
      "Ġchester": 6759,
      "Ġsleepy": 6760,
      "Ġgasps": 6761,
      "Ġpersonally": 6762,
      "Ġcrap": 6763,
      "Ġcraig": 6764,
      "Ġdifferently": 6765,
      "Ġremote": 6766,
      "Ġinvite": 6767,
      "Ġcounting": 6768,
      "Ġsquared": 6769,
      "comed": 6770,
      "Ġcreeping": 6771,
      "Ġtighten": 6772,
      "Ġreturning": 6773,
      "Ġrepres": 6774,
      "Ġlipstick": 6775,
      "Ġluggage": 6776,
      "Ġtrailer": 6777,
      "ounced": 6778,
      "Ġsubtle": 6779,
      "Ġcrept": 6780,
      "Ġregardless": 6781,
      "Ġrestaurants": 6782,
      "Ġhunger": 6783,
      "Ġvisible": 6784,
      "Ġfreak": 6785,
      "Ġdenied": 6786,
      "Ġmiller": 6787,
      "Ġavoiding": 6788,
      "Ġharbor": 6789,
      "Ġfrost": 6790,
      "workers": 6791,
      "Ġstormed": 6792,
      "Ġrequired": 6793,
      "Ġwildly": 6794,
      "Ġpetite": 6795,
      "Ġrocks": 6796,
      "Ġstretch": 6797,
      "Ġaccomp": 6798,
      "Ġaccommod": 6799,
      "Ġscheduled": 6800,
      "Ġwelcomed": 6801,
      "Ġnurses": 6802,
      "Ġuncertain": 6803,
      "Ġprotested": 6804,
      "Ġincluded": 6805,
      "Ġrodeo": 6806,
      "Ġbelonged": 6807,
      "Ġsmoothly": 6808,
      "Ġattempts": 6809,
      "Ġabandon": 6810,
      "Ġluxury": 6811,
      "Ġobliv": 6812,
      "Ġconfirm": 6813,
      "Ġdestination": 6814,
      "Ġscraped": 6815,
      "Ġcombination": 6816,
      "Ġhunting": 6817,
      "Ġstreaming": 6818,
      "Ġnuzzled": 6819,
      "Ġenthusiasm": 6820,
      "Ġconvenient": 6821,
      "Ġscenar": 6822,
      "Ġvegetables": 6823,
      "Ġdivorce": 6824,
      "Ġduban": 6825,
      "Ġsundress": 6826,
      "Ġcollapsed": 6827,
      "Ġthrobbing": 6828,
      "Ġfaith": 6829,
      "Ġcriminal": 6830,
      "Ġwrinkled": 6831,
      "Ġstrategy": 6832,
      "ollen": 6833,
      "Ġbrunette": 6834,
      "Ġdesigner": 6835,
      "becka": 6836,
      "ciously": 6837,
      "law": 6838,
      "ocking": 6839,
      "po": 6840,
      "path": 6841,
      "sor": 6842,
      "want": 6843,
      "Ġ5": 6844,
      "Ġtun": 6845,
      "Ġtiss": 6846,
      "Ġsac": 6847,
      "Ġwry": 6848,
      "Ġwise": 6849,
      "ouch": 6850,
      "eding": 6851,
      "Ġcrou": 6852,
      "Ġcous": 6853,
      "atory": 6854,
      "Ġdick": 6855,
      "Ġdang": 6856,
      "Ġdipping": 6857,
      "Ġnut": 6858,
      "Ġnause": 6859,
      "Ġnav": 6860,
      "Ġnational": 6861,
      "Ġlin": 6862,
      "Ġlick": 6863,
      "Ġlush": 6864,
      "Ġloun": 6865,
      "anny": 6866,
      "Ġpist": 6867,
      "Ġparent": 6868,
      "Ġgained": 6869,
      "Ġhaul": 6870,
      "ider": 6871,
      "sts": 6872,
      "veled": 6873,
      "Ġstagg": 6874,
      "Ġrig": 6875,
      "Ġrows": 6876,
      "second": 6877,
      "Ġreeling": 6878,
      "ithing": 6879,
      "Ġmeat": 6880,
      "Ġmerely": 6881,
      "Ġjeep": 6882,
      "Ġjalla": 6883,
      "urry": 6884,
      "Ġshore": 6885,
      "Ġshimm": 6886,
      "Ġoutdoor": 6887,
      "robe": 6888,
      "Ġsoap": 6889,
      "cel": 6890,
      "abbing": 6891,
      "Ġclasped": 6892,
      "Ġconse": 6893,
      "Ġanytime": 6894,
      "Ġloaded": 6895,
      "Ġloser": 6896,
      "ops": 6897,
      "Ġvict": 6898,
      "Ġgrasped": 6899,
      "Ġflustered": 6900,
      "Ġwaking": 6901,
      "ounding": 6902,
      "Ġcheating": 6903,
      "Ġbrides": 6904,
      "Ġglow": 6905,
      "Ġgoodbye": 6906,
      "Ġsche": 6907,
      "Ġcontents": 6908,
      "Ġhelps": 6909,
      "Ġhelpless": 6910,
      "Ġcaf": 6911,
      "Ġcouples": 6912,
      "Ġcomprom": 6913,
      "Ġrelatives": 6914,
      "clone": 6915,
      "aze": 6916,
      "Ġapply": 6917,
      "Ġresisted": 6918,
      "Ġstriding": 6919,
      "Ġmattingly": 6920,
      "Ġwrote": 6921,
      "Ġassert": 6922,
      "next": 6923,
      "Ġreplace": 6924,
      "Ġdinners": 6925,
      "Ġattitude": 6926,
      "Ġswollen": 6927,
      "Ġshoving": 6928,
      "Ġpleaded": 6929,
      "ishment": 6930,
      "Ġconserv": 6931,
      "Ġhuffed": 6932,
      "Ġcris": 6933,
      "Ġglances": 6934,
      "Ġfalls": 6935,
      "Ġmused": 6936,
      "forget": 6937,
      "Ġwinning": 6938,
      "Ġlighting": 6939,
      "Ġretrie": 6940,
      "Ġstomped": 6941,
      "Ġrefres": 6942,
      "Ġwaistband": 6943,
      "headed": 6944,
      "Ġcountries": 6945,
      "Ġeditor": 6946,
      "Ġinsight": 6947,
      "does": 6948,
      "Ġshrugs": 6949,
      "Ġarrival": 6950,
      "Ġapprove": 6951,
      "Ġreleasing": 6952,
      "Ġprior": 6953,
      "Ġgrowls": 6954,
      "Ġbills": 6955,
      "Ġdelicately": 6956,
      "Ġdeposit": 6957,
      "Ġtempor": 6958,
      "iane": 6959,
      "Ġwider": 6960,
      "Ġamazingly": 6961,
      "Ġtaller": 6962,
      "Ġexception": 6963,
      "Ġservices": 6964,
      "Ġpanicked": 6965,
      "Ġfulfill": 6966,
      "Ġsolution": 6967,
      "Ġbooked": 6968,
      "ology": 6969,
      "Ġmrs": 6970,
      "Ġgratefully": 6971,
      "Ġthumbs": 6972,
      "Ġlocation": 6973,
      "Ġabsence": 6974,
      "Ġgrimace": 6975,
      "Ġfolder": 6976,
      "Ġofficial": 6977,
      "Ġromance": 6978,
      "Ġapology": 6979,
      "Ġgiggle": 6980,
      "Ġgowns": 6981,
      "Ġnursing": 6982,
      "Ġflashlight": 6983,
      "Ġgreeting": 6984,
      "Ġpopular": 6985,
      "Ġdefeated": 6986,
      "Ġoccasions": 6987,
      "Ġlawyer": 6988,
      "Ġresponsibilities": 6989,
      "Ġreceptionist": 6990,
      "Ġsuspiciously": 6991,
      "Ġinstincts": 6992,
      "Ġcourtney": 6993,
      "Ġoccasionally": 6994,
      "Ġechoing": 6995,
      "Ġefficient": 6996,
      "Ġcurtains": 6997,
      "Ġcandles": 6998,
      "Ġlinger": 6999,
      "Ġskimmed": 7000,
      "Ġimpatiently": 7001,
      "Ġimpressive": 7002,
      "Ġoriginal": 7003,
      "between": 7004,
      "Ġcheerful": 7005,
      "Ġadjusted": 7006,
      "Ġcushions": 7007,
      "Ġfaltered": 7008,
      "Ġunbuttoned": 7009,
      "Ġmysterious": 7010,
      "Ġexpressions": 7011,
      "Ġtucker": 7012,
      "Ġinfluence": 7013,
      "Ġsignificant": 7014,
      "Ġshrieked": 7015,
      "Ġenemy": 7016,
      "Ġvictory": 7017,
      "Ġretreated": 7018,
      "Ġemergency": 7019,
      "Ġfurrowed": 7020,
      "Ġexercise": 7021,
      "atisfied": 7022,
      "Ġpilot": 7023,
      "Ġvelvet": 7024,
      "Ġseventeen": 7025,
      "Ġtusain": 7026,
      "Ġshorter": 7027,
      "Ġcalendar": 7028,
      "Ġvictim": 7029,
      "Ġrefreshing": 7030,
      "bre": 7031,
      "bag": 7032,
      "cher": 7033,
      "dis": 7034,
      "eg": 7035,
      "gun": 7036,
      "giving": 7037,
      "having": 7038,
      "ka": 7039,
      "mr": 7040,
      "mas": 7041,
      "mark": 7042,
      "pushing": 7043,
      "sighing": 7044,
      "year": 7045,
      "Ġven": 7046,
      "Ġtact": 7047,
      "Ġtipped": 7048,
      "Ġtips": 7049,
      "inside": 7050,
      "Ġsite": 7051,
      "Ġsipped": 7052,
      "Ġwri": 7053,
      "Ġhem": 7054,
      "rer": 7055,
      "reaching": 7056,
      "Ġbice": 7057,
      "Ġbiz": 7058,
      "Ġtoilet": 7059,
      "Ġmiriam": 7060,
      "Ġdive": 7061,
      "Ġdys": 7062,
      "Ġdash": 7063,
      "Ġnet": 7064,
      "Ġnonsense": 7065,
      "Ġthread": 7066,
      "Ġlass": 7067,
      "Ġlaz": 7068,
      "Ġlav": 7069,
      "Ġpages": 7070,
      "Ġpadd": 7071,
      "arre": 7072,
      "Ġgy": 7073,
      "Ġhal": 7074,
      "stit": 7075,
      "ayer": 7076,
      "Ġridden": 7077,
      "sea": 7078,
      "oops": 7079,
      "Ġdozen": 7080,
      "chief": 7081,
      "rier": 7082,
      "Ġknight": 7083,
      "Ġknocking": 7084,
      "Ġintend": 7085,
      "Ġintending": 7086,
      "Ġfraction": 7087,
      "Ġfriction": 7088,
      "Ġagency": 7089,
      "Ġchart": 7090,
      "Ġworries": 7091,
      "Ġseason": 7092,
      "Ġovert": 7093,
      "Ġtools": 7094,
      "Ġdem": 7095,
      "Ġlovers": 7096,
      "Ġmod": 7097,
      "Ġsmug": 7098,
      "Ġbooth": 7099,
      "Ġbobbed": 7100,
      "Ġorange": 7101,
      "Ġslower": 7102,
      "Ġslips": 7103,
      "Ġslides": 7104,
      "Ġareas": 7105,
      "Ġflames": 7106,
      "Ġblowing": 7107,
      "Ġblamed": 7108,
      "Ġpropped": 7109,
      "Ġguided": 7110,
      "Ġglor": 7111,
      "Ġgoodnight": 7112,
      "Ġafterwards": 7113,
      "Ġunl": 7114,
      "Ġpron": 7115,
      "Ġbedside": 7116,
      "Ġtram": 7117,
      "Ġrelished": 7118,
      "closing": 7119,
      "Ġlasted": 7120,
      "Ġpeering": 7121,
      "Ġappointment": 7122,
      "Ġbubb": 7123,
      "Ġtones": 7124,
      "Ġhomework": 7125,
      "Ġtalib": 7126,
      "Ġminister": 7127,
      "Ġsoftened": 7128,
      "Ġstolen": 7129,
      "new": 7130,
      "Ġattending": 7131,
      "Ġentry": 7132,
      "Ġcourty": 7133,
      "Ġpresses": 7134,
      "Ġpaint": 7135,
      "Ġdecent": 7136,
      "Ġsexually": 7137,
      "Ġdrained": 7138,
      "Ġbeautifully": 7139,
      "formed": 7140,
      "Ġcontrolling": 7141,
      "Ġneckline": 7142,
      "Ġincome": 7143,
      "Ġdefine": 7144,
      "Ġterribly": 7145,
      "Ġbadge": 7146,
      "Ġlists": 7147,
      "Ġbuildings": 7148,
      "Ġzip": 7149,
      "Ġedward": 7150,
      "Ġsnort": 7151,
      "Ġcreep": 7152,
      "Ġapproval": 7153,
      "Ġhumid": 7154,
      "Ġregain": 7155,
      "Ġregister": 7156,
      "Ġgrowl": 7157,
      "Ġweekends": 7158,
      "Ġsadd": 7159,
      "Ġstructure": 7160,
      "Ġdenying": 7161,
      "Ġrecovered": 7162,
      "Ġbasir": 7163,
      "Ġthrill": 7164,
      "Ġtorso": 7165,
      "Ġmarkets": 7166,
      "Ġcupping": 7167,
      "Ġcharged": 7168,
      "cara": 7169,
      "Ġpounded": 7170,
      "Ġcommitted": 7171,
      "Ġhurrying": 7172,
      "Ġmidas": 7173,
      "Ġnods": 7174,
      "Ġgunfire": 7175,
      "Ġfolds": 7176,
      "Ġcommented": 7177,
      "Ġpauses": 7178,
      "Ġstrip": 7179,
      "Ġparticip": 7180,
      "Ġawkwardly": 7181,
      "Ġrolls": 7182,
      "Ġangrier": 7183,
      "Ġsamuel": 7184,
      "Ġmedic": 7185,
      "Ġcorrid": 7186,
      "Ġcelebration": 7187,
      "Ġcelebrating": 7188,
      "Ġthrusts": 7189,
      "Ġscrewed": 7190,
      "Ġamerica": 7191,
      "trust": 7192,
      "Ġgeoc": 7193,
      "Ġacceler": 7194,
      "Ġgifts": 7195,
      "Ġbounced": 7196,
      "Ġunfold": 7197,
      "Ġwiggle": 7198,
      "Ġemphasis": 7199,
      "Ġswayed": 7200,
      "Ġdeliber": 7201,
      "Ġsmothered": 7202,
      "Ġindustry": 7203,
      "Ġswiftly": 7204,
      "Ġdissip": 7205,
      "Ġstatus": 7206,
      "Ġurgent": 7207,
      "Ġwardrobe": 7208,
      "Ġjohnson": 7209,
      "Ġjourney": 7210,
      "Ġconsumed": 7211,
      "Ġdrifted": 7212,
      "Ġunlocked": 7213,
      "Ġmultip": 7214,
      "Ġsports": 7215,
      "Ġapplied": 7216,
      "Ġstrands": 7217,
      "Ġtorture": 7218,
      "Ġexasperated": 7219,
      "Ġcautiously": 7220,
      "Ġinnocence": 7221,
      "Ġexhaustion": 7222,
      "Ġspeechless": 7223,
      "Ġeyelids": 7224,
      "Ġshaft": 7225,
      "Ġconclusion": 7226,
      "Ġdisbelief": 7227,
      "interest": 7228,
      "Ġaccompany": 7229,
      "Ġpistol": 7230,
      "Ġbizarre": 7231,
      "Ġtaliban": 7232,
      "aps": 7233,
      "fashion": 7234,
      "gment": 7235,
      "hour": 7236,
      "hope": 7237,
      "iate": 7238,
      "jacob": 7239,
      "last": 7240,
      "lie": 7241,
      "liness": 7242,
      "lines": 7243,
      "nal": 7244,
      "pack": 7245,
      "poor": 7246,
      "ral": 7247,
      "sa": 7248,
      "yers": 7249,
      "yeah": 7250,
      "Ġ9": 7251,
      "hew": 7252,
      "Ġtipt": 7253,
      "Ġsis": 7254,
      "Ġsouth": 7255,
      "Ġsara": 7256,
      "Ġwipe": 7257,
      "Ġhills": 7258,
      "Ġtoy": 7259,
      "erly": 7260,
      "eries": 7261,
      "Ġfumbled": 7262,
      "Ġdip": 7263,
      "Ġdaught": 7264,
      "Ġdarted": 7265,
      "Ġdorothy": 7266,
      "Ġnin": 7267,
      "Ġnah": 7268,
      "Ġpine": 7269,
      "itions": 7270,
      "Ġgul": 7271,
      "Ġgang": 7272,
      "Ġgap": 7273,
      "Ġyouth": 7274,
      "Ġwasted": 7275,
      "acious": 7276,
      "immediately": 7277,
      "stal": 7278,
      "step": 7279,
      "oted": 7280,
      "Ġstack": 7281,
      "Ġstored": 7282,
      "Ġushe": 7283,
      "Ġripping": 7284,
      "icament": 7285,
      "Ġdove": 7286,
      "Ġjas": 7287,
      "Ġjen": 7288,
      "Ġshattered": 7289,
      "Ġsauce": 7290,
      "child": 7291,
      "thy": 7292,
      "through": 7293,
      "Ġbacking": 7294,
      "Ġfratern": 7295,
      "Ġclinging": 7296,
      "Ġroast": 7297,
      "Ġchip": 7298,
      "Ġlemon": 7299,
      "Ġsees": 7300,
      "Ġconced": 7301,
      "Ġmob": 7302,
      "Ġsmack": 7303,
      "Ġbob": 7304,
      "Ġheadboard": 7305,
      "Ġtherefore": 7306,
      "Ġgrind": 7307,
      "ptions": 7308,
      "Ġens": 7309,
      "rupting": 7310,
      "Ġflu": 7311,
      "Ġflowing": 7312,
      "Ġblat": 7313,
      "Ġbetr": 7314,
      "Ġguiding": 7315,
      "Ġbrut": 7316,
      "Ġscaring": 7317,
      "Ġscattered": 7318,
      "Ġcara": 7319,
      "Ġtrot": 7320,
      "Ġcage": 7321,
      "Ġcaution": 7322,
      "aired": 7323,
      "Ġdisp": 7324,
      "Ġapple": 7325,
      "Ġbushes": 7326,
      "Ġstealing": 7327,
      "Ġactual": 7328,
      "Ġstrain": 7329,
      "Ġstride": 7330,
      "Ġstradd": 7331,
      "Ġwrithing": 7332,
      "Ġassign": 7333,
      "Ġswip": 7334,
      "Ġcurb": 7335,
      "Ġstops": 7336,
      "Ġinstrum": 7337,
      "Ġsounding": 7338,
      "Ġdram": 7339,
      "Ġexcused": 7340,
      "Ġburden": 7341,
      "osure": 7342,
      "Ġremaining": 7343,
      "Ġpromises": 7344,
      "Ġpatrick": 7345,
      "Ġsungl": 7346,
      "Ġcontinuing": 7347,
      "tonight": 7348,
      "Ġtuition": 7349,
      "Ġinsides": 7350,
      "Ġcruel": 7351,
      "Ġsnapping": 7352,
      "Ġlandsc": 7353,
      "Ġgroans": 7354,
      "Ġtrails": 7355,
      "Ġworriedly": 7356,
      "Ġreactions": 7357,
      "Ġsituations": 7358,
      "Ġimportantly": 7359,
      "Ġleads": 7360,
      "Ġsafely": 7361,
      "Ġvisited": 7362,
      "Ġsecretly": 7363,
      "Ġbottles": 7364,
      "Ġlimbs": 7365,
      "Ġwillingly": 7366,
      "Ġcameram": 7367,
      "Ġcirc": 7368,
      "Ġdirected": 7369,
      "Ġcollect": 7370,
      "Ġreminder": 7371,
      "Ġbasis": 7372,
      "Ġsalon": 7373,
      "Ġsales": 7374,
      "Ġfrowning": 7375,
      "Ġpreviously": 7376,
      "Ġdevour": 7377,
      "Ġthrilling": 7378,
      "Ġdrawer": 7379,
      "Ġdrawled": 7380,
      "Ġundone": 7381,
      "Ġyellow": 7382,
      "Ġforgetting": 7383,
      "Ġswallowing": 7384,
      "Ġcommands": 7385,
      "Ġdollar": 7386,
      "Ġcommun": 7387,
      "Ġexample": 7388,
      "Ġhurriedly": 7389,
      "Ġinvestment": 7390,
      "Ġdiving": 7391,
      "Ġeru": 7392,
      "Ġconsiderate": 7393,
      "Ġdistraction": 7394,
      "Ġfoolish": 7395,
      "Ġcaressed": 7396,
      "Ġcorrected": 7397,
      "Ġgiggling": 7398,
      "Ġfailure": 7399,
      "Ġdamage": 7400,
      "Ġposts": 7401,
      "Ġinstructed": 7402,
      "Ġsneaking": 7403,
      "Ġshudder": 7404,
      "Ġilleg": 7405,
      "Ġintellect": 7406,
      "stepping": 7407,
      "Ġarrogance": 7408,
      "Ġdescribe": 7409,
      "Ġjuice": 7410,
      "Ġopera": 7411,
      "Ġpurchased": 7412,
      "Ġconvincing": 7413,
      "Ġbullet": 7414,
      "Ġbouncing": 7415,
      "Ġdominic": 7416,
      "Ġsandwic": 7417,
      "Ġintelligence": 7418,
      "Ġbrandy": 7419,
      "belie": 7420,
      "Ġtailored": 7421,
      "Ġskimming": 7422,
      "Ġmoonlight": 7423,
      "Ġflooded": 7424,
      "Ġpredicament": 7425,
      "Ġmixed": 7426,
      "veta": 7427,
      "Ġchristmas": 7428,
      "Ġappetiz": 7429,
      "Ġcradled": 7430,
      "Ġstammer": 7431,
      "Ġfluttering": 7432,
      "Ġutterly": 7433,
      "Ġwandered": 7434,
      "Ġferry": 7435,
      "Ġresults": 7436,
      "Ġdeparture": 7437,
      "Ġpotatoes": 7438,
      "Ġclarified": 7439,
      "Ġhollered": 7440,
      "Ġphrase": 7441,
      "iveness": 7442,
      "Ġborder": 7443,
      "Ġrewarded": 7444,
      "Ġmartini": 7445,
      "talk": 7446,
      "Ġobey": 7447,
      "Ġasshole": 7448,
      "Ġvaguely": 7449,
      "Ġbikini": 7450,
      "Ġpursue": 7451,
      "mistry": 7452,
      "Ġaltar": 7453,
      "Ġcrouched": 7454,
      "Ġlassiter": 7455,
      "Ġmultiple": 7456,
      "Ġtipto": 7457,
      "Ġdaughters": 7458,
      "Ġsunglasses": 7459,
      "Ġillegal": 7460,
      "cont": 7461,
      "fr": 7462,
      "founded": 7463,
      "gain": 7464,
      "gage": 7465,
      "jane": 7466,
      "life": 7467,
      "make": 7468,
      "mered": 7469,
      "ras": 7470,
      "run": 7471,
      "rings": 7472,
      "sided": 7473,
      "town": 7474,
      "und": 7475,
      "xie": 7476,
      "zie": 7477,
      "heck": 7478,
      "Ġtan": 7479,
      "Ġtag": 7480,
      "Ġsin": 7481,
      "Ġsid": 7482,
      "Ġsire": 7483,
      "Ġsipping": 7484,
      "edna": 7485,
      "Ġhating": 7486,
      "Ġtom": 7487,
      "Ġmal": 7488,
      "eral": 7489,
      "Ġnail": 7490,
      "Ġniece": 7491,
      "Ġnita": 7492,
      "isy": 7493,
      "iscu": 7494,
      "asion": 7495,
      "aster": 7496,
      "Ġandret": 7497,
      "enzie": 7498,
      "Ġpsy": 7499,
      "ites": 7500,
      "Ġgree": 7501,
      "Ġinse": 7502,
      "Ġinqu": 7503,
      "Ġinwardly": 7504,
      "esday": 7505,
      "Ġyel": 7506,
      "Ġecon": 7507,
      "Ġhabit": 7508,
      "Ġbeaming": 7509,
      "aylor": 7510,
      "Ġrat": 7511,
      "Ġrack": 7512,
      "Ġratt": 7513,
      "Ġwhirl": 7514,
      "Ġwithd": 7515,
      "enth": 7516,
      "allison": 7517,
      "Ġsafer": 7518,
      "Ġoutra": 7519,
      "rog": 7520,
      "Ġsoot": 7521,
      "Ġnep": 7522,
      "Ġintently": 7523,
      "Ġfrag": 7524,
      "Ġnotch": 7525,
      "Ġalluring": 7526,
      "Ġagend": 7527,
      "Ġhandled": 7528,
      "Ġhandful": 7529,
      "Ġrocked": 7530,
      "Ġchili": 7531,
      "Ġleap": 7532,
      "Ġexe": 7533,
      "Ġexisted": 7534,
      "essing": 7535,
      "raising": 7536,
      "asty": 7537,
      "Ġmoist": 7538,
      "oped": 7539,
      "istr": 7540,
      "Ġcoax": 7541,
      "Ġbyp": 7542,
      "Ġproved": 7543,
      "aken": 7544,
      "Ġchemistry": 7545,
      "Ġglory": 7546,
      "ddle": 7547,
      "Ġafterward": 7548,
      "pelled": 7549,
      "Ġunre": 7550,
      "izzy": 7551,
      "dev": 7552,
      "Ġscan": 7553,
      "Ġcarrie": 7554,
      "Ġimper": 7555,
      "Ġdesp": 7556,
      "rowave": 7557,
      "cloth": 7558,
      "Ġappoint": 7559,
      "Ġparted": 7560,
      "rences": 7561,
      "berry": 7562,
      "Ġattacked": 7563,
      "Ġbitter": 7564,
      "Ġdresser": 7565,
      "Ġimpro": 7566,
      "Ġhuddled": 7567,
      "Ġsupper": 7568,
      "Ġkevin": 7569,
      "Ġcram": 7570,
      "Ġcrashed": 7571,
      "Ġcrashing": 7572,
      "Ġfarida": 7573,
      "Ġgiant": 7574,
      "olar": 7575,
      "Ġscholar": 7576,
      "Ġserving": 7577,
      "Ġpointless": 7578,
      "Ġstraps": 7579,
      "Ġhighly": 7580,
      "Ġkitchens": 7581,
      "Ġdefi": 7582,
      "Ġtermin": 7583,
      "Ġburying": 7584,
      "Ġthankful": 7585,
      "nikolai": 7586,
      "Ġmessen": 7587,
      "Ġshirts": 7588,
      "Ġadmire": 7589,
      "Ġtuxed": 7590,
      "Ġinsult": 7591,
      "ivity": 7592,
      "Ġcrushed": 7593,
      "Ġsensations": 7594,
      "Ġgrandfather": 7595,
      "Ġgranddaughter": 7596,
      "Ġsweetie": 7597,
      "Ġpleasant": 7598,
      "Ġdreaming": 7599,
      "Ġreveled": 7600,
      "Ġreveling": 7601,
      "Ġlowering": 7602,
      "Ġindian": 7603,
      "Ġindicated": 7604,
      "Ġwarn": 7605,
      "Ġlouder": 7606,
      "Ġwidening": 7607,
      "Ġrecip": 7608,
      "Ġsmoke": 7609,
      "Ġhusbands": 7610,
      "Ġfairy": 7611,
      "Ġpushes": 7612,
      "Ġhonesty": 7613,
      "Ġpackage": 7614,
      "Ġsurroundings": 7615,
      "Ġbrightened": 7616,
      "Ġbenefit": 7617,
      "Ġundid": 7618,
      "Ġundressed": 7619,
      "Ġsqueezing": 7620,
      "Ġmask": 7621,
      "Ġboards": 7622,
      "Ġstudio": 7623,
      "Ġteasingly": 7624,
      "ification": 7625,
      "Ġdeadline": 7626,
      "Ġfixing": 7627,
      "Ġpinched": 7628,
      "Ġsandals": 7629,
      "Ġpresented": 7630,
      "Ġartist": 7631,
      "Ġbodice": 7632,
      "Ġemotionally": 7633,
      "Ġtricks": 7634,
      "Ġshouting": 7635,
      "Ġcorrectly": 7636,
      "Ġcreamy": 7637,
      "Ġ10": 7638,
      "Ġdimin": 7639,
      "Ġmercy": 7640,
      "Ġneighb": 7641,
      "Ġfiles": 7642,
      "Ġparticularly": 7643,
      "Ġchatter": 7644,
      "Ġchatting": 7645,
      "Ġpossessed": 7646,
      "Ġmotioned": 7647,
      "Ġfantas": 7648,
      "Ġraging": 7649,
      "Ġtowering": 7650,
      "Ġdisgusted": 7651,
      "Ġtangled": 7652,
      "Ġmicrowave": 7653,
      "Ġdeclaration": 7654,
      "Ġblocks": 7655,
      "Ġharshly": 7656,
      "Ġqualities": 7657,
      "Ġacquaint": 7658,
      "better": 7659,
      "Ġneatly": 7660,
      "Ġcomforting": 7661,
      "Ġindustries": 7662,
      "Ġroute": 7663,
      "Ġroutine": 7664,
      "Ġscratch": 7665,
      "Ġquarter": 7666,
      "Ġmercilessly": 7667,
      "Ġweapons": 7668,
      "Ġaccurate": 7669,
      "Ġvendors": 7670,
      "Ġpolitics": 7671,
      "Ġobligations": 7672,
      "Ġversus": 7673,
      "meanwhile": 7674,
      "Ġunzipped": 7675,
      "Ġsweeping": 7676,
      "Ġeggs": 7677,
      "Ġclipboard": 7678,
      "Ġperformance": 7679,
      "known": 7680,
      "Ġadequate": 7681,
      "Ġgruffly": 7682,
      "Ġbreeze": 7683,
      "Ġsevere": 7684,
      "luckily": 7685,
      "Ġtedious": 7686,
      "Ġskept": 7687,
      "rosse": 7688,
      "Ġknuckles": 7689,
      "Ġoverheard": 7690,
      "Ġvintage": 7691,
      "Ġsociety": 7692,
      "Ġliterally": 7693,
      "Ġoblivious": 7694,
      "Ġscenario": 7695,
      "Ġtemporary": 7696,
      "Ġcourtyard": 7697,
      "Ġmedicine": 7698,
      "Ġdeliberately": 7699,
      "Ġmobile": 7700,
      "Ġerupted": 7701,
      "Ġandretti": 7702,
      "Ġagenda": 7703,
      "Ġappointments": 7704,
      "Ġtuxedo": 7705,
      "bad": 7706,
      "bles": 7707,
      "ium": 7708,
      "iable": 7709,
      "lv": 7710,
      "list": 7711,
      "later": 7712,
      "nadia": 7713,
      "ogue": 7714,
      "oken": 7715,
      "rain": 7716,
      "race": 7717,
      "tru": 7718,
      "wind": 7719,
      "zer": 7720,
      "het": 7721,
      "hest": 7722,
      "Ġtab": 7723,
      "Ġaim": 7724,
      "Ġalex": 7725,
      "Ġachie": 7726,
      "inc": 7727,
      "Ġsust": 7728,
      "Ġsized": 7729,
      "Ġwool": 7730,
      "edy": 7731,
      "Ġhust": 7732,
      "Ġbay": 7733,
      "Ġbart": 7734,
      "Ġmak": 7735,
      "Ġmicha": 7736,
      "Ġcher": 7737,
      "Ġdict": 7738,
      "Ġdign": 7739,
      "Ġdyn": 7740,
      "anking": 7741,
      "orah": 7742,
      "Ġsheer": 7743,
      "Ġgates": 7744,
      "Ġya": 7745,
      "Ġeld": 7746,
      "Ġbearing": 7747,
      "Ġaspect": 7748,
      "Ġwhirled": 7749,
      "icit": 7750,
      "ooping": 7751,
      "ura": 7752,
      "Ġshiny": 7753,
      "Ġshiane": 7754,
      "Ġupcoming": 7755,
      "Ġsole": 7756,
      "amiliar": 7757,
      "Ġknob": 7758,
      "Ġbacks": 7759,
      "Ġages": 7760,
      "Ġgodd": 7761,
      "arded": 7762,
      "Ġcling": 7763,
      "Ġclam": 7764,
      "Ġhandy": 7765,
      "Ġroses": 7766,
      "Ġalight": 7767,
      "Ġchase": 7768,
      "Ġchimed": 7769,
      "Ġconve": 7770,
      "Ġconcept": 7771,
      "Ġanyhow": 7772,
      "Ġmane": 7773,
      "aret": 7774,
      "Ġloyal": 7775,
      "Ġlodge": 7776,
      "Ġspicy": 7777,
      "que": 7778,
      "quences": 7779,
      "Ġplot": 7780,
      "Ġbond": 7781,
      "Ġsliced": 7782,
      "Ġpopping": 7783,
      "Ġcoast": 7784,
      "Ġflor": 7785,
      "Ġflipping": 7786,
      "Ġblast": 7787,
      "Ġblocked": 7788,
      "Ġbetty": 7789,
      "Ġcheat": 7790,
      "Ġcheated": 7791,
      "Ġhol": 7792,
      "Ġprices": 7793,
      "Ġmarch": 7794,
      "ission": 7795,
      "Ġimmedi": 7796,
      "ipment": 7797,
      "Ġworkers": 7798,
      "moving": 7799,
      "Ġcompre": 7800,
      "Ġcompare": 7801,
      "thanks": 7802,
      "Ġsteam": 7803,
      "Ġnewly": 7804,
      "Ġsketch": 7805,
      "Ġgrey": 7806,
      "Ġswitch": 7807,
      "Ġcurse": 7808,
      "Ġcurving": 7809,
      "Ġfamous": 7810,
      "Ġshoots": 7811,
      "Ġbelieving": 7812,
      "Ġfiguring": 7813,
      "Ġcrit": 7814,
      "Ġinterfe": 7815,
      "Ġinterrog": 7816,
      "Ġgrabs": 7817,
      "appy": 7818,
      "Ġawfully": 7819,
      "Ġdefin": 7820,
      "Ġtremble": 7821,
      "ibling": 7822,
      "Ġinterests": 7823,
      "Ġfloors": 7824,
      "Ġdistant": 7825,
      "Ġhits": 7826,
      "Ġimagination": 7827,
      "Ġtrusting": 7828,
      "Ġgrandma": 7829,
      "Ġcrystal": 7830,
      "Ġpayment": 7831,
      "Ġgroin": 7832,
      "Ġspoon": 7833,
      "Ġexperiencing": 7834,
      "Ġpolished": 7835,
      "Ġamaze": 7836,
      "ounce": 7837,
      "Ġlayer": 7838,
      "Ġchoked": 7839,
      "Ġgodfather": 7840,
      "Ġsignal": 7841,
      "Ġthirst": 7842,
      "Ġvisits": 7843,
      "Ġsecretary": 7844,
      "Ġescorted": 7845,
      "Ġlimits": 7846,
      "encies": 7847,
      "Ġfrequ": 7848,
      "Ġstruggle": 7849,
      "Ġtempt": 7850,
      "Ġtempting": 7851,
      "Ġtempted": 7852,
      "Ġwiden": 7853,
      "Ġmisunder": 7854,
      "Ġdeborah": 7855,
      "Ġsalary": 7856,
      "Ġexcitedly": 7857,
      "Ġjerry": 7858,
      "Ġanticipating": 7859,
      "Ġmaya": 7860,
      "Ġmillionaire": 7861,
      "Ġdoubts": 7862,
      "Ġappreciation": 7863,
      "Ġcontracts": 7864,
      "Ġtensing": 7865,
      "Ġexams": 7866,
      "Ġtransform": 7867,
      "Ġdipl": 7868,
      "Ġmuscled": 7869,
      "Ġsatisfy": 7870,
      "Ġmotions": 7871,
      "Ġelevators": 7872,
      "Ġthreatening": 7873,
      "twenty": 7874,
      "Ġtickets": 7875,
      "Ġequipment": 7876,
      "Ġwealthiest": 7877,
      "Ġconstant": 7878,
      "Ġdammit": 7879,
      "Ġjudgment": 7880,
      "Ġtenderly": 7881,
      "Ġbapt": 7882,
      "Ġmiserably": 7883,
      "Ġ200": 7884,
      "Ġguts": 7885,
      "Ġbulging": 7886,
      "Ġsparkling": 7887,
      "Ġgrades": 7888,
      "Ġindicate": 7889,
      "Ġsuperv": 7890,
      "Ġteachers": 7891,
      "cerned": 7892,
      "Ġfantastic": 7893,
      "Ġoperation": 7894,
      "Ġsleek": 7895,
      "Ġtingling": 7896,
      "Ġankles": 7897,
      "Ġbrill": 7898,
      "Ġbullshit": 7899,
      "Ġwhimper": 7900,
      "Ġreluctant": 7901,
      "Ġpersu": 7902,
      "Ġteenage": 7903,
      "Ġpeek": 7904,
      "Ġblocking": 7905,
      "Ġstrangers": 7906,
      "Ġquality": 7907,
      "Ġappetite": 7908,
      "holding": 7909,
      "Ġtechn": 7910,
      "Ġcyclone": 7911,
      "Ġbirds": 7912,
      "osition": 7913,
      "Ġdumbfounded": 7914,
      "Ġremoved": 7915,
      "Ġobstacle": 7916,
      "Ġshaky": 7917,
      "chievous": 7918,
      "joe": 7919,
      "keeping": 7920,
      "Ġerrand": 7921,
      "Ġindependent": 7922,
      "Ġfortune": 7923,
      "Ġdistracting": 7924,
      "Ġcontradict": 7925,
      "half": 7926,
      "smiling": 7927,
      "Ġdevastating": 7928,
      "definitely": 7929,
      "Ġintrigued": 7930,
      "Ġunconcerned": 7931,
      "Ġlacrosse": 7932,
      "Ġbundle": 7933,
      "pathy": 7934,
      "sorry": 7935,
      "Ġsacrif": 7936,
      "Ġbridesma": 7937,
      "Ġcompromise": 7938,
      "Ġconservative": 7939,
      "Ġdyslex": 7940,
      "Ġmodest": 7941,
      "Ġcorridor": 7942,
      "fashioned": 7943,
      "Ġsoothe": 7944,
      "Ġneighbors": 7945,
      "bun": 7946,
      "bud": 7947,
      "biting": 7948,
      "ca": 7949,
      "hard": 7950,
      "haired": 7951,
      "jalla": 7952,
      "liz": 7953,
      "love": 7954,
      "mail": 7955,
      "mates": 7956,
      "oom": 7957,
      "power": 7958,
      "tom": 7959,
      "top": 7960,
      "uary": 7961,
      "writ": 7962,
      "xim": 7963,
      "Ġut": 7964,
      "Ġess": 7965,
      "Ġtid": 7966,
      "Ġtate": 7967,
      "Ġtank": 7968,
      "Ġtape": 7969,
      "Ġtanned": 7970,
      "Ġtaunt": 7971,
      "Ġtaylor": 7972,
      "Ġaver": 7973,
      "Ġawe": 7974,
      "Ġaura": 7975,
      "Ġsou": 7976,
      "Ġware": 7977,
      "Ġwren": 7978,
      "Ġheaving": 7979,
      "Ġhind": 7980,
      "resh": 7981,
      "remem": 7982,
      "Ġbang": 7983,
      "Ġbars": 7984,
      "Ġborrow": 7985,
      "Ġoct": 7986,
      "Ġtopped": 7987,
      "Ġtodd": 7988,
      "Ġmap": 7989,
      "Ġcue": 7990,
      "Ġfade": 7991,
      "Ġfidd": 7992,
      "atching": 7993,
      "Ġdil": 7994,
      "Ġdorm": 7995,
      "Ġdizzy": 7996,
      "Ġni": 7997,
      "Ġnest": 7998,
      "ask": 7999,
      "annel": 8000,
      "Ġpiss": 8001,
      "Ġpave": 8002,
      "Ġpans": 8003,
      "Ġpacing": 8004,
      "Ġpenc": 8005,
      "itching": 8006,
      "arse": 8007,
      "Ġsheep": 8008,
      "Ġinj": 8009,
      "esome": 8010,
      "Ġham": 8011,
      "Ġyoutu": 8012,
      "imul": 8013,
      "stood": 8014,
      "Ġstimul": 8015,
      "Ġwhore": 8016,
      "icious": 8017,
      "iry": 8018,
      "Ġmelting": 8019,
      "Ġshack": 8020,
      "Ġshveta": 8021,
      "Ġlily": 8022,
      "Ġliber": 8023,
      "Ġouts": 8024,
      "Ġouter": 8025,
      "Ġupright": 8026,
      "Ġsob": 8027,
      "Ġsober": 8028,
      "terior": 8029,
      "abbed": 8030,
      "Ġbackyard": 8031,
      "Ġframed": 8032,
      "Ġclad": 8033,
      "Ġrocking": 8034,
      "Ġalerted": 8035,
      "Ġchath": 8036,
      "Ġchris": 8037,
      "Ġleaped": 8038,
      "Ġdowntown": 8039,
      "Ġsea": 8040,
      "Ġconqu": 8041,
      "aterer": 8042,
      "aste": 8043,
      "Ġdelect": 8044,
      "Ġoffended": 8045,
      "Ġmolly": 8046,
      "Ġslit": 8047,
      "Ġslung": 8048,
      "Ġprey": 8049,
      "Ġpoking": 8050,
      "Ġgrunted": 8051,
      "Ġcoinc": 8052,
      "Ġemer": 8053,
      "Ġflin": 8054,
      "Ġflare": 8055,
      "Ġtwirled": 8056,
      "Ġproven": 8057,
      "Ġcanv": 8058,
      "Ġlets": 8059,
      "Ġunknown": 8060,
      "izes": 8061,
      "Ġhovered": 8062,
      "Ġscri": 8063,
      "Ġscree": 8064,
      "Ġcontribut": 8065,
      "ipher": 8066,
      "Ġdesired": 8067,
      "Ġmighty": 8068,
      "nox": 8069,
      "closed": 8070,
      "shot": 8071,
      "Ġapplic": 8072,
      "Ġowners": 8073,
      "Ġreser": 8074,
      "Ġreserv": 8075,
      "Ġnewest": 8076,
      "Ġearrings": 8077,
      "Ġperched": 8078,
      "Ġperman": 8079,
      "Ġminim": 8080,
      "Ġskipped": 8081,
      "berries": 8082,
      "Ġstove": 8083,
      "Ġassault": 8084,
      "Ġclosest": 8085,
      "Ġcloseness": 8086,
      "Ġbreathlessly": 8087,
      "Ġrunway": 8088,
      "Ġswings": 8089,
      "Ġinstance": 8090,
      "Ġshoe": 8091,
      "Ġkinda": 8092,
      "Ġbush": 8093,
      "ishly": 8094,
      "Ġpainted": 8095,
      "Ġdripping": 8096,
      "Ġdeepened": 8097,
      "Ġobnox": 8098,
      "Ġsurprises": 8099,
      "Ġcrown": 8100,
      "Ġeyeing": 8101,
      "Ġslowing": 8102,
      "Ġdarkened": 8103,
      "Ġseries": 8104,
      "Ġaccording": 8105,
      "Ġawesome": 8106,
      "Ġhurts": 8107,
      "Ġwineries": 8108,
      "Ġwhispering": 8109,
      "Ġpursed": 8110,
      "Ġpurple": 8111,
      "Ġinvent": 8112,
      "Ġdemands": 8113,
      "Ġfourth": 8114,
      "Ġmessages": 8115,
      "Ġstraighter": 8116,
      "Ġstraightening": 8117,
      "Ġwallet": 8118,
      "Ġsunlight": 8119,
      "Ġbarre": 8120,
      "Ġbarrel": 8121,
      "Ġdealt": 8122,
      "Ġadmiring": 8123,
      "Ġinspect": 8124,
      "Ġraises": 8125,
      "Ġhitch": 8126,
      "Ġfights": 8127,
      "spoken": 8128,
      "Ġfunction": 8129,
      "Ġinfur": 8130,
      "Ġgrocer": 8131,
      "Ġspoil": 8132,
      "Ġgrounds": 8133,
      "Ġcalmed": 8134,
      "Ġpositions": 8135,
      "Ġfreeze": 8136,
      "Ġtrial": 8137,
      "Ġtrucks": 8138,
      "Ġlayers": 8139,
      "Ġtastes": 8140,
      "Ġadds": 8141,
      "Ġcreatures": 8142,
      "orkers": 8143,
      "Ġcoworkers": 8144,
      "Ġprize": 8145,
      "Ġsorts": 8146,
      "Ġleader": 8147,
      "Ġsentry": 8148,
      "Ġdepended": 8149,
      "Ġdepending": 8150,
      "Ġfireplace": 8151,
      "Ġmischief": 8152,
      "Ġmischievous": 8153,
      "Ġyoungest": 8154,
      "grand": 8155,
      "boat": 8156,
      "Ġintimately": 8157,
      "Ġrecover": 8158,
      "Ġreminding": 8159,
      "Ġtentative": 8160,
      "uffed": 8161,
      "Ġmistakes": 8162,
      "Ġappears": 8163,
      "Ġflattering": 8164,
      "Ġmillions": 8165,
      "Ġcooler": 8166,
      "Ġbathing": 8167,
      "Ġmascara": 8168,
      "Ġhiking": 8169,
      "dern": 8170,
      "derrick": 8171,
      "Ġdoctors": 8172,
      "Ġcomplim": 8173,
      "Ġcomplied": 8174,
      "Ġphotos": 8175,
      "Ġextraordin": 8176,
      "Ġemployment": 8177,
      "Ġtesting": 8178,
      "Ġtypes": 8179,
      "Ġinternship": 8180,
      "Ġpaul": 8181,
      "Ġashton": 8182,
      "Ġtexted": 8183,
      "Ġproperly": 8184,
      "Ġpenis": 8185,
      "Ġcontestants": 8186,
      "Ġbursting": 8187,
      "Ġshades": 8188,
      "Ġlocker": 8189,
      "Ġconcentrated": 8190,
      "Ġattractive": 8191,
      "Ġjudging": 8192,
      "Ġtenderness": 8193,
      "Ġaccountant": 8194,
      "Ġlevels": 8195,
      "Ġgesturing": 8196,
      "Ġcapital": 8197,
      "Ġintensified": 8198,
      "Ġsweaty": 8199,
      "sliding": 8200,
      "Ġprovided": 8201,
      "steady": 8202,
      "Ġsongs": 8203,
      "Ġnecessarily": 8204,
      "Ġspilling": 8205,
      "Ġheaved": 8206,
      "Ġeffectively": 8207,
      "Ġsleeve": 8208,
      "Ġsenior": 8209,
      "Ġangelo": 8210,
      "Ġabsorb": 8211,
      "Ġmarketplace": 8212,
      "Ġtangle": 8213,
      "Ġpassengers": 8214,
      "Ġmicroph": 8215,
      "Ġclutching": 8216,
      "Ġdeclared": 8217,
      "Ġspecific": 8218,
      "Ġflicks": 8219,
      "Ġpredict": 8220,
      "Ġgraduated": 8221,
      "Ġstabbed": 8222,
      "regardless": 8223,
      "Ġcushion": 8224,
      "Ġfloating": 8225,
      "Ġadults": 8226,
      "Ġarrangement": 8227,
      "Ġfooling": 8228,
      "Ġdisgusting": 8229,
      "Ġannoying": 8230,
      "Ġscratched": 8231,
      "Ġkidnapped": 8232,
      "Ġquarters": 8233,
      "Ġencounter": 8234,
      "Ġdarling": 8235,
      "Ġpowder": 8236,
      "Ġshockingly": 8237,
      "Ġsource": 8238,
      "Ġdialed": 8239,
      "Ġdocuments": 8240,
      "Ġexhaled": 8241,
      "Ġdunari": 8242,
      "Ġeliminate": 8243,
      "Ġathle": 8244,
      "Ġimprison": 8245,
      "Ġdisagree": 8246,
      "Ġcousin": 8247,
      "Ġconsequences": 8248,
      "Ġscheme": 8249,
      "Ġwriggled": 8250,
      "Ġgym": 8251,
      "Ġushered": 8252,
      "Ġcameraman": 8253,
      "Ġsandwiches": 8254,
      "Ġnephew": 8255,
      "Ġimmediate": 8256,
      "Ġinterfere": 8257,
      "Ġbaptism": 8258,
      "Ġdyslexia": 8259,
      "Ġwarehouse": 8260,
      "Ġyoutube": 8261,
      "Ġchatham": 8262,
      "Ġgroceries": 8263,
      "apping": 8264,
      "bu": 8265,
      "bas": 8266,
      "best": 8267,
      "coo": 8268,
      "din": 8269,
      "ded": 8270,
      "dri": 8271,
      "fu": 8272,
      "ius": 8273,
      "kiss": 8274,
      "la": 8275,
      "lce": 8276,
      "log": 8277,
      "mu": 8278,
      "might": 8279,
      "nu": 8280,
      "nif": 8281,
      "oke": 8282,
      "pic": 8283,
      "pled": 8284,
      "piece": 8285,
      "qa": 8286,
      "sur": 8287,
      "swe": 8288,
      "satisfied": 8289,
      "vant": 8290,
      "zger": 8291,
      "Ġ8": 8292,
      "hearted": 8293,
      "Ġtill": 8294,
      "Ġticked": 8295,
      "Ġtits": 8296,
      "Ġtara": 8297,
      "Ġsang": 8298,
      "Ġwarr": 8299,
      "Ġhic": 8300,
      "Ġhill": 8301,
      "Ġbi": 8302,
      "Ġbout": 8303,
      "Ġog": 8304,
      "Ġmes": 8305,
      "Ġmixt": 8306,
      "Ġcaterer": 8307,
      "Ġded": 8308,
      "Ġduck": 8309,
      "Ġdawned": 8310,
      "Ġnipped": 8311,
      "Ġnanny": 8312,
      "istered": 8313,
      "Ġthong": 8314,
      "Ġlumber": 8315,
      "aned": 8316,
      "Ġandrew": 8317,
      "aria": 8318,
      "Ġgaped": 8319,
      "Ġinched": 8320,
      "estern": 8321,
      "omac": 8322,
      "Ġbeau": 8323,
      "lding": 8324,
      "acc": 8325,
      "acity": 8326,
      "immed": 8327,
      "stance": 8328,
      "oting": 8329,
      "Ġsty": 8330,
      "Ġstung": 8331,
      "Ġstones": 8332,
      "etr": 8333,
      "eting": 8334,
      "Ġrational": 8335,
      "Ġrebell": 8336,
      "Ġwhipping": 8337,
      "ads": 8338,
      "Ġdolce": 8339,
      "Ġmech": 8340,
      "Ġshh": 8341,
      "Ġshield": 8342,
      "Ġshamp": 8343,
      "alley": 8344,
      "Ġoutlet": 8345,
      "Ġabdom": 8346,
      "illery": 8347,
      "illian": 8348,
      "Ġloos": 8349,
      "Ġroxie": 8350,
      "Ġaltogether": 8351,
      "Ġnove": 8352,
      "Ġanybody": 8353,
      "ifully": 8354,
      "Ġdemon": 8355,
      "umed": 8356,
      "estock": 8357,
      "Ġplu": 8358,
      "Ġplung": 8359,
      "Ġmock": 8360,
      "ulate": 8361,
      "Ġseeming": 8362,
      "Ġvig": 8363,
      "Ġpreced": 8364,
      "Ġpoison": 8365,
      "Ġgrasping": 8366,
      "ires": 8367,
      "Ġneedle": 8368,
      "Ġknelt": 8369,
      "Ġeman": 8370,
      "ruction": 8371,
      "Ġfluttered": 8372,
      "Ġblinking": 8373,
      "Ġblazed": 8374,
      "herent": 8375,
      "beh": 8376,
      "Ġarmed": 8377,
      "Ġchess": 8378,
      "Ġchewed": 8379,
      "Ġbrist": 8380,
      "Ġbrick": 8381,
      "Ġnightcl": 8382,
      "Ġunb": 8383,
      "Ġunsteady": 8384,
      "Ġacre": 8385,
      "Ġwelled": 8386,
      "Ġhoarse": 8387,
      "Ġpricked": 8388,
      "Ġmindless": 8389,
      "covered": 8390,
      "Ġdesigned": 8391,
      "Ġputs": 8392,
      "Ġjolt": 8393,
      "noah": 8394,
      "cling": 8395,
      "Ġmouths": 8396,
      "Ġbehave": 8397,
      "Ġamusing": 8398,
      "Ġsurre": 8399,
      "Ġsurger": 8400,
      "Ġbeings": 8401,
      "Ġstrained": 8402,
      "Ġours": 8403,
      "Ġmatched": 8404,
      "Ġmattered": 8405,
      "Ġperception": 8406,
      "Ġsincerely": 8407,
      "Ġadvers": 8408,
      "Ġskip": 8409,
      "renal": 8410,
      "Ġangu": 8411,
      "Ġendured": 8412,
      "Ġattended": 8413,
      "Ġattribut": 8414,
      "Ġsworn": 8415,
      "Ġcurling": 8416,
      "Ġkindness": 8417,
      "ected": 8418,
      "Ġexplod": 8419,
      "Ġreacting": 8420,
      "Ġdrives": 8421,
      "sitting": 8422,
      "Ġsorrow": 8423,
      "Ġobt": 8424,
      "Ġcrushing": 8425,
      "Ġcringe": 8426,
      "Ġplayer": 8427,
      "Ġplayfully": 8428,
      "Ġexcuses": 8429,
      "Ġinterference": 8430,
      "Ġwines": 8431,
      "Ġwinced": 8432,
      "asha": 8433,
      "Ġcraz": 8434,
      "Ġcraft": 8435,
      "Ġlifts": 8436,
      "Ġdistillery": 8437,
      "Ġzone": 8438,
      "Ġpatch": 8439,
      "Ġmessy": 8440,
      "Ġstraighten": 8441,
      "Ġsunny": 8442,
      "Ġedie": 8443,
      "Ġbargain": 8444,
      "Ġstepbrother": 8445,
      "Ġadmission": 8446,
      "Ġveins": 8447,
      "Ġcarla": 8448,
      "comp": 8449,
      "Ġapproaching": 8450,
      "Ġspoiled": 8451,
      "Ġtries": 8452,
      "Ġsuitable": 8453,
      "bringing": 8454,
      "Ġshutting": 8455,
      "Ġchopping": 8456,
      "Ġdesperation": 8457,
      "instantly": 8458,
      "Ġcolored": 8459,
      "Ġadmitting": 8460,
      "Ġlimit": 8461,
      "Ġindoor": 8462,
      "Ġsuggesting": 8463,
      "Ġearlobe": 8464,
      "Ġfooting": 8465,
      "Ġgladly": 8466,
      "Ġpreparation": 8467,
      "Ġrecent": 8468,
      "Ġkilling": 8469,
      "Ġkiller": 8470,
      "Ġbeaten": 8471,
      "Ġdebated": 8472,
      "Ġdebts": 8473,
      "Ġfitting": 8474,
      "Ġcentury": 8475,
      "Ġstores": 8476,
      "Ġcasc": 8477,
      "Ġcapture": 8478,
      "Ġcapturing": 8479,
      "Ġbatt": 8480,
      "Ġsofas": 8481,
      "Ġoverwhelm": 8482,
      "Ġpotomac": 8483,
      "Ġcharity": 8484,
      "Ġstorage": 8485,
      "Ġpounds": 8486,
      "Ġprofess": 8487,
      "Ġmidst": 8488,
      "Ġproposed": 8489,
      "Ġsatisfying": 8490,
      "Ġvariety": 8491,
      "Ġinternational": 8492,
      "Ġbroadly": 8493,
      "uously": 8494,
      "Ġtowels": 8495,
      "Ġpouring": 8496,
      "Ġequal": 8497,
      "Ġsurvey": 8498,
      "Ġshyly": 8499,
      "Ġuncons": 8500,
      "Ġconcerns": 8501,
      "Ġtreatment": 8502,
      "Ġpapa": 8503,
      "Ġregretted": 8504,
      "Ġsparkled": 8505,
      "Ġindication": 8506,
      "Ġwrithed": 8507,
      "Ġanxiously": 8508,
      "Ġsuperior": 8509,
      "Ġfeeding": 8510,
      "Ġboundaries": 8511,
      "Ġjewels": 8512,
      "Ġbudget": 8513,
      "iques": 8514,
      "Ġtower": 8515,
      "Ġattendant": 8516,
      "Ġcrawled": 8517,
      "blond": 8518,
      "Ġaffection": 8519,
      "Ġsecurely": 8520,
      "Ġbloss": 8521,
      "Ġaccomplish": 8522,
      "Ġsensuously": 8523,
      "Ġimpatient": 8524,
      "Ġwiggled": 8525,
      "Ġgraduate": 8526,
      "Ġidentity": 8527,
      "Ġgolden": 8528,
      "Ġauthor": 8529,
      "Ġgauge": 8530,
      "Ġventure": 8531,
      "Ġcradling": 8532,
      "Ġencouraging": 8533,
      "Ġsedu": 8534,
      "Ġarrangements": 8535,
      "Ġstammered": 8536,
      "Ġentertaining": 8537,
      "Ġphotographs": 8538,
      "Ġrumors": 8539,
      "Ġspirit": 8540,
      "Ġscrubbed": 8541,
      "Ġterrorists": 8542,
      "Ġjournal": 8543,
      "Ġrippled": 8544,
      "jackson": 8545,
      "Ġweapon": 8546,
      "Ġvendor": 8547,
      "Ġgleaming": 8548,
      "Ġcontemplated": 8549,
      "Ġphotographers": 8550,
      "Ġponytail": 8551,
      "Ġbuffet": 8552,
      "Ġaunts": 8553,
      "Ġlaminated": 8554,
      "Ġscoffs": 8555,
      "Ġgratitude": 8556,
      "Ġadventure": 8557,
      "Ġlurched": 8558,
      "Ġskiing": 8559,
      "Ġsympathy": 8560,
      "Ġtraditional": 8561,
      "Ġcivil": 8562,
      "Ġwryly": 8563,
      "Ġdangling": 8564,
      "Ġlinen": 8565,
      "Ġlingerie": 8566,
      "Ġbiceps": 8567,
      "stitute": 8568,
      "Ġhumidity": 8569,
      "Ġblatant": 8570,
      "Ġswiped": 8571,
      "Ġlandscape": 8572,
      "Ġappetizers": 8573,
      "Ġimprove": 8574,
      "Ġmessenger": 8575,
      "Ġamazement": 8576,
      "Ġmisunderstood": 8577,
      "Ġtoddler": 8578,
      "Ġdelectable": 8579,
      "Ġcoincidence": 8580,
      "Ġobnoxious": 8581,
      "cooper": 8582,
      "nifer": 8583,
      "zgerald": 8584,
      "Ġmixture": 8585,
      "Ġmechan": 8586,
      "Ġshampoo": 8587,
      "Ġnightclub": 8588,
      "Ġexploded": 8589,
      "bi": 8590,
      "books": 8591,
      "dr": 8592,
      "dged": 8593,
      "eight": 8594,
      "foot": 8595,
      "gie": 8596,
      "given": 8597,
      "hor": 8598,
      "hip": 8599,
      "length": 8600,
      "nat": 8601,
      "oon": 8602,
      "ober": 8603,
      "pau": 8604,
      "rant": 8605,
      "sus": 8606,
      "spe": 8607,
      "sleep": 8608,
      "vious": 8609,
      "wra": 8610,
      "word": 8611,
      "xy": 8612,
      "yet": 8613,
      "zens": 8614,
      "hey": 8615,
      "Ġtying": 8616,
      "Ġwinking": 8617,
      "Ġheal": 8618,
      "Ġheating": 8619,
      "Ġbun": 8620,
      "Ġobed": 8621,
      "Ġtooth": 8622,
      "Ġmim": 8623,
      "Ġmama": 8624,
      "Ġcop": 8625,
      "Ġcater": 8626,
      "erk": 8627,
      "Ġfried": 8628,
      "Ġfierce": 8629,
      "Ġfading": 8630,
      "Ġfbi": 8631,
      "Ġdav": 8632,
      "Ġist": 8633,
      "Ġicy": 8634,
      "asive": 8635,
      "Ġlame": 8636,
      "Ġlave": 8637,
      "anks": 8638,
      "ories": 8639,
      "Ġpra": 8640,
      "armed": 8641,
      "Ġshell": 8642,
      "Ġshelves": 8643,
      "Ġgur": 8644,
      "Ġgho": 8645,
      "Ġinev": 8646,
      "Ġeast": 8647,
      "Ġhare": 8648,
      "Ġbeam": 8649,
      "idents": 8650,
      "imated": 8651,
      "start": 8652,
      "storm": 8653,
      "Ġwhoo": 8654,
      "Ġwhirling": 8655,
      "Ġitched": 8656,
      "Ġdock": 8657,
      "Ġanony": 8658,
      "urally": 8659,
      "Ġshakes": 8660,
      "Ġliar": 8661,
      "Ġlibid": 8662,
      "anter": 8663,
      "Ġoutcome": 8664,
      "Ġoutrage": 8665,
      "rol": 8666,
      "rolling": 8667,
      "Ġupside": 8668,
      "Ġsobbed": 8669,
      "Ġsocks": 8670,
      "rily": 8671,
      "riages": 8672,
      "thinking": 8673,
      "abul": 8674,
      "Ġbackward": 8675,
      "Ġintake": 8676,
      "Ġagents": 8677,
      "cted": 8678,
      "ctions": 8679,
      "Ġchips": 8680,
      "Ġchasing": 8681,
      "Ġsection": 8682,
      "unken": 8683,
      "Ġfeather": 8684,
      "ifying": 8685,
      "Ġtiming": 8686,
      "Ġteresa": 8687,
      "Ġlobe": 8688,
      "Ġspur": 8689,
      "Ġspray": 8690,
      "Ġsputtered": 8691,
      "uming": 8692,
      "quet": 8693,
      "Ġoffers": 8694,
      "Ġmodern": 8695,
      "Ġvowed": 8696,
      "Ġvalley": 8697,
      "Ġevenings": 8698,
      "Ġprec": 8699,
      "Ġgrady": 8700,
      "Ġemail": 8701,
      "actually": 8702,
      "Ġflour": 8703,
      "Ġflame": 8704,
      "Ġmud": 8705,
      "belt": 8706,
      "bending": 8707,
      "ounds": 8708,
      "Ġbrake": 8709,
      "resses": 8710,
      "Ġunin": 8711,
      "Ġunst": 8712,
      "Ġunpre": 8713,
      "Ġwalter": 8714,
      "Ġprayed": 8715,
      "Ġscored": 8716,
      "Ġscooped": 8717,
      "Ġmarriages": 8718,
      "Ġhelmet": 8719,
      "Ġtracing": 8720,
      "Ġwhereabout": 8721,
      "cody": 8722,
      "Ġopens": 8723,
      "soci": 8724,
      "Ġhelpful": 8725,
      "Ġcomposure": 8726,
      "Ġrelative": 8727,
      "Ġstew": 8728,
      "Ġpercept": 8729,
      "Ġadored": 8730,
      "Ġadrenal": 8731,
      "Ġwonderfully": 8732,
      "Ġasserted": 8733,
      "Ġrung": 8734,
      "Ġswirled": 8735,
      "Ġswitched": 8736,
      "Ġmornings": 8737,
      "prot": 8738,
      "Ġprett": 8739,
      "Ġlegit": 8740,
      "Ġconsci": 8741,
      "Ġhugs": 8742,
      "Ġtrapping": 8743,
      "Ġswelled": 8744,
      "Ġdrops": 8745,
      "plete": 8746,
      "Ġdrum": 8747,
      "Ġdrunken": 8748,
      "Ġexpense": 8749,
      "Ġexpenses": 8750,
      "Ġcomplex": 8751,
      "Ġinterrupting": 8752,
      "Ġterrit": 8753,
      "Ġterrace": 8754,
      "Ġtreason": 8755,
      "Ġseatbelt": 8756,
      "Ġremains": 8757,
      "Ġstrongly": 8758,
      "Ġpromising": 8759,
      "Ġpattern": 8760,
      "Ġpatron": 8761,
      "Ġcontinues": 8762,
      "Ġcounse": 8763,
      "Ġadmir": 8764,
      "Ġdragging": 8765,
      "Ġforearm": 8766,
      "Ġinsists": 8767,
      "Ġsensible": 8768,
      "Ġfoods": 8769,
      "Ġfuneral": 8770,
      "Ġuseful": 8771,
      "Ġlowers": 8772,
      "othal": 8773,
      "lipping": 8774,
      "Ġaddition": 8775,
      "Ġnaive": 8776,
      "Ġcowgirl": 8777,
      "Ġstreak": 8778,
      "Ġcheekb": 8779,
      "Ġgenius": 8780,
      "Ġpicks": 8781,
      "Ġcitypretty": 8782,
      "Ġsorted": 8783,
      "Ġvisiting": 8784,
      "Ġexplains": 8785,
      "grabbing": 8786,
      "Ġfairly": 8787,
      "Ġroads": 8788,
      "Ġcement": 8789,
      "Ġcookie": 8790,
      "Ġmagical": 8791,
      "Ġfitzgerald": 8792,
      "Ġanticipate": 8793,
      "Ġappearing": 8794,
      "Ġmiracle": 8795,
      "Ġsofter": 8796,
      "Ġforcefully": 8797,
      "Ġmoaning": 8798,
      "Ġresponding": 8799,
      "Ġcompliment": 8800,
      "Ġsupported": 8801,
      "Ġsplashed": 8802,
      "Ġexamined": 8803,
      "Ġtemperatures": 8804,
      "Ġtemperature": 8805,
      "Ġfolding": 8806,
      "Ġphysique": 8807,
      "Ġflex": 8808,
      "Ġmaddy": 8809,
      "Ġpausing": 8810,
      "Ġkingdom": 8811,
      "seriously": 8812,
      "Ġtexts": 8813,
      "goodness": 8814,
      "Ġpenn": 8815,
      "Ġofficers": 8816,
      "Ġofficially": 8817,
      "Ġcocktail": 8818,
      "Ġnotebook": 8819,
      "Ġshouts": 8820,
      "Ġtrembled": 8821,
      "Ġfreshman": 8822,
      "Ġsurveying": 8823,
      "priately": 8824,
      "Ġpunish": 8825,
      "Ġgravel": 8826,
      "Ġnibble": 8827,
      "Ġlacking": 8828,
      "Ġdefend": 8829,
      "Ġtreats": 8830,
      "Ġdisappearance": 8831,
      "Ġbulk": 8832,
      "Ġlogic": 8833,
      "Ġdescription": 8834,
      "Ġblend": 8835,
      "Ġtiles": 8836,
      "Ġscrewing": 8837,
      "Ġfurnishing": 8838,
      "Ġvirginia": 8839,
      "Ġremainder": 8840,
      "Ġpossessive": 8841,
      "Ġsnuggle": 8842,
      "Ġmaintaining": 8843,
      "Ġcrawling": 8844,
      "Ġsuspicion": 8845,
      "Ġsuspicious": 8846,
      "blowing": 8847,
      "Ġsharpened": 8848,
      "Ġtasks": 8849,
      "Ġnudging": 8850,
      "Ġyards": 8851,
      "Ġprojects": 8852,
      "Ġunfamiliar": 8853,
      "Ġgoverness": 8854,
      "worthy": 8855,
      "Ġopinions": 8856,
      "Ġhunched": 8857,
      "Ġstrangled": 8858,
      "Ġcandle": 8859,
      "Ġlingering": 8860,
      "Ġsavor": 8861,
      "Ġflooding": 8862,
      "Ġbutterf": 8863,
      "Ġsarc": 8864,
      "Ġchristine": 8865,
      "Ġsprinted": 8866,
      "Ġidentify": 8867,
      "Ġswaying": 8868,
      "Ġsixty": 8869,
      "Ġimmune": 8870,
      "Ġearnest": 8871,
      "Ġremove": 8872,
      "Ġkidnapping": 8873,
      "Ġhyster": 8874,
      "Ġtriumphant": 8875,
      "Ġmutters": 8876,
      "Ġsnatched": 8877,
      "Ġfaintly": 8878,
      "Ġdonuts": 8879,
      "Ġindependence": 8880,
      "Ġelectricity": 8881,
      "Ġsmirk": 8882,
      "Ġwitnessed": 8883,
      "cutive": 8884,
      "Ġpooling": 8885,
      "Ġinherited": 8886,
      "Ġdismissively": 8887,
      "Ġbumpkin": 8888,
      "Ġlivid": 8889,
      "Ġlivestock": 8890,
      "Ġpeeled": 8891,
      "Ġlaunched": 8892,
      "Ġadamant": 8893,
      "Ġelementary": 8894,
      "Ġpuzzle": 8895,
      "Ġencouragement": 8896,
      "Ġsailboat": 8897,
      "Ġselected": 8898,
      "Ġmuffled": 8899,
      "Ġaccusation": 8900,
      "Ġestablish": 8901,
      "Ġecstasy": 8902,
      "Ġshuffled": 8903,
      "Ġtissue": 8904,
      "Ġdeposited": 8905,
      "break": 8906,
      "Ġlazy": 8907,
      "Ġgeocaches": 8908,
      "Ġjasim": 8909,
      "Ġjennifer": 8910,
      "children": 8911,
      "Ġbetrothal": 8912,
      "Ġbrutal": 8913,
      "Ġbypassed": 8914,
      "Ġyawn": 8915,
      "Ġelderly": 8916,
      "Ġholid": 8917,
      "Ġbrilliant": 8918,
      "Ġbridesmaid": 8919,
      "tomorrow": 8920,
      "remember": 8921,
      "Ġpavement": 8922,
      "Ġextraordinary": 8923,
      "dinner": 8924,
      "much": 8925,
      "behind": 8926,
      "Ġsurgery": 8927,
      "susan": 8928,
      "Ġistim": 8929,
      "Ġlavender": 8930,
      "Ġanonym": 8931,
      "Ġlibido": 8932,
      "Ġwhereabouts": 8933,
      "cra": 8934,
      "cross": 8935,
      "fight": 8936,
      "feel": 8937,
      "foc": 8938,
      "fold": 8939,
      "gen": 8940,
      "hid": 8941,
      "huh": 8942,
      "jim": 8943,
      "jam": 8944,
      "lined": 8945,
      "looked": 8946,
      "lsea": 8947,
      "may": 8948,
      "mine": 8949,
      "mitted": 8950,
      "nadeen": 8951,
      "nesday": 8952,
      "oles": 8953,
      "rons": 8954,
      "til": 8955,
      "tub": 8956,
      "uated": 8957,
      "va": 8958,
      "Ġtilt": 8959,
      "Ġtumbled": 8960,
      "Ġtune": 8961,
      "init": 8962,
      "Ġsession": 8963,
      "Ġwre": 8964,
      "ouched": 8965,
      "Ġhood": 8966,
      "Ġhanger": 8967,
      "Ġhates": 8968,
      "Ġhilar": 8969,
      "Ġbanged": 8970,
      "Ġbike": 8971,
      "Ġol": 8972,
      "Ġtoe": 8973,
      "Ġtops": 8974,
      "Ġtoler": 8975,
      "Ġmall": 8976,
      "Ġmush": 8977,
      "Ġcel": 8978,
      "Ġcages": 8979,
      "Ġfan": 8980,
      "Ġfisted": 8981,
      "Ġfumbling": 8982,
      "ata": 8983,
      "athed": 8984,
      "Ġdazed": 8985,
      "Ġip": 8986,
      "Ġiv": 8987,
      "Ġnasty": 8988,
      "asms": 8989,
      "Ġlas": 8990,
      "Ġlid": 8991,
      "Ġlic": 8992,
      "Ġlun": 8993,
      "Ġlus": 8994,
      "anbag": 8995,
      "ora": 8996,
      "Ġpiling": 8997,
      "itors": 8998,
      "Ġshelf": 8999,
      "Ġinability": 9000,
      "esus": 9001,
      "omatic": 9002,
      "Ġepit": 9003,
      "Ġhaze": 9004,
      "Ġbeers": 9005,
      "Ġbeanbag": 9006,
      "stret": 9007,
      "Ġstash": 9008,
      "Ġstumped": 9009,
      "eteen": 9010,
      "Ġassoci": 9011,
      "Ġrehe": 9012,
      "Ġrein": 9013,
      "Ġreck": 9014,
      "Ġreign": 9015,
      "Ġwhip": 9016,
      "Ġkh": 9017,
      "Ġkana": 9018,
      "Ġkabul": 9019,
      "advert": 9020,
      "ooves": 9021,
      "Ġdozens": 9022,
      "Ġanat": 9023,
      "Ġjames": 9024,
      "Ġshine": 9025,
      "ional": 9026,
      "Ġsaus": 9027,
      "chool": 9028,
      "chris": 9029,
      "Ġsoak": 9030,
      "Ġsobs": 9031,
      "Ġsobbing": 9032,
      "riere": 9033,
      "thirty": 9034,
      "ilogue": 9035,
      "Ġknots": 9036,
      "hension": 9037,
      "Ġagon": 9038,
      "illed": 9039,
      "Ġclick": 9040,
      "Ġclamped": 9041,
      "Ġjustice": 9042,
      "Ġroared": 9043,
      "Ġropes": 9044,
      "Ġchir": 9045,
      "Ġlease": 9046,
      "Ġdownwards": 9047,
      "Ġexotic": 9048,
      "Ġconver": 9049,
      "astically": 9050,
      "Ġisn": 9051,
      "unless": 9052,
      "Ġfeast": 9053,
      "iful": 9054,
      "ousy": 9055,
      "Ġmanic": 9056,
      "Ġmanagement": 9057,
      "Ġlocking": 9058,
      "Ġspite": 9059,
      "umin": 9060,
      "ulation": 9061,
      "Ġbolt": 9062,
      "istent": 9063,
      "Ġevenly": 9064,
      "Ġpond": 9065,
      "Ġgran": 9066,
[...]
