{
  "version": "1.0",
  "truncation": null,
  "padding": null,
  "added_tokens": [
    {
      "id": 0,
      "content": "[START]",
      "single_word": false,
      "lstrip": false,
      "rstrip": false,
      "normalized": false,
      "special": true
    },
    {
      "id": 1,
      "content": "[END]",
      "single_word": false,
      "lstrip": false,
      "rstrip": false,
      "normalized": false,
      "special": true
    },
    {
      "id": 2,
      "content": "[SEP]",
      "single_word": false,
      "lstrip": false,
      "rstrip": false,
      "normalized": false,
      "special": true
    },
    {
      "id": 3,
      "content": "[PAD]",
      "single_word": false,
      "lstrip": false,
      "rstrip": false,
      "normalized": false,
      "special": true
    }
  ],
  "normalizer": null,
  "pre_tokenizer": {
    "type": "ByteLevel",
    "add_prefix_space": false,
    "trim_offsets": true,
    "use_regex": true
  },
  "post_processor": {
    "type": "BertProcessing",
    "sep": [
      "[SEP]",
      2
    ],
    "cls": [
      "[START]",
      0
    ]
  },
  "decoder": {
    "type": "ByteLevel",
    "add_prefix_space": true,
    "trim_offsets": true,
    "use_regex": true
  },
  "model": {
    "type": "BPE",
    "dropout": null,
    "unk_token": null,
    "continuing_subword_prefix": null,
    "end_of_word_suffix": null,
    "fuse_unk": false,
    "byte_fallback": false,
    "vocab": {
      "[START]": 0,
      "[END]": 1,
      "[SEP]": 2,
      "[PAD]": 3,
      "!": 4,
      "\"": 5,
      "#": 6,
      "$": 7,
      "%": 8,
      "&": 9,
      "'": 10,
      "(": 11,
      ")": 12,
      "*": 13,
      "+": 14,
      ",": 15,
      "-": 16,
      ".": 17,
      "/": 18,
      "0": 19,
      "1": 20,
      "2": 21,
      "3": 22,
      "4": 23,
      "5": 24,
      "6": 25,
      "7": 26,
      "8": 27,
      "9": 28,
      ":": 29,
      ";": 30,
      "<": 31,
      "=": 32,
      ">": 33,
      "?": 34,
      "@": 35,
      "A": 36,
      "B": 37,
      "C": 38,
      "D": 39,
      "E": 40,
      "F": 41,
      "G": 42,
      "H": 43,
      "I": 44,
      "J": 45,
      "K": 46,
      "L": 47,
      "M": 48,
      "N": 49,
      "O": 50,
      "P": 51,
      "Q": 52,
      "R": 53,
      "S": 54,
      "T": 55,
      "U": 56,
      "V": 57,
      "W": 58,
      "X": 59,
      "Y": 60,
      "Z": 61,
      "[": 62,
      "\\": 63,
      "]": 64,
      "^": 65,
      "_": 66,
      "`": 67,
      "a": 68,
      "b": 69,
      "c": 70,
      "d": 71,
      "e": 72,
      "f": 73,
      "g": 74,
      "h": 75,
      "i": 76,
      "j": 77,
      "k": 78,
      "l": 79,
      "m": 80,
      "n": 81,
      "o": 82,
      "p": 83,
      "q": 84,
      "r": 85,
      "s": 86,
      "t": 87,
      "u": 88,
      "v": 89,
      "w": 90,
      "x": 91,
      "y": 92,
      "z": 93,
      "{": 94,
      "|": 95,
      "}": 96,
      "~": 97,
      "¡": 98,
      "¢": 99,
      "£": 100,
      "¤": 101,
      "¥": 102,
      "¦": 103,
      "§": 104,
      "¨": 105,
      "©": 106,
      "ª": 107,
      "«": 108,
      "¬": 109,
      "®": 110,
      "¯": 111,
      "°": 112,
      "±": 113,
      "²": 114,
      "³": 115,
      "´": 116,
      "µ": 117,
      "¶": 118,
      "·": 119,
      "¸": 120,
      "¹": 121,
      "º": 122,
      "»": 123,
      "¼": 124,
      "½": 125,
      "¾": 126,
      "¿": 127,
      "À": 128,
      "Á": 129,
      "Â": 130,
      "Ã": 131,
      "Ä": 132,
      "Å": 133,
      "Æ": 134,
      "Ç": 135,
      "È": 136,
      "É": 137,
      "Ê": 138,
      "Ë": 139,
      "Ì": 140,
      "Í": 141,
      "Î": 142,
      "Ï": 143,
      "Ð": 144,
      "Ñ": 145,
      "Ò": 146,
      "Ó": 147,
      "Ô": 148,
      "Õ": 149,
      "Ö": 150,
      "×": 151,
      "Ø": 152,
      "Ù": 153,
      "Ú": 154,
      "Û": 155,
      "Ü": 156,
      "Ý": 157,
      "Þ": 158,
      "ß": 159,
      "à": 160,
      "á": 161,
      "â": 162,
      "ã": 163,
      "ä": 164,
      "å": 165,
      "æ": 166,
      "ç": 167,
      "è": 168,
      "é": 169,
      "ê": 170,
      "ë": 171,
      "ì": 172,
      "í": 173,
      "î": 174,
      "ï": 175,
      "ð": 176,
      "ñ": 177,
      "ò": 178,
      "ó": 179,
      "ô": 180,
      "õ": 181,
      "ö": 182,
      "÷": 183,
      "ø": 184,
      "ù": 185,
      "ú": 186,
      "û": 187,
      "ü": 188,
      "ý": 189,
      "þ": 190,
      "ÿ": 191,
      "Ā": 192,
      "ā": 193,
      "Ă": 194,
      "ă": 195,
      "Ą": 196,
      "ą": 197,
      "Ć": 198,
      "ć": 199,
      "Ĉ": 200,
      "ĉ": 201,
      "Ċ": 202,
      "ċ": 203,
      "Č": 204,
      "č": 205,
      "Ď": 206,
      "ď": 207,
      "Đ": 208,
      "đ": 209,
      "Ē": 210,
      "ē": 211,
      "Ĕ": 212,
      "ĕ": 213,
      "Ė": 214,
      "ė": 215,
      "Ę": 216,
      "ę": 217,
      "Ě": 218,
      "ě": 219,
      "Ĝ": 220,
      "ĝ": 221,
      "Ğ": 222,
      "ğ": 223,
      "Ġ": 224,
      "ġ": 225,
      "Ģ": 226,
      "ģ": 227,
      "Ĥ": 228,
      "ĥ": 229,
      "Ħ": 230,
      "ħ": 231,
      "Ĩ": 232,
      "ĩ": 233,
      "Ī": 234,
      "ī": 235,
      "Ĭ": 236,
      "ĭ": 237,
      "Į": 238,
      "į": 239,
      "İ": 240,
      "ı": 241,
      "Ĳ": 242,
      "ĳ": 243,
      "Ĵ": 244,
      "ĵ": 245,
      "Ķ": 246,
      "ķ": 247,
      "ĸ": 248,
      "Ĺ": 249,
      "ĺ": 250,
      "Ļ": 251,
      "ļ": 252,
      "Ľ": 253,
      "ľ": 254,
      "Ŀ": 255,
      "ŀ": 256,
      "Ł": 257,
      "ł": 258,
      "Ń": 259,
      "he": 260,
      "Ġt": 261,
      "Ġa": 262,
      "Ġ.": 263,
      "in": 264,
      "Ġs": 265,
      "Ġw": 266,
      "ed": 267,
      "Ġ'": 268,
      "Ġh": 269,
      "Ġ,": 270,
      "an": 271,
      "ou": 272,
      "Ġhe": 273,
      "re": 274,
      "Ġm": 275,
      "Ġb": 276,
      "ing": 277,
      "Ġo": 278,
      "Ġthe": 279,
      "Ġ''": 280,
      "Ġf": 281,
      "Ġn": 282,
      "Ġto": 283,
      "it": 284,
      "er": 285,
      "as": 286,
      "at": 287,
      "Ġc": 288,
      "is": 289,
      "es": 290,
      "nd": 291,
      "Ġp": 292,
      "Ġd": 293,
      "Ġg": 294,
      "Ġl": 295,
      "on": 296,
      "Ġher": 297,
      "Ġy": 298,
      "Ġand": 299,
      "id": 300,
      "Ġth": 301,
      "ll": 302,
      "Ġe": 303,
      "Ġin": 304,
      "Ġyou": 305,
      "ad": 306,
      "or": 307,
      "Ġi": 308,
      "Ġbe": 309,
      "en": 310,
      "ar": 311,
      "Ġof": 312,
      "Ġshe": 313,
      "ow": 314,
      "Ġme": 315,
      "le": 316,
      "Ġwas": 317,
      "me": 318,
      "ot": 319,
      "ld": 320,
      "Ġhis": 321,
      "st": 322,
      "gan": 323,
      "Ġre": 324,
      "ma": 325,
      "ith": 326,
      "Ġu": 327,
      "ve": 328,
      "Ġ?": 329,
      "her": 330,
      "'t": 331,
      "ver": 332,
      "Ġon": 333,
      "ly": 334,
      "im": 335,
      "ck": 336,
      "oo": 337,
      "ay": 338,
      "Ġwith": 339,
      "Ġhim": 340,
      "Ġthat": 341,
      "Ġwh": 342,
      "Ġno": 343,
      "gh": 344,
      "Ġas": 345,
      "Ġit": 346,
      "mma": 347,
      "idan": 348,
      "ro": 349,
      "Ġst": 350,
      "ould": 351,
      "et": 352,
      "Ġfor": 353,
      "esh": 354,
      "ur": 355,
      "Ġhad": 356,
      "Ġha": 357,
      "Ġdo": 358,
      "Ġat": 359,
      "ri": 360,
      "out": 361,
      "ke": 362,
      "Ġmegan": 363,
      "ce": 364,
      "ch": 365,
      "she": 366,
      "Ġli": 367,
      "ir": 368,
      "Ġaidan": 369,
      "Ġj": 370,
      "all": 371,
      "ct": 372,
      "ion": 373,
      "se": 374,
      "and": 375,
      "al": 376,
      "ah": 377,
      "Ġwe": 378,
      "Ġan": 379,
      "Ġse": 380,
      "ter": 381,
      "ant": 382,
      "Ġup": 383,
      "ut": 384,
      "ght": 385,
      "Ġso": 386,
      "Ġemma": 387,
      "ent": 388,
      "Ġk": 389,
      "Ġsh": 390,
      "Ġpesh": 391,
      "Ġgo": 392,
      "ust": 393,
      "Ġnoah": 394,
      "ked": 395,
      "ap": 396,
      "Ġsu": 397,
      "ally": 398,
      "ore": 399,
      "Ġint": 400,
      "led": 401,
      "hen": 402,
      "om": 403,
      "th": 404,
      "Ġab": 405,
      "Ġne": 406,
      "mi": 407,
      "Ġwant": 408,
      "Ġnot": 409,
      "megan": 410,
      "Ġcould": 411,
      "king": 412,
      "Ġis": 413,
      "Ġsa": 414,
      "ase": 415,
      "art": 416,
      "Ġhave": 417,
      "Ġti": 418,
      "own": 419,
      "Ġlike": 420,
      "pe": 421,
      "ss": 422,
      "Ġout": 423,
      "hed": 424,
      "Ġfe": 425,
      "ason": 426,
      "ic": 427,
      "Ġar": 428,
      "est": 429,
      "Ġjust": 430,
      "Ġwhat": 431,
      "Ġby": 432,
      "Ġch": 433,
      "Ġkn": 434,
      "ab": 435,
      "Ġall": 436,
      "Ġmy": 437,
      "Ġgr": 438,
      "au": 439,
      "fore": 440,
      "Ġr": 441,
      "ess": 442,
      "other": 443,
      "Ġsee": 444,
      "asey": 445,
      "ack": 446,
      "Ġman": 447,
      "Ġfa": 448,
      "ned": 449,
      "Ġsmi": 450,
      "Ġwould": 451,
      "very": 452,
      "ook": 453,
      "Ġabout": 454,
      "Ġtime": 455,
      "Ġover": 456,
      "Ġbefore": 457,
      "pp": 458,
      "Ġhand": 459,
      "Ġfin": 460,
      "ather": 461,
      "Ġdid": 462,
      "Ġget": 463,
      "el": 464,
      "ink": 465,
      "ound": 466,
      "Ġey": 467,
      "emma": 468,
      "li": 469,
      "Ġhead": 470,
      "Ġtoo": 471,
      "itt": 472,
      "one": 473,
      "Ġsome": 474,
      "fe": 475,
      "nt": 476,
      "ry": 477,
      "Ġtw": 478,
      "Ġmason": 479,
      "Ġbut": 480,
      "ood": 481,
      "ight": 482,
      "pesh": 483,
      "Ġho": 484,
      "Ġinto": 485,
      "Ġknow": 486,
      "ain": 487,
      "ive": 488,
      "Ġag": 489,
      "Ġal": 490,
      "Ġwhen": 491,
      "Ġde": 492,
      "Ġlo": 493,
      "Ġasked": 494,
      "Ġwere": 495,
      "Ġgod": 496,
      "are": 497,
      "qu": 498,
      "Ġhow": 499,
      "ous": 500,
      "ide": 501,
      "Ġyour": 502,
      "Ġbeen": 503,
      "ard": 504,
      "Ġoff": 505,
      "fter": 506,
      "the": 507,
      "us": 508,
      "Ġif": 509,
      "ake": 510,
      "lp": 511,
      "way": 512,
      "Ġare": 513,
      "Ġold": 514,
      "Ġthem": 515,
      "ath": 516,
      "Ġche": 517,
      "Ġpl": 518,
      "Ġdown": 519,
      "Ġlitt": 520,
      "Ġex": 521,
      "Ġbeing": 522,
      "Ġreally": 523,
      "Ġwho": 524,
      "rom": 525,
      "Ġwanted": 526,
      "Ġlittle": 527,
      "il": 528,
      "ving": 529,
      "we": 530,
      "Ġtur": 531,
      "Ġwor": 532,
      "Ġback": 533,
      "Ġthey": 534,
      "ate": 535,
      "Ġthan": 536,
      "Ġany": 537,
      "Ġsaid": 538,
      "Ġeyes": 539,
      "Ġtwo": 540,
      "am": 541,
      "ru": 542,
      "ure": 543,
      "Ġwi": 544,
      "Ġhelp": 545,
      "ass": 546,
      "Ġcon": 547,
      "Ġcasey": 548,
      "Ġga": 549,
      "Ġthink": 550,
      "Ġone": 551,
      "ul": 552,
      "Ġmu": 553,
      "Ġor": 554,
      "ade": 555,
      "ady": 556,
      "cked": 557,
      "ced": 558,
      "dd": 559,
      "ged": 560,
      "op": 561,
      "ved": 562,
      "Ġqu": 563,
      "ough": 564,
      "Ġbr": 565,
      "Ġthen": 566,
      "Ġfrom": 567,
      "Ġgood": 568,
      "Ġle": 569,
      "Ġlau": 570,
      "Ġlook": 571,
      "pli": 572,
      "ted": 573,
      "with": 574,
      "ind": 575,
      "Ġson": 576,
      "our": 577,
      "ress": 578,
      "Ġnow": 579,
      "ong": 580,
      "Ġrepli": 581,
      "Ġhair": 582,
      "thing": 583,
      "Ġfeel": 584,
      "Ġarm": 585,
      "Ġsmile": 586,
      "Ġmuch": 587,
      "Ġreplied": 588,
      "ra": 589,
      "Ġri": 590,
      "Ġbl": 591,
      "Ġbo": 592,
      "Ġfl": 593,
      "ers": 594,
      "ation": 595,
      "Ġcl": 596,
      "Ġonly": 597,
      "Ġaround": 598,
      "aking": 599,
      "ghed": 600,
      "kay": 601,
      "ther": 602,
      "ven": 603,
      "when": 604,
      "Ġte": 605,
      "Ġsur": 606,
      "Ġmom": 607,
      "Ġokay": 608,
      "Ġother": 609,
      "Ġthere": 610,
      "Ġfo": 611,
      "Ġfather": 612,
      "Ġevery": 613,
      "Ġbet": 614,
      "Ġneed": 615,
      "Ġright": 616,
      "aidan": 617,
      "Ġvery": 618,
      "Ġmo": 619,
      "Ġcom": 620,
      "Ġpe": 621,
      "Ġpo": 622,
      "Ġgl": 623,
      "Ġgu": 624,
      "Ġyes": 625,
      "ared": 626,
      "Ġres": 627,
      "Ġus": 628,
      "Ġnever": 629,
      "Ġsmiled": 630,
      "pped": 631,
      "Ġarms": 632,
      "..": 633,
      "be": 634,
      "co": 635,
      "casey": 636,
      "ger": 637,
      "get": 638,
      "ie": 639,
      "if": 640,
      "ile": 641,
      "ick": 642,
      "ice": 643,
      "lf": 644,
      "ting": 645,
      "here": 646,
      "Ġ...": 647,
      "Ġca": 648,
      "Ġpro": 649,
      "Ġthis": 650,
      "Ġun": 651,
      "Ġstart": 652,
      "Ġgoing": 653,
      "Ġsure": 654,
      "Ġgrin": 655,
      "Ġagain": 656,
      "Ġturned": 657,
      "after": 658,
      "ched": 659,
      "father": 660,
      "ill": 661,
      "pr": 662,
      "rap": 663,
      "un": 664,
      "Ġad": 665,
      "Ġsp": 666,
      "Ġsay": 667,
      "Ġwa": 668,
      "Ġmother": 669,
      "Ġmight": 670,
      "Ġmake": 671,
      "Ġtheir": 672,
      "Ġph": 673,
      "Ġshook": 674,
      "Ġsuch": 675,
      "Ġface": 676,
      "nts": 677,
      "arents": 678,
      "dded": 679,
      "ople": 680,
      "Ġsurpr": 681,
      "Ġmoment": 682,
      "Ġsurpris": 683,
      "end": 684,
      "gin": 685,
      "hing": 686,
      "ious": 687,
      "row": 688,
      "ull": 689,
      "Ġtry": 690,
      "Ġway": 691,
      "ought": 692,
      "Ġheart": 693,
      "rest": 694,
      "Ġbre": 695,
      "ast": 696,
      "ated": 697,
      "iss": 698,
      "ist": 699,
      "Ġpart": 700,
      "Ġgown": 701,
      "Ġlong": 702,
      "Ġye": 703,
      "Ġem": 704,
      "ened": 705,
      "ool": 706,
      "oom": 707,
      "ried": 708,
      "Ġjo": 709,
      "ctor": 710,
      "able": 711,
      "Ġlove": 712,
      "Ġgodfather": 713,
      "Ġlaughed": 714,
      "Ġpeople": 715,
      "med": 716,
      "mother": 717,
      "ol": 718,
      "ond": 719,
      "ps": 720,
      "ped": 721,
      "per": 722,
      "ue": 723,
      "wh": 724,
      "Ġafter": 725,
      "ince": 726,
      "Ġsi": 727,
      "Ġwhere": 728,
      "Ġfing": 729,
      "ity": 730,
      "Ġgot": 731,
      "ark": 732,
      "Ġrel": 733,
      "Ġready": 734,
      "Ġwhy": 735,
      "Ġnodded": 736,
      "Ġdoctor": 737,
      "apt": 738,
      "Ġinte": 739,
      "ical": 740,
      "estion": 741,
      "Ġfine": 742,
      "Ġplay": 743,
      "Ġgave": 744,
      "Ġcame": 745,
      "og": 746,
      "sh": 747,
      "ty": 748,
      "ves": 749,
      "Ġaway": 750,
      "Ġsc": 751,
      "Ġsince": 752,
      "Ġwal": 753,
      "Ġmade": 754,
      "Ġbro": 755,
      "Ġbab": 756,
      "Ġbapt": 757,
      "Ġfir": 758,
      "ating": 759,
      "Ġco": 760,
      "ism": 761,
      "Ġpi": 762,
      "Ġdi": 763,
      "Ġday": 764,
      "Ġdress": 765,
      "Ġloo": 766,
      "Ġen": 767,
      "Ġeven": 768,
      "aring": 769,
      "Ġmean": 770,
      "ste": 771,
      "Ġstill": 772,
      "Ġatt": 773,
      "Ġwell": 774,
      "mily": 775,
      "Ġsomeone": 776,
      "Ġgodmother": 777,
      "Ġchest": 778,
      "Ġthank": 779,
      "Ġwife": 780,
      "Ġquestion": 781,
      "Ġstarted": 782,
      "Ġinterest": 783,
      "Ġfirst": 784,
      "ak": 785,
      "ci": 786,
      "ies": 787,
      "kle": 788,
      "lt": 789,
      "ose": 790,
      "sed": 791,
      "ward": 792,
      "you": 793,
      "Ġv": 794,
      "Ġtake": 795,
      "Ġwom": 796,
      "Ġhur": 797,
      "Ġfri": 798,
      "ite": 799,
      "Ġcall": 800,
      "Ġparents": 801,
      "Ġthought": 802,
      "Ġyoun": 803,
      "ort": 804,
      "ars": 805,
      "ows": 806,
      "Ġmet": 807,
      "otog": 808,
      "Ġhaving": 809,
      "Ġdoor": 810,
      "self": 811,
      "Ġshould": 812,
      "apa": 813,
      "pect": 814,
      "Ġroom": 815,
      "Ġfamily": 816,
      "Ġfinis": 817,
      "Ġtook": 818,
      "ween": 819,
      "Ġbetween": 820,
      "Ġglan": 821,
      "rapher": 822,
      "Ġphotog": 823,
      "Ġtrying": 824,
      "Ġbaby": 825,
      "stead": 826,
      "Ġfriend": 827,
      "Ġphotographer": 828,
      "av": 829,
      "ach": 830,
      "ces": 831,
      "ep": 832,
      "ful": 833,
      "ge": 834,
      "gg": 835,
      "ib": 836,
      "ip": 837,
      "iz": 838,
      "ich": 839,
      "les": 840,
      "so": 841,
      "side": 842,
      "Ġro": 843,
      "Ġtr": 844,
      "Ġsn": 845,
      "Ġsch": 846,
      "Ġspe": 847,
      "Ġswe": 848,
      "Ġwent": 849,
      "Ġhas": 850,
      "Ġheld": 851,
      "Ġmed": 852,
      "Ġmind": 853,
      "Ġtoget": 854,
      "ering": 855,
      "Ġcan": 856,
      "Ġcrow": 857,
      "Ġpass": 858,
      "Ġdr": 859,
      "Ġlet": 860,
      "Ġthr": 861,
      "Ġima": 862,
      "Ġwhich": 863,
      "ross": 864,
      "Ġhapp": 865,
      "Ġdoes": 866,
      "Ġankle": 867,
      "tered": 868,
      "ention": 869,
      "Ġsaw": 870,
      "Ġchan": 871,
      "Ġgetting": 872,
      "Ġalway": 873,
      "used": 874,
      "Ġturn": 875,
      "Ġbrother": 876,
      "Ġtell": 877,
      "Ġeveryone": 878,
      "Ġcomp": 879,
      "Ġgrinned": 880,
      "Ġbreath": 881,
      "Ġfingers": 882,
      "Ġbaptism": 883,
      "Ġhurt": 884,
      "Ġglanced": 885,
      "Ġschool": 886,
      "Ġtogether": 887,
      "Ġcrowd": 888,
      "Ġalways": 889,
      "ace": 890,
      "act": 891,
      "cau": 892,
      "ft": 893,
      "hn": 894,
      "ild": 895,
      "just": 896,
      "mp": 897,
      "my": 898,
      "ment": 899,
      "mason": 900,
      "ud": 901,
      "Ġtal": 902,
      "Ġam": 903,
      "Ġap": 904,
      "ined": 905,
      "instead": 906,
      "aned": 907,
      "ree": 908,
      "Ġbot": 909,
      "Ġbest": 910,
      "ings": 911,
      "Ġcat": 912,
      "Ġcour": 913,
      "esid": 914,
      "Ġpr": 915,
      "Ġple": 916,
      "Ġpapa": 917,
      "Ġdis": 918,
      "Ġdark": 919,
      "Ġgi": 920,
      "Ġgre": 921,
      "Ġlot": 922,
      "llow": 923,
      "Ġel": 924,
      "Ġever": 925,
      "Ġinter": 926,
      "rod": 927,
      "Ġste": 928,
      "Ġstr": 929,
      "Ġstand": 930,
      "Ġstared": 931,
      "Ġforward": 932,
      "Ġlife": 933,
      "cture": 934,
      "ute": 935,
      "Ġsame": 936,
      "Ġfew": 937,
      "Ġfelt": 938,
      "Ġkne": 939,
      "Ġhands": 940,
      "Ġdeath": 941,
      "Ġolder": 942,
      "Ġlaugh": 943,
      "ract": 944,
      "Ġfollow": 945,
      "Ġeverything": 946,
      "Ġmost": 947,
      "Ġposs": 948,
      "Ġresp": 949,
      "Ġagainst": 950,
      "Ġpicture": 951,
      "Ġcalled": 952,
      "Ġsweet": 953,
      "Ġthrough": 954,
      "Ġimagin": 955,
      "cause": 956,
      "Ġcourse": 957,
      "esides": 958,
      "ek": 959,
      "gn": 960,
      "ix": 961,
      "ily": 962,
      "ling": 963,
      "mb": 964,
      "mo": 965,
      "no": 966,
      "of": 967,
      "oice": 968,
      "pit": 969,
      "sit": 970,
      "sid": 971,
      "spit": 972,
      "uct": 973,
      "zing": 974,
      "Ġtried": 975,
      "Ġtable": 976,
      "Ġac": 977,
      "ine": 978,
      "inu": 979,
      "inking": 980,
      "Ġsor": 981,
      "Ġside": 982,
      "Ġhu": 983,
      "Ġhard": 984,
      "aning": 985,
      "ouse": 986,
      "Ġhere": 987,
      "Ġhear": 988,
      "ream": 989,
      "Ġmaking": 990,
      "Ġbir": 991,
      "Ġfun": 992,
      "ered": 993,
      "Ġpri": 994,
      "Ġpress": 995,
      "Ġdri": 996,
      "Ġherself": 997,
      "Ġend": 998,
      "Ġeach": 999,
      "orn": 1000,
      "Ġbecause": 1001,
      "Ġmeet": 1002,
      "Ġwhile": 1003,
      "Ġask": 1004,
      "Ġsto": 1005,
      "ured": 1006,
      "urch": 1007,
      "Ġlips": 1008,
      "irty": 1009,
      "antly": 1010,
      "Ġkiss": 1011,
      "Ġshru": 1012,
      "Ġnothing": 1013,
      "Ġchurch": 1014,
      "Ġgrad": 1015,
      "Ġfact": 1016,
      "Ġhope": 1017,
      "Ġhospit": 1018,
      "Ġloved": 1019,
      "Ġcheek": 1020,
      "iling": 1021,
      "Ġanything": 1022,
      "Ġcont": 1023,
      "Ġconsid": 1024,
      "Ġquick": 1025,
      "Ġbrows": 1026,
      "Ġboy": 1027,
      "Ġfoc": 1028,
      "Ġguess": 1029,
      "Ġadm": 1030,
      "Ġsaying": 1031,
      "Ġsurprise": 1032,
      "Ġsurprised": 1033,
      "iously": 1034,
      "Ġparty": 1035,
      "Ġjohn": 1036,
      "while": 1037,
      "Ġplaying": 1038,
      "ship": 1039,
      "Ġwalked": 1040,
      "Ġbroke": 1041,
      "Ġlooked": 1042,
      "Ġyounger": 1043,
      "Ġfriends": 1044,
      "avis": 1045,
      "Ġmedical": 1046,
      "Ġpassion": 1047,
      "Ġbrothers": 1048,
      "Ġstepped": 1049,
      "Ġknew": 1050,
      "Ġpossess": 1051,
      "Ġpictures": 1052,
      "Ġsorry": 1053,
      "Ġshrug": 1054,
      "Ġhospital": 1055,
      "air": 1056,
      "ached": 1057,
      "but": 1058,
      "cy": 1059,
      "cle": 1060,
      "cess": 1061,
      "ds": 1062,
      "dy": 1063,
      "day": 1064,
      "full": 1065,
      "ied": 1066,
      "igh": 1067,
      "mm": 1068,
      "ning": 1069,
      "sing": 1070,
      "ten": 1071,
      "tain": 1072,
      "uck": 1073,
      "ually": 1074,
      "uss": 1075,
      "unt": 1076,
      "ze": 1077,
      "Ġke": 1078,
      "Ġide": 1079,
      "hes": 1080,
      "Ġtab": 1081,
      "Ġtaking": 1082,
      "Ġact": 1083,
      "Ġsma": 1084,
      "Ġwid": 1085,
      "Ġwond": 1086,
      "ren": 1087,
      "ret": 1088,
      "rew": 1089,
      "Ġmar": 1090,
      "Ġop": 1091,
      "Ġnur": 1092,
      "ities": 1093,
      "ertain": 1094,
      "ater": 1095,
      "atter": 1096,
      "Ġcau": 1097,
      "Ġcross": 1098,
      "Ġcertain": 1099,
      "Ġper": 1100,
      "Ġpull": 1101,
      "Ġdavis": 1102,
      "Ġlast": 1103,
      "Ġthough": 1104,
      "lly": 1105,
      "lled": 1106,
      "Ġear": 1107,
      "orted": 1108,
      "Ġbeh": 1109,
      "ence": 1110,
      "otion": 1111,
      "Ġrest": 1112,
      "Ġreason": 1113,
      "Ġreli": 1114,
      "Ġund": 1115,
      "Ġunt": 1116,
      "cking": 1117,
      "rick": 1118,
      "Ġjer": 1119,
      "Ġjade": 1120,
      "ands": 1121,
      "Ġkid": 1122,
      "app": 1123,
      "Ġwants": 1124,
      "Ġnotic": 1125,
      "Ġchild": 1126,
      "Ġseemed": 1127,
      "Ġmany": 1128,
      "Ġfind": 1129,
      "Ġfinally": 1130,
      "Ġhome": 1131,
      "ively": 1132,
      "Ġalong": 1133,
      "they": 1134,
      "Ġplan": 1135,
      "Ġworld": 1136,
      "rup": 1137,
      "Ġwill": 1138,
      "Ġleaned": 1139,
      "Ġlooks": 1140,
      "Ġblue": 1141,
      "Ġbody": 1142,
      "Ġflas": 1143,
      "ationship": 1144,
      "Ġclo": 1145,
      "Ġbetter": 1146,
      "come": 1147,
      "Ġuncle": 1148,
      "ginally": 1149,
      "Ġyeah": 1150,
      "Ġyears": 1151,
      "Ġrelationship": 1152,
      "Ġinterested": 1153,
      "Ġvoice": 1154,
      "Ġwoman": 1155,
      "Ġthoughts": 1156,
      "Ġfinished": 1157,
      "Ġhappened": 1158,
      "Ġelb": 1159,
      "Ġrespon": 1160,
      "noah": 1161,
      "Ġbirth": 1162,
      "Ġpriest": 1163,
      "Ġadmit": 1164,
      "fully": 1165,
      "Ġidea": 1166,
      "Ġtables": 1167,
      "Ġcertainly": 1168,
      "Ġuntil": 1169,
      "ald": 1170,
      "aut": 1171,
      "by": 1172,
      "ever": 1173,
      "ect": 1174,
      "ff": 1175,
      "ga": 1176,
      "ging": 1177,
      "his": 1178,
      "ig": 1179,
      "less": 1180,
      "mon": 1181,
      "mured": 1182,
      "now": 1183,
      "pass": 1184,
      "parents": 1185,
      "te": 1186,
      "up": 1187,
      "wood": 1188,
      "ybe": 1189,
      "head": 1190,
      "Ġtru": 1191,
      "Ġaf": 1192,
      "Ġaunt": 1193,
      "Ġser": 1194,
      "Ġsat": 1195,
      "Ġsle": 1196,
      "Ġset": 1197,
      "Ġwr": 1198,
      "Ġhon": 1199,
      "Ġhour": 1200,
      "Ġhouse": 1201,
      "Ġhell": 1202,
      "ready": 1203,
      "Ġmon": 1204,
      "Ġmay": 1205,
      "Ġmur": 1206,
      "Ġmore": 1207,
      "Ġmention": 1208,
      "Ġbu": 1209,
      "Ġbed": 1210,
      "Ġbesides": 1211,
      "Ġoh": 1212,
      "Ġori": 1213,
      "Ġfr": 1214,
      "Ġfre": 1215,
      "Ġnight": 1216,
      "Ġnice": 1217,
      "Ġtold": 1218,
      "ited": 1219,
      "ither": 1220,
      "Ġcr": 1221,
      "Ġcou": 1222,
      "Ġcar": 1223,
      "Ġcle": 1224,
      "Ġcous": 1225,
      "ise": 1226,
      "ister": 1227,
      "espe": 1228,
      "nding": 1229,
      "Ġpu": 1230,
      "Ġput": 1231,
      "Ġpain": 1232,
      "Ġpity": 1233,
      "Ġdating": 1234,
      "Ġgri": 1235,
      "Ġgive": 1236,
      "once": 1237,
      "ided": 1238,
      "Ġthirty": 1239,
      "Ġthrew": 1240,
      "Ġimp": 1241,
      "Ġbeer": 1242,
      "Ġbegan": 1243,
      "ening": 1244,
      "ense": 1245,
      "arily": 1246,
      "owed": 1247,
      "Ġreal": 1248,
      "Ġreached": 1249,
      "maybe": 1250,
      "Ġum": 1251,
      "Ġur": 1252,
      "vers": 1253,
      "veral": 1254,
      "Ġonce": 1255,
      "rop": 1256,
      "uring": 1257,
      "shed": 1258,
      "ions": 1259,
      "Ġwearing": 1260,
      "Ġsex": 1261,
      "uth": 1262,
      "enty": 1263,
      "Ġkind": 1264,
      "Ġshot": 1265,
      "Ġshort": 1266,
      "Ġsupp": 1267,
      "Ġsucked": 1268,
      "Ġintrod": 1269,
      "ledged": 1270,
      "that": 1271,
      "Ġabs": 1272,
      "Ġtie": 1273,
      "pear": 1274,
      "Ġfell": 1275,
      "ically": 1276,
      "Ġbypass": 1277,
      "Ġchin": 1278,
      "ably": 1279,
      "Ġgrand": 1280,
      "Ġgrady": 1281,
      "Ġrun": 1282,
      "Ġeye": 1283,
      "Ġeyed": 1284,
      "Ġtwenty": 1285,
      "Ġage": 1286,
      "Ġagree": 1287,
      "Ġalso": 1288,
      "Ġalready": 1289,
      "Ġdec": 1290,
      "Ġplace": 1291,
      "Ġexc": 1292,
      "Ġwords": 1293,
      "Ġgaze": 1294,
      "ult": 1295,
      "Ġleft": 1296,
      "Ġblond": 1297,
      "Ġbolly": 1298,
      "Ġneeds": 1299,
      "Ġspent": 1300,
      "Ġwaved": 1301,
      "Ġjoin": 1302,
      "Ġsighed": 1303,
      "Ġcome": 1304,
      "Ġcocked": 1305,
      "Ġdiap": 1306,
      "Ġenough": 1307,
      "Ġinteresting": 1308,
      "cially": 1309,
      "Ġwomen": 1310,
      "Ġshoulder": 1311,
      "ggled": 1312,
      "ized": 1313,
      "Ġtruth": 1314,
      "Ġsnorted": 1315,
      "Ġchances": 1316,
      "Ġtalk": 1317,
      "Ġbott": 1318,
      "Ġgiving": 1319,
      "Ġgreat": 1320,
      "Ġinterrup": 1321,
      "Ġstrands": 1322,
      "Ġlaughing": 1323,
      "most": 1324,
      "Ġdrive": 1325,
      "Ġstopped": 1326,
      "Ġcontinu": 1327,
      "Ġconsidering": 1328,
      "Ġquickly": 1329,
      "Ġpossessed": 1330,
      "Ġshrugged": 1331,
      "uckled": 1332,
      "Ġkeep": 1333,
      "Ġnursing": 1334,
      "Ġpulled": 1335,
      "Ġbehind": 1336,
      "Ġrelie": 1337,
      "Ġunder": 1338,
      "Ġjerked": 1339,
      "Ġmurmured": 1340,
      "Ġoriginally": 1341,
      "Ġcousin": 1342,
      "especially": 1343,
      "Ġbollywood": 1344,
      "ag": 1345,
      "aged": 1346,
      "bl": 1347,
      "bv": 1348,
      "bed": 1349,
      "bur": 1350,
      "besides": 1351,
      "bably": 1352,
      "ex": 1353,
      "ez": 1354,
      "even": 1355,
      "fin": 1356,
      "for": 1357,
      "fess": 1358,
      "fined": 1359,
      "gs": 1360,
      "gie": 1361,
      "hood": 1362,
      "iv": 1363,
      "iled": 1364,
      "jo": 1365,
      "ken": 1366,
      "ls": 1367,
      "man": 1368,
      "mand": 1369,
      "ne": 1370,
      "ock": 1371,
      "pt": 1372,
      "room": 1373,
      "sw": 1374,
      "sure": 1375,
      "spect": 1376,
      "sib": 1377,
      "ti": 1378,
      "tur": 1379,
      "ual": 1380,
      "uation": 1381,
      "vin": 1382,
      "vous": 1383,
      "wel": 1384,
      "where": 1385,
      "xt": 1386,
      "ys": 1387,
      "ying": 1388,
      "ype": 1389,
      "zger": 1390,
      "Ġ!": 1391,
      "Ġtin": 1392,
      "Ġtype": 1393,
      "Ġack": 1394,
      "inked": 1395,
      "iness": 1396,
      "Ġsl": 1397,
      "Ġsent": 1398,
      "Ġsound": 1399,
      "Ġsitt": 1400,
      "Ġsister": 1401,
      "Ġwat": 1402,
      "Ġwore": 1403,
      "Ġwinked": 1404,
      "edy": 1405,
      "Ġhi": 1406,
      "Ġhmm": 1407,
      "ank": 1408,
      "anger": 1409,
      "Ġmin": 1410,
      "Ġmout": 1411,
      "Ġmut": 1412,
      "Ġmust": 1413,
      "Ġmused": 1414,
      "Ġmotion": 1415,
      "Ġbit": 1416,
      "Ġbase": 1417,
      "Ġborn": 1418,
      "Ġobv": 1419,
      "Ġfore": 1420,
      "Ġfound": 1421,
      "Ġfour": 1422,
      "Ġfist": 1423,
      "Ġfix": 1424,
      "Ġfuss": 1425,
      "Ġna": 1426,
      "Ġner": 1427,
      "Ġnie": 1428,
      "Ġtoday": 1429,
      "itzger": 1430,
      "era": 1431,
      "Ġcare": 1432,
      "Ġpre": 1433,
      "Ġpop": 1434,
      "Ġpool": 1435,
      "Ġpract": 1436,
      "Ġdes": 1437,
      "Ġdate": 1438,
      "Ġdra": 1439,
      "Ġdif": 1440,
      "Ġlater": 1441,
      "ont": 1442,
      "Ġhers": 1443,
      "Ġyet": 1444,
      "Ġthing": 1445,
      "Ġthose": 1446,
      "Ġeat": 1447,
      "Ġinapp": 1448,
      "ory": 1449,
      "Ġbeau": 1450,
      "Ġbent": 1451,
      "Ġbecome": 1452,
      "Ġbeaut": 1453,
      "Ġoften": 1454,
      "owing": 1455,
      "leaning": 1456,
      "lete": 1457,
      "oth": 1458,
      "otest": 1459,
      "Ġreg": 1460,
      "Ġrem": 1461,
      "maced": 1462,
      "Ġuse": 1463,
      "imes": 1464,
      "Ġwhite": 1465,
      "Ġnod": 1466,
      "Ġnois": 1467,
      "Ġasking": 1468,
      "rog": 1469,
      "Ġforget": 1470,
      "Ġhalf": 1471,
      "riate": 1472,
      "ceive": 1473,
      "Ġlicked": 1474,
      "ired": 1475,
      "Ġjud": 1476,
      "seven": 1477,
      "andon": 1478,
      "alth": 1479,
      "Ġansw": 1480,
      "Ġseat": 1481,
      "Ġseco": 1482,
      "Ġseveral": 1483,
      "Ġseedy": 1484,
      "Ġkit": 1485,
      "Ġshock": 1486,
      "usting": 1487,
      "Ġsuit": 1488,
      "ths": 1489,
      "Ġabandon": 1490,
      "Ġnew": 1491,
      "Ġneck": 1492,
      "Ġneither": 1493,
      "Ġnext": 1494,
      "peared": 1495,
      "Ġoutside": 1496,
      "ices": 1497,
      "Ġwhatever": 1498,
      "Ġchar": 1499,
      "Ġchair": 1500,
      "Ġchuckled": 1501,
      "Ġalluring": 1502,
      "Ġra": 1503,
      "Ġran": 1504,
      "Ġseeing": 1505,
      "Ġmanaged": 1506,
      "Ġhanded": 1507,
      "inkled": 1508,
      "Ġsomething": 1509,
      "fect": 1510,
      "rying": 1511,
      "Ġbutt": 1512,
      "Ġhoped": 1513,
      "Ġalmost": 1514,
      "Ġdev": 1515,
      "Ġgodparents": 1516,
      "Ġyourself": 1517,
      "there": 1518,
      "Ġexp": 1519,
      "Ġexper": 1520,
      "Ġexact": 1521,
      "wear": 1522,
      "Ġworking": 1523,
      "ately": 1524,
      "aming": 1525,
      "Ġconf": 1526,
      "Ġconvers": 1527,
      "Ġgavin": 1528,
      "Ġlead": 1529,
      "without": 1530,
      "Ġfeels": 1531,
      "raid": 1532,
      "Ġblack": 1533,
      "Ġfling": 1534,
      "Ġclot": 1535,
      "Ġclose": 1536,
      "Ġteas": 1537,
      "Ġothers": 1538,
      "Ġfoot": 1539,
      "Ġneeded": 1540,
      "Ġmov": 1541,
      "Ġposit": 1542,
      "Ġglare": 1543,
      "Ġguy": 1544,
      "Ġusual": 1545,
      "before": 1546,
      "Ġprobably": 1547,
      "Ġprofess": 1548,
      "Ġprospect": 1549,
      "Ġstarting": 1550,
      "rapped": 1551,
      "Ġador": 1552,
      "Ġadult": 1553,
      "Ġspo": 1554,
      "Ġmomentarily": 1555,
      "Ġemp": 1556,
      "olute": 1557,
      "Ġsigh": 1558,
      "Ġsign": 1559,
      "Ġfinger": 1560,
      "Ġreluct": 1561,
      "Ġbroken": 1562,
      "Ġattention": 1563,
      "Ġquestioned": 1564,
      "Ġyoung": 1565,
      "pected": 1566,
      "Ġrolled": 1567,
      "Ġspend": 1568,
      "Ġdrink": 1569,
      "Ġcomplete": 1570,
      "Ġapol": 1571,
      "Ġboth": 1572,
      "Ġcatch": 1573,
      "Ġprotest": 1574,
      "Ġplease": 1575,
      "Ġdisap": 1576,
      "Ġinterrog": 1577,
      "rode": 1578,
      "Ġstanding": 1579,
      "Ġfollowed": 1580,
      "Ġimagine": 1581,
      "Ġimagined": 1582,
      "mbled": 1583,
      "Ġhuff": 1584,
      "Ġpressed": 1585,
      "Ġended": 1586,
      "Ġgrades": 1587,
      "Ġfocus": 1588,
      "Ġfocused": 1589,
      "Ġactually": 1590,
      "Ġwidened": 1591,
      "Ġwonder": 1592,
      "Ġmarried": 1593,
      "Ġopen": 1594,
      "Ġcaused": 1595,
      "Ġcrossed": 1596,
      "Ġkids": 1597,
      "Ġnoticed": 1598,
      "Ġelbows": 1599,
      "Ġresponsib": 1600,
      "gazing": 1601,
      "nowledged": 1602,
      "Ġafraid": 1603,
      "Ġwrinkled": 1604,
      "Ġmonths": 1605,
      "Ġbedroom": 1606,
      "Ġfreak": 1607,
      "Ġgrimaced": 1608,
      "Ġurged": 1609,
      "ropriate": 1610,
      "Ġintrodu": 1611,
      "Ġabsolute": 1612,
      "Ġbypassed": 1613,
      "Ġblonde": 1614,
      "Ġbottle": 1615,
      "Ġinterrupted": 1616,
      "Ġcontinued": 1617,
      "Ġunderwear": 1618,
      "Ġcousins": 1619,
      "Ġtiny": 1620,
      "Ġacknowledged": 1621,
      "Ġsitting": 1622,
      "Ġmuttered": 1623,
      "Ġmotioned": 1624,
      "Ġobviously": 1625,
      "Ġnervous": 1626,
      "itzgerald": 1627,
      "Ġdraw": 1628,
      "Ġdiffe": 1629,
      "Ġinappropriate": 1630,
      "although": 1631,
      "Ġsecond": 1632,
      "Ġexperi": 1633,
      "Ġconversation": 1634,
      "Ġprofession": 1635,
      "Ġcompletely": 1636,
      "Ġresponsibil": 1637,
      "Ġabsolutely": 1638,
      "**": 1639,
      "aw": 1640,
      "ame": 1641,
      "aving": 1642,
      "aced": 1643,
      "age": 1644,
      "acy": 1645,
      "bo": 1646,
      "bs": 1647,
      "bor": 1648,
      "ble": 1649,
      "ball": 1650,
      "brow": 1651,
      "both": 1652,
      "cd": 1653,
      "cl": 1654,
      "cr": 1655,
      "cin": 1656,
      "cing": 1657,
      "cer": 1658,
      "con": 1659,
      "chen": 1660,
      "cret": 1661,
      "ding": 1662,
      "dam": 1663,
      "eor": 1664,
      "eve": 1665,
      "eal": 1666,
      "every": 1667,
      "fet": 1668,
      "five": 1669,
      "four": 1670,
      "gi": 1671,
      "gu": 1672,
      "give": 1673,
      "gue": 1674,
      "gment": 1675,
      "how": 1676,
      "ior": 1677,
      "iver": 1678,
      "icked": 1679,
      "ives": 1680,
      "iately": 1681,
      "ject": 1682,
      "ler": 1683,
      "low": 1684,
      "lted": 1685,
      "lves": 1686,
      "lite": 1687,
      "line": 1688,
      "mer": 1689,
      "mes": 1690,
      "more": 1691,
      "mist": 1692,
      "mmed": 1693,
      "not": 1694,
      "ness": 1695,
      "name": 1696,
      "oid": 1697,
      "oss": 1698,
      "ocked": 1699,
      "oget": 1700,
      "osed": 1701,
      "ple": 1702,
      "su": 1703,
      "six": 1704,
      "then": 1705,
      "times": 1706,
      "ub": 1707,
      "um": 1708,
      "vor": 1709,
      "void": 1710,
      "wn": 1711,
      "yn": 1712,
      "zz": 1713,
      "Ġer": 1714,
      "Ġour": 1715,
      "Ġespecially": 1716,
      "Ġta": 1717,
      "Ġtu": 1718,
      "Ġtre": 1719,
      "Ġtrick": 1720,
      "Ġtired": 1721,
      "Ġaw": 1722,
      "Ġais": 1723,
      "Ġama": 1724,
      "Ġapp": 1725,
      "Ġadded": 1726,
      "Ġahead": 1727,
      "Ġavoid": 1728,
      "inted": 1729,
      "inical": 1730,
      "Ġsm": 1731,
      "Ġsw": 1732,
      "Ġsou": 1733,
      "Ġsing": 1734,
      "Ġsit": 1735,
      "Ġsen": 1736,
      "Ġsli": 1737,
      "Ġsight": 1738,
      "Ġsqu": 1739,
      "Ġwar": 1740,
      "Ġwink": 1741,
      "Ġwide": 1742,
      "Ġwrapped": 1743,
      "eding": 1744,
      "Ġhit": 1745,
      "Ġhar": 1746,
      "Ġhone": 1747,
      "Ġhus": 1748,
      "Ġhip": 1749,
      "ance": 1750,
      "oun": 1751,
      "oup": 1752,
      "ouble": 1753,
      "Ġheight": 1754,
      "Ġheav": 1755,
      "Ġhesit": 1756,
      "reed": 1757,
      "read": 1758,
      "rely": 1759,
      "rect": 1760,
      "Ġma": 1761,
      "Ġmr": 1762,
      "Ġmen": 1763,
      "Ġmass": 1764,
      "Ġmiss": 1765,
      "Ġmark": 1766,
      "Ġmatter": 1767,
      "Ġmcd": 1768,
      "Ġbes": 1769,
      "Ġbom": 1770,
      "Ġbound": 1771,
      "Ġbus": 1772,
      "Ġbice": 1773,
      "Ġbrick": 1774,
      "inging": 1775,
      "ingly": 1776,
      "Ġown": 1777,
      "Ġfan": 1778,
      "Ġfas": 1779,
      "Ġfle": 1780,
      "Ġfut": 1781,
      "Ġfab": 1782,
      "Ġfast": 1783,
      "Ġfitzgerald": 1784,
      "Ġnor": 1785,
      "Ġnick": 1786,
      "Ġton": 1787,
      "Ġtowel": 1788,
      "iting": 1789,
      "itched": 1790,
      "erri": 1791,
      "asy": 1792,
      "ases": 1793,
      "ator": 1794,
      "atives": 1795,
      "Ġce": 1796,
      "Ġcoo": 1797,
      "Ġcut": 1798,
      "Ġcate": 1799,
      "Ġcam": 1800,
      "Ġcared": 1801,
      "Ġcars": 1802,
      "Ġcapa": 1803,
      "Ġcorn": 1804,
      "Ġcases": 1805,
      "ish": 1806,
      "ised": 1807,
      "isma": 1808,
      "ished": 1809,
      "isper": 1810,
      "Ġpat": 1811,
      "Ġpur": 1812,
      "Ġpant": 1813,
      "Ġpath": 1814,
      "Ġprom": 1815,
      "Ġpers": 1816,
      "Ġpast": 1817,
      "Ġpiss": 1818,
      "Ġpret": 1819,
      "Ġden": 1820,
      "Ġdel": 1821,
      "Ġdated": 1822,
      "Ġdist": 1823,
      "Ġdism": 1824,
      "Ġdream": 1825,
      "Ġditched": 1826,
      "Ġgen": 1827,
      "Ġgar": 1828,
      "Ġgir": 1829,
      "Ġgent": 1830,
      "Ġgeor": 1831,
      "Ġlit": 1832,
      "Ġlar": 1833,
      "Ġlap": 1834,
      "Ġless": 1835,
      "Ġlace": 1836,
      "Ġlacy": 1837,
      "Ġyard": 1838,
      "idence": 1839,
      "Ġthu": 1840,
      "Ġthro": 1841,
      "Ġthri": 1842,
      "Ġthick": 1843,
      "Ġthings": 1844,
      "Ġthinking": 1845,
      "Ġthigh": 1846,
      "lling": 1847,
      "llway": 1848,
      "Ġeasy": 1849,
      "Ġind": 1850,
      "Ġins": 1851,
      "Ġinst": 1852,
      "Ġinstead": 1853,
      "Ġinside": 1854,
      "Ġinfor": 1855,
      "ading": 1856,
      "ori": 1857,
      "Ġimmed": 1858,
      "Ġbeck": 1859,
      "Ġbending": 1860,
      "Ġbelow": 1861,
      "ency": 1862,
      "aran": 1863,
      "aris": 1864,
      "owers": 1865,
      "Ġmeant": 1866,
      "leman": 1867,
      "otten": 1868,
      "lding": 1869,
      "star": 1870,
      "Ġreco": 1871,
      "Ġreact": 1872,
      "Ġretur": 1873,
      "ithouse": 1874,
      "Ġwhisper": 1875,
      "Ġnose": 1876,
      "Ġstro": 1877,
      "Ġstate": 1878,
      "Ġstru": 1879,
      "Ġstop": 1880,
      "Ġstick": 1881,
      "Ġstory": 1882,
      "Ġstrode": 1883,
      "Ġhallway": 1884,
      "Ġdoing": 1885,
      "rived": 1886,
      "ceed": 1887,
      "chan": 1888,
      "ching": 1889,
      "chap": 1890,
      "Ġlip": 1891,
      "Ġlied": 1892,
      "Ġliked": 1893,
      "Ġliking": 1894,
      "Ġlives": 1895,
      "irt": 1896,
      "Ġjet": 1897,
      "selves": 1898,
      "Ġanx": 1899,
      "Ġanother": 1900,
      "Ġangie": 1901,
      "Ġanti": 1902,
      "Ġsean": 1903,
      "Ġseen": 1904,
      "Ġsear": 1905,
      "Ġself": 1906,
      "Ġsecret": 1907,
      "Ġsemes": 1908,
      "tering": 1909,
      "terior": 1910,
      "Ġsoft": 1911,
      "ently": 1912,
      "Ġkicked": 1913,
      "Ġshaking": 1914,
      "Ġshif": 1915,
      "Ġshithouse": 1916,
      "Ġshirt": 1917,
      "Ġsun": 1918,
      "Ġsugg": 1919,
      "Ġsubur": 1920,
      "Ġintense": 1921,
      "those": 1922,
      "thank": 1923,
      "Ġable": 1924,
      "Ġsafe": 1925,
      "Ġtight": 1926,
      "Ġtilted": 1927,
      "Ġoutf": 1928,
      "Ġfeeding": 1929,
      "icine": 1930,
      "Ġarrived": 1931,
      "ests": 1932,
      "abbed": 1933,
      "Ġgroup": 1934,
      "Ġgrabbed": 1935,
      "Ġrub": 1936,
      "Ġrotten": 1937,
      "Ġseem": 1938,
      "Ġfair": 1939,
      "Ġfailed": 1940,
      "els": 1941,
      "eling": 1942,
      "ounds": 1943,
      "lier": 1944,
      "Ġheaded": 1945,
      "itted": 1946,
      "Ġsometimes": 1947,
      "feat": 1948,
      "Ġholding": 1949,
      "Ġagreed": 1950,
      "Ġdemand": 1951,
      "Ġdefeat": 1952,
      "Ġlost": 1953,
      "Ġloving": 1954,
      "arely": 1955,
      "ardless": 1956,
      "usic": 1957,
      "Ġoldest": 1958,
      "Ġthemselves": 1959,
      "athy": 1960,
      "Ġcheck": 1961,
      "Ġchemist": 1962,
      "Ġexam": 1963,
      "ilt": 1964,
      "Ġwork": 1965,
      "Ġworry": 1966,
      "Ġanyone": 1967,
      "Ġanywhere": 1968,
      "Ġwiped": 1969,
      "assion": 1970,
      "Ġconcer": 1971,
      "Ġgame": 1972,
      "ulous": 1973,
      "Ġmumbled": 1974,
      "Ġorgan": 1975,
      "adeen": 1976,
      "dding": 1977,
      "Ġbrought": 1978,
      "Ġlegs": 1979,
      "Ġfeeling": 1980,
      "Ġfeelings": 1981,
      "Ġbless": 1982,
      "Ġflatter": 1983,
      "ations": 1984,
      "Ġclass": 1985,
      "Ġclinical": 1986,
      "Ġtemp": 1987,
      "Ġcommon": 1988,
      "Ġpolite": 1989,
      "Ġpointed": 1990,
      "Ġguests": 1991,
      "Ġrespect": 1992,
      "Ġresig": 1993,
      "cocking": 1994,
      "iful": 1995,
      "Ġprocess": 1996,
      "Ġproceed": 1997,
      "Ġunex": 1998,
      "Ġspark": 1999,
      "Ġwave": 2000,
      "Ġphone": 2001,
      "Ġphys": 2002,
      "restling": 2003,
      "Ġbreak": 2004,
      "Ġbreez": 2005,
      "astated": 2006,
      "issively": 2007,
      "Ġpartied": 2008,
      "Ġemb": 2009,
      "Ġemer": 2010,
      "Ġemotion": 2011,
      "what": 2012,
      "Ġplayfully": 2013,
      "Ġscow": 2014,
      "Ġscream": 2015,
      "Ġwalking": 2016,
      "Ġbaptisma": 2017,
      "Ġcover": 2018,
      "Ġpicked": 2019,
      "Ġdied": 2020,
      "Ġdirect": 2021,
      "Ġdays": 2022,
      "Ġloose": 2023,
      "Ġlooking": 2024,
      "Ġenjo": 2025,
      "Ġattack": 2026,
      "Ġattract": 2027,
      "Ġwellstar": 2028,
      "Ġquestions": 2029,
      "cial": 2030,
      "wardly": 2031,
      "Ġfinish": 2032,
      "Ġfinishing": 2033,
      "gging": 2034,
      "ible": 2035,
      "ize": 2036,
      "Ġtrouble": 2037,
      "Ġspeak": 2038,
      "Ġspecial": 2039,
      "Ġmedicine": 2040,
      "Ġchanging": 2041,
      "Ġturning": 2042,
      "Ġcompassion": 2043,
      "acter": 2044,
      "uding": 2045,
      "Ġtalking": 2046,
      "Ġappear": 2047,
      "Ġappeared": 2048,
      "Ġpleas": 2049,
      "Ġdisc": 2050,
      "Ġdisg": 2051,
      "Ġgiggled": 2052,
      "Ġelse": 2053,
      "Ġdeaths": 2054,
      "Ġrespond": 2055,
      "Ġsweetie": 2056,
      "gnized": 2057,
      "Ġacross": 2058,
      "reamy": 2059,
      "Ġpressure": 2060,
      "Ġmeeting": 2061,
      "Ġgraduation": 2062,
      "Ġcheeks": 2063,
      "ussing": 2064,
      "Ġsmall": 2065,
      "Ġsmacked": 2066,
      "rence": 2067,
      "Ġopened": 2068,
      "Ġperceive": 2069,
      "Ġearlier": 2070,
      "Ġrestless": 2071,
      "apping": 2072,
      "Ġnoticing": 2073,
      "Ġchildren": 2074,
      "Ġalongside": 2075,
      "Ġplanned": 2076,
      "Ġflashes": 2077,
      "Ġclos": 2078,
      "Ġclosed": 2079,
      "Ġresponse": 2080,
      "Ġbirthday": 2081,
      "Ġtrue": 2082,
      "Ġseriously": 2083,
      "Ġsleep": 2084,
      "Ġhonor": 2085,
      "Ġhonest": 2086,
      "Ġhours": 2087,
      "Ġmaybe": 2088,
      "Ġbuilt": 2089,
      "Ġfront": 2090,
      "Ġcouch": 2091,
      "Ġpuzz": 2092,
      "Ġimposs": 2093,
      "Ġsupport": 2094,
      "Ġrunning": 2095,
      "Ġeyebrow": 2096,
      "Ġdecor": 2097,
      "Ġdecided": 2098,
      "Ġexcited": 2099,
      "Ġdiaper": 2100,
      "Ġdriveway": 2101,
      "Ġrelief": 2102,
      "Ġrelieved": 2103,
      "black": 2104,
      "finally": 2105,
      "neath": 2106,
      "Ġslid": 2107,
      "Ġminute": 2108,
      "Ġmouth": 2109,
      "Ġforehead": 2110,
      "Ġfists": 2111,
      "Ġfussy": 2112,
      "Ġniece": 2113,
      "Ġprec": 2114,
      "Ġpractically": 2115,
      "Ġbeautiful": 2116,
      "Ġregardless": 2117,
      "Ġremind": 2118,
      "Ġuseful": 2119,
      "Ġnoises": 2120,
      "Ġjudgment": 2121,
      "Ġkitchen": 2122,
      "Ġcharacter": 2123,
      "Ġbutton": 2124,
      "Ġexactly": 2125,
      "Ġclothes": 2126,
      "Ġteasing": 2127,
      "Ġfootball": 2128,
      "Ġmovie": 2129,
      "Ġposition": 2130,
      "Ġspoiling": 2131,
      "Ġempathy": 2132,
      "Ġreluctantly": 2133,
      "Ġdrinks": 2134,
      "Ġapologet": 2135,
      "Ġdisappear": 2136,
      "Ġinterrogator": 2137,
      "Ġhuffed": 2138,
      "Ġwonderful": 2139,
      "Ġintroduce": 2140,
      "Ġnervously": 2141,
      "Ġdrawer": 2142,
      "Ġexperience": 2143,
      "Ġresponsibilities": 2144,
      "board": 2145,
      "cinating": 2146,
      "damn": 2147,
      "everything": 2148,
      "gued": 2149,
      "Ġaisle": 2150,
      "Ġamazing": 2151,
      "Ġappre": 2152,
      "Ġsoul": 2153,
      "Ġsingle": 2154,
      "Ġslip": 2155,
      "Ġhoney": 2156,
      "Ġhusb": 2157,
      "Ġheavy": 2158,
      "Ġmassive": 2159,
      "Ġmcdreamy": 2160,
      "Ġbeside": 2161,
      "Ġbomb": 2162,
      "Ġbiceps": 2163,
      "Ġfascinating": 2164,
      "Ġflew": 2165,
      "Ġfuture": 2166,
      "Ġnickname": 2167,
      "Ġcooed": 2168,
      "Ġcateg": 2169,
      "Ġcamera": 2170,
      "Ġcapac": 2171,
      "Ġpretty": 2172,
      "Ġdenied": 2173,
      "Ġdistract": 2174,
      "Ġdismissively": 2175,
      "Ġgener": 2176,
      "Ġgirl": 2177,
      "Ġgentleman": 2178,
      "Ġlarge": 2179,
      "Ġyards": 2180,
      "Ġthroat": 2181,
      "Ġthrilled": 2182,
      "Ġimmediately": 2183,
      "Ġrecognized": 2184,
      "Ġreaction": 2185,
      "Ġreturned": 2186,
      "Ġstatement": 2187,
      "Ġstruck": 2188,
      "chapter": 2189,
      "Ġsemester": 2190,
      "Ġsuburbs": 2191,
      "Ġdemanded": 2192,
      "Ġchemistry": 2193,
      "Ġexamined": 2194,
      "Ġresigned": 2195,
      "Ġunexpected": 2196,
      "Ġphysical": 2197,
      "Ġbreezed": 2198,
      "Ġbaptismal": 2199,
      "Ġeyebrows": 2200
    },
    "merges": [
      "h e",
      "Ġ t",
      "Ġ a",
      "Ġ .",
      "i n",
      "Ġ s",
      "Ġ w",
      "e d",
      "Ġ '",
      "Ġ h",
      "Ġ ,",
      "a n",
      "o u",
      "Ġ he",
      "r e",
      "Ġ m",
      "Ġ b",
      "in g",
      "Ġ o",
      "Ġt he",
      "Ġ' '",
      "Ġ f",
      "Ġ n",
      "Ġt o",
      "i t",
      "e r",
      "a s",
      "a t",
      "Ġ c",
      "i s",
      "e s",
      "n d",
      "Ġ p",
      "Ġ d",
      "Ġ g",
      "Ġ l",
      "o n",
      "Ġhe r",
      "Ġ y",
      "Ġa nd",
      "i d",
      "Ġt h",
      "l l",
      "Ġ e",
      "Ġ in",
      "Ġy ou",
      "a d",
      "o r",
      "Ġ i",
      "Ġb e",
      "e n",
      "a r",
      "Ġo f",
      "Ġs he",
      "o w",
      "Ġm e",
      "l e",
      "Ġw as",
      "m e",
      "o t",
      "l d",
      "Ġh is",
      "s t",
      "g an",
      "Ġ re",
      "m a",
      "it h",
      "Ġ u",
      "v e",
      "Ġ ?",
      "he r",
      "' t",
      "v er",
      "Ġo n",
      "l y",
      "i m",
      "c k",
      "o o",
      "a y",
      "Ġw ith",
      "Ġh im",
      "Ġth at",
      "Ġw h",
      "Ġn o",
      "g h",
      "Ġa s",
      "Ġ it",
      "m ma",
      "id an",
      "r o",
      "Ġs t",
      "ou ld",
      "e t",
      "Ġf or",
      "es h",
      "u r",
      "Ġh ad",
      "Ġh a",
      "Ġd o",
      "Ġa t",
      "r i",
      "ou t",
      "k e",
      "Ġme gan",
      "c e",
      "c h",
      "s he",
      "Ġl i",
      "i r",
      "Ġa idan",
      "Ġ j",
      "a ll",
      "c t",
      "i on",
      "s e",
      "an d",
      "a l",
      "a h",
      "Ġw e",
      "Ġa n",
      "Ġs e",
      "t er",
      "an t",
      "Ġu p",
      "u t",
      "gh t",
      "Ġs o",
      "Ġe mma",
      "en t",
      "Ġ k",
      "Ġs h",
      "Ġp esh",
      "Ġg o",
      "u st",
      "Ġno ah",
      "k ed",
      "a p",
      "Ġs u",
      "all y",
      "o re",
      "Ġin t",
      "l ed",
      "he n",
      "o m",
      "t h",
      "Ġa b",
      "Ġn e",
      "m i",
      "Ġw ant",
      "Ġn ot",
      "me gan",
      "Ġc ould",
      "k ing",
      "Ġ is",
      "Ġs a",
      "as e",
      "ar t",
      "Ġha ve",
      "Ġt i",
      "ow n",
      "Ġli ke",
      "p e",
      "s s",
      "Ġ out",
      "he d",
      "Ġf e",
      "as on",
      "i c",
      "Ġa r",
      "es t",
      "Ġj ust",
      "Ġwh at",
      "Ġb y",
      "Ġc h",
      "Ġk n",
      "a b",
      "Ġa ll",
      "Ġm y",
      "Ġg r",
      "a u",
      "f ore",
      "Ġ r",
      "es s",
      "ot her",
      "Ġse e",
      "ase y",
      "a ck",
      "Ġm an",
      "Ġf a",
      "n ed",
      "Ġs mi",
      "Ġw ould",
      "ver y",
      "oo k",
      "Ġab out",
      "Ġti me",
      "Ġo ver",
      "Ġbe fore",
      "p p",
      "Ġh and",
      "Ġf in",
      "at her",
      "Ġd id",
      "Ġg et",
      "e l",
      "in k",
      "ou nd",
      "Ġe y",
      "e mma",
      "l i",
      "Ġhe ad",
      "Ġto o",
      "it t",
      "on e",
      "Ġso me",
      "f e",
      "n t",
      "r y",
      "Ġt w",
      "Ġm ason",
      "Ġb ut",
      "oo d",
      "i ght",
      "p esh",
      "Ġh o",
      "Ġint o",
      "Ġkn ow",
      "a in",
      "i ve",
      "Ġa g",
      "Ġa l",
      "Ġw hen",
      "Ġd e",
      "Ġl o",
      "Ġas ked",
      "Ġwe re",
      "Ġgo d",
      "a re",
      "q u",
      "Ġh ow",
      "ou s",
      "id e",
      "Ġyou r",
      "Ġbe en",
      "ar d",
      "Ġof f",
      "f ter",
      "t he",
      "u s",
      "Ġi f",
      "a ke",
      "l p",
      "w ay",
      "Ġa re",
      "Ġo ld",
      "Ġthe m",
      "at h",
      "Ġc he",
      "Ġp l",
      "Ġd own",
      "Ġl itt",
      "Ġe x",
      "Ġbe ing",
      "Ġre ally",
      "Ġwh o",
      "ro m",
      "Ġwant ed",
      "Ġlitt le",
      "i l",
      "v ing",
      "w e",
      "Ġt ur",
      "Ġw or",
      "Ġb ack",
      "Ġthe y",
      "at e",
      "Ġth an",
      "Ġan y",
      "Ġsa id",
      "Ġey es",
      "Ġtw o",
      "a m",
      "r u",
      "u re",
      "Ġw i",
      "Ġhe lp",
      "as s",
      "Ġc on",
      "Ġc asey",
      "Ġg a",
      "Ġth ink",
      "Ġon e",
      "u l",
      "Ġm u",
      "Ġo r",
      "ad e",
      "ad y",
      "ck ed",
      "c ed",
      "d d",
      "g ed",
      "o p",
      "v ed",
      "Ġ qu",
      "ou gh",
      "Ġb r",
      "Ġthe n",
      "Ġf rom",
      "Ġg ood",
      "Ġl e",
      "Ġl au",
      "Ġl ook",
      "p li",
      "t ed",
      "w ith",
      "in d",
      "Ġs on",
      "ou r",
      "re ss",
      "Ġn ow",
      "on g",
      "Ġre pli",
      "Ġha ir",
      "th ing",
      "Ġfe el",
      "Ġar m",
      "Ġsmi le",
      "Ġmu ch",
      "Ġrepli ed",
      "r a",
      "Ġ ri",
      "Ġb l",
      "Ġb o",
      "Ġf l",
      "er s",
      "at ion",
      "Ġc l",
      "Ġon ly",
      "Ġar ound",
      "a king",
      "g hed",
      "k ay",
      "t her",
      "v en",
      "w hen",
      "Ġt e",
      "Ġs ur",
      "Ġm om",
      "Ġo kay",
      "Ġo ther",
      "Ġthe re",
      "Ġf o",
      "Ġf ather",
      "Ġe very",
      "Ġbe t",
      "Ġne ed",
      "Ġri ght",
      "a idan",
      "Ġ very",
      "Ġm o",
      "Ġc om",
      "Ġp e",
      "Ġp o",
      "Ġg l",
      "Ġg u",
      "Ġy es",
      "ar ed",
      "Ġre s",
      "Ġu s",
      "Ġne ver",
      "Ġsmi led",
      "pp ed",
      "Ġarm s",
      ". .",
      "b e",
      "c o",
      "c asey",
      "g er",
      "g et",
      "i e",
      "i f",
      "i le",
      "i ck",
      "i ce",
      "l f",
      "t ing",
      "he re",
      "Ġ. ..",
      "Ġc a",
      "Ġp ro",
      "Ġth is",
      "Ġu n",
      "Ġst art",
      "Ġgo ing",
      "Ġsu re",
      "Ġgr in",
      "Ġag ain",
      "Ġtur ned",
      "a fter",
      "c hed",
      "f ather",
      "i ll",
      "p r",
      "r ap",
      "u n",
      "Ġa d",
      "Ġs p",
      "Ġs ay",
      "Ġw a",
      "Ġm other",
      "Ġm ight",
      "Ġm ake",
      "Ġthe ir",
      "Ġp h",
      "Ġsh ook",
      "Ġsu ch",
      "Ġfa ce",
      "nt s",
      "are nts",
      "dd ed",
      "op le",
      "Ġsur pr",
      "Ġmom ent",
      "Ġsurpr is",
      "e nd",
      "g in",
      "h ing",
      "i ous",
      "r ow",
      "u ll",
      "Ġt ry",
      "Ġw ay",
      "ou ght",
      "Ġhe art",
      "re st",
      "Ġb re",
      "as t",
      "at ed",
      "is s",
      "is t",
      "Ġp art",
      "Ġg own",
      "Ġl ong",
      "Ġy e",
      "Ġe m",
      "en ed",
      "oo l",
      "oo m",
      "ri ed",
      "Ġj o",
      "ct or",
      "ab le",
      "Ġlo ve",
      "Ġgod father",
      "Ġlau ghed",
      "Ġpe ople",
      "m ed",
      "m other",
      "o l",
      "o nd",
      "p s",
      "p ed",
      "p er",
      "u e",
      "w h",
      "Ġa fter",
      "in ce",
      "Ġs i",
      "Ġw here",
      "Ġf ing",
      "it y",
      "Ġg ot",
      "ar k",
      "Ġre l",
      "Ġre ady",
      "Ġwh y",
      "Ġno dded",
      "Ġdo ctor",
      "ap t",
      "Ġint e",
      "ic al",
      "est ion",
      "Ġfin e",
      "Ġpl ay",
      "Ġga ve",
      "Ġca me",
      "o g",
      "s h",
      "t y",
      "v es",
      "Ġa way",
      "Ġs c",
      "Ġs ince",
      "Ġw al",
      "Ġm ade",
      "Ġb ro",
      "Ġb ab",
      "Ġb apt",
      "Ġf ir",
      "at ing",
      "Ġc o",
      "is m",
      "Ġp i",
      "Ġd i",
      "Ġd ay",
      "Ġd ress",
      "Ġl oo",
      "Ġe n",
      "Ġe ven",
      "ar ing",
      "Ġme an",
      "st e",
      "Ġst ill",
      "Ġat t",
      "Ġwe ll",
      "mi ly",
      "Ġsome one",
      "Ġgod mother",
      "Ġche st",
      "Ġthan k",
      "Ġwi fe",
      "Ġqu estion",
      "Ġstart ed",
      "Ġinte rest",
      "Ġfir st",
      "a k",
      "c i",
      "i es",
      "k le",
      "l t",
      "o se",
      "s ed",
      "w ard",
      "y ou",
      "Ġ v",
      "Ġt ake",
      "Ġw om",
      "Ġh ur",
      "Ġf ri",
      "it e",
      "Ġc all",
      "Ġp arents",
      "Ġth ought",
      "Ġyou n",
      "or t",
      "ar s",
      "ow s",
      "Ġme t",
      "ot og",
      "Ġha ving",
      "Ġdo or",
      "se lf",
      "Ġsh ould",
      "ap a",
      "pe ct",
      "Ġr oom",
      "Ġfa mily",
      "Ġfin is",
      "Ġtoo k",
      "we en",
      "Ġbet ween",
      "Ġgl an",
      "rap her",
      "Ġph otog",
      "Ġtry ing",
      "Ġbab y",
      "ste ad",
      "Ġfri end",
      "Ġphotog rapher",
      "a v",
      "a ch",
      "c es",
      "e p",
      "f ul",
      "g e",
      "g g",
      "i b",
      "i p",
      "i z",
      "i ch",
      "l es",
      "s o",
      "s ide",
      "Ġ ro",
      "Ġt r",
      "Ġs n",
      "Ġs ch",
      "Ġs pe",
      "Ġs we",
      "Ġw ent",
      "Ġh as",
      "Ġhe ld",
      "Ġm ed",
      "Ġm ind",
      "Ġto get",
      "er ing",
      "Ġc an",
      "Ġc row",
      "Ġp ass",
      "Ġd r",
      "Ġl et",
      "Ġth r",
      "Ġi ma",
      "Ġwh ich",
      "ro ss",
      "Ġha pp",
      "Ġdo es",
      "Ġan kle",
      "ter ed",
      "ent ion",
      "Ġsa w",
      "Ġch an",
      "Ġget ting",
      "Ġal way",
      "us ed",
      "Ġtur n",
      "Ġbr other",
      "Ġte ll",
      "Ġevery one",
      "Ġcom p",
      "Ġgrin ned",
      "Ġbre ath",
      "Ġfing ers",
      "Ġbapt ism",
      "Ġhur t",
      "Ġglan ced",
      "Ġsch ool",
      "Ġtoget her",
      "Ġcrow d",
      "Ġalway s",
      "a ce",
      "a ct",
      "c au",
      "f t",
      "h n",
      "i ld",
      "j ust",
      "m p",
      "m y",
      "m ent",
      "m ason",
      "u d",
      "Ġt al",
      "Ġa m",
      "Ġa p",
      "in ed",
      "in stead",
      "an ed",
      "re e",
      "Ġb ot",
      "Ġb est",
      "ing s",
      "Ġc at",
      "Ġc our",
      "es id",
      "Ġp r",
      "Ġp le",
      "Ġp apa",
      "Ġd is",
      "Ġd ark",
      "Ġg i",
      "Ġg re",
      "Ġl ot",
      "ll ow",
      "Ġe l",
      "Ġe ver",
      "Ġin ter",
      "ro d",
      "Ġst e",
      "Ġst r",
      "Ġst and",
      "Ġst ared",
      "Ġfor ward",
      "Ġli fe",
      "ct ure",
      "ut e",
      "Ġsa me",
      "Ġfe w",
      "Ġfe lt",
      "Ġkn e",
      "Ġhand s",
      "Ġde ath",
      "Ġold er",
      "Ġlau gh",
      "ra ct",
      "Ġfo llow",
      "Ġevery thing",
      "Ġmo st",
      "Ġpo ss",
      "Ġres p",
      "Ġagain st",
      "Ġpi cture",
      "Ġcall ed",
      "Ġswe et",
      "Ġthr ough",
      "Ġima gin",
      "cau se",
      "Ġcour se",
      "esid es",
      "e k",
      "g n",
      "i x",
      "i ly",
      "l ing",
      "m b",
      "m o",
      "n o",
      "o f",
      "o ice",
      "p it",
      "s it",
      "s id",
      "s pit",
      "u ct",
      "z ing",
      "Ġt ried",
      "Ġt able",
      "Ġa c",
      "in e",
      "in u",
      "in king",
      "Ġs or",
      "Ġs ide",
      "Ġh u",
      "Ġh ard",
      "an ing",
      "ou se",
      "Ġhe re",
      "Ġhe ar",
      "re am",
      "Ġm aking",
      "Ġb ir",
      "Ġf un",
      "er ed",
      "Ġp ri",
      "Ġp ress",
      "Ġd ri",
      "Ġher self",
      "Ġe nd",
      "Ġe ach",
      "or n",
      "Ġbe cause",
      "Ġme et",
      "Ġwh ile",
      "Ġas k",
      "Ġst o",
      "ur ed",
      "ur ch",
      "Ġli ps",
      "ir ty",
      "ant ly",
      "Ġk iss",
      "Ġsh ru",
      "Ġnot hing",
      "Ġch urch",
      "Ġgr ad",
      "Ġfa ct",
      "Ġho pe",
      "Ġho spit",
      "Ġlo ved",
      "Ġche ek",
      "il ing",
      "Ġany thing",
      "Ġcon t",
      "Ġcon sid",
      "Ġqu ick",
      "Ġbr ows",
      "Ġbo y",
      "Ġfo c",
      "Ġgu ess",
      "Ġad m",
      "Ġsay ing",
      "Ġsurpris e",
      "Ġsurpris ed",
      "ious ly",
      "Ġpart y",
      "Ġjo hn",
      "wh ile",
      "Ġplay ing",
      "sh ip",
      "Ġwal ked",
      "Ġbro ke",
      "Ġloo ked",
      "Ġyoun ger",
      "Ġfriend s",
      "av is",
      "Ġmed ical",
      "Ġpass ion",
      "Ġbrother s",
      "Ġste pped",
      "Ġkne w",
      "Ġposs ess",
      "Ġpicture s",
      "Ġsor ry",
      "Ġshru g",
      "Ġhospit al",
      "a ir",
      "a ched",
      "b ut",
      "c y",
      "c le",
      "c ess",
      "d s",
      "d y",
      "d ay",
      "f ull",
      "i ed",
      "i gh",
      "m m",
      "n ing",
      "s ing",
      "t en",
      "t ain",
      "u ck",
      "u ally",
      "u ss",
      "u nt",
      "z e",
      "Ġ ke",
      "Ġ ide",
      "he s",
      "Ġt ab",
      "Ġt aking",
      "Ġa ct",
      "Ġs ma",
      "Ġw id",
      "Ġw ond",
      "re n",
      "re t",
      "re w",
      "Ġm ar",
      "Ġo p",
      "Ġn ur",
      "it ies",
      "er tain",
      "at er",
      "at ter",
      "Ġc au",
      "Ġc ross",
      "Ġc ertain",
      "Ġp er",
      "Ġp ull",
      "Ġd avis",
      "Ġl ast",
      "Ġth ough",
      "ll y",
      "ll ed",
      "Ġe ar",
      "or ted",
      "Ġbe h",
      "en ce",
      "ot ion",
      "Ġre st",
      "Ġre ason",
      "Ġre li",
      "Ġu nd",
      "Ġu nt",
      "ck ing",
      "ri ck",
      "Ġj er",
      "Ġj ade",
      "and s",
      "Ġk id",
      "ap p",
      "Ġwant s",
      "Ġnot ic",
      "Ġch ild",
      "Ġsee med",
      "Ġman y",
      "Ġfin d",
      "Ġfin ally",
      "Ġho me",
      "ive ly",
      "Ġal ong",
      "the y",
      "Ġpl an",
      "Ġwor ld",
      "ru p",
      "Ġwi ll",
      "Ġle aned",
      "Ġlook s",
      "Ġbl ue",
      "Ġbo dy",
      "Ġfl as",
      "ation ship",
      "Ġcl o",
      "Ġbet ter",
      "co me",
      "Ġun cle",
      "gin ally",
      "Ġye ah",
      "Ġye ars",
      "Ġrel ationship",
      "Ġinterest ed",
      "Ġv oice",
      "Ġwom an",
      "Ġthought s",
      "Ġfinis hed",
      "Ġhapp ened",
      "Ġel b",
      "Ġresp on",
      "no ah",
      "Ġbir th",
      "Ġpri est",
      "Ġadm it",
      "full y",
      "Ġide a",
      "Ġtab les",
      "Ġcertain ly",
      "Ġunt il",
      "a ld",
      "a ut",
      "b y",
      "e ver",
      "e ct",
      "f f",
      "g a",
      "g ing",
      "h is",
      "i g",
      "l ess",
      "m on",
      "m ured",
      "n ow",
      "p ass",
      "p arents",
      "t e",
      "u p",
      "w ood",
      "y be",
      "he ad",
      "Ġt ru",
      "Ġa f",
      "Ġa unt",
      "Ġs er",
      "Ġs at",
      "Ġs le",
      "Ġs et",
      "Ġw r",
      "Ġh on",
      "Ġh our",
      "Ġh ouse",
      "Ġhe ll",
      "re ady",
      "Ġm on",
      "Ġm ay",
      "Ġm ur",
      "Ġm ore",
      "Ġm ention",
      "Ġb u",
      "Ġb ed",
      "Ġb esides",
      "Ġo h",
      "Ġo ri",
      "Ġf r",
      "Ġf re",
      "Ġn ight",
      "Ġn ice",
      "Ġto ld",
      "it ed",
      "it her",
      "Ġc r",
      "Ġc ou",
      "Ġc ar",
      "Ġc le",
      "Ġc ous",
      "is e",
      "is ter",
      "es pe",
      "nd ing",
      "Ġp u",
      "Ġp ut",
      "Ġp ain",
      "Ġp ity",
      "Ġd ating",
      "Ġg ri",
      "Ġg ive",
      "on ce",
      "id ed",
      "Ġth irty",
      "Ġth rew",
      "Ġi mp",
      "Ġbe er",
      "Ġbe gan",
      "en ing",
      "en se",
      "ar ily",
      "ow ed",
      "Ġre al",
      "Ġre ached",
      "ma ybe",
      "Ġu m",
      "Ġu r",
      "ver s",
      "ver al",
      "Ġon ce",
      "ro p",
      "ur ing",
      "she d",
      "ion s",
      "Ġwe aring",
      "Ġse x",
      "ut h",
      "ent y",
      "Ġk ind",
      "Ġsh ot",
      "Ġsh ort",
      "Ġsu pp",
      "Ġsu cked",
      "Ġint rod",
      "led ged",
      "th at",
      "Ġab s",
      "Ġti e",
      "pe ar",
      "Ġfe ll",
      "ic ally",
      "Ġby pass",
      "Ġch in",
      "ab ly",
      "Ġgr and",
      "Ġgr ady",
      "Ġr un",
      "Ġey e",
      "Ġey ed",
      "Ġtw enty",
      "Ġag e",
      "Ġag ree",
      "Ġal so",
      "Ġal ready",
      "Ġde c",
      "Ġpl ace",
      "Ġex c",
      "Ġwor ds",
      "Ġga ze",
      "ul t",
      "Ġle ft",
      "Ġbl ond",
      "Ġbo lly",
      "Ġneed s",
      "Ġsp ent",
      "Ġwa ved",
      "Ġjo in",
      "Ġsi ghed",
      "Ġco me",
      "Ġco cked",
      "Ġdi ap",
      "Ġen ough",
      "Ġinterest ing",
      "ci ally",
      "Ġwom en",
      "Ġshould er",
      "gg led",
      "iz ed",
      "Ġtr uth",
      "Ġsn orted",
      "Ġchan ces",
      "Ġtal k",
      "Ġbot t",
      "Ġgi ving",
      "Ġgre at",
      "Ġinter rup",
      "Ġstr ands",
      "Ġlaugh ing",
      "mo st",
      "Ġdri ve",
      "Ġsto pped",
      "Ġcont inu",
      "Ġconsid ering",
      "Ġquick ly",
      "Ġpossess ed",
      "Ġshrug ged",
      "uck led",
      "Ġke ep",
      "Ġnur sing",
      "Ġpull ed",
      "Ġbeh ind",
      "Ġreli e",
      "Ġund er",
      "Ġjer ked",
      "Ġmur mured",
      "Ġori ginally",
      "Ġcous in",
      "espe cially",
      "Ġbolly wood",
      "a g",
      "a ged",
      "b l",
      "b v",
      "b ed",
      "b ur",
      "b esides",
      "b ably",
      "e x",
      "e z",
      "e ven",
      "f in",
      "f or",
      "f ess",
      "f ined",
      "g s",
      "g ie",
      "h ood",
      "i v",
      "i led",
      "j o",
      "k en",
      "l s",
      "m an",
      "m and",
      "n e",
      "o ck",
      "p t",
      "r oom",
      "s w",
      "s ure",
      "s pect",
      "s ib",
      "t i",
      "t ur",
      "u al",
      "u ation",
      "v in",
      "v ous",
      "w el",
      "w here",
      "x t",
      "y s",
      "y ing",
      "y pe",
      "z ger",
      "Ġ !",
      "Ġt in",
      "Ġt ype",
      "Ġa ck",
      "in ked",
      "in ess",
      "Ġs l",
      "Ġs ent",
      "Ġs ound",
      "Ġs itt",
      "Ġs ister",
      "Ġw at",
      "Ġw ore",
      "Ġw inked",
      "ed y",
      "Ġh i",
      "Ġh mm",
      "an k",
      "an ger",
      "Ġm in",
      "Ġm out",
      "Ġm ut",
      "Ġm ust",
      "Ġm used",
      "Ġm otion",
      "Ġb it",
      "Ġb ase",
      "Ġb orn",
      "Ġo bv",
      "Ġf ore",
      "Ġf ound",
      "Ġf our",
      "Ġf ist",
      "Ġf ix",
      "Ġf uss",
      "Ġn a",
      "Ġn er",
      "Ġn ie",
      "Ġto day",
      "it zger",
      "er a",
      "Ġc are",
      "Ġp re",
      "Ġp op",
      "Ġp ool",
      "Ġp ract",
      "Ġd es",
      "Ġd ate",
      "Ġd ra",
      "Ġd if",
      "Ġl ater",
      "on t",
      "Ġher s",
      "Ġy et",
      "Ġth ing",
      "Ġth ose",
      "Ġe at",
      "Ġin app",
      "or y",
      "Ġbe au",
      "Ġbe nt",
      "Ġbe come",
      "Ġbe aut",
      "Ġof ten",
      "ow ing",
      "le aning",
      "le te",
      "ot h",
      "ot est",
      "Ġre g",
      "Ġre m",
      "ma ced",
      "Ġu se",
      "im es",
      "Ġwh ite",
      "Ġno d",
      "Ġno is",
      "Ġas king",
      "ro g",
      "Ġfor get",
      "Ġha lf",
      "ri ate",
      "ce ive",
      "Ġli cked",
      "ir ed",
      "Ġj ud",
      "se ven",
      "and on",
      "al th",
      "Ġan sw",
      "Ġse at",
      "Ġse co",
      "Ġse veral",
      "Ġse edy",
      "Ġk it",
      "Ġsh ock",
      "ust ing",
      "Ġsu it",
      "th s",
      "Ġab andon",
      "Ġne w",
      "Ġne ck",
      "Ġne ither",
      "Ġne xt",
      "pe ared",
      "Ġout side",
      "ic es",
      "Ġwhat ever",
      "Ġch ar",
      "Ġch air",
      "Ġch uckled",
      "Ġall uring",
      "Ġr a",
      "Ġr an",
      "Ġsee ing",
      "Ġman aged",
      "Ġhand ed",
      "ink led",
      "Ġsome thing",
      "fe ct",
      "ry ing",
      "Ġbut t",
      "Ġho ped",
      "Ġal most",
      "Ġde v",
      "Ġgod parents",
      "Ġyour self",
      "the re",
      "Ġex p",
      "Ġex per",
      "Ġex act",
      "we ar",
      "Ġwor king",
      "ate ly",
      "am ing",
      "Ġcon f",
      "Ġcon vers",
      "Ġga vin",
      "Ġle ad",
      "with out",
      "Ġfeel s",
      "ra id",
      "Ġbl ack",
      "Ġfl ing",
      "Ġcl ot",
      "Ġcl ose",
      "Ġte as",
      "Ġother s",
      "Ġfo ot",
      "Ġneed ed",
      "Ġmo v",
      "Ġpo sit",
      "Ġgl are",
      "Ġgu y",
      "Ġus ual",
      "be fore",
      "Ġpro bably",
      "Ġpro fess",
      "Ġpro spect",
      "Ġstart ing",
      "rap ped",
      "Ġad or",
      "Ġad ult",
      "Ġsp o",
      "Ġmoment arily",
      "Ġem p",
      "ol ute",
      "Ġsi gh",
      "Ġsi gn",
      "Ġfing er",
      "Ġrel uct",
      "Ġbro ken",
      "Ġatt ention",
      "Ġquestion ed",
      "Ġyoun g",
      "pect ed",
      "Ġro lled",
      "Ġspe nd",
      "Ġdr ink",
      "Ġcomp lete",
      "Ġap ol",
      "Ġbot h",
      "Ġcat ch",
      "Ġpr otest",
      "Ġple ase",
      "Ġdis ap",
      "Ġinter rog",
      "rod e",
      "Ġstand ing",
      "Ġfollow ed",
      "Ġimagin e",
      "Ġimagin ed",
      "mb led",
      "Ġhu ff",
      "Ġpress ed",
      "Ġend ed",
      "Ġgrad es",
      "Ġfoc us",
      "Ġfoc used",
      "Ġact ually",
      "Ġwid ened",
      "Ġwond er",
      "Ġmar ried",
      "Ġop en",
      "Ġcau sed",
      "Ġcross ed",
      "Ġkid s",
      "Ġnotic ed",
      "Ġelb ows",
      "Ġrespon sib",
      "ga zing",
      "now ledged",
      "Ġaf raid",
      "Ġwr inkled",
      "Ġmon ths",
      "Ġbed room",
      "Ġfre ak",
      "Ġgri maced",
      "Ġur ged",
      "rop riate",
      "Ġintrod u",
      "Ġabs olute",
      "Ġbypass ed",
      "Ġblond e",
      "Ġbott le",
      "Ġinterrup ted",
      "Ġcontinu ed",
      "Ġunder wear",
      "Ġcousin s",
      "Ġtin y",
      "Ġack nowledged",
      "Ġsitt ing",
      "Ġmut tered",
      "Ġmotion ed",
      "Ġobv iously",
      "Ġner vous",
      "itzger ald",
      "Ġdra w",
      "Ġdif fe",
      "Ġinapp ropriate",
      "alth ough",
      "Ġseco nd",
      "Ġexper i",
      "Ġconvers ation",
      "Ġprofess ion",
      "Ġcomplete ly",
      "Ġresponsib il",
      "Ġabsolute ly",
      "* *",
      "a w",
      "a me",
      "a ving",
      "a ced",
      "a ge",
      "a cy",
      "b o",
      "b s",
      "b or",
      "b le",
      "b all",
      "b row",
      "b oth",
      "c d",
      "c l",
      "c r",
      "c in",
      "c ing",
      "c er",
      "c on",
      "c hen",
      "c ret",
      "d ing",
      "d am",
      "e or",
      "e ve",
      "e al",
      "e very",
      "f et",
      "f ive",
      "f our",
      "g i",
      "g u",
      "g ive",
      "g ue",
      "g ment",
      "h ow",
      "i or",
      "i ver",
      "i cked",
      "i ves",
      "i ately",
      "j ect",
      "l er",
      "l ow",
      "l ted",
      "l ves",
      "l ite",
      "l ine",
      "m er",
      "m es",
      "m ore",
      "m ist",
      "m med",
      "n ot",
      "n ess",
      "n ame",
      "o id",
      "o ss",
      "o cked",
      "o get",
      "o sed",
      "p le",
      "s u",
      "s ix",
      "t hen",
      "t imes",
      "u b",
      "u m",
      "v or",
      "v oid",
      "w n",
      "y n",
      "z z",
      "Ġ er",
      "Ġ our",
      "Ġ especially",
      "Ġt a",
      "Ġt u",
      "Ġt re",
      "Ġt rick",
      "Ġt ired",
      "Ġa w",
      "Ġa is",
      "Ġa ma",
      "Ġa pp",
      "Ġa dded",
      "Ġa head",
      "Ġa void",
      "in ted",
      "in ical",
      "Ġs m",
      "Ġs w",
      "Ġs ou",
      "Ġs ing",
      "Ġs it",
      "Ġs en",
      "Ġs li",
      "Ġs ight",
      "Ġs qu",
      "Ġw ar",
      "Ġw ink",
      "Ġw ide",
      "Ġw rapped",
      "ed ing",
      "Ġh it",
      "Ġh ar",
      "Ġh one",
      "Ġh us",
      "Ġh ip",
      "an ce",
      "ou n",
      "ou p",
      "ou ble",
      "Ġhe ight",
      "Ġhe av",
      "Ġhe sit",
      "re ed",
      "re ad",
      "re ly",
      "re ct",
      "Ġm a",
      "Ġm r",
      "Ġm en",
      "Ġm ass",
      "Ġm iss",
      "Ġm ark",
      "Ġm atter",
      "Ġm cd",
      "Ġb es",
      "Ġb om",
      "Ġb ound",
      "Ġb us",
      "Ġb ice",
      "Ġb rick",
      "ing ing",
      "ing ly",
      "Ġo wn",
      "Ġf an",
      "Ġf as",
      "Ġf le",
      "Ġf ut",
      "Ġf ab",
      "Ġf ast",
      "Ġf itzgerald",
      "Ġn or",
      "Ġn ick",
      "Ġto n",
      "Ġto wel",
      "it ing",
      "it ched",
      "er ri",
      "as y",
      "as es",
      "at or",
      "at ives",
      "Ġc e",
      "Ġc oo",
      "Ġc ut",
      "Ġc ate",
      "Ġc am",
      "Ġc ared",
      "Ġc ars",
      "Ġc apa",
      "Ġc orn",
      "Ġc ases",
      "is h",
      "is ed",
      "is ma",
      "is hed",
      "is per",
      "Ġp at",
      "Ġp ur",
      "Ġp ant",
      "Ġp ath",
      "Ġp rom",
      "Ġp ers",
      "Ġp ast",
      "Ġp iss",
      "Ġp ret",
      "Ġd en",
      "Ġd el",
      "Ġd ated",
      "Ġd ist",
      "Ġd ism",
      "Ġd ream",
      "Ġd itched",
      "Ġg en",
      "Ġg ar",
      "Ġg ir",
      "Ġg ent",
      "Ġg eor",
      "Ġl it",
      "Ġl ar",
      "Ġl ap",
      "Ġl ess",
      "Ġl ace",
      "Ġl acy",
      "Ġy ard",
      "id ence",
      "Ġth u",
      "Ġth ro",
      "Ġth ri",
      "Ġth ick",
      "Ġth ings",
      "Ġth inking",
      "Ġth igh",
      "ll ing",
      "ll way",
      "Ġe asy",
      "Ġin d",
      "Ġin s",
      "Ġin st",
      "Ġin stead",
      "Ġin side",
      "Ġin for",
      "ad ing",
      "or i",
      "Ġi mmed",
      "Ġbe ck",
      "Ġbe nding",
      "Ġbe low",
      "en cy",
      "ar an",
      "ar is",
      "ow ers",
      "Ġme ant",
      "le man",
      "ot ten",
      "ld ing",
      "st ar",
      "Ġre co",
      "Ġre act",
      "Ġre tur",
      "ith ouse",
      "Ġwh isper",
      "Ġno se",
      "Ġst ro",
      "Ġst ate",
      "Ġst ru",
      "Ġst op",
      "Ġst ick",
      "Ġst ory",
      "Ġst rode",
      "Ġha llway",
      "Ġdo ing",
      "ri ved",
      "ce ed",
      "ch an",
      "ch ing",
      "ch ap",
      "Ġli p",
      "Ġli ed",
      "Ġli ked",
      "Ġli king",
      "Ġli ves",
      "ir t",
      "Ġj et",
      "se lves",
      "Ġan x",
      "Ġan other",
      "Ġan gie",
      "Ġan ti",
      "Ġse an",
      "Ġse en",
      "Ġse ar",
      "Ġse lf",
      "Ġse cret",
      "Ġse mes",
      "ter ing",
      "ter ior",
      "Ġso ft",
      "ent ly",
      "Ġk icked",
      "Ġsh aking",
      "Ġsh if",
      "Ġsh ithouse",
      "Ġsh irt",
      "Ġsu n",
      "Ġsu gg",
      "Ġsu bur",
      "Ġint ense",
      "th ose",
      "th ank",
      "Ġab le",
      "Ġsa fe",
      "Ġti ght",
      "Ġti lted",
      "Ġout f",
      "Ġfe eding",
      "ic ine",
      "Ġar rived",
      "est s",
      "ab bed",
      "Ġgr oup",
      "Ġgr abbed",
      "Ġr ub",
      "Ġr otten",
      "Ġsee m",
      "Ġfa ir",
      "Ġfa iled",
      "el s",
      "el ing",
      "ound s",
      "li er",
      "Ġhead ed",
      "itt ed",
      "Ġsome times",
      "fe at",
      "Ġho lding",
      "Ġag reed",
      "Ġde mand",
      "Ġde feat",
      "Ġlo st",
      "Ġlo ving",
      "are ly",
      "ard less",
      "us ic",
      "Ġold est",
      "Ġthem selves",
      "ath y",
      "Ġche ck",
      "Ġche mist",
      "Ġex am",
      "il t",
      "Ġwor k",
      "Ġwor ry",
      "Ġany one",
      "Ġany where",
      "Ġwi ped",
      "ass ion",
      "Ġcon cer",
      "Ġga me",
      "ul ous",
      "Ġmu mbled",
      "Ġor gan",
      "ade en",
      "dd ing",
      "Ġbr ought",
      "Ġle gs",
      "Ġfeel ing",
      "Ġfeel ings",
      "Ġbl ess",
      "Ġfl atter",
      "ation s",
      "Ġcl ass",
      "Ġcl inical",
      "Ġte mp",
      "Ġcom mon",
      "Ġpo lite",
      "Ġpo inted",
      "Ġgu ests",
      "Ġres pect",
      "Ġres ig",
      "co cking",
      "if ul",
      "Ġpro cess",
      "Ġpro ceed",
      "Ġun ex",
      "Ġsp ark",
      "Ġwa ve",
      "Ġph one",
      "Ġph ys",
      "rest ling",
      "Ġbre ak",
      "Ġbre ez",
      "ast ated",
      "iss ively",
      "Ġpart ied",
      "Ġem b",
      "Ġem er",
      "Ġem otion",
      "wh at",
      "Ġplay fully",
      "Ġsc ow",
      "Ġsc ream",
      "Ġwal king",
      "Ġbapt isma",
      "Ġco ver",
      "Ġpi cked",
      "Ġdi ed",
      "Ġdi rect",
      "Ġday s",
      "Ġloo se",
      "Ġloo king",
      "Ġen jo",
      "Ġatt ack",
      "Ġatt ract",
      "Ġwell star",
      "Ġquestion s",
      "ci al",
      "ward ly",
      "Ġfinis h",
      "Ġfinis hing",
      "gg ing",
      "ib le",
      "iz e",
      "Ġtr ouble",
      "Ġspe ak",
      "Ġspe cial",
      "Ġmed icine",
      "Ġchan ging",
      "Ġturn ing",
      "Ġcomp assion",
      "act er",
      "ud ing",
      "Ġtal king",
      "Ġap pear",
      "Ġap peared",
      "Ġple as",
      "Ġdis c",
      "Ġdis g",
      "Ġgi ggled",
      "Ġel se",
      "Ġdeath s",
      "Ġresp ond",
      "Ġsweet ie",
      "gn ized",
      "Ġac ross",
      "ream y",
      "Ġpress ure",
      "Ġmeet ing",
      "Ġgrad uation",
      "Ġcheek s",
      "uss ing",
      "Ġsma ll",
      "Ġsma cked",
      "ren ce",
      "Ġop ened",
      "Ġper ceive",
      "Ġear lier",
      "Ġrest less",
      "app ing",
      "Ġnotic ing",
      "Ġchild ren",
      "Ġalong side",
      "Ġplan ned",
      "Ġflas hes",
      "Ġclo s",
      "Ġclo sed",
      "Ġrespon se",
      "Ġbirth day",
      "Ġtru e",
      "Ġser iously",
      "Ġsle ep",
      "Ġhon or",
      "Ġhon est",
      "Ġhour s",
      "Ġmay be",
      "Ġbu ilt",
      "Ġfr ont",
      "Ġcou ch",
      "Ġpu zz",
      "Ġimp oss",
      "Ġsupp ort",
      "Ġrun ning",
      "Ġeye brow",
      "Ġdec or",
      "Ġdec ided",
      "Ġexc ited",
      "Ġdiap er",
      "Ġdrive way",
      "Ġrelie f",
      "Ġrelie ved",
      "bl ack",
      "fin ally",
      "ne ath",
      "Ġsl id",
      "Ġmin ute",
      "Ġmout h",
      "Ġfore head",
      "Ġfist s",
      "Ġfuss y",
      "Ġnie ce",
      "Ġpre c",
      "Ġpract ically",
      "Ġbeaut iful",
      "Ġreg ardless",
      "Ġrem ind",
      "Ġuse ful",
      "Ġnois es",
      "Ġjud gment",
      "Ġkit chen",
      "Ġchar acter",
      "Ġbutt on",
      "Ġexact ly",
      "Ġclot hes",
      "Ġteas ing",
      "Ġfoot ball",
      "Ġmov ie",
      "Ġposit ion",
      "Ġspo iling",
      "Ġemp athy",
      "Ġreluct antly",
      "Ġdrink s",
      "Ġapol oget",
      "Ġdisap pear",
      "Ġinterrog ator",
      "Ġhuff ed",
      "Ġwonder ful",
      "Ġintrodu ce",
      "Ġnervous ly",
      "Ġdraw er",
      "Ġexperi ence",
      "Ġresponsibil ities",
      "bo ard",
      "cin ating",
      "dam n",
      "every thing",
      "gu ed",
      "Ġais le",
      "Ġama zing",
      "Ġapp re",
      "Ġsou l",
      "Ġsing le",
      "Ġsli p",
      "Ġhone y",
      "Ġhus b",
      "Ġheav y",
      "Ġmass ive",
      "Ġmcd reamy",
      "Ġbes ide",
      "Ġbom b",
      "Ġbice ps",
      "Ġfas cinating",
      "Ġfle w",
      "Ġfut ure",
      "Ġnick name",
      "Ġcoo ed",
      "Ġcate g",
      "Ġcam era",
      "Ġcapa c",
      "Ġpret ty",
      "Ġden ied",
      "Ġdist ract",
      "Ġdism issively",
      "Ġgen er",
      "Ġgir l",
      "Ġgent leman",
      "Ġlar ge",
      "Ġyard s",
      "Ġthro at",
      "Ġthri lled",
      "Ġimmed iately",
      "Ġreco gnized",
      "Ġreact ion",
      "Ġretur ned",
      "Ġstate ment",
      "Ġstru ck",
      "chap ter",
      "Ġsemes ter",
      "Ġsubur bs",
      "Ġdemand ed",
      "Ġchemist ry",
      "Ġexam ined",
      "Ġresig ned",
      "Ġunex pected",
      "Ġphys ical",
      "Ġbreez ed",
      "Ġbaptisma l",
      "Ġeyebrow s"
    ]
  }
}