{
  "version": "1.0",
  "truncation": null,
  "padding": null,
  "added_tokens": [
    {
      "id": 0,
      "content": "[START]",
      "single_word": false,
      "lstrip": false,
      "rstrip": false,
      "normalized": false,
      "special": true
    },
    {
      "id": 1,
      "content": "[END]",
      "single_word": false,
      "lstrip": false,
      "rstrip": false,
      "normalized": false,
      "special": true
    },
    {
      "id": 2,
      "content": "[SEP]",
      "single_word": false,
      "lstrip": false,
      "rstrip": false,
      "normalized": false,
      "special": true
    }
  ],
  "normalizer": null,
  "pre_tokenizer": {
    "type": "ByteLevel",
    "add_prefix_space": false,
    "trim_offsets": true,
    "use_regex": true
  },
  "post_processor": {
    "type": "BertProcessing",
    "sep": [
      "[SEP]",
      2
    ],
    "cls": [
      "[START]",
      0
    ]
  },
  "decoder": {
    "type": "ByteLevel",
    "add_prefix_space": true,
    "trim_offsets": true,
    "use_regex": true
  },
  "model": {
    "type": "BPE",
    "dropout": null,
    "unk_token": null,
    "continuing_subword_prefix": null,
    "end_of_word_suffix": null,
    "fuse_unk": false,
    "byte_fallback": false,
    "vocab": {
      "[START]": 0,
      "[END]": 1,
      "[SEP]": 2,
      "!": 3,
      "\"": 4,
      "#": 5,
      "$": 6,
      "%": 7,
      "&": 8,
      "'": 9,
      "(": 10,
      ")": 11,
      "*": 12,
      "+": 13,
      ",": 14,
      "-": 15,
      ".": 16,
      "/": 17,
      "0": 18,
      "1": 19,
      "2": 20,
      "3": 21,
      "4": 22,
      "5": 23,
      "6": 24,
      "7": 25,
      "8": 26,
      "9": 27,
      ":": 28,
      ";": 29,
      "<": 30,
      "=": 31,
      ">": 32,
      "?": 33,
      "@": 34,
      "A": 35,
      "B": 36,
      "C": 37,
      "D": 38,
      "E": 39,
      "F": 40,
      "G": 41,
      "H": 42,
      "I": 43,
      "J": 44,
      "K": 45,
      "L": 46,
      "M": 47,
      "N": 48,
      "O": 49,
      "P": 50,
      "Q": 51,
      "R": 52,
      "S": 53,
      "T": 54,
      "U": 55,
      "V": 56,
      "W": 57,
      "X": 58,
      "Y": 59,
      "Z": 60,
      "[": 61,
      "\\": 62,
      "]": 63,
      "^": 64,
      "_": 65,
      "`": 66,
      "a": 67,
      "b": 68,
      "c": 69,
      "d": 70,
      "e": 71,
      "f": 72,
      "g": 73,
      "h": 74,
      "i": 75,
      "j": 76,
      "k": 77,
      "l": 78,
      "m": 79,
      "n": 80,
      "o": 81,
      "p": 82,
      "q": 83,
      "r": 84,
      "s": 85,
      "t": 86,
      "u": 87,
      "v": 88,
      "w": 89,
      "x": 90,
      "y": 91,
      "z": 92,
      "{": 93,
      "|": 94,
      "}": 95,
      "~": 96,
      "¡": 97,
      "¢": 98,
      "£": 99,
      "¤": 100,
      "¥": 101,
      "¦": 102,
      "§": 103,
      "¨": 104,
      "©": 105,
      "ª": 106,
      "«": 107,
      "¬": 108,
      "®": 109,
      "¯": 110,
      "°": 111,
      "±": 112,
      "²": 113,
      "³": 114,
      "´": 115,
      "µ": 116,
      "¶": 117,
      "·": 118,
      "¸": 119,
      "¹": 120,
      "º": 121,
      "»": 122,
      "¼": 123,
      "½": 124,
      "¾": 125,
      "¿": 126,
      "À": 127,
      "Á": 128,
      "Â": 129,
      "Ã": 130,
      "Ä": 131,
      "Å": 132,
      "Æ": 133,
      "Ç": 134,
      "È": 135,
      "É": 136,
      "Ê": 137,
      "Ë": 138,
      "Ì": 139,
      "Í": 140,
      "Î": 141,
      "Ï": 142,
      "Ð": 143,
      "Ñ": 144,
      "Ò": 145,
      "Ó": 146,
      "Ô": 147,
      "Õ": 148,
      "Ö": 149,
      "×": 150,
      "Ø": 151,
      "Ù": 152,
      "Ú": 153,
      "Û": 154,
      "Ü": 155,
      "Ý": 156,
      "Þ": 157,
      "ß": 158,
      "à": 159,
      "á": 160,
      "â": 161,
      "ã": 162,
      "ä": 163,
      "å": 164,
      "æ": 165,
      "ç": 166,
      "è": 167,
      "é": 168,
      "ê": 169,
      "ë": 170,
      "ì": 171,
      "í": 172,
      "î": 173,
      "ï": 174,
      "ð": 175,
      "ñ": 176,
      "ò": 177,
      "ó": 178,
      "ô": 179,
      "õ": 180,
      "ö": 181,
      "÷": 182,
      "ø": 183,
      "ù": 184,
      "ú": 185,
      "û": 186,
      "ü": 187,
      "ý": 188,
      "þ": 189,
      "ÿ": 190,
      "Ā": 191,
      "ā": 192,
      "Ă": 193,
      "ă": 194,
      "Ą": 195,
      "ą": 196,
      "Ć": 197,
      "ć": 198,
      "Ĉ": 199,
      "ĉ": 200,
      "Ċ": 201,
      "ċ": 202,
      "Č": 203,
      "č": 204,
      "Ď": 205,
      "ď": 206,
      "Đ": 207,
      "đ": 208,
      "Ē": 209,
      "ē": 210,
      "Ĕ": 211,
      "ĕ": 212,
      "Ė": 213,
      "ė": 214,
      "Ę": 215,
      "ę": 216,
      "Ě": 217,
      "ě": 218,
      "Ĝ": 219,
      "ĝ": 220,
      "Ğ": 221,
      "ğ": 222,
      "Ġ": 223,
      "ġ": 224,
      "Ģ": 225,
      "ģ": 226,
      "Ĥ": 227,
      "ĥ": 228,
      "Ħ": 229,
      "ħ": 230,
      "Ĩ": 231,
      "ĩ": 232,
      "Ī": 233,
      "ī": 234,
      "Ĭ": 235,
      "ĭ": 236,
      "Į": 237,
      "į": 238,
      "İ": 239,
      "ı": 240,
      "Ĳ": 241,
      "ĳ": 242,
      "Ĵ": 243,
      "ĵ": 244,
      "Ķ": 245,
      "ķ": 246,
      "ĸ": 247,
      "Ĺ": 248,
      "ĺ": 249,
      "Ļ": 250,
      "ļ": 251,
      "Ľ": 252,
      "ľ": 253,
      "Ŀ": 254,
      "ŀ": 255,
      "Ł": 256,
      "ł": 257,
      "Ń": 258,
      "he": 259,
      "Ġt": 260,
      "Ġa": 261,
      "Ġ.": 262,
      "in": 263,
      "Ġs": 264,
      "Ġw": 265,
      "ed": 266,
      "Ġ'": 267,
      "ou": 268,
      "Ġhe": 269,
      "Ġ,": 270,
      "Ġh": 271,
      "Ġm": 272,
      "Ġthe": 273,
      "re": 274,
      "Ġb": 275,
      "ing": 276,
      "Ġo": 277,
      "Ġi": 278,
      "an": 279,
      "Ġto": 280,
      "Ġf": 281,
      "``": 282,
      "Ġ''": 283,
      "Ġc": 284,
      "er": 285,
      "at": 286,
      "Ġher": 287,
      "Ġn": 288,
      "Ġd": 289,
      "nd": 290,
      "as": 291,
      "is": 292,
      "Ġp": 293,
      "Ġl": 294,
      "es": 295,
      "Ġth": 296,
      "Ġy": 297,
      "Ġg": 298,
      "it": 299,
      "Ġyou": 300,
      "on": 301,
      "en": 302,
      "ll": 303,
      "Ġand": 304,
      "Ġin": 305,
      "or": 306,
      "ar": 307,
      "Ġshe": 308,
      "ad": 309,
      "Ġof": 310,
      "Ġbe": 311,
      "Ġe": 312,
      "ow": 313,
      "om": 314,
      "id": 315,
      "Ġme": 316,
      "Ġwas": 317,
      "Ġhis": 318,
      "le": 319,
      "ve": 320,
      "Ġon": 321,
      "ld": 322,
      "st": 323,
      "ot": 324,
      "im": 325,
      "ac": 326,
      "'t": 327,
      "Ġthat": 328,
      "gh": 329,
      "Ġu": 330,
      "ay": 331,
      "et": 332,
      "ith": 333,
      "Ġ?": 334,
      "Ġst": 335,
      "ver": 336,
      "Ġas": 337,
      "Ġit": 338,
      "Ġre": 339,
      "out": 340,
      "ly": 341,
      "Ġwith": 342,
      "gan": 343,
      "Ġdo": 344,
      "Ġk": 345,
      "ould": 346,
      "ro": 347,
      "Ġwe": 348,
      "Ġwh": 349,
      "Ġmy": 350,
      "Ġfor": 351,
      "she": 352,
      "ut": 353,
      "Ġat": 354,
      "esh": 355,
      "se": 356,
      "Ġhim": 357,
      "Ġha": 358,
      "ur": 359,
      "oo": 360,
      "ght": 361,
      "ic": 362,
      "ke": 363,
      "Ġli": 364,
      "Ġhad": 365,
      "ent": 366,
      "Ġsh": 367,
      "ir": 368,
      "ked": 369,
      "her": 370,
      "al": 371,
      "and": 372,
      "ee": 373,
      "ore": 374,
      "all": 375,
      "ion": 376,
      "hen": 377,
      "ant": 378,
      "Ġan": 379,
      "Ġup": 380,
      "me": 381,
      "ri": 382,
      "Ġmegan": 383,
      "ter": 384,
      "pp": 385,
      "Ġj": 386,
      "Ġpesh": 387,
      "Ġne": 388,
      "Ġso": 389,
      "Ġout": 390,
      "Ġgo": 391,
      "ust": 392,
      "rou": 393,
      "ack": 394,
      "ch": 395,
      "to": 396,
      "th": 397,
      "own": 398,
      "ce": 399,
      "king": 400,
      "Ġhave": 401,
      "ome": 402,
      "Ġkn": 403,
      "Ġno": 404,
      "Ġdid": 405,
      "il": 406,
      "Ġnot": 407,
      "ma": 408,
      "Ġwhat": 409,
      "Ġwant": 410,
      "Ġback": 411,
      "Ġcould": 412,
      "Ġsa": 413,
      "Ġover": 414,
      "ra": 415,
      "Ġhand": 416,
      "art": 417,
      "Ġinto": 418,
      "Ġsu": 419,
      "Ġhead": 420,
      "Ġbut": 421,
      "Ġdown": 422,
      "ally": 423,
      "Ġis": 424,
      "Ġfr": 425,
      "Ġca": 426,
      "Ġab": 427,
      "Ġlike": 428,
      "li": 429,
      "hed": 430,
      "fore": 431,
      "ru": 432,
      "ain": 433,
      "sed": 434,
      "Ġjust": 435,
      "ct": 436,
      "Ġta": 437,
      "Ġro": 438,
      "ry": 439,
      "Ġch": 440,
      "Ġbefore": 441,
      "Ġey": 442,
      "Ġwould": 443,
      "**": 444,
      "Ġsm": 445,
      "ight": 446,
      "Ġle": 447,
      "one": 448,
      "Ġwhen": 449,
      "ood": 450,
      "Ġex": 451,
      "Ġtim": 452,
      "ess": 453,
      "Ġse": 454,
      "Ġget": 455,
      "Ġfe": 456,
      "Ġall": 457,
      "Ġwor": 458,
      "Ġfrom": 459,
      "Ġyour": 460,
      "Ġone": 461,
      "Ġal": 462,
      "we": 463,
      "Ġpu": 464,
      "Ġwere": 465,
      "ck": 466,
      "au": 467,
      "Ġsee": 468,
      "ard": 469,
      "Ġem": 470,
      "ine": 471,
      "megan": 472,
      "Ġag": 473,
      "Ġcl": 474,
      "idan": 475,
      "ace": 476,
      "Ġtime": 477,
      "Ġtoo": 478,
      "hing": 479,
      "the": 480,
      "Ġthey": 481,
      "Ġlo": 482,
      "Ġeyes": 483,
      "Ġthis": 484,
      "ook": 485,
      "ill": 486,
      "ss": 487,
      "ink": 488,
      "am": 489,
      "fter": 490,
      "Ġabout": 491,
      "round": 492,
      "ong": 493,
      "qu": 494,
      "pesh": 495,
      "ind": 496,
      "ned": 497,
      "est": 498,
      "Ġany": 499,
      "led": 500,
      "when": 501,
      "ile": 502,
      "Ġpl": 503,
      "ide": 504,
      "Ġte": 505,
      "Ġsp": 506,
      "Ġknow": 507,
      "Ġoff": 508,
      "Ġcon": 509,
      "Ġbeen": 510,
      "ge": 511,
      "lf": 512,
      "Ġ``": 513,
      "very": 514,
      "Ġsaid": 515,
      "Ġche": 516,
      "ab": 517,
      "Ġthen": 518,
      "Ġgoing": 519,
      "Ġaround": 520,
      "Ġif": 521,
      "way": 522,
      "Ġsome": 523,
      "ason": 524,
      "ist": 525,
      "pped": 526,
      "Ġthere": 527,
      "Ġde": 528,
      "Ġagain": 529,
      "ast": 530,
      "Ġthem": 531,
      "Ġor": 532,
      "lt": 533,
      "our": 534,
      "Ġga": 535,
      "itt": 536,
      "Ġar": 537,
      "Ġare": 538,
      "Ġthan": 539,
      "nt": 540,
      "if": 541,
      "Ġmore": 542,
      "Ġma": 543,
      "Ġman": 544,
      "ers": 545,
      "ate": 546,
      "Ġaidan": 547,
      "ving": 548,
      "ah": 549,
      "Ġmu": 550,
      "ous": 551,
      "Ġhow": 552,
      "Ġthink": 553,
      "Ġby": 554,
      "Ġrep": 555,
      "pt": 556,
      "ven": 557,
      "Ġfl": 558,
      "ade": 559,
      "Ġemma": 560,
      "Ġgr": 561,
      "Ġgood": 562,
      "self": 563,
      "Ġtw": 564,
      "Ġway": 565,
      "other": 566,
      "Ġqu": 567,
      "Ġasked": 568,
      "ive": 569,
      "Ġbo": 570,
      "eel": 571,
      "Ġstart": 572,
      "ps": 573,
      "fe": 574,
      "Ġr": 575,
      "ul": 576,
      "Ġfeel": 577,
      "Ġthou": 578,
      "Ġmason": 579,
      "Ġnow": 580,
      "ation": 581,
      "ase": 582,
      "ath": 583,
      "Ġlitt": 584,
      "Ġneed": 585,
      "lied": 586,
      "Ġlittle": 587,
      "Ġreplied": 588,
      "Ġtur": 589,
      "Ġbr": 590,
      "Ġsure": 591,
      "Ġgl": 592,
      "ound": 593,
      "Ġho": 594,
      "Ġbl": 595,
      "Ġco": 596,
      "Ġwho": 597,
      "Ġri": 598,
      "Ġsl": 599,
      "us": 600,
      "Ġgot": 601,
      "Ġnever": 602,
      "Ġcom": 603,
      "thing": 604,
      "Ġroom": 605,
      "pe": 606,
      "omet": 607,
      "Ġreally": 608,
      "ick": 609,
      "Ġarm": 610,
      "ng": 611,
      "ther": 612,
      "here": 613,
      "ened": 614,
      "iled": 615,
      "Ġmuch": 616,
      "Ġbre": 617,
      "dd": 618,
      "Ġwa": 619,
      "Ġmo": 620,
      "nder": 621,
      "Ġbet": 622,
      "Ġcame": 623,
      "Ġen": 624,
      "Ġtake": 625,
      "Ġpre": 626,
      "act": 627,
      "Ġshould": 628,
      "Ġhands": 629,
      "Ġlove": 630,
      "gg": 631,
      "ble": 632,
      "Ġsomet": 633,
      "Ġyes": 634,
      "ting": 635,
      "Ġtook": 636,
      "Ġright": 637,
      "per": 638,
      "Ġface": 639,
      "Ġlook": 640,
      "lp": 641,
      "Ġpo": 642,
      "ared": 643,
      "Ġwanted": 644,
      "ue": 645,
      "iss": 646,
      "Ġeven": 647,
      "Ġkne": 648,
      "Ġtwo": 649,
      "Ġhelp": 650,
      "Ġcan": 651,
      "Ġlet": 652,
      "Ġthing": 653,
      "ried": 654,
      "after": 655,
      "Ġmom": 656,
      "Ġbed": 657,
      "Ġother": 658,
      "Ġdoor": 659,
      "Ġstarted": 660,
      "lled": 661,
      "Ġafter": 662,
      "Ġmout": 663,
      "ice": 664,
      "rough": 665,
      "be": 666,
      "Ġru": 667,
      "Ġlong": 668,
      "are": 669,
      "ure": 670,
      "Ġpro": 671,
      "Ġsmiled": 672,
      "Ġsomething": 673,
      "Ġmouth": 674,
      "Ġus": 675,
      "um": 676,
      "Ġbec": 677,
      "ved": 678,
      "with": 679,
      "Ġfelt": 680,
      "bb": 681,
      "his": 682,
      "Ġsay": 683,
      "Ġthrough": 684,
      "Ġhard": 685,
      "ress": 686,
      "Ġfin": 687,
      "Ġmake": 688,
      "Ġfir": 689,
      "Ġday": 690,
      "kay": 691,
      "ple": 692,
      "anc": 693,
      "Ġturned": 694,
      "dy": 695,
      "you": 696,
      "Ġmade": 697,
      "Ġevery": 698,
      "Ġpr": 699,
      "Ġsmile": 700,
      "Ġclo": 701,
      "Ġthought": 702,
      "ft": 703,
      "ily": 704,
      "Ġonly": 705,
      "ie": 706,
      "Ġwent": 707,
      "Ġnoah": 708,
      "Ġhere": 709,
      "Ġlau": 710,
      "eep": 711,
      "ap": 712,
      "Ġsc": 713,
      "Ġokay": 714,
      "Ġins": 715,
      "Ġwhere": 716,
      "ough": 717,
      "Ġtheir": 718,
      "Ġagainst": 719,
      "Ġfirst": 720,
      "Ġloo": 721,
      "Ġye": 722,
      "ady": 723,
      "Ġop": 724,
      "ach": 725,
      "Ġwom": 726,
      "ause": 727,
      "wh": 728,
      "Ġcar": 729,
      "Ġwell": 730,
      "Ġass": 731,
      "Ġshook": 732,
      "ek": 733,
      "Ġhapp": 734,
      "but": 735,
      "Ġtry": 736,
      "ated": 737,
      "..": 738,
      "ched": 739,
      "ious": 740,
      "med": 741,
      "Ġ...": 742,
      "Ġbot": 743,
      "ite": 744,
      "ol": 745,
      "Ġsur": 746,
      "Ġlips": 747,
      "Ġaway": 748,
      "Ġchest": 749,
      "Ġknew": 750,
      "Ġbeing": 751,
      "Ġthank": 752,
      "ning": 753,
      "sh": 754,
      "Ġv": 755,
      "Ġbab": 756,
      "ather": 757,
      "Ġmoment": 758,
      "em": 759,
      "get": 760,
      "Ġmar": 761,
      "Ġstill": 762,
      "Ġgave": 763,
      "Ġcall": 764,
      "Ġun": 765,
      "Ġfing": 766,
      "end": 767,
      "ghed": 768,
      "Ġfine": 769,
      "Ġcome": 770,
      "Ġarms": 771,
      "Ġbecause": 772,
      "iz": 773,
      "ince": 774,
      "Ġtell": 775,
      "ak": 776,
      "air": 777,
      "de": 778,
      "Ġnight": 779,
      "Ġkiss": 780,
      "age": 781,
      "ment": 782,
      "Ġac": 783,
      "Ġsor": 784,
      "owed": 785,
      "ted": 786,
      "Ġvery": 787,
      "Ġoh": 788,
      "ise": 789,
      "Ġanything": 790,
      "Ġwo": 791,
      "ween": 792,
      "Ġtr": 793,
      "Ġhair": 794,
      "Ġword": 795,
      "Ġwill": 796,
      "ered": 797,
      "Ġbetween": 798,
      "ang": 799,
      "Ġfo": 800,
      "ass": 801,
      "Ġgu": 802,
      "Ġgaz": 803,
      "ance": 804,
      "Ġple": 805,
      "Ġmean": 806,
      "Ġcont": 807,
      "aned": 808,
      "Ġherself": 809,
      "ows": 810,
      "room": 811,
      "Ġgrin": 812,
      "dded": 813,
      "xt": 814,
      "Ġwal": 815,
      "Ġunt": 816,
      "Ġsto": 817,
      "Ġbody": 818,
      "Ġbaby": 819,
      "ip": 820,
      "pr": 821,
      "Ġapp": 822,
      "ity": 823,
      "Ġexp": 824,
      "Ġuntil": 825,
      "cked": 826,
      "Ġwat": 827,
      "Ġlast": 828,
      "Ġint": 829,
      "Ġinside": 830,
      "Ġsorry": 831,
      "Ġcou": 832,
      "Ġpat": 833,
      "ured": 834,
      "ep": 835,
      "uck": 836,
      "Ġad": 837,
      "Ġheart": 838,
      "Ġunder": 839,
      "co": 840,
      "mo": 841,
      "sp": 842,
      "Ġ!": 843,
      "ag": 844,
      "ating": 845,
      "Ġwhile": 846,
      "Ġpulled": 847,
      "Ġplan": 848,
      "Ġlooked": 849,
      "rist": 850,
      "un": 851,
      "ull": 852,
      "Ġmind": 853,
      "ert": 854,
      "Ġshow": 855,
      "Ġfew": 856,
      "estion": 857,
      "Ġfeeling": 858,
      "ward": 859,
      "Ġour": 860,
      "Ġsince": 861,
      "Ġfam": 862,
      "ering": 863,
      "Ġbreath": 864,
      "Ġlaughed": 865,
      "Ġam": 866,
      "Ġlife": 867,
      "Ġswe": 868,
      "ars": 869,
      "aidan": 870,
      "ful": 871,
      "ig": 872,
      "ped": 873,
      "Ġel": 874,
      "Ġever": 875,
      "Ġquestion": 876,
      "Ġfinis": 877,
      "ild": 878,
      "Ġna": 879,
      "Ġpe": 880,
      "Ġsurpr": 881,
      "ased": 882,
      "Ġdoing": 883,
      "icked": 884,
      "Ġglanc": 885,
      "Ġboth": 886,
      "emma": 887,
      "risti": 888,
      "Ġnodded": 889,
      "Ġwoman": 890,
      "Ġra": 891,
      "Ġhu": 892,
      "Ġmur": 893,
      "Ġput": 894,
      "Ġgi": 895,
      "Ġsex": 896,
      "Ġfingers": 897,
      "mm": 898,
      "ty": 899,
      "rew": 900,
      "aring": 901,
      "Ġwhy": 902,
      "asey": 903,
      "Ġwait": 904,
      "les": 905,
      "mured": 906,
      "Ġside": 907,
      "Ġheld": 908,
      "Ġanother": 909,
      "Ġcare": 910,
      "lie": 911,
      "ction": 912,
      "Ġcheek": 913,
      "Ġthings": 914,
      "Ġfamily": 915,
      "Ġmurmured": 916,
      "mb": 917,
      "ner": 918,
      "Ġbrou": 919,
      "Ġtoget": 920,
      "Ġcr": 921,
      "ste": 922,
      "Ġnothing": 923,
      "Ġplay": 924,
      "Ġglanced": 925,
      "Ġtogether": 926,
      "Ġdin": 927,
      "ort": 928,
      "Ġrel": 929,
      "Ġnext": 930,
      "that": 931,
      "Ġtrying": 932,
      "Ġbrought": 933,
      "ually": 934,
      "Ġmin": 935,
      "ree": 936,
      "Ġstr": 937,
      "Ġslid": 938,
      "Ġhome": 939,
      "Ġpart": 940,
      "Ġgive": 941,
      "so": 942,
      "Ġmay": 943,
      "Ġtong": 944,
      "Ġopen": 945,
      "most": 946,
      "el": 947,
      "igh": 948,
      "oice": 949,
      "Ġdis": 950,
      "once": 951,
      "Ġbeh": 952,
      "Ġste": 953,
      "Ġkeep": 954,
      "irl": 955,
      "av": 956,
      "Ġtal": 957,
      "Ġcour": 958,
      "Ġhaving": 959,
      "Ġtaking": 960,
      "Ġtable": 961,
      "Ġleg": 962,
      "Ġwork": 963,
      "ways": 964,
      "stead": 965,
      "ff": 966,
      "my": 967,
      "Ġsn": 968,
      "Ġsat": 969,
      "Ġima": 970,
      "Ġfound": 971,
      "Ġph": 972,
      "Ġbegan": 973,
      "Ġsame": 974,
      "bbed": 975,
      "Ġtongue": 976,
      "ross": 977,
      "shed": 978,
      "Ġgetting": 979,
      "ence": 980,
      "Ġeach": 981,
      "Ġalways": 982,
      "pect": 983,
      "ression": 984,
      "Ġwords": 985,
      "Ġgrinned": 986,
      "Ġminut": 987,
      "Ġimag": 988,
      "ire": 989,
      "Ġhas": 990,
      "Ġfact": 991,
      "Ġfather": 992,
      "Ġonto": 993,
      "Ġready": 994,
      "Ġleft": 995,
      "Ġseat": 996,
      "Ġelse": 997,
      "ose": 998,
      "ined": 999,
      "Ġmight": 1000,
      "Ġcle": 1001,
      "Ġhers": 1002,
      "Ġgra": 1003,
      "Ġseemed": 1004,
      "Ġgaze": 1005,
      "ied": 1006,
      "ies": 1007,
      "Ġtru": 1008,
      "Ġdr": 1009,
      "issed": 1010,
      "ark": 1011,
      "owing": 1012,
      "otion": 1013,
      "Ġstay": 1014,
      "ich": 1015,
      "though": 1016,
      "ctor": 1017,
      "they": 1018,
      "Ġquick": 1019,
      "Ġbrows": 1020,
      "gged": 1021,
      "Ġbehind": 1022,
      "ssed": 1023,
      "Ġmother": 1024,
      "Ġbu": 1025,
      "Ġcu": 1026,
      "Ġonce": 1027,
      "ached": 1028,
      "Ġdoctor": 1029,
      "riend": 1030,
      "tered": 1031,
      "Ġalmost": 1032,
      "Ġsomeone": 1033,
      "Ġthough": 1034,
      "Ġenough": 1035,
      "Ġyeah": 1036,
      "Ġcourse": 1037,
      "Ġmat": 1038,
      "ised": 1039,
      "Ġper": 1040,
      "Ġneck": 1041,
      "Ġsaw": 1042,
      "Ġlea": 1043,
      "Ġspe": 1044,
      "iously": 1045,
      "cess": 1046,
      "oor": 1047,
      "Ġsound": 1048,
      "Ġold": 1049,
      "Ġtold": 1050,
      "Ġdeep": 1051,
      "Ġear": 1052,
      "Ġstu": 1053,
      "Ġrest": 1054,
      "Ġreal": 1055,
      "Ġke": 1056,
      "Ġwhich": 1057,
      "pping": 1058,
      "nts": 1059,
      "Ġwalked": 1060,
      "wn": 1061,
      "Ġtried": 1062,
      "Ġwr": 1063,
      "Ġwar": 1064,
      "Ġhell": 1065,
      "Ġmon": 1066,
      "ont": 1067,
      "ical": 1068,
      "Ġexpression": 1069,
      "ci": 1070,
      "ling": 1071,
      "sid": 1072,
      "Ġact": 1073,
      "Ġbit": 1074,
      "Ġgirl": 1075,
      "Ġreached": 1076,
      "Ġfloor": 1077,
      "Ġbetter": 1078,
      "what": 1079,
      "Ġcalled": 1080,
      "Ġsweet": 1081,
      "Ġlegs": 1082,
      "te": 1083,
      "zing": 1084,
      "Ġsw": 1085,
      "Ġson": 1086,
      "Ġsle": 1087,
      "Ġhur": 1088,
      "Ġfind": 1089,
      "Ġdes": 1090,
      "Ġend": 1091,
      "Ġmet": 1092,
      "ention": 1093,
      "Ġgod": 1094,
      "Ġvoice": 1095,
      "Ġwonder": 1096,
      "Ġfinished": 1097,
      "ream": 1098,
      "Ġthr": 1099,
      "Ġsuch": 1100,
      "Ġalong": 1101,
      "Ġrun": 1102,
      "Ġdinner": 1103,
      "ken": 1104,
      "ves": 1105,
      "Ġbur": 1106,
      "Ġpant": 1107,
      "Ġdoes": 1108,
      "Ġjo": 1109,
      "Ġcau": 1110,
      "Ġpull": 1111,
      "Ġplace": 1112,
      "able": 1113,
      "Ġpati": 1114,
      "gn": 1115,
      "Ġser": 1116,
      "Ġwid": 1117,
      "Ġdate": 1118,
      "Ġlot": 1119,
      "Ġeverything": 1120,
      "Ġopened": 1121,
      "ully": 1122,
      "day": 1123,
      "just": 1124,
      "less": 1125,
      "ne": 1126,
      "ople": 1127,
      "ys": 1128,
      "Ġdone": 1129,
      "Ġatt": 1130,
      "ool": 1131,
      "Ġfront": 1132,
      "Ġchild": 1133,
      "Ġbedroom": 1134,
      "Ġplease": 1135,
      "Ġappe": 1136,
      "aut": 1137,
      "ian": 1138,
      "no": 1139,
      "Ġsk": 1140,
      "ouse": 1141,
      "Ġhear": 1142,
      "Ġbest": 1143,
      "Ġnur": 1144,
      "Ġbelie": 1145,
      "Ġdev": 1146,
      "Ġguess": 1147,
      "Ġsurprise": 1148,
      "ced": 1149,
      "Ġ;": 1150,
      "instead": 1151,
      "Ġbus": 1152,
      "Ġdra": 1153,
      "ara": 1154,
      "Ġstared": 1155,
      "Ġjer": 1156,
      "Ġhold": 1157,
      "Ġslow": 1158,
      "Ġmost": 1159,
      "Ġfinally": 1160,
      "Ġclosed": 1161,
      "Ġacross": 1162,
      "cond": 1163,
      "Ġkept": 1164,
      "sw": 1165,
      "Ġfriend": 1166,
      "Ġni": 1167,
      "Ġbeaut": 1168,
      "Ġsho": 1169,
      "Ġsecond": 1170,
      "fully": 1171,
      "night": 1172,
      "Ġfar": 1173,
      "Ġcasey": 1174,
      "Ġwithout": 1175,
      "Ġmyself": 1176,
      "Ġansw": 1177,
      "Ġdec": 1178,
      "umb": 1179,
      "Ġfoll": 1180,
      "Ġplane": 1181,
      "Ġpeople": 1182,
      "aking": 1183,
      "for": 1184,
      "ged": 1185,
      "how": 1186,
      "sing": 1187,
      "tty": 1188,
      "Ġent": 1189,
      "Ġhot": 1190,
      "Ġbath": 1191,
      "ory": 1192,
      "Ġkristi": 1193,
      "Ġnew": 1194,
      "Ġsoon": 1195,
      "ably": 1196,
      "Ġcoming": 1197,
      "Ġhappy": 1198,
      "ever": 1199,
      "ued": 1200,
      "Ġsil": 1201,
      "Ġim": 1202,
      "Ġdri": 1203,
      "ital": 1204,
      "orn": 1205,
      "although": 1206,
      "ching": 1207,
      "Ġchuck": 1208,
      "Ġleaned": 1209,
      "iful": 1210,
      "Ġpretty": 1211,
      "Ġclose": 1212,
      "Ġbelieve": 1213,
      "jo": 1214,
      "sit": 1215,
      "then": 1216,
      "ank": 1217,
      "Ġdress": 1218,
      "Ġdark": 1219,
      "Ġgri": 1220,
      "aced": 1221,
      "Ġchair": 1222,
      "Ġhosp": 1223,
      "arents": 1224,
      "ized": 1225,
      "Ġcheeks": 1226,
      "Ġwidened": 1227,
      "Ġbeautiful": 1228,
      "Ġhospital": 1229,
      "cking": 1230,
      "of": 1231,
      "ud": 1232,
      "hes": 1233,
      "Ġhouse": 1234,
      "Ġbro": 1235,
      "Ġown": 1236,
      "Ġdad": 1237,
      "idd": 1238,
      "Ġres": 1239,
      "Ġrose": 1240,
      "Ġworld": 1241,
      "adeen": 1242,
      "Ġneeded": 1243,
      "Ġbrother": 1244,
      "Ġyears": 1245,
      "Ġwomen": 1246,
      "while": 1247,
      "Ġactually": 1248,
      "Ġsleep": 1249,
      "Ġpatient": 1250,
      "cu": 1251,
      "ness": 1252,
      "ten": 1253,
      "ying": 1254,
      "iness": 1255,
      "Ġwif": 1256,
      "ren": 1257,
      "ready": 1258,
      "assed": 1259,
      "ish": 1260,
      "Ġpain": 1261,
      "Ġeas": 1262,
      "Ġstand": 1263,
      "Ġkind": 1264,
      "Ġkissed": 1265,
      "Ġforward": 1266,
      "Ġhall": 1267,
      "Ġloved": 1268,
      "Ġconsid": 1269,
      "Ġbring": 1270,
      "Ġtrace": 1271,
      "Ġmonth": 1272,
      "Ġwife": 1273,
      "ond": 1274,
      "inking": 1275,
      "Ġwra": 1276,
      "reat": 1277,
      "Ġdi": 1278,
      "Ġpers": 1279,
      "Ġyet": 1280,
      "Ġele": 1281,
      "Ġmeet": 1282,
      "Ġweek": 1283,
      "Ġhalf": 1284,
      "Ġsupp": 1285,
      "Ġexact": 1286,
      "Ġwaist": 1287,
      "Ġshoulder": 1288,
      "Ġpoin": 1289,
      "oline": 1290,
      "Ġstop": 1291,
      "Ġleave": 1292,
      "ger": 1293,
      "ms": 1294,
      "now": 1295,
      "son": 1296,
      "Ġes": 1297,
      "Ġtu": 1298,
      "Ġbes": 1299,
      "Ġide": 1300,
      "Ġtonight": 1301,
      "Ġner": 1302,
      "Ġdro": 1303,
      "Ġpur": 1304,
      "Ġhimself": 1305,
      "ically": 1306,
      "Ġlip": 1307,
      "Ġable": 1308,
      "Ġrob": 1309,
      "Ġworry": 1310,
      "Ġalso": 1311,
      "Ġalready": 1312,
      "Ġarg": 1313,
      "Ġmaking": 1314,
      "Ġmany": 1315,
      "Ġbreak": 1316,
      "Ġenjo": 1317,
      "Ġprot": 1318,
      "Ġhappened": 1319,
      "Ġbott": 1320,
      "Ġwater": 1321,
      "Ġjerked": 1322,
      "lo": 1323,
      "tur": 1324,
      "ual": 1325,
      "Ġtight": 1326,
      "Ġaw": 1327,
      "Ġama": 1328,
      "Ġwhe": 1329,
      "rest": 1330,
      "Ġcra": 1331,
      "Ġdif": 1332,
      "Ġparents": 1333,
      "Ġlat": 1334,
      "Ġthose": 1335,
      "Ġyoung": 1336,
      "ides": 1337,
      "vered": 1338,
      "Ġsoft": 1339,
      "Ġglad": 1340,
      "Ġminutes": 1341,
      "Ġquickly": 1342,
      "Ġwrong": 1343,
      "Ġbathroom": 1344,
      "Ġexactly": 1345,
      "bably": 1346,
      "kes": 1347,
      "kristi": 1348,
      "Ġtou": 1349,
      "Ġap": 1350,
      "ought": 1351,
      "Ġmr": 1352,
      "Ġmed": 1353,
      "Ġthrew": 1354,
      "ening": 1355,
      "Ġstra": 1356,
      "irt": 1357,
      "light": 1358,
      "Ġexpect": 1359,
      "Ġfeet": 1360,
      "there": 1361,
      "Ġposs": 1362,
      "Ġprobably": 1363,
      "Ġclos": 1364,
      "Ġshower": 1365,
      "Ġstepped": 1366,
      "Ġmatter": 1367,
      "Ġchuckled": 1368,
      "Ġidea": 1369,
      "Ġamazing": 1370,
      "Ġdiffe": 1371,
      "ix": 1372,
      "side": 1373,
      "zy": 1374,
      "Ġsing": 1375,
      "Ġsit": 1376,
      "Ġhon": 1377,
      "ising": 1378,
      "Ġlow": 1379,
      "Ġstood": 1380,
      "Ġask": 1381,
      "Ġrolled": 1382,
      "Ġeyed": 1383,
      "Ġspo": 1384,
      "itting": 1385,
      "Ġran": 1386,
      "Ġeveryone": 1387,
      "Ġlaugh": 1388,
      "apter": 1389,
      "Ġcaroline": 1390,
      "ertain": 1391,
      "ertson": 1392,
      "Ġgiving": 1393,
      "Ġmaybe": 1394,
      "Ġtalk": 1395,
      "Ġhurt": 1396,
      "Ġperson": 1397,
      "Ġrobertson": 1398,
      "ia": 1399,
      "vous": 1400,
      "where": 1401,
      "head": 1402,
      "Ġtra": 1403,
      "Ġset": 1404,
      "Ġsight": 1405,
      "Ġsqu": 1406,
      "Ġhour": 1407,
      "Ġtoday": 1408,
      "Ġcry": 1409,
      "isper": 1410,
      "Ġgro": 1411,
      "Ġgent": 1412,
      "Ġgone": 1413,
      "itc": 1414,
      "ading": 1415,
      "Ġur": 1416,
      "Ġresp": 1417,
      "Ġwhisper": 1418,
      "antly": 1419,
      "chapter": 1420,
      "cept": 1421,
      "Ġchar": 1422,
      "Ġexam": 1423,
      "bbing": 1424,
      "ship": 1425,
      "Ġcontin": 1426,
      "Ġstopped": 1427,
      "Ġquestioned": 1428,
      "Ġphone": 1429,
      "Ġimagine": 1430,
      "Ġgrabbed": 1431,
      "not": 1432,
      "Ġten": 1433,
      "Ġfur": 1434,
      "ister": 1435,
      "Ġinter": 1436,
      "Ġere": 1437,
      "Ġstro": 1438,
      "vers": 1439,
      "Ġkara": 1440,
      "Ġkitc": 1441,
      "Ġshot": 1442,
      "Ġleast": 1443,
      "Ġemotion": 1444,
      "Ġhope": 1445,
      "Ġpregn": 1446,
      "without": 1447,
      "Ġdays": 1448,
      "Ġtrue": 1449,
      "Ġappeared": 1450,
      "Ġmonths": 1451,
      "Ġkitchen": 1452,
      "casey": 1453,
      "ier": 1454,
      "zed": 1455,
      "Ġwet": 1456,
      "ange": 1457,
      "Ġcertain": 1458,
      "Ġnice": 1459,
      "Ġdou": 1460,
      "asing": 1461,
      "arr": 1462,
      "Ġeased": 1463,
      "stand": 1464,
      "Ġreason": 1465,
      "uttered": 1466,
      "ict": 1467,
      "Ġshit": 1468,
      "Ġtaken": 1469,
      "ested": 1470,
      "Ġanyone": 1471,
      "Ġboy": 1472,
      "Ġothers": 1473,
      "Ġmary": 1474,
      "Ġcontro": 1475,
      "mbled": 1476,
      "Ġwarm": 1477,
      "Ġanswer": 1478,
      "Ġimp": 1479,
      "app": 1480,
      "erest": 1481,
      "fin": 1482,
      "og": 1483,
      "ining": 1484,
      "Ġhey": 1485,
      "Ġheat": 1486,
      "Ġheard": 1487,
      "Ġfall": 1488,
      "Ġcried": 1489,
      "Ġthree": 1490,
      "Ġstage": 1491,
      "Ġlight": 1492,
      "Ġliving": 1493,
      "Ġshru": 1494,
      "Ġseen": 1495,
      "Ġyourself": 1496,
      "Ġpushed": 1497,
      "Ġclot": 1498,
      "Ġspent": 1499,
      "fect": 1500,
      "Ġcomp": 1501,
      "Ġmarried": 1502,
      "Ġcoun": 1503,
      "Ġdaddy": 1504,
      "aw": 1505,
      "ame": 1506,
      "ton": 1507,
      "yed": 1508,
      "Ġwin": 1509,
      "Ġwall": 1510,
      "Ġhit": 1511,
      "Ġfood": 1512,
      "Ġfill": 1513,
      "Ġcur": 1514,
      "Ġnadeen": 1515,
      "Ġpast": 1516,
      "aded": 1517,
      "Ġeat": 1518,
      "ided": 1519,
      "let": 1520,
      "Ġstom": 1521,
      "enty": 1522,
      "memb": 1523,
      "Ġteased": 1524,
      "Ġblue": 1525,
      "Ġwhole": 1526,
      "using": 1527,
      "Ġcomple": 1528,
      "Ġshoulders": 1529,
      "Ġknees": 1530,
      "Ġprom": 1531,
      "Ġpleas": 1532,
      "Ġinterest": 1533,
      "Ġrelation": 1534,
      "Ġfriends": 1535,
      "Ġnervous": 1536,
      "Ġlater": 1537,
      "bed": 1538,
      "do": 1539,
      "mason": 1540,
      "Ġair": 1541,
      "Ġsister": 1542,
      "Ġhi": 1543,
      "Ġmor": 1544,
      "rent": 1545,
      "Ġbad": 1546,
      "Ġfun": 1547,
      "Ġcut": 1548,
      "ator": 1549,
      "ene": 1550,
      "Ġrememb": 1551,
      "uth": 1552,
      "aled": 1553,
      "Ġfell": 1554,
      "Ġspend": 1555,
      "Ġconf": 1556,
      "ately": 1557,
      "Ġbox": 1558,
      "Ġturn": 1559,
      "Ġlooking": 1560,
      "Ġminute": 1561,
      "Ġwrapped": 1562,
      "Ġweeks": 1563,
      "Ġcontinued": 1564,
      "Ġrelationship": 1565,
      "ax": 1566,
      "ake": 1567,
      "ible": 1568,
      "man": 1569,
      "ric": 1570,
      "Ġsen": 1571,
      "oud": 1572,
      "Ġhor": 1573,
      "Ġmine": 1574,
      "ret": 1575,
      "ans": 1576,
      "ash": 1577,
      "Ġpri": 1578,
      "Ġthigh": 1579,
      "Ġthinking": 1580,
      "Ġinc": 1581,
      "owd": 1582,
      "Ġum": 1583,
      "Ġreg": 1584,
      "Ġkid": 1585,
      "Ġang": 1586,
      "this": 1587,
      "Ġheaded": 1588,
      "Ġtimes": 1589,
      "Ġemb": 1590,
      "Ġtwenty": 1591,
      "Ġsaying": 1592,
      "Ġscream": 1593,
      "ize": 1594,
      "Ġcouple": 1595,
      "Ġadm": 1596,
      "Ġpants": 1597,
      "Ġcaused": 1598,
      "Ġpulling": 1599,
      "Ġattention": 1600,
      "Ġbusiness": 1601,
      "Ġholding": 1602,
      "Ġfollowed": 1603,
      "Ġdifferent": 1604,
      "Ġcomplete": 1605,
      "by": 1606,
      "mand": 1607,
      "osed": 1608,
      "red": 1609,
      "oun": 1610,
      "Ġmen": 1611,
      "Ġmust": 1612,
      "Ġmmm": 1613,
      "Ġcat": 1614,
      "Ġpa": 1615,
      "Ġlap": 1616,
      "Ġstaring": 1617,
      "Ġrem": 1618,
      "uring": 1619,
      "icking": 1620,
      "Ġshirt": 1621,
      "Ġknown": 1622,
      "Ġmanag": 1623,
      "Ġblack": 1624,
      "Ġcock": 1625,
      "Ġfinger": 1626,
      "Ġgazed": 1627,
      "Ġunderstand": 1628,
      "Ġcrowd": 1629,
      "Ġtruly": 1630,
      "Ġerection": 1631,
      "come": 1632,
      "du": 1633,
      "ls": 1634,
      "rick": 1635,
      "ses": 1636,
      "vator": 1637,
      "Ġsig": 1638,
      "Ġmotion": 1639,
      "ressed": 1640,
      "Ġbig": 1641,
      "Ġob": 1642,
      "Ġpin": 1643,
      "Ġled": 1644,
      "Ġgas": 1645,
      "Ġgreat": 1646,
      "ither": 1647,
      "Ġmeant": 1648,
      "Ġoutside": 1649,
      "Ġkno": 1650,
      "Ġsucked": 1651,
      "Ġabs": 1652,
      "like": 1653,
      "rupt": 1654,
      "Ġeye": 1655,
      "Ġexper": 1656,
      "Ġteasing": 1657,
      "Ġgrim": 1658,
      "Ġquite": 1659,
      "Ġharder": 1660,
      "ancing": 1661,
      "Ġthoughts": 1662,
      "Ġspeak": 1663,
      "Ġsounds": 1664,
      "Ġskin": 1665,
      "Ġelevator": 1666,
      "Ġgentle": 1667,
      "versation": 1668,
      "Ġpregnant": 1669,
      "Ġcertainly": 1670,
      "Ġmorning": 1671,
      "Ġexperi": 1672,
      "even": 1673,
      "some": 1674,
      "shing": 1675,
      "ta": 1676,
      "ult": 1677,
      "udd": 1678,
      "Ġer": 1679,
      "Ġtast": 1680,
      "Ġaf": 1681,
      "Ġau": 1682,
      "Ġahead": 1683,
      "Ġsi": 1684,
      "Ġsitting": 1685,
      "Ġbra": 1686,
      "Ġtop": 1687,
      "Ġdru": 1688,
      "Ġdance": 1689,
      "Ġla": 1690,
      "Ġthro": 1691,
      "Ġthir": 1692,
      "Ġinv": 1693,
      "Ġits": 1694,
      "Ġwel": 1695,
      "Ġforth": 1696,
      "Ġje": 1697,
      "Ġjade": 1698,
      "Ġjud": 1699,
      "iling": 1700,
      "Ġwhatever": 1701,
      "Ġsmall": 1702,
      "Ġworking": 1703,
      "Ġpun": 1704,
      "Ġconversation": 1705,
      "Ġcheck": 1706,
      "Ġdeal": 1707,
      "ively": 1708,
      "Ġred": 1709,
      "Ġbreat": 1710,
      "Ġmommy": 1711,
      "before": 1712,
      "anged": 1713,
      "Ġappre": 1714,
      "Ġwatched": 1715,
      "Ġsurprised": 1716,
      "Ġgigg": 1717,
      "Ġparty": 1718,
      "Ġdrive": 1719,
      "Ġconsidering": 1720,
      "Ġwheel": 1721,
      "Ġrespon": 1722,
      "Ġwhispered": 1723,
      "Ġstomach": 1724,
      "Ġpleasure": 1725,
      "Ġthighs": 1726,
      "Ġcompletely": 1727,
      "band": 1728,
      "father": 1729,
      "ung": 1730,
      "incess": 1731,
      "Ġhmm": 1732,
      "Ġmidd": 1733,
      "Ġmuttered": 1734,
      "Ġfought": 1735,
      "ism": 1736,
      "Ġpass": 1737,
      "its": 1738,
      "lling": 1739,
      "Ġused": 1740,
      "Ġref": 1741,
      "Ġwhite": 1742,
      "ions": 1743,
      "Ġcausing": 1744,
      "Ġlear": 1745,
      "Ġexh": 1746,
      "Ġseem": 1747,
      "Ġclit": 1748,
      "Ġdemand": 1749,
      "ush": 1750,
      "Ġlooks": 1751,
      "Ġname": 1752,
      "Ġwaiting": 1753,
      "Ġswall": 1754,
      "Ġbeside": 1755,
      "Ġtouch": 1756,
      "Ġhours": 1757,
      "Ġgroaned": 1758,
      "Ġdoub": 1759,
      "Ġremember": 1760,
      "Ġthroat": 1761,
      "Ġmiddle": 1762,
      "bo": 1763,
      "lic": 1764,
      "may": 1765,
      "pl": 1766,
      "tr": 1767,
      "uation": 1768,
      "Ġter": 1769,
      "ins": 1770,
      "Ġmess": 1771,
      "Ġmention": 1772,
      "rely": 1773,
      "Ġbru": 1774,
      "Ġtot": 1775,
      "Ġfour": 1776,
      "ern": 1777,
      "Ġdu": 1778,
      "Ġdating": 1779,
      "Ġless": 1780,
      "Ġlicked": 1781,
      "arily": 1782,
      "imes": 1783,
      "acked": 1784,
      "Ġform": 1785,
      "ute": 1786,
      "ghter": 1787,
      "Ġshif": 1788,
      "Ġshudd": 1789,
      "Ġchin": 1790,
      "Ġalone": 1791,
      "Ġconc": 1792,
      "Ġpress": 1793,
      "Ġlonger": 1794,
      "Ġprincess": 1795,
      "Ġacc": 1796,
      "Ġtruth": 1797,
      "Ġwatch": 1798,
      "Ġfinish": 1799,
      "Ġraised": 1800,
      "Ġrelax": 1801,
      "avan": 1802,
      "Ġimagined": 1803,
      "Ġclean": 1804,
      "Ġdrink": 1805,
      "Ġthrust": 1806,
      "Ġcaught": 1807,
      "Ġserious": 1808,
      "iane": 1809,
      "Ġnurse": 1810,
      "form": 1811,
      "Ġpoint": 1812,
      "Ġesc": 1813,
      "Ġdropped": 1814,
      "Ġbottom": 1815,
      "Ġmedic": 1816,
      "Ġstraight": 1817,
      "Ġcontrol": 1818,
      "Ġshrugged": 1819,
      "Ġcounter": 1820,
      "Ġfilled": 1821,
      "bs": 1822,
      "fort": 1823,
      "iet": 1824,
      "mor": 1825,
      "os": 1826,
      "ring": 1827,
      "zz": 1828,
      "Ġtrou": 1829,
      "Ġhigh": 1830,
      "Ġbent": 1831,
      "Ġball": 1832,
      "Ġfre": 1833,
      "Ġfut": 1834,
      "Ġfull": 1835,
      "Ġpen": 1836,
      "Ġpar": 1837,
      "Ġground": 1838,
      "Ġinst": 1839,
      "Ġinstead": 1840,
      "ored": 1841,
      "eth": 1842,
      "Ġstare": 1843,
      "Ġretur": 1844,
      "iced": 1845,
      "Ġlift": 1846,
      "ired": 1847,
      "Ġank": 1848,
      "cted": 1849,
      "Ġchance": 1850,
      "Ġchange": 1851,
      "Ġsec": 1852,
      "Ġworked": 1853,
      "Ġclim": 1854,
      "aming": 1855,
      "Ġblood": 1856,
      "peci": 1857,
      "Ġletting": 1858,
      "airs": 1859,
      "Ġwalking": 1860,
      "Ġcouch": 1861,
      "Ġplaying": 1862,
      "Ġstrand": 1863,
      "Ġtalking": 1864,
      "Ġhello": 1865,
      "Ġbroke": 1866,
      "Ġeasy": 1867,
      "Ġbringing": 1868,
      "Ġcrazy": 1869,
      "finally": 1870,
      "Ġpromise": 1871,
      "Ġwelcome": 1872,
      "avani": 1873,
      "Ġtrouble": 1874,
      "Ġfuture": 1875,
      "pecially": 1876,
      "ald": 1877,
      "ding": 1878,
      "every": 1879,
      "go": 1880,
      "ib": 1881,
      "lain": 1882,
      "more": 1883,
      "ror": 1884,
      "set": 1885,
      "Ġsong": 1886,
      "Ġwed": 1887,
      "Ġhus": 1888,
      "Ġhang": 1889,
      "Ġmiss": 1890,
      "Ġthese": 1891,
      "Ġfit": 1892,
      "Ġfle": 1893,
      "Ġfly": 1894,
      "Ġcro": 1895,
      "ates": 1896,
      "Ġpound": 1897,
      "Ġpicked": 1898,
      "Ġpassed": 1899,
      "Ġlit": 1900,
      "Ġline": 1901,
      "Ġgon": 1902,
      "Ġbelt": 1903,
      "veta": 1904,
      "acing": 1905,
      "Ġstre": 1906,
      "rodu": 1907,
      "ices": 1908,
      "Ġshort": 1909,
      "irth": 1910,
      "pple": 1911,
      "Ġsugg": 1912,
      "oney": 1913,
      "Ġfear": 1914,
      "Ġseeing": 1915,
      "Ġclen": 1916,
      "Ġglass": 1917,
      "Ġcover": 1918,
      "Ġcocked": 1919,
      "Ġgotten": 1920,
      "Ġmove": 1921,
      "Ġeng": 1922,
      "Ġhelped": 1923,
      "Ġrubbed": 1924,
      "Ġthanks": 1925,
      "Ġunc": 1926,
      "Ġintrodu": 1927,
      "Ġpatrick": 1928,
      "Ġhung": 1929,
      "Ġstrong": 1930,
      "Ġwonderful": 1931,
      "Ġhotel": 1932,
      "Ġsquee": 1933,
      "Ġurge": 1934,
      "Ġemotions": 1935,
      "Ġclothes": 1936,
      "Ġtaste": 1937,
      "Ġsighed": 1938,
      "Ġappreci": 1939,
      "dian": 1940,
      "gl": 1941,
      "gin": 1942,
      "ho": 1943,
      "low": 1944,
      "rowed": 1945,
      "taking": 1946,
      "Ġed": 1947,
      "Ġty": 1948,
      "Ġsch": 1949,
      "Ġwine": 1950,
      "read": 1951,
      "Ġba": 1952,
      "aning": 1953,
      "Ġtoward": 1954,
      "Ġfair": 1955,
      "Ġcas": 1956,
      "Ġcorn": 1957,
      "Ġdrew": 1958,
      "nding": 1959,
      "Ġpap": 1960,
      "Ġland": 1961,
      "Ġindian": 1962,
      "sts": 1963,
      "oth": 1964,
      "Ġuh": 1965,
      "Ġund": 1966,
      "ets": 1967,
      "Ġstory": 1968,
      "Ġliked": 1969,
      "Ġshy": 1970,
      "Ġju": 1971,
      "thank": 1972,
      "Ġnose": 1973,
      "Ġwants": 1974,
      "rap": 1975,
      "Ġbutton": 1976,
      "Ġrobe": 1977,
      "wel": 1978,
      "Ġempt": 1979,
      "Ġago": 1980,
      "Ġtears": 1981,
      "isted": 1982,
      "Ġgrand": 1983,
      "Ġturning": 1984,
      "Ġblond": 1985,
      "Ġcoll": 1986,
      "Ġcomes": 1987,
      "Ġmoaned": 1988,
      "gging": 1989,
      "umped": 1990,
      "ments": 1991,
      "Ġhuh": 1992,
      "Ġcareer": 1993,
      "Ġdining": 1994,
      "Ġdisapp": 1995,
      "Ġphys": 1996,
      "Ġclear": 1997,
      "Ġcupped": 1998,
      "Ġperfect": 1999,
      "Ġstuff": 2000,
      "Ġrealized": 2001,
      "Ġrunning": 2002,
      "Ġburied": 2003,
      "Ġseriously": 2004,
      "Ġnipple": 2005,
      "Ġdecided": 2006,
      "Ġgripped": 2007,
      "Ġargue": 2008,
      "Ġapart": 2009,
      "Ġapol": 2010,
      "Ġcloser": 2011,
      "Ġhonest": 2012,
      "Ġcrying": 2013,
      "Ġfurrowed": 2014,
      "Ġinterrupt": 2015,
      "Ġembarr": 2016,
      "Ġsign": 2017,
      "Ġjudge": 2018,
      "Ġswallowed": 2019,
      "Ġhusband": 2020,
      "io": 2021,
      "row": 2022,
      "sc": 2023,
      "heart": 2024,
      "Ġadded": 2025,
      "Ġsigh": 2026,
      "Ġslight": 2027,
      "Ġbare": 2028,
      "Ġbite": 2029,
      "Ġfight": 2030,
      "Ġfree": 2031,
      "Ġdist": 2032,
      "Ġlist": 2033,
      "Ġloud": 2034,
      "Ġgown": 2035,
      "Ġgru": 2036,
      "orted": 2037,
      "ary": 2038,
      "stairs": 2039,
      "Ġrema": 2040,
      "Ġforg": 2041,
      "Ġshiane": 2042,
      "rie": 2043,
      "tering": 2044,
      "ils": 2045,
      "Ġsafe": 2046,
      "Ġchart": 2047,
      "Ġexc": 2048,
      "Ġsear": 2049,
      "Ġclin": 2050,
      "Ġplate": 2051,
      "Ġteeth": 2052,
      "Ġdeath": 2053,
      "Ġord": 2054,
      "Ġmused": 2055,
      "Ġring": 2056,
      "Ġpressed": 2057,
      "Ġevening": 2058,
      "Ġdoors": 2059,
      "Ġproble": 2060,
      "Ġbecome": 2061,
      "Ġyear": 2062,
      "olute": 2063,
      "Ġtelling": 2064,
      "dev": 2065,
      "Ġfoot": 2066,
      "Ġguy": 2067,
      "Ġpatted": 2068,
      "Ġelb": 2069,
      "Ġmaya": 2070,
      "Ġgodfather": 2071,
      "Ġslowly": 2072,
      "Ġshock": 2073,
      "Ġentire": 2074,
      "Ġmeeting": 2075,
      "Ġespecially": 2076,
      "Ġpurse": 2077,
      "Ġenjoyed": 2078,
      "Ġwinked": 2079,
      "Ġhips": 2080,
      "Ġmanaged": 2081,
      "Ġobv": 2082,
      "Ġgasped": 2083,
      "Ġabsolute": 2084,
      "Ġexperience": 2085,
      "Ġtotally": 2086,
      "Ġpenis": 2087,
      "Ġlifted": 2088,
      "Ġankle": 2089,
      "glancing": 2090,
      "Ġbapt": 2091,
      "Ġempty": 2092,
      "apped": 2093,
      "bes": 2094,
      "cy": 2095,
      "cing": 2096,
      "ect": 2097,
      "gas": 2098,
      "ial": 2099,
      "since": 2100,
      "used": 2101,
      "ushed": 2102,
      "Ġtip": 2103,
      "Ġwink": 2104,
      "Ġwind": 2105,
      "Ġwild": 2106,
      "Ġmia": 2107,
      "Ġbene": 2108,
      "Ġbirth": 2109,
      "Ġfix": 2110,
      "Ġcor": 2111,
      "Ġdet": 2112,
      "Ġdressed": 2113,
      "ashed": 2114,
      "Ġlust": 2115,
      "Ġlab": 2116,
      "Ġlate": 2117,
      "Ġthri": 2118,
      "ited": 2119,
      "lly": 2120,
      "Ġinf": 2121,
      "Ġev": 2122,
      "ident": 2123,
      "Ġrele": 2124,
      "Ġkill": 2125,
      "Ġwear": 2126,
      "Ġshare": 2127,
      "Ġshveta": 2128,
      "ility": 2129,
      "Ġnoticed": 2130,
      "raid": 2131,
      "Ġrock": 2132,
      "Ġworried": 2133,
      "Ġseems": 2134,
      "Ġanymore": 2135,
      "Ġorgas": 2136,
      "itted": 2137,
      "Ġflush": 2138,
      "Ġquiet": 2139,
      "Ġneeds": 2140,
      "Ġcomm": 2141,
      "Ġposit": 2142,
      "Ġprocess": 2143,
      "Ġusually": 2144,
      "Ġpract": 2145,
      "Ġwalk": 2146,
      "Ġexplain": 2147,
      "unch": 2148,
      "Ġwaited": 2149,
      "avor": 2150,
      "Ġstayed": 2151,
      "Ġcup": 2152,
      "Ġperform": 2153,
      "Ġleaving": 2154,
      "Ġstud": 2155,
      "cial": 2156,
      "Ġended": 2157,
      "Ġbusy": 2158,
      "Ġsilence": 2159,
      "Ġbrothers": 2160,
      "Ġstanding": 2161,
      "Ġsupposed": 2162,
      "Ġbesides": 2163,
      "Ġprotested": 2164,
      "Ġpossible": 2165,
      "Ġkids": 2166,
      "Ġadmit": 2167,
      "Ġremind": 2168,
      "Ġgrimaced": 2169,
      "Ġgentleman": 2170,
      "Ġafraid": 2171,
      "Ġdemanded": 2172,
      "Ġdoubt": 2173,
      "Ġstrands": 2174,
      "Ġwedding": 2175,
      "Ġschool": 2176,
      "Ġblonde": 2177,
      "Ġbarely": 2178,
      "Ġclinical": 2179,
      "Ġproblem": 2180,
      "Ġbaptism": 2181,
      "con": 2182,
      "fr": 2183,
      "fet": 2184,
      "fess": 2185,
      "ging": 2186,
      "gth": 2187,
      "mother": 2188,
      "ping": 2189,
      "sure": 2190,
      "up": 2191,
      "uct": 2192,
      "ze": 2193,
      "zger": 2194,
      "Ġtin": 2195,
      "int": 2196,
      "Ġsent": 2197,
      "Ġsal": 2198,
      "Ġsli": 2199,
      "Ġhar": 2200,
      "ane": 2201,
      "Ġfive": 2202,
      "Ġfavor": 2203,
      "Ġce": 2204,
      "Ġcity": 2205,
      "Ġnor": 2206,
      "Ġdau": 2207,
      "ises": 2208,
      "Ġpict": 2209,
      "Ġlen": 2210,
      "Ġgre": 2211,
      "ense": 2212,
      "Ġbeau": 2213,
      "oming": 2214,
      "ime": 2215,
      "Ġuse": 2216,
      "Ġstar": 2217,
      "Ġasking": 2218,
      "Ġwearing": 2219,
      "Ġfork": 2220,
      "ents": 2221,
      "Ġshut": 2222,
      "irled": 2223,
      "eeper": 2224,
      "usted": 2225,
      "Ġhanded": 2226,
      "Ġtab": 2227,
      "Ġchoice": 2228,
      "Ġchanged": 2229,
      "Ġspot": 2230,
      "Ġspread": 2231,
      "Ġsomewhat": 2232,
      "Ġdep": 2233,
      "Ġgame": 2234,
      "Ġmale": 2235,
      "Ġcovered": 2236,
      "Ġwaved": 2237,
      "Ġmov": 2238,
      "Ġmoved": 2239,
      "Ġenc": 2240,
      "Ġprep": 2241,
      "Ġsometimes": 2242,
      "Ġmomentarily": 2243,
      "Ġkissing": 2244,
      "Ġwilling": 2245,
      "Ġadv": 2246,
      "Ġfeelings": 2247,
      "Ġsteering": 2248,
      "Ġsweetheart": 2249,
      "Ġwondered": 2250,
      "Ġchildren": 2251,
      "noah": 2252,
      "Ġnurses": 2253,
      "Ġdraw": 2254,
      "Ġmedical": 2255,
      "Ġcloset": 2256,
      "Ġsituation": 2257,
      "Ġhonor": 2258,
      "Ġlaughing": 2259,
      "Ġpriv": 2260,
      "Ġdrun": 2261,
      "Ġlaid": 2262,
      "Ġthirty": 2263,
      "Ġbreathing": 2264,
      "Ġpassion": 2265,
      "Ġpressure": 2266,
      "Ġinstru": 2267,
      "Ġclimbed": 2268,
      "Ġsqueezed": 2269,
      "Ġpapa": 2270,
      "besides": 2271,
      "Ġbeneath": 2272,
      "zgerald": 2273,
      "cent": 2274,
      "hood": 2275,
      "tled": 2276,
      "tress": 2277,
      "ues": 2278,
      "zi": 2279,
      "Ġtre": 2280,
      "Ġtri": 2281,
      "Ġheav": 2282,
      "Ġhated": 2283,
      "any": 2284,
      "Ġtomor": 2285,
      "Ġfas": 2286,
      "Ġfore": 2287,
      "Ġfab": 2288,
      "Ġfist": 2289,
      "Ġfire": 2290,
      "Ġcore": 2291,
      "atively": 2292,
      "Ġdry": 2293,
      "Ġdick": 2294,
      "Ġdeeper": 2295,
      "Ġthumb": 2296,
      "itor": 2297,
      "ord": 2298,
      "Ġeating": 2299,
      "Ġeither": 2300,
      "leep": 2301,
      "Ġstate": 2302,
      "Ġstep": 2303,
      "Ġasleep": 2304,
      "Ġwithin": 2305,
      "Ġweak": 2306,
      "Ġforget": 2307,
      "ooking": 2308,
      "Ġant": 2309,
      "Ġanx": 2310,
      "Ġwanting": 2311,
      "Ġexcu": 2312,
      "well": 2313,
      "ault": 2314,
      "ardless": 2315,
      "Ġage": 2316,
      "Ġloving": 2317,
      "Ġlocked": 2318,
      "Ġloves": 2319,
      "ames": 2320,
      "Ġtem": 2321,
      "Ġconv": 2322,
      "Ġarea": 2323,
      "Ġmakes": 2324,
      "Ġflat": 2325,
      "Ġflesh": 2326,
      "Ġbobbed": 2327,
      "Ġstarting": 2328,
      "ddy": 2329,
      "Ġprofess": 2330,
      "Ġbecame": 2331,
      "aped": 2332,
      "Ġhappen": 2333,
      "medi": 2334,
      "Ġaccept": 2335,
      "Ġguys": 2336,
      "Ġmeans": 2337,
      "Ġbuddy": 2338,
      "Ġmattress": 2339,
      "Ġspecial": 2340,
      "Ġburst": 2341,
      "Ġpanties": 2342,
      "Ġjob": 2343,
      "Ġappear": 2344,
      "Ġnursing": 2345,
      "Ġkinda": 2346,
      "Ġhallway": 2347,
      "Ġsuppose": 2348,
      "Ġtub": 2349,
      "turning": 2350,
      "Ġpersonal": 2351,
      "Ġwalls": 2352,
      "Ġinterested": 2353,
      "Ġmotioned": 2354,
      "Ġgiggled": 2355,
      "maybe": 2356,
      "Ġreturned": 2357,
      "Ġfitzgerald": 2358,
      "Ġsuggested": 2359,
      "Ġappreciate": 2360,
      "Ġedge": 2361,
      "Ġtype": 2362,
      "Ġabsolutely": 2363,
      "from": 2364,
      "Ġtiny": 2365,
      "Ġpicture": 2366,
      "Ġlength": 2367,
      "Ġtomorrow": 2368,
      "aked": 2369,
      "each": 2370,
      "ga": 2371,
      "hn": 2372,
      "miss": 2373,
      "nadeen": 2374,
      "oh": 2375,
      "ras": 2376,
      "Ġve": 2377,
      "Ġsy": 2378,
      "Ġsim": 2379,
      "Ġwore": 2380,
      "Ġhesit": 2381,
      "Ġmass": 2382,
      "Ġbother": 2383,
      "Ġir": 2384,
      "Ġice": 2385,
      "Ġfast": 2386,
      "Ġcal": 2387,
      "Ġcared": 2388,
      "Ġcool": 2389,
      "Ġdream": 2390,
      "Ġduring": 2391,
      "ision": 2392,
      "Ġpink": 2393,
      "Ġpick": 2394,
      "Ġpissed": 2395,
      "essed": 2396,
      "ities": 2397,
      "Ġoften": 2398,
      "Ġbeaming": 2399,
      "owled": 2400,
      "iding": 2401,
      "Ġmerely": 2402,
      "imper": 2403,
      "Ġult": 2404,
      "Ġsta": 2405,
      "Ġreco": 2406,
      "Ġrelie": 2407,
      "Ġwhimper": 2408,
      "rived": 2409,
      "Ġjaw": 2410,
      "Ġjumped": 2411,
      "ustr": 2412,
      "ilt": 2413,
      "Ġhandle": 2414,
      "Ġsuit": 2415,
      "Ġlead": 2416,
      "Ġclas": 2417,
      "amm": 2418,
      "Ġchew": 2419,
      "Ġsomehow": 2420,
      "Ġdeli": 2421,
      "Ġmumbled": 2422,
      "Ġbyp": 2423,
      "Ġflow": 2424,
      "Ġflicked": 2425,
      "Ġgrowing": 2426,
      "Ġcol": 2427,
      "Ġcond": 2428,
      "Ġcomfort": 2429,
      "action": 2430,
      "Ġrubbing": 2431,
      "Ġusing": 2432,
      "Ġusual": 2433,
      "bbled": 2434,
      "itely": 2435,
      "Ġmoments": 2436,
      "Ġmark": 2437,
      "Ġkisses": 2438,
      "agement": 2439,
      "Ġstrang": 2440,
      "avis": 2441,
      "Ġsnorted": 2442,
      "Ġgrab": 2443,
      "Ġolder": 2444,
      "Ġwarmed": 2445,
      "Ġgirls": 2446,
      "Ġdesper": 2447,
      "Ġdesire": 2448,
      "Ġgodmother": 2449,
      "Ġpointed": 2450,
      "Ġargued": 2451,
      "Ġenjoy": 2452,
      "Ġprotest": 2453,
      "Ġbottle": 2454,
      "Ġlowered": 2455,
      "Ġspoke": 2456,
      "Ġexamining": 2457,
      "Ġregret": 2458,
      "Ġaunts": 2459,
      "Ġdriveway": 2460,
      "Ġresponse": 2461,
      "Ġexhaled": 2462,
      "Ġbrushed": 2463,
      "Ġmedicine": 2464,
      "Ġsecur": 2465,
      "Ġflew": 2466,
      "Ġflying": 2467,
      "Ġcrossed": 2468,
      "Ġcorners": 2469,
      "Ġinterrupted": 2470,
      "Ġforgot": 2471,
      "Ġobviously": 2472,
      "Ġthrilled": 2473,
      "Ġtables": 2474,
      "Ġmovie": 2475,
      "Ġheavy": 2476,
      "Ġexcuse": 2477,
      "Ġprofession": 2478,
      "rasound": 2479,
      "Ġcalm": 2480,
      "Ġultrasound": 2481,
      "ber": 2482,
      "ear": 2483,
      "fast": 2484,
      "fied": 2485,
      "ha": 2486,
      "ler": 2487,
      "opt": 2488,
      "spect": 2489,
      "whe": 2490,
      "zie": 2491,
      "Ġtant": 2492,
      "Ġtits": 2493,
      "ination": 2494,
      "Ġwow": 2495,
      "Ġwide": 2496,
      "Ġbul": 2497,
      "Ġbag": 2498,
      "inged": 2499,
      "ann": 2500,
      "Ġfa": 2501,
      "Ġfuck": 2502,
      "Ġcum": 2503,
      "Ġnumb": 2504,
      "Ġnarr": 2505,
      "Ġdon": 2506,
      "ished": 2507,
      "Ġpay": 2508,
      "Ġpee": 2509,
      "Ġpill": 2510,
      "Ġluck": 2511,
      "Ġlunch": 2512,
      "ones": 2513,
      "enzie": 2514,
      "add": 2515,
      "aching": 2516,
      "Ġstri": 2517,
      "Ġanger": 2518,
      "Ġnod": 2519,
      "Ġsav": 2520,
      "Ġsub": 2521,
      "Ġheadset": 2522,
      "Ġfrustr": 2523,
      "Ġsmacked": 2524,
      "Ġext": 2525,
      "Ġself": 2526,
      "Ġallowed": 2527,
      "Ġalpesh": 2528,
      "Ġalthough": 2529,
      "Ġpush": 2530,
      "ckenzie": 2531,
      "Ġagre": 2532,
      "Ġagree": 2533,
      "Ġlost": 2534,
      "Ġanywhere": 2535,
      "Ġspl": 2536,
      "Ġsomewhere": 2537,
      "Ġdelic": 2538,
      "Ġtwins": 2539,
      "Ġrising": 2540,
      "ulous": 2541,
      "Ġfeels": 2542,
      "Ġcoat": 2543,
      "Ġbreast": 2544,
      "Ġprec": 2545,
      "Ġpock": 2546,
      "ancy": 2547,
      "ield": 2548,
      "Ġscru": 2549,
      "why": 2550,
      "Ġcalling": 2551,
      "anging": 2552,
      "Ġadopt": 2553,
      "Ġputting": 2554,
      "Ġgiven": 2555,
      "Ġreluct": 2556,
      "els": 2557,
      "Ġphot": 2558,
      "Ġcleared": 2559,
      "Ġrealize": 2560,
      "Ġdeser": 2561,
      "Ġjoin": 2562,
      "ney": 2563,
      "Ġsky": 2564,
      "Ġseconds": 2565,
      "Ġentered": 2566,
      "Ġsilk": 2567,
      "Ġgrip": 2568,
      "idden": 2569,
      "Ġsoftly": 2570,
      "ograp": 2571,
      "Ġspending": 2572,
      "Ġangie": 2573,
      "Ġpaper": 2574,
      "somehow": 2575,
      "Ġrespons": 2576,
      "Ġlearned": 2577,
      "Ġshift": 2578,
      "Ġconcern": 2579,
      "Ġaccident": 2580,
      "Ġballs": 2581,
      "Ġclenched": 2582,
      "hold": 2583,
      "Ġapolog": 2584,
      "Ġembarrass": 2585,
      "Ġremained": 2586,
      "Ġpractically": 2587,
      "Ġfavorite": 2588,
      "Ġdrunk": 2589,
      "Ġinstructed": 2590,
      "mediately": 2591,
      "Ġcomfortable": 2592,
      "Ġsecurity": 2593,
      "aur": 2594,
      "blic": 2595,
      "cl": 2596,
      "did": 2597,
      "ior": 2598,
      "jay": 2599,
      "kward": 2600,
      "lavani": 2601,
      "mer": 2602,
      "nor": 2603,
      "oc": 2604,
      "over": 2605,
      "ph": 2606,
      "pid": 2607,
      "pled": 2608,
      "time": 2609,
      "was": 2610,
      "Ġtent": 2611,
      "Ġtie": 2612,
      "Ġsou": 2613,
      "Ġsar": 2614,
      "Ġsad": 2615,
      "Ġwan": 2616,
      "eding": 2617,
      "Ġheels": 2618,
      "Ġhide": 2619,
      "Ġhoney": 2620,
      "Ġmis": 2621,
      "Ġmir": 2622,
      "Ġmckenzie": 2623,
      "Ġbar": 2624,
      "Ġband": 2625,
      "Ġbase": 2626,
      "anjay": 2627,
      "Ġfu": 2628,
      "Ġfli": 2629,
      "Ġfool": 2630,
      "Ġfault": 2631,
      "Ġcand": 2632,
      "Ġcart": 2633,
      "Ġcase": 2634,
      "Ġnap": 2635,
      "Ġda": 2636,
      "Ġdess": 2637,
      "Ġdied": 2638,
      "Ġdavis": 2639,
      "ashing": 2640,
      "Ġlicking": 2641,
      "Ġlavani": 2642,
      "ese": 2643,
      "Ġge": 2644,
      "Ġgar": 2645,
      "Ġgur": 2646,
      "Ġgrou": 2647,
      "Ġgrew": 2648,
      "ition": 2649,
      "oned": 2650,
      "ork": 2651,
      "Ġbeck": 2652,
      "Ġbegin": 2653,
      "Ġhissed": 2654,
      "acy": 2655,
      "Ġstir": 2656,
      "veral": 2657,
      "Ġreach": 2658,
      "Ġkicked": 2659,
      "Ġwhirled": 2660,
      "Ġlive": 2661,
      "Ġlikes": 2662,
      "ently": 2663,
      "Ġshi": 2664,
      "irc": 2665,
      "alth": 2666,
      "ries": 2667,
      "pper": 2668,
      "Ġsun": 2669,
      "Ġsucking": 2670,
      "Ġroof": 2671,
      "Ġsmack": 2672,
      "Ġwhenever": 2673,
      "Ġexch": 2674,
      "Ġpublic": 2675,
      "Ġlose": 2676,
      "inkled": 2677,
      "Ġtext": 2678,
      "Ġconne": 2679,
      "Ġdefe": 2680,
      "lture": 2681,
      "ific": 2682,
      "Ġreply": 2683,
      "ular": 2684,
      "Ġrooms": 2685,
      "Ġmoving": 2686,
      "Ġpop": 2687,
      "bell": 2688,
      "Ġprop": 2689,
      "Ġscene": 2690,
      "Ġcontact": 2691,
      "Ġintim": 2692,
      "Ġplanned": 2693,
      "Ġhuff": 2694,
      "irling": 2695,
      "Ġsnapped": 2696,
      "Ġbuild": 2697,
      "Ġculture": 2698,
      "Ġrestaur": 2699,
      "Ġmonitor": 2700,
      "Ġthrown": 2701,
      "Ġthrowing": 2702,
      "Ġpatience": 2703,
      "umbled": 2704,
      "Ġfollowing": 2705,
      "uding": 2706,
      "Ġbroken": 2707,
      "Ġsleeping": 2708,
      "Ġconsider": 2709,
      "Ġwhether": 2710,
      "Ġyounger": 2711,
      "Ġurged": 2712,
      "Ġrespond": 2713,
      "Ġcharge": 2714,
      "Ġtense": 2715,
      "Ġsens": 2716,
      "Ġhorror": 2717,
      "Ġangry": 2718,
      "Ġscreaming": 2719,
      "Ġcatch": 2720,
      "Ġpinched": 2721,
      "Ġinvol": 2722,
      "Ġshifted": 2723,
      "Ġescaped": 2724,
      "Ġpounding": 2725,
      "Ġuncle": 2726,
      "Ġposition": 2727,
      "Ġperformance": 2728,
      "Ġdaughter": 2729,
      "Ġprivate": 2730,
      "Ġstatement": 2731,
      "Ġbypassed": 2732,
      "Ġcolor": 2733,
      "Ġprofessional": 2734,
      "annah": 2735,
      "Ġsavannah": 2736,
      "Ġdelicious": 2737,
      "Ġphotograp": 2738,
      "Ġsari": 2739,
      "Ġdessert": 2740,
      "Ġgroup": 2741,
      "Ġrestaurant": 2742,
      "Ġphotographer": 2743,
      "aving": 2744,
      "ces": 2745,
      "cause": 2746,
      "coming": 2747,
      "gs": 2748,
      "ives": 2749,
      "kin": 2750,
      "ker": 2751,
      "line": 2752,
      "mr": 2753,
      "ming": 2754,
      "mory": 2755,
      "na": 2756,
      "ny": 2757,
      "nie": 2758,
      "rat": 2759,
      "ract": 2760,
      "somet": 2761,
      "til": 2762,
      "use": 2763,
      "ugg": 2764,
      "Ġesh": 2765,
      "Ġzi": 2766,
      "Ġtour": 2767,
      "Ġack": 2768,
      "Ġadd": 2769,
      "inked": 2770,
      "Ġsick": 2771,
      "Ġsix": 2772,
      "Ġwish": 2773,
      "Ġheated": 2774,
      "Ġhip": 2775,
      "Ġble": 2776,
      "Ġbuck": 2777,
      "Ġboun": 2778,
      "Ġbrie": 2779,
      "Ġoper": 2780,
      "Ġtone": 2781,
      "Ġfif": 2782,
      "Ġcru": 2783,
      "Ġcream": 2784,
      "Ġnon": 2785,
      "Ġdire": 2786,
      "Ġpan": 2787,
      "Ġpack": 2788,
      "Ġpair": 2789,
      "Ġling": 2790,
      "Ġlam": 2791,
      "Ġlady": 2792,
      "Ġlung": 2793,
      "Ġthreat": 2794,
      "Ġgen": 2795,
      "iting": 2796,
      "ens": 2797,
      "Ġeight": 2798,
      "Ġease": 2799,
      "Ġmemory": 2800,
      "Ġwash": 2801,
      "leaning": 2802,
      "acter": 2803,
      "Ġstru": 2804,
      "Ġrec": 2805,
      "Ġret": 2806,
      "Ġread": 2807,
      "Ġreass": 2808,
      "Ġremo": 2809,
      "Ġwee": 2810,
      "Ġforced": 2811,
      "ooled": 2812,
      "Ġshaking": 2813,
      "alous": 2814,
      "antic": 2815,
      "right": 2816,
      "Ġjack": 2817,
      "Ġnecess": 2818,
      "Ġoutf": 2819,
      "ili": 2820,
      "Ġsave": 2821,
      "Ġoverwhe": 2822,
      "Ġheading": 2823,
      "Ġdownstairs": 2824,
      "Ġchos": 2825,
      "ooded": 2826,
      "Ġsend": 2827,
      "Ġseveral": 2828,
      "Ġgets": 2829,
      "Ġyours": 2830,
      "wear": 2831,
      "Ġpul": 2832,
      "Ġpushing": 2833,
      "Ġcloud": 2834,
      "Ġanyway": 2835,
      "ledge": 2836,
      "Ġplates": 2837,
      "Ġtender": 2838,
      "Ġknows": 2839,
      "Ġknowing": 2840,
      "Ġcheese": 2841,
      "iff": 2842,
      "Ġmama": 2843,
      "ateful": 2844,
      "pted": 2845,
      "Ġflushed": 2846,
      "Ġgrow": 2847,
      "Ġgrateful": 2848,
      "Ġrom": 2849,
      "Ġrice": 2850,
      "Ġrather": 2851,
      "ations": 2852,
      "Ġneedle": 2853,
      "Ġhopped": 2854,
      "Ġhoped": 2855,
      "Ġcoff": 2856,
      "usion": 2857,
      "Ġcomb": 2858,
      "Ġpopped": 2859,
      "Ġdoorway": 2860,
      "beat": 2861,
      "Ġrub": 2862,
      "arent": 2863,
      "Ġprospect": 2864,
      "ances": 2865,
      "Ġscowled": 2866,
      "Ġinsane": 2867,
      "Ġhappily": 2868,
      "Ġhappiness": 2869,
      "shaking": 2870,
      "Ġbabe": 2871,
      "Ġbabies": 2872,
      "Ġmarry": 2873,
      "izz": 2874,
      "izing": 2875,
      "Ġtrust": 2876,
      "Ġgazing": 2877,
      "Ġheartbeat": 2878,
      "Ġunderwear": 2879,
      "spic": 2880,
      "Ġplans": 2881,
      "Ġbreaths": 2882,
      "Ġswept": 2883,
      "igned": 2884,
      "Ġquestioning": 2885,
      "Ġplayfully": 2886,
      "rossing": 2887,
      "Ġcleaned": 2888,
      "Ġwrinkled": 2889,
      "teen": 2890,
      "Ġhurried": 2891,
      "Ġrunway": 2892,
      "Ġjohn": 2893,
      "Ġdragged": 2894,
      "Ġshoes": 2895,
      "Ġanswered": 2896,
      "Ġfollow": 2897,
      "cuss": 2898,
      "rence": 2899,
      "Ġdipped": 2900,
      "Ġbreakfast": 2901,
      "Ġawkward": 2902,
      "Ġsinging": 2903,
      "Ġgently": 2904,
      "ception": 2905,
      "Ġcharacter": 2906,
      "Ġwarmth": 2907,
      "Ġcountered": 2908,
      "Ġinteresting": 2909,
      "Ġincl": 2910,
      "Ġscreamed": 2911,
      "Ġmanager": 2912,
      "Ġknocked": 2913,
      "Ġjealous": 2914,
      "Ġlearn": 2915,
      "trace": 2916,
      "Ġdug": 2917,
      "Ġdrinks": 2918,
      "Ġmedication": 2919,
      "Ġhanger": 2920,
      "Ġengagement": 2921,
      "Ġintroduce": 2922,
      "thankfully": 2923,
      "Ġorder": 2924,
      "Ġprocessing": 2925,
      "Ġdoubts": 2926,
      "Ġslipped": 2927,
      "Ġgreen": 2928,
      "Ġfabric": 2929,
      "Ġpictures": 2930,
      "gazing": 2931,
      "Ġmassive": 2932,
      "Ġchewed": 2933,
      "Ġdesperately": 2934,
      "Ġtantric": 2935,
      "Ġnumber": 2936,
      "Ġdonnie": 2937,
      "Ġagreed": 2938,
      "Ġpocket": 2939,
      "Ġscrubs": 2940,
      "Ġsoul": 2941,
      "Ġmirror": 2942,
      "Ġgurney": 2943,
      "Ġinvolved": 2944,
      "Ġacknow": 2945,
      "Ġbrief": 2946,
      "Ġopera": 2947,
      "Ġoverwhel": 2948,
      "Ġchosen": 2949,
      "Ġcoffee": 2950,
      "bl": 2951,
      "br": 2952,
      "cin": 2953,
      "cus": 2954,
      "ches": 2955,
      "crossing": 2956,
      "dom": 2957,
      "ex": 2958,
      "een": 2959,
      "eyed": 2960,
      "gra": 2961,
      "hol": 2962,
      "ject": 2963,
      "kn": 2964,
      "lace": 2965,
      "ns": 2966,
      "ners": 2967,
      "noun": 2968,
      "op": 2969,
      "oll": 2970,
      "pat": 2971,
      "pull": 2972,
      "slow": 2973,
      "tle": 2974,
      "uzz": 2975,
      "vo": 2976,
      "wood": 2977,
      "work": 2978,
      "Ġ1": 2979,
      "Ġtv": 2980,
      "Ġtil": 2981,
      "Ġtest": 2982,
      "Ġaction": 2983,
      "Ġwip": 2984,
      "Ġhea": 2985,
      "Ġhealth": 2986,
      "Ġhidden": 2987,
      "Ġmc": 2988,
      "Ġmas": 2989,
      "Ġmad": 2990,
      "Ġmid": 2991,
      "Ġmissed": 2992,
      "Ġmoney": 2993,
      "reg": 2994,
      "Ġbi": 2995,
      "Ġbound": 2996,
      "Ġbowed": 2997,
      "Ġborn": 2998,
      "ings": 2999,
      "Ġtow": 3000,
      "Ġtowel": 3001,
      "Ġfed": 3002,
      "Ġcre": 3003,
      "Ġcous": 3004,
      "Ġcirc": 3005,
      "eria": 3006,
      "ature": 3007,
      "Ġnone": 3008,
      "Ġdated": 3009,
      "nday": 3010,
      "Ġpark": 3011,
      "Ġlar": 3012,
      "Ġlying": 3013,
      "Ġgather": 3014,
      "enly": 3015,
      "enced": 3016,
      "Ġinch": 3017,
      "arm": 3018,
      "Ġsheep": 3019,
      "Ġsheets": 3020,
      "Ġech": 3021,
      "omy": 3022,
      "ids": 3023,
      "Ġmemb": 3024,
      "Ġhist": 3025,
      "vel": 3026,
      "ster": 3027,
      "still": 3028,
      "imp": 3029,
      "ayed": 3030,
      "Ġstor": 3031,
      "Ġstool": 3032,
      "Ġresid": 3033,
      "Ġreaction": 3034,
      "Ġforce": 3035,
      "urch": 3036,
      "ooked": 3037,
      "kend": 3038,
      "ented": 3039,
      "Ġshout": 3040,
      "aling": 3041,
      "antage": 3042,
      "Ġannoun": 3043,
      "tern": 3044,
      "Ġnear": 3045,
      "Ġgold": 3046,
      "Ġknee": 3047,
      "Ġsuspic": 3048,
      "Ġfrown": 3049,
      "Ġcafet": 3050,
      "Ġaband": 3051,
      "Ġabdom": 3052,
      "Ġchick": 3053,
      "Ġchurch": 3054,
      "Ġsmo": 3055,
      "Ġexcept": 3056,
      "Ġseed": 3057,
      "Ġalco": 3058,
      "Ġpum": 3059,
      "cks": 3060,
      "Ġclut": 3061,
      "amed": 3062,
      "Ġcons": 3063,
      "Ġchecking": 3064,
      "Ġgap": 3065,
      "Ġarrived": 3066,
      "Ġrepe": 3067,
      "Ġfluttered": 3068,
      "Ġflashed": 3069,
      "Ġgrad": 3070,
      "Ġbolly": 3071,
      "fection": 3072,
      "Ġrat": 3073,
      "Ġbless": 3074,
      "Ġslide": 3075,
      "Ġmoist": 3076,
      "Ġmode": 3077,
      "Ġpoor": 3078,
      "because": 3079,
      "bborn": 3080,
      "Ġhardly": 3081,
      "Ġhardened": 3082,
      "Ġfirm": 3083,
      "Ġthoughtful": 3084,
      "iew": 3085,
      "iece": 3086,
      "Ġlaughter": 3087,
      "Ġscrew": 3088,
      "Ġloose": 3089,
      "Ġsort": 3090,
      "Ġfold": 3091,
      "Ġcontain": 3092,
      "Ġcontem": 3093,
      "Ġstove": 3094,
      "Ġappro": 3095,
      "Ġexposed": 3096,
      "Ġwatching": 3097,
      "Ġintense": 3098,
      "Ġadjust": 3099,
      "aged": 3100,
      "ager": 3101,
      "Ġplanning": 3102,
      "Ġswelling": 3103,
      "Ġnaked": 3104,
      "Ġragged": 3105,
      "Ġsliding": 3106,
      "Ġgrabbing": 3107,
      "Ġstaying": 3108,
      "Ġbuilt": 3109,
      "Ġcunt": 3110,
      "Ġdoctors": 3111,
      "Ġnecklace": 3112,
      "Ġspeed": 3113,
      "Ġearly": 3114,
      "Ġstubborn": 3115,
      "Ġsweetie": 3116,
      "Ġfinding": 3117,
      "Ġwondering": 3118,
      "Ġburning": 3119,
      "Ġnibbled": 3120,
      "Ġimmediately": 3121,
      "Ġgrie": 3122,
      "Ġbroad": 3123,
      "Ġresist": 3124,
      "Ġrespect": 3125,
      "Ġresult": 3126,
      "cused": 3127,
      "Ġeasier": 3128,
      "Ġenjoying": 3129,
      "Ġtouched": 3130,
      "Ġpossib": 3131,
      "Ġdifference": 3132,
      "Ġlower": 3133,
      "Ġsettled": 3134,
      "Ġstroke": 3135,
      "Ġstrode": 3136,
      "Ġemotional": 3137,
      "Ġpregnancy": 3138,
      "Ġshrug": 3139,
      "Ġfunny": 3140,
      "Ġconfused": 3141,
      "Ġconfusion": 3142,
      "Ġsense": 3143,
      "Ġaunt": 3144,
      "Ġpunched": 3145,
      "Ġbreathe": 3146,
      "Ġgiggling": 3147,
      "Ġexha": 3148,
      "board": 3149,
      "play": 3150,
      "Ġterri": 3151,
      "Ġshudder": 3152,
      "Ġshuddered": 3153,
      "Ġfresh": 3154,
      "Ġparking": 3155,
      "everything": 3156,
      "Ġstreet": 3157,
      "Ġshorts": 3158,
      "Ġhungry": 3159,
      "Ġtowards": 3160,
      "Ġcases": 3161,
      "Ġjuices": 3162,
      "Ġphysical": 3163,
      "Ġhonestly": 3164,
      "Ġdistance": 3165,
      "Ġlisten": 3166,
      "Ġcorner": 3167,
      "Ġdeta": 3168,
      "Ġinfl": 3169,
      "Ġreleased": 3170,
      "Ġorgasm": 3171,
      "Ġorgasms": 3172,
      "Ġclinicals": 3173,
      "Ġadvantage": 3174,
      "Ġwhimpered": 3175,
      "Ġnarrowed": 3176,
      "Ġfrustrated": 3177,
      "Ġreluctantly": 3178,
      "Ġpaperwork": 3179,
      "Ġapologize": 3180,
      "Ġnapkin": 3181,
      "Ġgarage": 3182,
      "tilting": 3183,
      "Ġweekend": 3184,
      "Ġjacket": 3185,
      "pulling": 3186,
      "slowly": 3187,
      "Ġtilted": 3188,
      "Ġecho": 3189,
      "Ġcafeteria": 3190,
      "Ġbollywood": 3191,
      "aim": 3192,
      "bly": 3193,
      "ball": 3194,
      "car": 3195,
      "clo": 3196,
      "eared": 3197,
      "fl": 3198,
      "friend": 3199,
      "ffect": 3200,
      "iqu": 3201,
      "iving": 3202,
      "long": 3203,
      "looking": 3204,
      "min": 3205,
      "mon": 3206,
      "ove": 3207,
      "okay": 3208,
      "oget": 3209,
      "pri": 3210,
      "sion": 3211,
      "uma": 3212,
      "vy": 3213,
      "vious": 3214,
      "wa": 3215,
      "Ġtired": 3216,
      "Ġavo": 3217,
      "Ġsore": 3218,
      "Ġsink": 3219,
      "Ġsara": 3220,
      "Ġwicked": 3221,
      "Ġhic": 3222,
      "Ġhook": 3223,
      "Ġhate": 3224,
      "Ġhum": 3225,
      "Ġhitting": 3226,
      "Ġmill": 3227,
      "Ġmist": 3228,
      "Ġmort": 3229,
      "reme": 3230,
      "Ġben": 3231,
      "Ġbull": 3232,
      "Ġbought": 3233,
      "Ġori": 3234,
      "Ġill": 3235,
      "Ġign": 3236,
      "anked": 3237,
      "Ġfan": 3238,
      "Ġflight": 3239,
      "Ġcard": 3240,
      "Ġcook": 3241,
      "erned": 3242,
      "erie": 3243,
      "ative": 3244,
      "atives": 3245,
      "Ġnuzz": 3246,
      "Ġden": 3247,
      "Ġdab": 3248,
      "Ġdanc": 3249,
      "Ġdie": 3250,
      "Ġdancing": 3251,
      "Ġdinged": 3252,
      "ndred": 3253,
      "isfied": 3254,
      "Ġpor": 3255,
      "Ġpow": 3256,
      "Ġpau": 3257,
      "Ġpour": 3258,
      "Ġpiss": 3259,
      "Ġlay": 3260,
      "Ġlace": 3261,
      "Ġyo": 3262,
      "Ġgle": 3263,
      "Ġgut": 3264,
      "Ġgir": 3265,
      "Ġgul": 3266,
      "Ġgames": 3267,
      "oning": 3268,
      "org": 3269,
      "Ġsheet": 3270,
      "Ġbeer": 3271,
      "Ġbeat": 3272,
      "Ġbeating": 3273,
      "Ġbelong": 3274,
      "Ġeffect": 3275,
      "idence": 3276,
      "stage": 3277,
      "oting": 3278,
      "aces": 3279,
      "Ġstation": 3280,
      "Ġrequ": 3281,
      "Ġking": 3282,
      "Ġate": 3283,
      "see": 3284,
      "icing": 3285,
      "Ġlie": 3286,
      "Ġliking": 3287,
      "entive": 3288,
      "Ġshown": 3289,
      "ird": 3290,
      "alk": 3291,
      "als": 3292,
      "eech": 3293,
      "allen": 3294,
      "ants": 3295,
      "Ġupset": 3296,
      "riage": 3297,
      "ters": 3298,
      "Ġneither": 3299,
      "Ġgoes": 3300,
      "char": 3301,
      "three": 3302,
      "Ġnoise": 3303,
      "ila": 3304,
      "Ġbackstage": 3305,
      "Ġsuv": 3306,
      "Ġsuck": 3307,
      "Ġsumm": 3308,
      "Ġiss": 3309,
      "Ġcab": 3310,
      "Ġcamer": 3311,
      "Ġabove": 3312,
      "ctomy": 3313,
      "Ġroll": 3314,
      "Ġchances": 3315,
      "Ġchallen": 3316,
      "Ġeyel": 3317,
      "Ġsmir": 3318,
      "Ġleading": 3319,
      "amped": 3320,
      "amond": 3321,
      "Ġplaced": 3322,
      "Ġtear": 3323,
      "Ġspeech": 3324,
      "Ġoffice": 3325,
      "Ġconst": 3326,
      "Ġconnor": 3327,
      "lfriend": 3328,
      "Ġdead": 3329,
      "Ġdefin": 3330,
      "lted": 3331,
      "nted": 3332,
      "Ġmus": 3333,
      "Ġmult": 3334,
      "Ġmusc": 3335,
      "Ġflu": 3336,
      "Ġgrown": 3337,
      "asectomy": 3338,
      "Ġglance": 3339,
      "Ġhovered": 3340,
      "Ġblow": 3341,
      "Ġblur": 3342,
      "Ġcold": 3343,
      "Ġslit": 3344,
      "Ġslung": 3345,
      "things": 3346,
      "Ġwave": 3347,
      "Ġpol": 3348,
      "Ġafterno": 3349,
      "bending": 3350,
      "Ġprove": 3351,
      "Ġproper": 3352,
      "ument": 3353,
      "Ġsays": 3354,
      "Ġfinal": 3355,
      "Ġinsisted": 3356,
      "Ġcars": 3357,
      "Ġassist": 3358,
      "Ġsurm": 3359,
      "Ġview": 3360,
      "Ġvasectomy": 3361,
      "Ġmarriage": 3362,
      "izon": 3363,
      "Ġache": 3364,
      "Ġtray": 3365,
      "Ġfocus": 3366,
      "Ġfocused": 3367,
      "Ġcount": 3368,
      "Ġcoupled": 3369,
      "Ġador": 3370,
      "Ġadult": 3371,
      "cocking": 3372,
      "ague": 3373,
      "Ġshowing": 3374,
      "wards": 3375,
      "Ġfamili": 3376,
      "Ġquestions": 3377,
      "Ġfinishing": 3378,
      "Ġpeace": 3379,
      "Ġsurprising": 3380,
      "Ġhuge": 3381,
      "Ġhundred": 3382,
      "Ġsexual": 3383,
      "Ġwaiter": 3384,
      "Ġcrack": 3385,
      "Ġcrash": 3386,
      "Ġplayed": 3387,
      "Ġdismiss": 3388,
      "Ġkeeping": 3389,
      "Ġtalked": 3390,
      "Ġsnugg": 3391,
      "Ġsniff": 3392,
      "Ġstupid": 3393,
      "Ġrested": 3394,
      "Ġslept": 3395,
      "Ġthrow": 3396,
      "Ġpanting": 3397,
      "gnized": 3398,
      "neath": 3399,
      "Ġattentive": 3400,
      "Ġdrawn": 3401,
      "Ġdecor": 3402,
      "Ġdecision": 3403,
      "Ġsilent": 3404,
      "Ġeasily": 3405,
      "Ġdiamond": 3406,
      "Ġelect": 3407,
      "Ġsupport": 3408,
      "Ġtugged": 3409,
      "Ġdropping": 3410,
      "Ġpurple": 3411,
      "Ġworrying": 3412,
      "Ġexpected": 3413,
      "Ġexpectantly": 3414,
      "Ġpossess": 3415,
      "Ġtrauma": 3416,
      "Ġfuriously": 3417,
      "Ġimpo": 3418,
      "Ġfalling": 3419,
      "Ġlights": 3420,
      "Ġcloth": 3421,
      "Ġboxers": 3422,
      "Ġhorizon": 3423,
      "Ġpriest": 3424,
      "Ġregardless": 3425,
      "Ġembr": 3426,
      "Ġpinned": 3427,
      "Ġgasp": 3428,
      "Ġknob": 3429,
      "Ġteasingly": 3430,
      "Ġgrimace": 3431,
      "Ġthird": 3432,
      "Ġpunch": 3433,
      "body": 3434,
      "Ġducked": 3435,
      "Ġconcerned": 3436,
      "rings": 3437,
      "Ġsecret": 3438,
      "Ġcovering": 3439,
      "Ġmovements": 3440,
      "Ġintroduced": 3441,
      "Ġlanding": 3442,
      "Ġbuttons": 3443,
      "Ġcolle": 3444,
      "Ġcollap": 3445,
      "Ġperfectly": 3446,
      "Ġapologet": 3447,
      "Ġembarrassed": 3448,
      "Ġslightly": 3449,
      "Ġfighting": 3450,
      "Ġgrumbled": 3451,
      "Ġexcited": 3452,
      "Ġsearched": 3453,
      "Ġelbow": 3454,
      "Ġelbows": 3455,
      "Ġentirely": 3456,
      "Ġwindows": 3457,
      "Ġfixed": 3458,
      "Ġrocket": 3459,
      "Ġcommitted": 3460,
      "consid": 3461,
      "Ġsalad": 3462,
      "Ġnorm": 3463,
      "Ġprepared": 3464,
      "Ġdrawing": 3465,
      "Ġfaster": 3466,
      "Ġforehead": 3467,
      "Ġantic": 3468,
      "Ġanxiously": 3469,
      "Ġtemper": 3470,
      "Ġirish": 3471,
      "Ġrecognized": 3472,
      "Ġdelivery": 3473,
      "Ġcondom": 3474,
      "Ġlucky": 3475,
      "Ġextreme": 3476,
      "Ġsplit": 3477,
      "Ġdeserve": 3478,
      "Ġgeorg": 3479,
      "Ġbecky": 3480,
      "Ġintimate": 3481,
      "Ġhuffed": 3482,
      "Ġbuilding": 3483,
      "Ġzipper": 3484,
      "Ġlingerie": 3485,
      "Ġlamb": 3486,
      "Ġgrowl": 3487,
      "regardless": 3488,
      "Ġlarge": 3489,
      "Ġsheepish": 3490,
      "Ġshouted": 3491,
      "Ġalcohol": 3492,
      "Ġgrief": 3493,
      "Ġmortif": 3494,
      "Ġbench": 3495,
      "Ġorigin": 3496,
      "Ġporch": 3497,
      "Ġgirlfriend": 3498,
      "Ġeyelids": 3499,
      "Ġspeechless": 3500,
      "Ġdefinitely": 3501,
      "Ġafternoon": 3502,
      "Ġfamiliar": 3503,
      "Ġdismissively": 3504,
      "72": 3505,
      "away": 3506,
      "aper": 3507,
      "apping": 3508,
      "bing": 3509,
      "bur": 3510,
      "bru": 3511,
      "both": 3512,
      "cul": 3513,
      "dra": 3514,
      "dged": 3515,
      "five": 3516,
      "fting": 3517,
      "gar": 3518,
      "hy": 3519,
      "iv": 3520,
      "jan": 3521,
      "lant": 3522,
      "lves": 3523,
      "mmed": 3524,
      "old": 3525,
      "osit": 3526,
      "oices": 3527,
      "po": 3528,
      "pes": 3529,
      "put": 3530,
      "parents": 3531,
      "ron": 3532,
      "sent": 3533,
      "ub": 3534,
      "uh": 3535,
      "uing": 3536,
      "ude": 3537,
      "vin": 3538,
      "wo": 3539,
      "want": 3540,
      "xic": 3541,
      "yer": 3542,
      "zen": 3543,
      "Ġtee": 3544,
      "Ġtick": 3545,
      "Ġtreat": 3546,
      "ines": 3547,
      "Ġsout": 3548,
      "Ġske": 3549,
      "Ġsir": 3550,
      "Ġsme": 3551,
      "Ġsought": 3552,
      "Ġsanjay": 3553,
      "Ġwise": 3554,
      "Ġheight": 3555,
      "Ġhearing": 3556,
      "Ġhy": 3557,
      "Ġmil": 3558,
      "Ġmood": 3559,
      "reaching": 3560,
      "Ġbat": 3561,
      "Ġbum": 3562,
      "ingle": 3563,
      "Ġopp": 3564,
      "Ġid": 3565,
      "Ġiv": 3566,
      "anking": 3567,
      "Ġtore": 3568,
      "Ġfro": 3569,
      "Ġfal": 3570,
      "Ġfade": 3571,
      "Ġfaded": 3572,
      "Ġfield": 3573,
      "Ġcoo": 3574,
      "Ġcent": 3575,
      "Ġcess": 3576,
      "Ġcross": 3577,
      "Ġcries": 3578,
      "erg": 3579,
      "erm": 3580,
      "erv": 3581,
      "eric": 3582,
      "attering": 3583,
      "Ġhero": 3584,
      "Ġdam": 3585,
      "Ġdared": 3586,
      "Ġdue": 3587,
      "Ġdare": 3588,
      "Ġdumb": 3589,
      "Ġdates": 3590,
      "asper": 3591,
      "Ġpot": 3592,
      "Ġpal": 3593,
      "Ġpace": 3594,
      "Ġpity": 3595,
      "Ġpier": 3596,
      "Ġpans": 3597,
      "Ġpooled": 3598,
      "Ġpizz": 3599,
      "Ġthin": 3600,
      "Ġgor": 3601,
      "Ġgain": 3602,
      "itched": 3603,
      "ency": 3604,
      "Ġinno": 3605,
      "Ġinform": 3606,
      "arked": 3607,
      "Ġbeast": 3608,
      "Ġbelow": 3609,
      "omed": 3610,
      "Ġwashed": 3611,
      "lebr": 3612,
      "star": 3613,
      "staring": 3614,
      "oted": 3615,
      "otch": 3616,
      "othed": 3617,
      "Ġsty": 3618,
      "Ġsting": 3619,
      "Ġstall": 3620,
      "Ġstret": 3621,
      "Ġaside": 3622,
      "Ġitem": 3623,
      "Ġrehe": 3624,
      "Ġrese": 3625,
      "Ġreading": 3626,
      "Ġreception": 3627,
      "Ġkick": 3628,
      "Ġatlant": 3629,
      "urday": 3630,
      "ician": 3631,
      "Ġlied": 3632,
      "Ġliqu": 3633,
      "Ġshared": 3634,
      "Ġshows": 3635,
      "irty": 3636,
      "aline": 3637,
      "antically": 3638,
      "Ġupstairs": 3639,
      "ript": 3640,
      "Ġsober": 3641,
      "usting": 3642,
      "chie": 3643,
      "Ġknuck": 3644,
      "ilities": 3645,
      "mare": 3646,
      "Ġsudd": 3647,
      "Ġsuper": 3648,
      "Ġsuite": 3649,
      "Ġfrid": 3650,
      "Ġcapt": 3651,
      "lier": 3652,
      "live": 3653,
      "Ġrolling": 3654,
      "rying": 3655,
      "Ġchast": 3656,
      "Ġsmart": 3657,
      "Ġlevel": 3658,
      "Ġexasper": 3659,
      "Ġseated": 3660,
      "Ġallow": 3661,
      "Ġworn": 3662,
      "Ġworst": 3663,
      "Ġworth": 3664,
      "Ġemp": 3665,
      "Ġagon": 3666,
      "Ġclaim": 3667,
      "their": 3668,
      "Ġloc": 3669,
      "quis": 3670,
      "Ġplaces": 3671,
      "Ġteen": 3672,
      "Ġteam": 3673,
      "Ġtease": 3674,
      "Ġspr": 3675,
      "Ġspin": 3676,
      "Ġsped": 3677,
      "Ġspine": 3678,
      "Ġspark": 3679,
      "Ġoffer": 3680,
      "geon": 3681,
      "geous": 3682,
      "Ġgavin": 3683,
      "itten": 3684,
      "Ġarched": 3685,
      "ift": 3686,
      "Ġmagn": 3687,
      "ateg": 3688,
      "Ġthinks": 3689,
      "Ġflowed": 3690,
      "Ġflash": 3691,
      "Ġflooded": 3692,
      "Ġgrady": 3693,
      "Ġbod": 3694,
      "eeling": 3695,
      "Ġrid": 3696,
      "Ġrang": 3697,
      "Ġracing": 3698,
      "ational": 3699,
      "Ġbrow": 3700,
      "Ġglit": 3701,
      "Ġglared": 3702,
      "Ġglare": 3703,
      "ounded": 3704,
      "Ġhole": 3705,
      "Ġblo": 3706,
      "Ġblind": 3707,
      "Ġblessed": 3708,
      "Ġslo": 3709,
      "ushing": 3710,
      "ngth": 3711,
      "Ġwake": 3712,
      "Ġhandsome": 3713,
      "Ġkneaded": 3714,
      "Ġdoorbell": 3715,
      "Ġrush": 3716,
      "bbling": 3717,
      "Ġthoughtfully": 3718,
      "Ġscan": 3719,
      "Ġscrap": 3720,
      "Ġinsult": 3721,
      "who": 3722,
      "Ġwellstar": 3723,
      "Ġassum": 3724,
      "button": 3725,
      "Ġsurve": 3726,
      "Ġsurround": 3727,
      "Ġsurger": 3728,
      "Ġthankful": 3729,
      "Ġthankfully": 3730,
      "Ġmarble": 3731,
      "Ġunless": 3732,
      "Ġunbutton": 3733,
      "ended": 3734,
      "Ġnights": 3735,
      "Ġnightmare": 3736,
      "Ġaccess": 3737,
      "Ġtrans": 3738,
      "Ġfoyer": 3739,
      "assion": 3740,
      "Ġpleased": 3741,
      "Ġpleaded": 3742,
      "Ġexplo": 3743,
      "eping": 3744,
      "Ġadren": 3745,
      "Ġunderneath": 3746,
      "unction": 3747,
      "Ġamuse": 3748,
      "Ġameric": 3749,
      "Ġsweat": 3750,
      "Ġpeered": 3751,
      "Ġpeering": 3752,
      "Ġglancing": 3753,
      "Ġrarely": 3754,
      "Ġhug": 3755,
      "Ġhugged": 3756,
      "Ġgiant": 3757,
      "mmy": 3758,
      "ctions": 3759,
      "Ġcrashing": 3760,
      "Ġcrotch": 3761,
      "Ġrelatives": 3762,
      "Ġstrange": 3763,
      "Ġstrict": 3764,
      "Ġopening": 3765,
      "Ġdiscuss": 3766,
      "Ġdisplay": 3767,
      "Ġsteps": 3768,
      "Ġsteady": 3769,
      "Ġsnat": 3770,
      "Ġsaturday": 3771,
      "Ġseats": 3772,
      "Ġgrammy": 3773,
      "Ġpercy": 3774,
      "Ġdeeply": 3775,
      "Ġearrings": 3776,
      "Ġkeys": 3777,
      "Ġwarned": 3778,
      "ontro": 3779,
      "Ġbitch": 3780,
      "tears": 3781,
      "Ġswoll": 3782,
      "Ġwidening": 3783,
      "Ġlots": 3784,
      "Ġchildhood": 3785,
      "Ġdrag": 3786,
      "Ġjerking": 3787,
      "Ġshoved": 3788,
      "Ġenter": 3789,
      "Ġnews": 3790,
      "Ġdriver": 3791,
      "sitive": 3792,
      "Ġresigned": 3793,
      "Ġpatients": 3794,
      "Ġeasing": 3795,
      "Ġconsidered": 3796,
      "Ġwrapping": 3797,
      "Ġdigging": 3798,
      "Ġhalfway": 3799,
      "Ġnerves": 3800,
      "Ġdrop": 3801,
      "Ġargument": 3802,
      "Ġaware": 3803,
      "Ġawak": 3804,
      "Ġpossessed": 3805,
      "Ġsingle": 3806,
      "Ġspoil": 3807,
      "Ġhurts": 3808,
      "Ġtrail": 3809,
      "Ġsque": 3810,
      "Ġsquir": 3811,
      "Ġcharlie": 3812,
      "nothing": 3813,
      "Ġtensed": 3814,
      "Ġfurther": 3815,
      "Ġerect": 3816,
      "Ġstroked": 3817,
      "Ġstroking": 3818,
      "Ġdouble": 3819,
      "Ġreasons": 3820,
      "Ġimpress": 3821,
      "Ġimport": 3822,
      "Ġimpression": 3823,
      "Ġcompassion": 3824,
      "awy": 3825,
      "Ġwinced": 3826,
      "Ġcurled": 3827,
      "Ġcuriously": 3828,
      "Ġpromised": 3829,
      "Ġboxes": 3830,
      "Ġsensitive": 3831,
      "Ġhorri": 3832,
      "Ġinches": 3833,
      "Ġremarked": 3834,
      "Ġcrowded": 3835,
      "Ġmotioning": 3836,
      "Ġelevators": 3837,
      "Ġjeans": 3838,
      "Ġpunish": 3839,
      "Ġterr": 3840,
      "Ġmentioned": 3841,
      "Ġshuddering": 3842,
      "Ġpressing": 3843,
      "Ġrelaxed": 3844,
      "Ġthrusts": 3845,
      "ringe": 3846,
      "Ġfreak": 3847,
      "Ġparis": 3848,
      "god": 3849,
      "Ġstrength": 3850,
      "Ġcasual": 3851,
      "welve": 3852,
      "Ġgrandd": 3853,
      "Ġgrandfather": 3854,
      "Ġdisappo": 3855,
      "Ġdisappeared": 3856,
      "Ġphysician": 3857,
      "Ġapartment": 3858,
      "Ġlistening": 3859,
      "Ġcharts": 3860,
      "Ġsearch": 3861,
      "Ġordered": 3862,
      "Ġrelease": 3863,
      "Ġreminded": 3864,
      "Ġharsh": 3865,
      "Ġceiling": 3866,
      "Ġcelebr": 3867,
      "Ġstarving": 3868,
      "Ġdeposit": 3869,
      "Ġtrembled": 3870,
      "Ġfascin": 3871,
      "Ġfists": 3872,
      "Ġappearance": 3873,
      "Ġsyringe": 3874,
      "Ġhesitation": 3875,
      "Ġrelief": 3876,
      "Ġrelieved": 3877,
      "Ġcondition": 3878,
      "Ġforgotten": 3879,
      "Ġbulged": 3880,
      "Ġfaith": 3881,
      "ulously": 3882,
      "Ġresponsib": 3883,
      "holding": 3884,
      "Ġfuss": 3885,
      "Ġstirred": 3886,
      "Ġexchanged": 3887,
      "Ġmonitors": 3888,
      "sometimes": 3889,
      "Ġbuckled": 3890,
      "Ġfifteen": 3891,
      "Ġstruck": 3892,
      "Ġreassuring": 3893,
      "Ġremoved": 3894,
      "Ġnecessary": 3895,
      "Ġoutfit": 3896,
      "Ġtenderly": 3897,
      "Ġromantic": 3898,
      "arently": 3899,
      "Ġacknowledge": 3900,
      "Ġoverwhelmed": 3901,
      "grabbing": 3902,
      "patrick": 3903,
      "Ġ172": 3904,
      "Ġheaved": 3905,
      "Ġtower": 3906,
      "Ġsuspiciously": 3907,
      "Ġclutched": 3908,
      "Ġrepeat": 3909,
      "Ġmoisture": 3910,
      "Ġmodels": 3911,
      "Ġfirmly": 3912,
      "Ġresults": 3913,
      "Ġpossibly": 3914,
      "closing": 3915,
      "priate": 3916,
      "Ġdabbed": 3917,
      "Ġyoke": 3918,
      "charlie": 3919,
      "Ġmusic": 3920,
      "Ġsurmised": 3921,
      "Ġsnuggled": 3922,
      "Ġcollapsed": 3923,
      "considering": 3924,
      "Ġgeorgie": 3925,
      "Ġmortifying": 3926,
      "Ġoriginally": 3927,
      "Ġskept": 3928,
      "Ġcessna": 3929,
      "Ġpizza": 3930,
      "Ġgorgeous": 3931,
      "Ġinnocent": 3932,
      "Ġatlanta": 3933,
      "Ġsuddenly": 3934,
      "Ġexasperated": 3935,
      "Ġsurgery": 3936,
      "Ġunbuttoned": 3937,
      "Ġadrenaline": 3938,
      "Ġamusement": 3939,
      "Ġswollen": 3940,
      "Ġdeposited": 3941,
      "ave": 3942,
      "aft": 3943,
      "bc": 3944,
      "born": 3945,
      "bring": 3946,
      "cr": 3947,
      "che": 3948,
      "could": 3949,
      "cum": 3950,
      "des": 3951,
      "down": 3952,
      "ection": 3953,
      "fer": 3954,
      "founded": 3955,
      "gr": 3956,
      "ground": 3957,
      "gment": 3958,
      "huh": 3959,
      "ially": 3960,
      "ipped": 3961,
      "iven": 3962,
      "ived": 3963,
      "iple": 3964,
      "ixt": 3965,
      "ivers": 3966,
      "lv": 3967,
      "look": 3968,
      "mist": 3969,
      "mble": 3970,
      "ole": 3971,
      "off": 3972,
      "pac": 3973,
      "pir": 3974,
      "rising": 3975,
      "rusted": 3976,
      "sa": 3977,
      "sl": 3978,
      "sur": 3979,
      "sanjay": 3980,
      "tent": 3981,
      "tain": 3982,
      "test": 3983,
      "tling": 3984,
      "uc": 3985,
      "ume": 3986,
      "uce": 3987,
      "uence": 3988,
      "upted": 3989,
      "wy": 3990,
      "will": 3991,
      "wled": 3992,
      "ye": 3993,
      "yond": 3994,
      "year": 3995,
      "Ġround": 3996,
      "Ġts": 3997,
      "Ġtum": 3998,
      "Ġtingle": 3999,
      "Ġtwelve": 4000,
      "Ġais": 4001,
      "Ġaff": 4002,
      "Ġaching": 4003,
      "Ġalive": 4004,
      "inet": 4005,
      "inted": 4006,
      "Ġsed": 4007,
      "Ġsized": 4008,
      "Ġsides": 4009,
      "Ġwi": 4010,
      "Ġwre": 4011,
      "Ġwrist": 4012,
      "oung": 4013,
      "Ġhun": 4014,
      "Ġhig": 4015,
      "Ġhired": 4016,
      "Ġhint": 4017,
      "Ġmic": 4018,
      "Ġmain": 4019,
      "Ġmace": 4020,
      "Ġmach": 4021,
      "Ġmild": 4022,
      "Ġmixt": 4023,
      "real": 4024,
      "Ġbas": 4025,
      "Ġbom": 4026,
      "Ġboo": 4027,
      "Ġbore": 4028,
      "Ġbill": 4029,
      "Ġbast": 4030,
      "Ġbice": 4031,
      "Ġbang": 4032,
      "Ġbacked": 4033,
      "Ġbright": 4034,
      "Ġoc": 4035,
      "Ġowe": 4036,
      "Ġooh": 4037,
      "Ġimm": 4038,
      "Ġtor": 4039,
      "Ġtoy": 4040,
      "Ġtops": 4041,
      "Ġtodd": 4042,
      "Ġfi": 4043,
      "Ġfat": 4044,
      "Ġfid": 4045,
      "Ġfra": 4046,
      "Ġfren": 4047,
      "Ġfacing": 4048,
      "Ġcot": 4049,
      "Ġcass": 4050,
      "Ġcateg": 4051,
      "erc": 4052,
      "erole": 4053,
      "Ġnause": 4054,
      "Ġnames": 4055,
      "Ġdried": 4056,
      "Ġdying": 4057,
      "Ġdren": 4058,
      "Ġdamm": 4059,
      "Ġdirty": 4060,
      "astered": 4061,
      "Ġped": 4062,
      "Ġpac": 4063,
      "Ġpicking": 4064,
      "Ġpiece": 4065,
      "Ġlack": 4066,
      "Ġlinked": 4067,
      "Ġlawy": 4068,
      "Ġloung": 4069,
      "Ġthong": 4070,
      "Ġthick": 4071,
      "Ġgard": 4072,
      "Ġgem": 4073,
      "itude": 4074,
      "only": 4075,
      "enger": 4076,
      "encing": 4077,
      "Ġine": 4078,
      "Ġinh": 4079,
      "Ġinapp": 4080,
      "orting": 4081,
      "arse": 4082,
      "aration": 4083,
      "Ġbegged": 4084,
      "Ġbeading": 4085,
      "Ġbelly": 4086,
      "Ġbeyond": 4087,
      "Ġegg": 4088,
      "Ġetern": 4089,
      "omp": 4090,
      "vement": 4091,
      "Ġones": 4092,
      "stop": 4093,
      "ottle": 4094,
      "imm": 4095,
      "eting": 4096,
      "Ġstat": 4097,
      "Ġstal": 4098,
      "Ġstem": 4099,
      "Ġstars": 4100,
      "Ġstamm": 4101,
      "vering": 4102,
      "Ġrever": 4103,
      "Ġreaching": 4104,
      "outine": 4105,
      "rolling": 4106,
      "ropriate": 4107,
      "Ġweird": 4108,
      "Ġwhirling": 4109,
      "utation": 4110,
      "Ġatc": 4111,
      "Ġath": 4112,
      "sex": 4113,
      "seat": 4114,
      "seven": 4115,
      "selves": 4116,
      "ghters": 4117,
      "Ġlives": 4118,
      "Ġshh": 4119,
      "Ġshame": 4120,
      "Ġshake": 4121,
      "Ġshaft": 4122,
      "alf": 4123,
      "ores": 4124,
      "Ġupcoming": 4125,
      "rif": 4126,
      "ribut": 4127,
      "ppy": 4128,
      "ppled": 4129,
      "Ġjet": 4130,
      "Ġneg": 4131,
      "acks": 4132,
      "today": 4133,
      "think": 4134,
      "through": 4135,
      "Ġknot": 4136,
      "Ġnoises": 4137,
      "making": 4138,
      "Ġbackseat": 4139,
      "Ġsafet": 4140,
      "rage": 4141,
      "Ġhanding": 4142,
      "Ġsuc": 4143,
      "Ġsult": 4144,
      "Ġsuff": 4145,
      "Ġfrank": 4146,
      "Ġfrantically": 4147,
      "Ġcapac": 4148,
      "Ġability": 4149,
      "Ġlikely": 4150,
      "liz": 4151,
      "ainted": 4152,
      "Ġtax": 4153,
      "Ġtapped": 4154,
      "Ġchanging": 4155,
      "Ġsmiling": 4156,
      "Ġleague": 4157,
      "Ġsem": 4158,
      "Ġsean": 4159,
      "Ġseven": 4160,
      "Ġsending": 4161,
      "Ġalluring": 4162,
      "Ġalluding": 4163,
      "Ġworse": 4164,
      "Ġalt": 4165,
      "wels": 4166,
      "Ġpuzz": 4167,
      "Ġclass": 4168,
      "Ġlock": 4169,
      "Ġloaded": 4170,
      "inkle": 4171,
      "quila": 4172,
      "quainted": 4173,
      "Ġanytime": 4174,
      "ledged": 4175,
      "Ġplat": 4176,
      "Ġplastered": 4177,
      "Ġtex": 4178,
      "Ġtequila": 4179,
      "Ġspace": 4180,
      "Ġspanking": 4181,
      "Ġoffic": 4182,
      "Ġoffered": 4183,
      "Ġcheating": 4184,
      "Ġchemist": 4185,
      "abl": 4186,
      "Ġdef": 4187,
      "Ġdear": 4188,
      "Ġgaped": 4189,
      "Ġarri": 4190,
      "Ġarjan": 4191,
      "ify": 4192,
      "Ġreputation": 4193,
      "Ġfla": 4194,
      "Ġfling": 4195,
      "Ġflung": 4196,
      "Ġgrind": 4197,
      "Ġtwin": 4198,
      "Ġtwinkle": 4199,
      "Ġways": 4200,
      "Ġquir": 4201,
      "Ġris": 4202,
      "Ġrad": 4203,
      "Ġraced": 4204,
      "Ġroutine": 4205,
      "aths": 4206,
      "Ġblame": 4207,
      "Ġblushed": 4208,
      "Ġblinked": 4209,
      "Ġcozy": 4210,
      "Ġribc": 4211,
      "Ġrippled": 4212,
      "uses": 4213,
      "usually": 4214,
      "people": 4215,
      "Ġwaking": 4216,
      "Ġensure": 4217,
      "gger": 4218,
      "ggered": 4219,
      "Ġruin": 4220,
      "Ġrude": 4221,
      "Ġrushed": 4222,
      "Ġrushing": 4223,
      "Ġrumor": 4224,
      "Ġpropped": 4225,
      "Ġprodu": 4226,
      "Ġmouths": 4227,
      "Ġbecoming": 4228,
      "please": 4229,
      "aping": 4230,
      "Ġscen": 4231,
      "Ġscent": 4232,
      "Ġscra": 4233,
      "Ġscree": 4234,
      "Ġinsist": 4235,
      "Ġyep": 4236,
      "Ġhappening": 4237,
      "itement": 4238,
      "olve": 4239,
      "olog": 4240,
      "shit": 4241,
      "shirt": 4242,
      "shiane": 4243,
      "Ġgavel": 4244,
      "Ġcalls": 4245,
      "Ġunex": 4246,
      "Ġunivers": 4247,
      "ending": 4248,
      "ization": 4249,
      "Ġtran": 4250,
      "anger": 4251,
      "Ġguided": 4252,
      "Ġpleading": 4253,
      "Ġstole": 4254,
      "Ġappet": 4255,
      "Ġintention": 4256,
      "Ġintently": 4257,
      "Ġintens": 4258,
      "Ġadored": 4259,
      "coll": 4260,
      "ertility": 4261,
      "wardly": 4262,
      "Ġswear": 4263,
      "Ġnail": 4264,
      "Ġpelv": 4265,
      "Ġrain": 4266,
      "Ġrage": 4267,
      "Ġraise": 4268,
      "Ġraging": 4269,
      "Ġsexy": 4270,
      "Ġsexually": 4271,
      "Ġcrad": 4272,
      "Ġcranked": 4273,
      "Ġstradd": 4274,
      "Ġdisc": 4275,
      "Ġdisg": 4276,
      "Ġcourt": 4277,
      "Ġsnort": 4278,
      "Ġsatisfied": 4279,
      "pected": 4280,
      "Ġbuy": 4281,
      "Ġperio": 4282,
      "Ġspeaking": 4283,
      "Ġsounded": 4284,
      "Ġoldest": 4285,
      "Ġearth": 4286,
      "Ġstung": 4287,
      "Ġkey": 4288,
      "Ġacting": 4289,
      "Ġbiting": 4290,
      "Ġslee": 4291,
      "Ġhurry": 4292,
      "Ġhurting": 4293,
      "Ġdesired": 4294,
      "Ġrunaway": 4295,
      "Ġburn": 4296,
      "Ġpanted": 4297,
      "Ġjoined": 4298,
      "Ġcause": 4299,
      "Ġplacement": 4300,
      "Ġserv": 4301,
      "Ġserved": 4302,
      "Ġattribut": 4303,
      "Ġdrape": 4304,
      "Ġjerk": 4305,
      "Ġshopping": 4306,
      "Ġdecide": 4307,
      "Ġnewest": 4308,
      "Ġsilver": 4309,
      "Ġsilenced": 4310,
      "Ġdressy": 4311,
      "Ġdressing": 4312,
      "idding": 4313,
      "Ġresolve": 4314,
      "Ġpained": 4315,
      "Ġpainful": 4316,
      "Ġwrap": 4317,
      "Ġdipping": 4318,
      "Ġdiaper": 4319,
      "Ġwaistband": 4320,
      "Ġpointing": 4321,
      "Ġtucked": 4322,
      "Ġpursed": 4323,
      "Ġprotect": 4324,
      "Ġbottles": 4325,
      "Ġtightened": 4326,
      "Ġtightening": 4327,
      "Ġawfully": 4328,
      "Ġawake": 4329,
      "Ġcraz": 4330,
      "Ġyoungest": 4331,
      "Ġgladly": 4332,
      "Ġstraw": 4333,
      "Ġspoken": 4334,
      "Ġtrain": 4335,
      "Ġsetting": 4336,
      "Ġgroan": 4337,
      "Ġurging": 4338,
      "Ġcontinue": 4339,
      "Ġstrokes": 4340,
      "Ġemotionally": 4341,
      "iction": 4342,
      "Ġboyfriend": 4343,
      "apparently": 4344,
      "Ġeaten": 4345,
      "Ġpleasantly": 4346,
      "Ġnervously": 4347,
      "bedi": 4348,
      "does": 4349,
      "Ġcute": 4350,
      "Ġremembered": 4351,
      "Ġconfir": 4352,
      "Ġboxer": 4353,
      "Ġincre": 4354,
      "Ġincred": 4355,
      "Ġadmire": 4356,
      "Ġpaid": 4357,
      "Ġpavement": 4358,
      "Ġsigned": 4359,
      "rupting": 4360,
      "Ġexperiencing": 4361,
      "Ġerupted": 4362,
      "Ġaffection": 4363,
      "Ġjewel": 4364,
      "Ġjudgment": 4365,
      "Ġconversations": 4366,
      "Ġapprehen": 4367,
      "trust": 4368,
      "Ġtotal": 4369,
      "ernity": 4370,
      "Ġlesson": 4371,
      "iety": 4372,
      "osite": 4373,
      "Ġreturn": 4374,
      "everyone": 4375,
      "Ġsongs": 4376,
      "Ġhanging": 4377,
      "Ġclenching": 4378,
      "Ġlanded": 4379,
      "Ġjuice": 4380,
      "Ġphysically": 4381,
      "Ġstuffed": 4382,
      "Ġlouder": 4383,
      "Ġgrunt": 4384,
      "Ġexcitement": 4385,
      "Ġsearching": 4386,
      "Ġfootball": 4387,
      "Ġobvious": 4388,
      "Ġwildly": 4389,
      "Ġcorrupting": 4390,
      "Ġlabor": 4391,
      "Ġevent": 4392,
      "Ġcommon": 4393,
      "Ġexplained": 4394,
      "Ġexplaining": 4395,
      "Ġstudent": 4396,
      "Ġstudied": 4397,
      "surely": 4398,
      "Ġslip": 4399,
      "Ġdaughters": 4400,
      "Ġforkful": 4401,
      "Ġencrusted": 4402,
      "Ġprepare": 4403,
      "Ġdrawer": 4404,
      "Ġhonorable": 4405,
      "Ġconvin": 4406,
      "Ġaccepted": 4407,
      "Ġsimple": 4408,
      "Ġstaff": 4409,
      "Ġclasp": 4410,
      "Ġclasped": 4411,
      "Ġstrangled": 4412,
      "Ġpeek": 4413,
      "Ġstrip": 4414,
      "Ġstripped": 4415,
      "Ġsubject": 4416,
      "Ġresponsible": 4417,
      "Ġaccidentally": 4418,
      "Ġembarrassing": 4419,
      "Ġembarrassment": 4420,
      "cloth": 4421,
      "Ġtentatively": 4422,
      "Ġflipped": 4423,
      "Ġcandid": 4424,
      "Ġbeginning": 4425,
      "Ġshiver": 4426,
      "Ġshivered": 4427,
      "Ġconnection": 4428,
      "Ġdefeated": 4429,
      "ificent": 4430,
      "Ġconsiderably": 4431,
      "Ġsensation": 4432,
      "Ġadding": 4433,
      "Ġdirection": 4434,
      "Ġpanicked": 4435,
      "Ġlungs": 4436,
      "Ġlunged": 4437,
      "Ġthreatened": 4438,
      "Ġpulse": 4439,
      "Ġclouds": 4440,
      "Ġcombination": 4441,
      "Ġincluding": 4442,
      "knowing": 4443,
      "Ġtests": 4444,
      "Ġwiped": 4445,
      "Ġmcd": 4446,
      "Ġcousins": 4447,
      "Ġcircles": 4448,
      "Ġmember": 4449,
      "Ġhistory": 4450,
      "Ġresidents": 4451,
      "Ġannounced": 4452,
      "Ġabandoned": 4453,
      "Ġabdomen": 4454,
      "Ġchicken": 4455,
      "Ġsmooth": 4456,
      "Ġconsum": 4457,
      "Ġcontempl": 4458,
      "Ġexhausted": 4459,
      "Ġterrible": 4460,
      "Ġdetails": 4461,
      "Ġinfluence": 4462,
      "caroline": 4463,
      "Ġmillion": 4464,
      "Ġmistake": 4465,
      "Ġbullshit": 4466,
      "Ġdeny": 4467,
      "Ġpower": 4468,
      "Ġpaused": 4469,
      "Ġpoured": 4470,
      "seeing": 4471,
      "Ġsummation": 4472,
      "Ġissues": 4473,
      "Ġsmirk": 4474,
      "Ġconstantly": 4475,
      "Ġmultiple": 4476,
      "Ġblurted": 4477,
      "Ġpolitely": 4478,
      "Ġimposs": 4479,
      "Ġembrace": 4480,
      "Ġcollege": 4481,
      "Ġapologetic": 4482,
      "Ġrocketed": 4483,
      "Ġanticip": 4484,
      "Ġsmell": 4485,
      "Ġopposite": 4486,
      "Ġident": 4487,
      "Ġcooed": 4488,
      "Ġcenter": 4489,
      "Ġinformation": 4490,
      "Ġstyle": 4491,
      "Ġliquid": 4492,
      "Ġknuckles": 4493,
      "Ġlocal": 4494,
      "Ġteenager": 4495,
      "Ġmagnificent": 4496,
      "Ġbodice": 4497,
      "Ġglittering": 4498,
      "Ġsweaty": 4499,
      "Ġstrictly": 4500,
      "Ġsquealed": 4501,
      "Ġimportant": 4502,
      "Ġhorrified": 4503,
      "Ġskeptical": 4504,
      "surpr": 4505,
      "tentatively": 4506,
      "Ġaisle": 4507,
      "Ġhigher": 4508,
      "Ġmachine": 4509,
      "Ġmixture": 4510,
      "Ġbastard": 4511,
      "Ġbiceps": 4512,
      "Ġfidget": 4513,
      "Ġcotton": 4514,
      "Ġcasserole": 4515,
      "Ġdrenched": 4516,
      "Ġdammit": 4517,
      "Ġlawyers": 4518,
      "Ġgarden": 4519,
      "Ġinappropriate": 4520,
      "Ġeternity": 4521,
      "Ġstammered": 4522,
      "Ġsafety": 4523,
      "Ġsultry": 4524,
      "Ġfrankly": 4525,
      "Ġchemistry": 4526,
      "Ġribcage": 4527,
      "Ġunexpected": 4528,
      "Ġintentions": 4529,
      "Ġintensity": 4530,
      "Ġperiod": 4531,
      "'s": 4532,
      "az": 4533,
      "ale": 4534,
      "aps": 4535,
      "ape": 4536,
      "azed": 4537,
      "bit": 4538,
      "bag": 4539,
      "can": 4540,
      "cas": 4541,
      "cle": 4542,
      "contro": 4543,
      "dri": 4544,
      "eled": 4545,
      "earing": 4546,
      "easing": 4547,
      "four": 4548,
      "feeling": 4549,
      "function": 4550,
      "good": 4551,
      "give": 4552,
      "had": 4553,
      "hus": 4554,
      "hair": 4555,
      "half": 4556,
      "iest": 4557,
      "ips": 4558,
      "iated": 4559,
      "kara": 4560,
      "lim": 4561,
      "luct": 4562,
      "laration": 4563,
      "mom": 4564,
      "made": 4565,
      "mary": 4566,
      "mones": 4567,
      "mpled": 4568,
      "pre": 4569,
      "ply": 4570,
      "pink": 4571,
      "pite": 4572,
      "ris": 4573,
      "ral": 4574,
      "rated": 4575,
      "sen": 4576,
      "six": 4577,
      "ti": 4578,
      "tu": 4579,
      "tter": 4580,
      "take": 4581,
      "talk": 4582,
      "two": 4583,
      "uar": 4584,
      "ught": 4585,
      "uine": 4586,
      "unt": 4587,
      "uage": 4588,
      "uction": 4589,
      "vit": 4590,
      "val": 4591,
      "word": 4592,
      "yn": 4593,
      "yes": 4594,
      "Ġ7": 4595,
      "Ġest": 4596,
      "Ġven": 4597,
      "Ġrough": 4598,
      "hell": 4599,
      "Ġtan": 4600,
      "Ġtough": 4601,
      "Ġtank": 4602,
      "Ġtumbled": 4603,
      "Ġah": 4604,
      "Ġaj": 4605,
      "Ġached": 4606,
      "Ġauth": 4607,
      "Ġawards": 4608,
      "inal": 4609,
      "inion": 4610,
      "inct": 4611,
      "inum": 4612,
      "inwardly": 4613,
      "Ġsis": 4614,
      "Ġsac": 4615,
      "Ġsly": 4616,
      "Ġsang": 4617,
      "Ġwis": 4618,
      "Ġwon": 4619,
      "Ġwad": 4620,
      "Ġward": 4621,
      "Ġwound": 4622,
      "Ġwished": 4623,
      "Ġhem": 4624,
      "Ġhust": 4625,
      "Ġhous": 4626,
      "Ġhooking": 4627,
      "Ġhooded": 4628,
      "Ġhooked": 4629,
      "Ġmix": 4630,
      "ref": 4631,
      "res": 4632,
      "rell": 4633,
      "reshing": 4634,
      "reluct": 4635,
      "Ġbank": 4636,
      "Ġbanging": 4637,
      "Ġow": 4638,
      "Ġobedi": 4639,
      "Ġtoes": 4640,
      "Ġtown": 4641,
      "Ġtoys": 4642,
      "Ġfee": 4643,
      "Ġfart": 4644,
      "Ġfully": 4645,
      "Ġfaced": 4646,
      "Ġfash": 4647,
      "Ġfisted": 4648,
      "Ġfancy": 4649,
      "Ġfumbled": 4650,
      "Ġcwe": 4651,
      "Ġcong": 4652,
      "Ġcooking": 4653,
      "ery": 4654,
      "eral": 4655,
      "erally": 4656,
      "atur": 4657,
      "atic": 4658,
      "attered": 4659,
      "Ġnine": 4660,
      "Ġnud": 4661,
      "Ġniece": 4662,
      "Ġnatur": 4663,
      "Ġdart": 4664,
      "Ġdum": 4665,
      "Ġdys": 4666,
      "Ġdanger": 4667,
      "nded": 4668,
      "asm": 4669,
      "asive": 4670,
      "ison": 4671,
      "Ġpet": 4672,
      "Ġpout": 4673,
      "Ġprou": 4674,
      "Ġpage": 4675,
      "Ġpool": 4676,
      "Ġpadd": 4677,
      "Ġparent": 4678,
      "Ġpager": 4679,
      "Ġlad": 4680,
      "Ġlim": 4681,
      "Ġlang": 4682,
      "Ġloun": 4683,
      "especially": 4684,
      "Ġthous": 4685,
      "Ġyard": 4686,
      "Ġgy": 4687,
      "Ġgau": 4688,
      "Ġgift": 4689,
      "itory": 4690,
      "Ġinj": 4691,
      "Ġinn": 4692,
      "Ġinit": 4693,
      "Ġinde": 4694,
      "Ġinquis": 4695,
      "oring": 4696,
      "oric": 4697,
      "orized": 4698,
      "orhood": 4699,
      "arled": 4700,
      "ario": 4701,
      "ades": 4702,
      "Ġbear": 4703,
      "Ġbending": 4704,
      "Ġears": 4705,
      "omfort": 4706,
      "Ġwaste": 4707,
      "Ġhiss": 4708,
      "lem": 4709,
      "velo": 4710,
      "stem": 4711,
      "ote": 4712,
      "otive": 4713,
      "otten": 4714,
      "immed": 4715,
      "immediately": 4716,
      "acious": 4717,
      "across": 4718,
      "Ġutter": 4719,
      "Ġstair": 4720,
      "Ġstairs": 4721,
      "Ġstumbled": 4722,
      "Ġaspect": 4723,
      "Ġaspir": 4724,
      "Ġrev": 4725,
      "Ġrece": 4726,
      "Ġreel": 4727,
      "Ġrecent": 4728,
      "lying": 4729,
      "Ġwithdra": 4730,
      "Ġkicking": 4731,
      "rog": 4732,
      "Ġweight": 4733,
      "Ġweeping": 4734,
      "Ġwhist": 4735,
      "Ġfort": 4736,
      "urance": 4737,
      "ooling": 4738,
      "icit": 4739,
      "Ġliam": 4740,
      "Ġlived": 4741,
      "ential": 4742,
      "Ġshad": 4743,
      "Ġshak": 4744,
      "Ġsharing": 4745,
      "Ġshining": 4746,
      "Ġshrie": 4747,
      "Ġshattered": 4748,
      "hern": 4749,
      "always": 4750,
      "antily": 4751,
      "Ġupon": 4752,
      "Ġupper": 4753,
      "terior": 4754,
      "Ġja": 4755,
      "Ġjag": 4756,
      "Ġoutright": 4757,
      "top": 4758,
      "thm": 4759,
      "thr": 4760,
      "those": 4761,
      "Ġknight": 4762,
      "Ġnope": 4763,
      "ilty": 4764,
      "Ġnotice": 4765,
      "Ġnoticing": 4766,
      "make": 4767,
      "Ġbacking": 4768,
      "Ġsamo": 4769,
      "Ġoverd": 4770,
      "Ġovernight": 4771,
      "rain": 4772,
      "Ġhandled": 4773,
      "Ġintoxic": 4774,
      "Ġsunday": 4775,
      "Ġfrantic": 4776,
      "Ġfriction": 4777,
      "lia": 4778,
      "lifting": 4779,
      "ruly": 4780,
      "Ġtail": 4781,
      "Ġtaught": 4782,
      "Ġroad": 4783,
      "Ġrode": 4784,
      "Ġrocking": 4785,
      "Ġroses": 4786,
      "Ġcho": 4787,
      "Ġchoo": 4788,
      "Ġleis": 4789,
      "Ġlease": 4790,
      "Ġleaning": 4791,
      "Ġexit": 4792,
      "Ġfeed": 4793,
      "Ġfears": 4794,
      "Ġfeeding": 4795,
      "Ġaltern": 4796,
      "Ġpuff": 4797,
      "Ġpuppy": 4798,
      "cky": 4799,
      "aughter": 4800,
      "Ġemerg": 4801,
      "Ġclad": 4802,
      "Ġclic": 4803,
      "Ġclaw": 4804,
      "Ġclamped": 4805,
      "Ġload": 4806,
      "Ġlover": 4807,
      "Ġloss": 4808,
      "Ġlobb": 4809,
      "Ġlosing": 4810,
      "Ġlodged": 4811,
      "illa": 4812,
      "ammed": 4813,
      "ests": 4814,
      "Ġanybody": 4815,
      "Ġteach": 4816,
      "Ġtearing": 4817,
      "Ġspur": 4818,
      "Ġspun": 4819,
      "Ġknowledge": 4820,
      "Ġoffend": 4821,
      "Ġoffering": 4822,
      "Ġconception": 4823,
      "Ġcheated": 4824,
      "Ġchecked": 4825,
      "ables": 4826,
      "istening": 4827,
      "Ġdeb": 4828,
      "Ġdel": 4829,
      "asted": 4830,
      "Ġthemselves": 4831,
      "Ġarr": 4832,
      "ifier": 4833,
      "Ġmanagement": 4834,
      "Ġmanners": 4835,
      "Ġbye": 4836,
      "Ġgrat": 4837,
      "Ġgras": 4838,
      "Ġgritted": 4839,
      "Ġgrowled": 4840,
      "Ġgoodnight": 4841,
      "Ġtwice": 4842,
      "Ġtwirled": 4843,
      "Ġquit": 4844,
      "Ġbobbing": 4845,
      "Ġrow": 4846,
      "Ġride": 4847,
      "Ġridden": 4848,
      "Ġrhy": 4849,
      "Ġrotten": 4850,
      "ula": 4851,
      "ulating": 4852,
      "ulner": 4853,
      "Ġbrick": 4854,
      "Ġbraced": 4855,
      "Ġglazed": 4856,
      "Ġglistening": 4857,
      "Ġhoarse": 4858,
      "Ġbliss": 4859,
      "Ġblushing": 4860,
      "Ġcoy": 4861,
      "Ġcode": 4862,
      "Ġwhoa": 4863,
      "Ġslapped": 4864,
      "Ġslammed": 4865,
      "usive": 4866,
      "Ġcommand": 4867,
      "pels": 4868,
      "Ġarmor": 4869,
      "herent": 4870,
      "Ġbree": 4871,
      "dding": 4872,
      "Ġmoan": 4873,
      "Ġmoves": 4874,
      "Ġmoans": 4875,
      "Ġmonday": 4876,
      "Ġenvelo": 4877,
      "Ġprecept": 4878,
      "Ġprevious": 4879,
      "Ġpresent": 4880,
      "Ġlovely": 4881,
      "ggled": 4882,
      "ggie": 4883,
      "ggling": 4884,
      "Ġhelping": 4885,
      "Ġmouthed": 4886,
      "being": 4887,
      "belie": 4888,
      "becky": 4889,
      "Ġlongest": 4890,
      "ures": 4891,
      "Ġproce": 4892,
      "bbles": 4893,
      "Ġthroughout": 4894,
      "ressing": 4895,
      "Ġmakeup": 4896,
      "Ġeverybody": 4897,
      "Ġprick": 4898,
      "fted": 4899,
      "ieces": 4900,
      "apism": 4901,
      "Ġscrat": 4902,
      "Ġscript": 4903,
      "Ġscantily": 4904,
      "Ġopinion": 4905,
      "Ġwomb": 4906,
      "whirling": 4907,
      "Ġcarrying": 4908,
      "Ġassault": 4909,
      "olored": 4910,
      "Ġsurgeon": 4911,
      "shveta": 4912,
      "shield": 4913,
      "Ġvoices": 4914,
      "Ġvulner": 4915,
      "getting": 4916,
      "getables": 4917,
      "Ġmargar": 4918,
      "Ġunable": 4919,
      "Ġunlo": 4920,
      "Ġunlike": 4921,
      "Ġunsure": 4922,
      "Ġunzi": 4923,
      "Ġtells": 4924,
      "agements": 4925,
      "Ġacquainted": 4926,
      "Ġtrick": 4927,
      "Ġtracks": 4928,
      "angie": 4929,
      "Ġfoam": 4930,
      "assing": 4931,
      "Ġguilty": 4932,
      "owsily": 4933,
      "Ġstopping": 4934,
      "Ġstocking": 4935,
      "Ġlasted": 4936,
      "Ġadam": 4937,
      "ages": 4938,
      "unable": 4939,
      "Ġamused": 4940,
      "igns": 4941,
      "Ġnails": 4942,
      "Ġraked": 4943,
      "Ġhugs": 4944,
      "Ġgives": 4945,
      "Ġcareful": 4946,
      "Ġplays": 4947,
      "Ġplayer": 4948,
      "orts": 4949,
      "Ġminions": 4950,
      "Ġpartying": 4951,
      "Ġpartners": 4952,
      "Ġtongues": 4953,
      "Ġdishes": 4954,
      "onceived": 4955,
      "Ġbehav": 4956,
      "Ġimages": 4957,
      "Ġimagining": 4958,
      "Ġdrank": 4959,
      "Ġdrowsily": 4960,
      "Ġbuz": 4961,
      "Ġbuzz": 4962,
      "Ġcudd": 4963,
      "Ġmaternity": 4964,
      "Ġperce": 4965,
      "Ġperfection": 4966,
      "Ġleaking": 4967,
      "Ġearlier": 4968,
      "Ġreality": 4969,
      "Ġrealization": 4970,
      "Ġwrath": 4971,
      "Ġwritten": 4972,
      "Ġwarning": 4973,
      "Ġswitched": 4974,
      "Ġdesk": 4975,
      "Ġdescent": 4976,
      "Ġdesigns": 4977,
      "Ġgodparents": 4978,
      "reamy": 4979,
      "Ġthrottle": 4980,
      "never": 4981,
      "next": 4982,
      "neither": 4983,
      "Ġattract": 4984,
      "Ġskirt": 4985,
      "Ġskimmed": 4986,
      "Ġdevour": 4987,
      "Ġdraped": 4988,
      "Ġdrained": 4989,
      "Ġbeauty": 4990,
      "Ġshocked": 4991,
      "Ġshooting": 4992,
      "Ġanswering": 4993,
      "Ġdecent": 4994,
      "Ġdeclaration": 4995,
      "formed": 4996,
      "Ġentering": 4997,
      "Ġenthus": 4998,
      "Ġhottest": 4999,
      "Ġdriving": 5000,
      "Ġchuckle": 5001,
      "john": 5002,
      "Ġdarkness": 5003,
      "Ġgrilled": 5004,
      "Ġchairs": 5005,
      "Ġhospitals": 5006,
      "Ġeleven": 5007,
      "Ġelement": 5008,
      "Ġtug": 5009,
      "Ġtux": 5010,
      "Ġtugging": 5011,
      "Ġnerve": 5012,
      "Ġpurs": 5013,
      "Ġrobes": 5014,
      "Ġprotection": 5015,
      "Ġtighter": 5016,
      "Ġtighten": 5017,
      "Ġawa": 5018,
      "Ġcrawled": 5019,
      "Ġlatest": 5020,
      "Ġsoftened": 5021,
      "Ġsoftness": 5022,
      "Ġtouches": 5023,
      "Ġmrs": 5024,
      "Ġstraps": 5025,
      "Ġexpecting": 5026,
      "Ġsinger": 5027,
      "Ġspoiling": 5028,
      "Ġpersonally": 5029,
      "Ġtrailed": 5030,
      "Ġgroans": 5031,
      "Ġwhispering": 5032,
      "Ġexamine": 5033,
      "Ġinterns": 5034,
      "Ġinterrog": 5035,
      "Ġhopefully": 5036,
      "Ġdoug": 5037,
      "standing": 5038,
      "Ġcontrolled": 5039,
      "Ġcontrols": 5040,
      "Ġlighten": 5041,
      "fected": 5042,
      "Ġcomplain": 5043,
      "Ġcomplim": 5044,
      "Ġwallet": 5045,
      "Ġcurved": 5046,
      "Ġcurls": 5047,
      "lets": 5048,
      "Ġstomp": 5049,
      "dopted": 5050,
      "Ġairbag": 5051,
      "Ġsisters": 5052,
      "Ġmorris": 5053,
      "Ġconfidence": 5054,
      "Ġhormones": 5055,
      "Ġpriapism": 5056,
      "Ġangle": 5057,
      "Ġbusinessman": 5058,
      "bye": 5059,
      "Ġmenu": 5060,
      "Ġunderstandable": 5061,
      "Ġknocking": 5062,
      "Ġknobs": 5063,
      "Ġexperienced": 5064,
      "someone": 5065,
      "Ġaubur": 5066,
      "Ġbrain": 5067,
      "Ġbrakes": 5068,
      "Ġdrumm": 5069,
      "Ġlapels": 5070,
      "Ġinviting": 5071,
      "Ġdealing": 5072,
      "Ġpassenger": 5073,
      "Ġrefle": 5074,
      "Ġrefined": 5075,
      "Ġrefused": 5076,
      "Ġrefreshing": 5077,
      "Ġdemanding": 5078,
      "Ġswallowing": 5079,
      "Ġdoubted": 5080,
      "maya": 5081,
      "truth": 5082,
      "Ġtermin": 5083,
      "Ġbrush": 5084,
      "Ġformal": 5085,
      "Ġformally": 5086,
      "Ġrelaxing": 5087,
      "Ġthrusting": 5088,
      "fortun": 5089,
      "osal": 5090,
      "Ġballroom": 5091,
      "Ġankles": 5092,
      "Ġclimax": 5093,
      "going": 5094,
      "Ġflex": 5095,
      "Ġcroaked": 5096,
      "Ġpounds": 5097,
      "Ġsuggestion": 5098,
      "Ġclench": 5099,
      "Ġglasses": 5100,
      "Ġmovement": 5101,
      "Ġengaged": 5102,
      "Ġengagements": 5103,
      "Ġsqueeze": 5104,
      "Ġundone": 5105,
      "Ġcollaps": 5106,
      "Ġdisappro": 5107,
      "Ġclearly": 5108,
      "Ġdistr": 5109,
      "Ġdistract": 5110,
      "Ġgrunts": 5111,
      "Ġremaining": 5112,
      "Ġforgive": 5113,
      "rieved": 5114,
      "Ġwindow": 5115,
      "Ġwindshield": 5116,
      "Ġcorre": 5117,
      "Ġdeterm": 5118,
      "Ġpractice": 5119,
      "Ġstudio": 5120,
      "Ġgreed": 5121,
      "Ġspotlight": 5122,
      "Ġdeprived": 5123,
      "Ġencoun": 5124,
      "Ġdrunken": 5125,
      "Ġtrip": 5126,
      "Ġforever": 5127,
      "Ġfabulous": 5128,
      "Ġdrying": 5129,
      "Ġanxious": 5130,
      "Ġanxiety": 5131,
      "Ġtempt": 5132,
      "Ġconvul": 5133,
      "Ġbursting": 5134,
      "Ġvegetables": 5135,
      "Ġsystem": 5136,
      "Ġsimply": 5137,
      "Ġhesitantly": 5138,
      "Ġrecovered": 5139,
      "Ġclasping": 5140,
      "Ġchewing": 5141,
      "Ġdelivered": 5142,
      "Ġflower": 5143,
      "Ġflowers": 5144,
      "Ġstrangle": 5145,
      "berries": 5146,
      "haps": 5147,
      "Ġfailed": 5148,
      "Ġpeeked": 5149,
      "Ġpills": 5150,
      "Ġsubmiss": 5151,
      "Ġfrustration": 5152,
      "Ġextra": 5153,
      "Ġselfish": 5154,
      "Ġprecious": 5155,
      "Ġprecise": 5156,
      "Ġpreconceived": 5157,
      "Ġadoption": 5158,
      "Ġreluctant": 5159,
      "Ġsilky": 5160,
      "ocol": 5161,
      "phant": 5162,
      "Ġtenth": 5163,
      "Ġsadly": 5164,
      "Ġmischie": 5165,
      "Ġflip": 5166,
      "Ġcandle": 5167,
      "Ġdazed": 5168,
      "Ġsmacking": 5169,
      "Ġconnected": 5170,
      "Ġdefeat": 5171,
      "ification": 5172,
      "Ġproposal": 5173,
      "Ġresponding": 5174,
      "Ġsensual": 5175,
      "something": 5176,
      "Ġblew": 5177,
      "Ġbounce": 5178,
      "Ġpanic": 5179,
      "Ġgenuine": 5180,
      "Ġwashcloth": 5181,
      "Ġrecord": 5182,
      "Ġretre": 5183,
      "Ġretrieved": 5184,
      "Ġnecessarily": 5185,
      "Ġpulsing": 5186,
      "Ġromance": 5187,
      "Ġinclined": 5188,
      "Ġjealousy": 5189,
      "Ġacknowledged": 5190,
      "Ġoverwhelming": 5191,
      "Ġwiping": 5192,
      "Ġhealthy": 5193,
      "Ġmccoll": 5194,
      "Ġmask": 5195,
      "Ġcousin": 5196,
      "Ġgathering": 5197,
      "Ġmembers": 5198,
      "Ġhistoric": 5199,
      "Ġstorm": 5200,
      "Ġstorage": 5201,
      "Ġfrowned": 5202,
      "Ġabdominal": 5203,
      "Ġsmoothed": 5204,
      "Ġseedy": 5205,
      "Ġpumped": 5206,
      "Ġgrades": 5207,
      "Ġgraduation": 5208,
      "Ġrattled": 5209,
      "Ġrattling": 5210,
      "Ġblessings": 5211,
      "Ġcontempt": 5212,
      "Ġadjusted": 5213,
      "Ġterribly": 5214,
      "Ġdetail": 5215,
      "Ġechoed": 5216,
      "Ġavoided": 5217,
      "Ġhicke": 5218,
      "Ġhiccu": 5219,
      "Ġillicit": 5220,
      "Ġnuzzled": 5221,
      "Ġdanced": 5222,
      "Ġgleam": 5223,
      "Ġgleaming": 5224,
      "Ġgulped": 5225,
      "Ġbelonged": 5226,
      "Ġrequest": 5227,
      "Ġcamera": 5228,
      "Ġcameras": 5229,
      "Ġchallenge": 5230,
      "Ġchallenged": 5231,
      "Ġmuscles": 5232,
      "Ġassistant": 5233,
      "Ġadorned": 5234,
      "Ġsniffled": 5235,
      "Ġnormally": 5236,
      "Ġextremely": 5237,
      "brush": 5238,
      "Ġtickets": 5239,
      "Ġsouthern": 5240,
      "Ġheights": 5241,
      "Ġbump": 5242,
      "Ġfrozen": 5243,
      "Ġfaltered": 5244,
      "Ġdumbfounded": 5245,
      "Ġpotential": 5246,
      "Ġpansy": 5247,
      "Ġstretched": 5248,
      "Ġsuperv": 5249,
      "Ġfridge": 5250,
      "Ġchaste": 5251,
      "Ġsparkled": 5252,
      "Ġassumpt": 5253,
      "Ġsurveyed": 5254,
      "Ġsurrounded": 5255,
      "Ġtransfer": 5256,
      "Ġexplode": 5257,
      "Ġamerican": 5258,
      "Ġdiscussing": 5259,
      "Ġdisplays": 5260,
      "Ġsnatched": 5261,
      "Ġawakened": 5262,
      "Ġerectile": 5263,
      "Ġimpressive": 5264,
      "Ġterritory": 5265,
      "Ġgranddaughter": 5266,
      "Ġdisappoint": 5267,
      "Ġfascinated": 5268,
      "Ġresponsibility": 5269,
      "bringing": 5270,
      "sliding": 5271,
      "Ġtsked": 5272,
      "Ġtummy": 5273,
      "Ġaffair": 5274,
      "Ġseduction": 5275,
      "Ġwreaths": 5276,
      "Ġbasically": 5277,
      "Ġbomb": 5278,
      "Ġtoddler": 5279,
      "Ġpacifier": 5280,
      "Ġlounging": 5281,
      "Ġgems": 5282,
      "Ġinhaled": 5283,
      "Ġstalked": 5284,
      "Ġsuccess": 5285,
      "Ġcapacity": 5286,
      "Ġtaxi": 5287,
      "Ġpuzzled": 5288,
      "Ġplatinum": 5289,
      "Ġofficial": 5290,
      "Ġflailed": 5291,
      "Ġquirked": 5292,
      "Ġradio": 5293,
      "Ġrumors": 5294,
      "Ġscenario": 5295,
      "Ġscrambled": 5296,
      "Ġuniversity": 5297,
      "Ġappetizing": 5298,
      "Ġpelvis": 5299,
      "Ġcradled": 5300,
      "Ġdisgust": 5301,
      "Ġcourtroom": 5302,
      "Ġservice": 5303,
      "Ġattributes": 5304,
      "Ġjewelry": 5305,
      "Ġcandidate": 5306,
      "Ġmcdreamy": 5307,
      "Ġconsumm": 5308,
      "Ġimpossible": 5309,
      "Ġsmells": 5310,
      "Ġidentical": 5311,
      "control": 5312,
      "haired": 5313,
      "Ġestabl": 5314,
      "Ġauthorized": 5315,
      "Ġsacrif": 5316,
      "Ġhouses": 5317,
      "rella": 5318,
      "reluctantly": 5319,
      "Ġfeebly": 5320,
      "Ġfarther": 5321,
      "Ġfashion": 5322,
      "Ġcweam": 5323,
      "Ġcongrat": 5324,
      "Ġnudged": 5325,
      "Ġdarted": 5326,
      "Ġdysfunction": 5327,
      "Ġproud": 5328,
      "Ġpaddles": 5329,
      "Ġlanguage": 5330,
      "Ġlounge": 5331,
      "Ġthousand": 5332,
      "Ġstairwell": 5333,
      "Ġreeling": 5334,
      "Ġshrieked": 5335,
      "Ġjaguar": 5336,
      "Ġsamosa": 5337,
      "Ġemergency": 5338,
      "Ġlobby": 5339,
      "Ġrhythm": 5340,
      "Ġpreceptor": 5341,
      "Ġmargarit": 5342,
      "Ġunzipped": 5343,
      "Ġbehavior": 5344,
      "Ġenthusi": 5345,
      "Ġauburn": 5346,
      "Ġcollapsing": 5347,
      "Ġmischievous": 5348,
      "Ġmccollum": 5349,
      "'m": 5350,
      "60": 5351,
      "aj": 5352,
      "ama": 5353,
      "alet": 5354,
      "aos": 5355,
      "bre": 5356,
      "bid": 5357,
      "bet": 5358,
      "bri": 5359,
      "back": 5360,
      "book": 5361,
      "bul": 5362,
      "bble": 5363,
      "bum": 5364,
      "buck": 5365,
      "bushed": 5366,
      "borhood": 5367,
      "call": 5368,
      "cast": 5369,
      "cating": 5370,
      "colored": 5371,
      "ds": 5372,
      "din": 5373,
      "der": 5374,
      "dro": 5375,
      "dam": 5376,
      "davis": 5377,
      "diving": 5378,
      "eful": 5379,
      "ected": 5380,
      "fy": 5381,
      "fto": 5382,
      "fry": 5383,
      "fuck": 5384,
      "flow": 5385,
      "fitted": 5386,
      "fold": 5387,
      "fume": 5388,
      "gu": 5389,
      "gre": 5390,
      "ges": 5391,
      "gain": 5392,
      "gress": 5393,
      "gical": 5394,
      "gued": 5395,
      "given": 5396,
      "hh": 5397,
      "hor": 5398,
      "ii": 5399,
      "ient": 5400,
      "ighed": 5401,
      "iag": 5402,
      "ience": 5403,
      "igeon": 5404,
      "ibbling": 5405,
      "jer": 5406,
      "jected": 5407,
      "kno": 5408,
      "lit": 5409,
      "len": 5410,
      "lve": 5411,
      "land": 5412,
      "lers": 5413,
      "luck": 5414,
      "law": 5415,
      "licking": 5416,
      "listed": 5417,
      "lines": 5418,
      "lterior": 5419,
      "mat": 5420,
      "men": 5421,
      "mro": 5422,
      "mest": 5423,
      "mous": 5424,
      "mure": 5425,
      "mia": 5426,
      "nch": 5427,
      "nched": 5428,
      "nel": 5429,
      "name": 5430,
      "nibbling": 5431,
      "osing": 5432,
      "ocks": 5433,
      "ooted": 5434,
      "py": 5435,
      "pow": 5436,
      "pic": 5437,
      "pee": 5438,
      "part": 5439,
      "port": 5440,
      "pose": 5441,
      "pils": 5442,
      "ride": 5443,
      "ration": 5444,
      "rimp": 5445,
      "rational": 5446,
      "ser": 5447,
      "sat": 5448,
      "sive": 5449,
      "sara": 5450,
      "sized": 5451,
      "sitting": 5452,
      "sudd": 5453,
      "sense": 5454,
      "too": 5455,
      "tive": 5456,
      "tiqu": 5457,
      "tti": 5458,
      "truly": 5459,
      "uv": 5460,
      "uro": 5461,
      "uous": 5462,
      "under": 5463,
      "uating": 5464,
      "vent": 5465,
      "vision": 5466,
      "vulating": 5467,
      "win": 5468,
      "wing": 5469,
      "wat": 5470,
      "wis": 5471,
      "would": 5472,
      "wra": 5473,
      "west": 5474,
      "wide": 5475,
      "ware": 5476,
      "waving": 5477,
      "warm": 5478,
      "walk": 5479,
      "xim": 5480,
      "your": 5481,
      "ysts": 5482,
      "zard": 5483,
      "Ġ2": 5484,
      "Ġ3": 5485,
      "Ġ5": 5486,
      "Ġ6": 5487,
      "Ġ9": 5488,
      "Ġz": 5489,
      "Ġver": 5490,
      "hey": 5491,
      "held": 5492,
      "heard": 5493,
      "hetti": 5494,
      "Ġtas": 5495,
      "Ġtall": 5496,
      "Ġtile": 5497,
      "Ġtact": 5498,
      "Ġtang": 5499,
      "Ġtun": 5500,
      "Ġtied": 5501,
      "Ġties": 5502,
      "Ġtinged": 5503,
      "Ġtiff": 5504,
      "Ġarou": 5505,
      "Ġapt": 5506,
      "Ġahold": 5507,
      "inut": 5508,
      "inched": 5509,
      "Ġsand": 5510,
      "Ġsill": 5511,
      "Ġsway": 5512,
      "Ġsour": 5513,
      "Ġwinking": 5514,
      "Ġwives": 5515,
      "Ġwings": 5516,
      "ouch": 5517,
      "ount": 5518,
      "oules": 5519,
      "ounted": 5520,
      "Ġheating": 5521,
      "Ġheaping": 5522,
      "Ġhom": 5523,
      "Ġhire": 5524,
      "Ġms": 5525,
      "Ġmau": 5526,
      "Ġmile": 5527,
      "Ġmound": 5528,
      "Ġmirth": 5529,
      "Ġmerc": 5530,
      "Ġmotive": 5531,
      "reading": 5532,
      "remon": 5533,
      "resent": 5534,
      "Ġbon": 5535,
      "Ġbim": 5536,
      "Ġbal": 5537,
      "Ġbri": 5538,
      "Ġbust": 5539,
      "Ġbone": 5540,
      "Ġbook": 5541,
      "Ġbared": 5542,
      "Ġbows": 5543,
      "Ġbash": 5544,
      "Ġbanged": 5545,
      "Ġbumped": 5546,
      "Ġbio": 5547,
      "Ġbunch": 5548,
      "Ġbusted": 5549,
      "Ġbones": 5550,
      "Ġbooked": 5551,
      "Ġbird": 5552,
      "Ġboring": 5553,
      "Ġoo": 5554,
      "Ġome": 5555,
      "Ġodd": 5556,
      "Ġovulating": 5557,
      "anilla": 5558,
      "Ġtoss": 5559,
      "Ġtoile": 5560,
      "Ġtossed": 5561,
      "Ġtooth": 5562,
      "Ġtowels": 5563,
      "Ġfant": 5564,
      "Ġfri": 5565,
      "Ġfain": 5566,
      "Ġfled": 5567,
      "Ġfiled": 5568,
      "Ġfue": 5569,
      "Ġfig": 5570,
      "Ġfading": 5571,
      "Ġfake": 5572,
      "Ġfooled": 5573,
      "Ġfertility": 5574,
      "Ġct": 5575,
      "Ġcy": 5576,
      "Ġcust": 5577,
      "Ġcast": 5578,
      "Ġcure": 5579,
      "Ġcrew": 5580,
      "Ġcush": 5581,
      "Ġcial": 5582,
      "erk": 5583,
      "ersed": 5584,
      "erald": 5585,
      "erial": 5586,
      "ats": 5587,
      "atable": 5588,
      "atory": 5589,
      "atern": 5590,
      "Ġherit": 5591,
      "Ġnut": 5592,
      "Ġnau": 5593,
      "Ġnast": 5594,
      "Ġnate": 5595,
      "Ġnick": 5596,
      "Ġnun": 5597,
      "Ġnature": 5598,
      "Ġnamed": 5599,
      "Ġninet": 5600,
      "Ġdom": 5601,
      "Ġdim": 5602,
      "Ġdest": 5603,
      "Ġdiss": 5604,
      "Ġdiz": 5605,
      "Ġdip": 5606,
      "Ġdual": 5607,
      "Ġdash": 5608,
      "Ġdoting": 5609,
      "Ġditched": 5610,
      "ndo": 5611,
      "ndar": 5612,
      "aser": 5613,
      "ashes": 5614,
      "istered": 5615,
      "isions": 5616,
      "isfy": 5617,
      "Ġpent": 5618,
      "Ġpile": 5619,
      "Ġpaced": 5620,
      "Ġpaled": 5621,
      "Ġpacked": 5622,
      "Ġpacing": 5623,
      "Ġprying": 5624,
      "Ġpomp": 5625,
      "Ġpooling": 5626,
      "Ġpigeon": 5627,
      "Ġlick": 5628,
      "Ġlun": 5629,
      "Ġlined": 5630,
      "Ġlaced": 5631,
      "Ġlately": 5632,
      "Ġlane": 5633,
      "Ġlacy": 5634,
      "Ġlugg": 5635,
      "Ġlub": 5636,
      "Ġlines": 5637,
      "ester": 5638,
      "esus": 5639,
      "Ġthru": 5640,
      "Ġthus": 5641,
      "Ġyess": 5642,
      "Ġgest": 5643,
      "ithed": 5644,
      "itive": 5645,
      "oni": 5646,
      "ons": 5647,
      "eness": 5648,
      "ences": 5649,
      "ller": 5650,
      "llow": 5651,
      "llably": 5652,
      "Ġink": 5653,
      "Ġinher": 5654,
      "Ġinched": 5655,
      "Ġinfin": 5656,
      "Ġinput": 5657,
      "orous": 5658,
      "orched": 5659,
      "ority": 5660,
      "ories": 5661,
      "ording": 5662,
      "ormous": 5663,
      "arp": 5664,
      "aran": 5665,
      "arch": 5666,
      "arching": 5667,
      "arms": 5668,
      "arls": 5669,
      "Ġshell": 5670,
      "adas": 5671,
      "Ġbeg": 5672,
      "Ġbeep": 5673,
      "Ġbeaded": 5674,
      "Ġeh": 5675,
      "Ġetiqu": 5676,
      "Ġeuro": 5677,
      "omatic": 5678,
      "idated": 5679,
      "Ġmeat": 5680,
      "Ġmeas": 5681,
      "Ġmeal": 5682,
      "Ġmeth": 5683,
      "Ġmelted": 5684,
      "Ġmeggie": 5685,
      "leen": 5686,
      "lete": 5687,
      "leaving": 5688,
      "levision": 5689,
      "lendar": 5690,
      "velled": 5691,
      "Ġonboard": 5692,
      "stood": 5693,
      "othe": 5694,
      "otic": 5695,
      "ache": 5696,
      "Ġushe": 5697,
      "Ġumm": 5698,
      "Ġumb": 5699,
      "Ġulterior": 5700,
      "aying": 5701,
      "etic": 5702,
      "ette": 5703,
      "ithouse": 5704,
      "Ġstain": 5705,
      "Ġstard": 5706,
      "Ġstuck": 5707,
      "Ġstream": 5708,
      "Ġsticking": 5709,
      "Ġstern": 5710,
      "Ġitch": 5711,
      "Ġitching": 5712,
      "Ġreve": 5713,
      "Ġreli": 5714,
      "Ġreact": 5715,
      "Ġreapp": 5716,
      "Ġretr": 5717,
      "outfitted": 5718,
      "Ġdog": 5719,
      "Ġdope": 5720,
      "Ġdodged": 5721,
      "Ġkur": 5722,
      "Ġkink": 5723,
      "Ġkather": 5724,
      "Ġkitten": 5725,
      "robe": 5726,
      "roph": 5727,
      "Ġweather": 5728,
      "Ġwealth": 5729,
      "Ġweighed": 5730,
      "Ġwhoo": 5731,
      "sean": 5732,
      "Ġham": 5733,
      "Ġhawa": 5734,
      "ury": 5735,
      "urry": 5736,
      "urbs": 5737,
      "uriated": 5738,
      "ghty": 5739,
      "icy": 5740,
      "iculously": 5741,
      "icures": 5742,
      "Ġliz": 5743,
      "Ġlilt": 5744,
      "Ġlifet": 5745,
      "Ġlifting": 5746,
      "Ġlibid": 5747,
      "entory": 5748,
      "Ġshall": 5749,
      "Ġshri": 5750,
      "Ġshitt": 5751,
      "Ġshowed": 5752,
      "Ġshield": 5753,
      "Ġshimm": 5754,
      "Ġshrimp": 5755,
      "Ġsharp": 5756,
      "Ġshithouse": 5757,
      "irting": 5758,
      "alp": 5759,
      "almost": 5760,
      "already": 5761,
      "alize": 5762,
      "aluation": 5763,
      "alled": 5764,
      "Ġanal": 5765,
      "Ġupward": 5766,
      "Ġuptur": 5767,
      "Ġupside": 5768,
      "Ġupsc": 5769,
      "rigued": 5770,
      "tery": 5771,
      "Ġjun": 5772,
      "Ġjets": 5773,
      "Ġjoules": 5774,
      "Ġjesus": 5775,
      "Ġnect": 5776,
      "Ġneare": 5777,
      "Ġneigh": 5778,
      "Ġsol": 5779,
      "Ġsoak": 5780,
      "Ġsoaped": 5781,
      "Ġsoaked": 5782,
      "Ġsocks": 5783,
      "Ġsoothed": 5784,
      "Ġsoothe": 5785,
      "Ġouts": 5786,
      "Ġoutrage": 5787,
      "Ġgoss": 5788,
      "ustion": 5789,
      "ackled": 5790,
      "chal": 5791,
      "chil": 5792,
      "chair": 5793,
      "toes": 5794,
      "thinking": 5795,
      "celer": 5796,
      "Ġnodding": 5797,
      "ilar": 5798,
      "ilot": 5799,
      "iless": 5800,
      "ilure": 5801,
      "ilog": 5802,
      "Ġnotions": 5803,
      "male": 5804,
      "mama": 5805,
      "mage": 5806,
      "Ġwhatso": 5807,
      "Ġsake": 5808,
      "Ġsaving": 5809,
      "Ġsauce": 5810,
      "Ġsampled": 5811,
      "Ġoverl": 5812,
      "Ġoverste": 5813,
      "Ġoverlo": 5814,
      "Ġoverpow": 5815,
      "Ġoverride": 5816,
      "Ġoverheard": 5817,
      "raking": 5818,
      "raged": 5819,
      "raising": 5820,
      "arting": 5821,
      "artment": 5822,
      "Ġsuits": 5823,
      "Ġsugar": 5824,
      "Ġheadrest": 5825,
      "Ġheadlines": 5826,
      "Ġbutt": 5827,
      "Ġbutter": 5828,
      "Ġisland": 5829,
      "Ġfru": 5830,
      "Ġfratern": 5831,
      "Ġcafe": 5832,
      "Ġcalendar": 5833,
      "Ġaback": 5834,
      "Ġabrupt": 5835,
      "Ġabusive": 5836,
      "rum": 5837,
      "rubbing": 5838,
      "cture": 5839,
      "Ġtakes": 5840,
      "Ġtamest": 5841,
      "Ġroar": 5842,
      "Ġroared": 5843,
      "Ġrocked": 5844,
      "Ġchang": 5845,
      "Ġchip": 5846,
      "Ġchrist": 5847,
      "Ġchose": 5848,
      "Ġchoices": 5849,
      "Ġchattering": 5850,
      "Ġchocol": 5851,
      "Ġchaos": 5852,
      "Ġleap": 5853,
      "Ġleather": 5854,
      "Ġlefto": 5855,
      "Ġlewis": 5856,
      "Ġexcess": 5857,
      "Ġexited": 5858,
      "Ġexquis": 5859,
      "Ġexerc": 5860,
      "Ġseet": 5861,
      "Ġsevent": 5862,
      "Ġfeared": 5863,
      "Ġfemale": 5864,
      "Ġalbum": 5865,
      "Ġpure": 5866,
      "Ġpuck": 5867,
      "Ġpupils": 5868,
      "Ġseeking": 5869,
      "Ġemerald": 5870,
      "Ġclue": 5871,
      "Ġclicked": 5872,
      "Ġclapped": 5873,
      "Ġclattering": 5874,
      "Ġclerk": 5875,
      "Ġlobe": 5876,
      "Ġplain": 5877,
      "Ġplenty": 5878,
      "Ġplush": 5879,
      "Ġplacing": 5880,
      "Ġplaz": 5881,
      "Ġtea": 5882,
      "Ġtend": 5883,
      "Ġteary": 5884,
      "Ġtelevision": 5885,
      "Ġspat": 5886,
      "Ġspare": 5887,
      "Ġspite": 5888,
      "Ġspag": 5889,
      "Ġspank": 5890,
      "Ġsperm": 5891,
      "Ġsporting": 5892,
      "Ġspreading": 5893,
      "Ġspleen": 5894,
      "Ġconce": 5895,
      "Ġconqu": 5896,
      "Ġconso": 5897,
      "Ġconsc": 5898,
      "Ġconcuss": 5899,
      "ability": 5900,
      "istration": 5901,
      "Ġdele": 5902,
      "Ġdeme": 5903,
      "Ġdeple": 5904,
      "Ġdemure": 5905,
      "astic": 5906,
      "astated": 5907,
      "Ġorgan": 5908,
      "Ġart": 5909,
      "ified": 5910,
      "ifully": 5911,
      "Ġmaze": 5912,
      "Ġmaga": 5913,
      "Ġmanhood": 5914,
      "atever": 5915,
      "Ġhowled": 5916,
      "Ġhowever": 5917,
      "Ġrepresent": 5918,
      "ptic": 5919,
      "Ġflashing": 5920,
      "Ġflinched": 5921,
      "Ġflashes": 5922,
      "Ġflurry": 5923,
      "Ġflirting": 5924,
      "Ġgrits": 5925,
      "Ġgoodness": 5926,
      "Ġtwisted": 5927,
      "Ġqui": 5928,
      "Ġquizz": 5929,
      "Ġbond": 5930,
      "Ġboard": 5931,
      "Ġboss": 5932,
      "Ġboys": 5933,
      "feated": 5934,
      "Ġrit": 5935,
      "Ġrand": 5936,
      "Ġrise": 5937,
      "Ġrich": 5938,
      "Ġrational": 5939,
      "Ġridding": 5940,
      "ulations": 5941,
      "Ġnowhere": 5942,
      "athy": 5943,
      "athon": 5944,
      "Ġturbul": 5945,
      "Ġbrown": 5946,
      "Ġsurely": 5947,
      "Ġglo": 5948,
      "Ġglow": 5949,
      "Ġglimp": 5950,
      "ounding": 5951,
      "Ġhost": 5952,
      "Ġholy": 5953,
      "Ġhoist": 5954,
      "Ġhoisted": 5955,
      "Ġhoping": 5956,
      "Ġhovering": 5957,
      "Ġblouse": 5958,
      "Ġblank": 5959,
      "Ġblush": 5960,
      "Ġblades": 5961,
      "Ġcost": 5962,
      "Ġcoke": 5963,
      "Ġcoast": 5964,
      "Ġcovers": 5965,
      "Ġcoherent": 5966,
      "Ġwhose": 5967,
      "Ġripped": 5968,
      "Ġslick": 5969,
      "Ġslap": 5970,
      "Ġslowing": 5971,
      "Ġslapping": 5972,
      "Ġcomment": 5973,
      "Ġcomfor": 5974,
      "Ġcomments": 5975,
      "ickered": 5976,
      "dder": 5977,
      "Ġwail": 5978,
      "Ġwagged": 5979,
      "Ġwavered": 5980,
      "Ġwails": 5981,
      "Ġwavy": 5982,
      "Ġmod": 5983,
      "Ġmoon": 5984,
      "Ġmock": 5985,
      "Ġenvious": 5986,
      "Ġenerg": 5987,
      "Ġenormous": 5988,
      "Ġenchil": 5989,
      "Ġtakeoff": 5990,
      "Ġpres": 5991,
      "Ġpresc": 5992,
      "Ġpost": 5993,
      "Ġpoked": 5994,
      "Ġpoking": 5995,
      "Ġpopping": 5996,
      "uendo": 5997,
      "ission": 5998,
      "Ġknelt": 5999,
      "Ġhelpful": 6000,
      "Ġbeds": 6001,
      "Ġbedside": 6002,
      "Ġdoorkno": 6003,
      "Ġafterwards": 6004,
      "Ġrupt": 6005,
      "Ġrung": 6006,
      "Ġrules": 6007,
      "Ġruff": 6008,
      "Ġrueful": 6009,
      "Ġrudder": 6010,
      "urely": 6011,
      "Ġproced": 6012,
      "ump": 6013,
      "umphant": 6014,
      "bbly": 6015,
      "Ġharden": 6016,
      "Ġhardness": 6017,
      "anced": 6018,
      "dying": 6019,
      "Ġeverywhere": 6020,
      "Ġpride": 6021,
      "Ġprince": 6022,
      "Ġpricked": 6023,
      "Ġprayed": 6024,
      "Ġclock": 6025,
      "apers": 6026,
      "Ġscared": 6027,
      "Ġscary": 6028,
      "Ġscooted": 6029,
      "Ġscorched": 6030,
      "Ġscalp": 6031,
      "Ġinsin": 6032,
      "Ġinsurance": 6033,
      "Ġwhereas": 6034,
      "whatever": 6035,
      "Ġcarl": 6036,
      "Ġcaring": 6037,
      "Ġcarried": 6038,
      "Ġassured": 6039,
      "Ġassigned": 6040,
      "Ġassume": 6041,
      "Ġhappier": 6042,
      "Ġsurged": 6043,
      "sho": 6044,
      "shot": 6045,
      "shine": 6046,
      "Ġvir": 6047,
      "Ġvowed": 6048,
      "Ġvib": 6049,
      "Ġvision": 6050,
      "Ġvalet": 6051,
      "Ġvanilla": 6052,
      "Ġmarred": 6053,
      "Ġmarathon": 6054,
      "Ġstilled": 6055,
      "Ġunh": 6056,
      "Ġunmo": 6057,
      "Ġunste": 6058,
      "Ġunbl": 6059,
      "Ġunwant": 6060,
      "Ġunborn": 6061,
      "Ġunthink": 6062,
      "Ġunknowing": 6063,
      "Ġfingered": 6064,
      "Ġfingert": 6065,
      "izes": 6066,
      "aks": 6067,
      "akes": 6068,
      "defeated": 6069,
      "Ġnightstand": 6070,
      "Ġkisser": 6071,
      "Ġacceler": 6072,
      "Ġsorority": 6073,
      "iseptic": 6074,
      "Ġwoke": 6075,
      "Ġwoken": 6076,
      "Ġwobbled": 6077,
      "Ġwobbly": 6078,
      "Ġtrash": 6079,
      "Ġhairs": 6080,
      "Ġgun": 6081,
      "Ġguard": 6082,
      "Ġguests": 6083,
      "Ġmeaning": 6084,
      "Ġcontent": 6085,
      "Ġcontract": 6086,
      "xteen": 6087,
      "Ġstoked": 6088,
      "Ġbabysit": 6089,
      "iped": 6090,
      "ipate": 6091,
      "prom": 6092,
      "Ġapple": 6093,
      "Ġexpand": 6094,
      "Ġintric": 6095,
      "Ġintended": 6096,
      "Ġintending": 6097,
      "Ġintrigued": 6098,
      "epilog": 6099,
      "Ġhearty": 6100,
      "Ġunderground": 6101,
      "Ġunderstood": 6102,
      "moon": 6103,
      "aging": 6104,
      "again": 6105,
      "agues": 6106,
      "Ġplanet": 6107,
      "Ġsincerely": 6108,
      "Ġfamous": 6109,
      "Ġbreathtaking": 6110,
      "Ġameth": 6111,
      "Ġambushed": 6112,
      "Ġamorous": 6113,
      "Ġnavy": 6114,
      "Ġpea": 6115,
      "Ġpearls": 6116,
      "Ġsurprises": 6117,
      "Ġrav": 6118,
      "Ġraining": 6119,
      "Ġrapid": 6120,
      "Ġramro": 6121,
      "Ġmurder": 6122,
      "Ġsexier": 6123,
      "Ġsidewalk": 6124,
      "Ġcaressed": 6125,
      "mbling": 6126,
      "Ġcraned": 6127,
      "Ġcrashed": 6128,
      "Ġcringed": 6129,
      "steps": 6130,
      "Ġrelatively": 6131,
      "Ġminor": 6132,
      "Ġstring": 6133,
      "Ġparts": 6134,
      "Ġpartied": 6135,
      "Ġparties": 6136,
      "Ġpartake": 6137,
      "Ġdish": 6138,
      "Ġdiso": 6139,
      "Ġdisin": 6140,
      "Ġdisbelie": 6141,
      "Ġbehave": 6142,
      "Ġsteal": 6143,
      "Ġtalents": 6144,
      "Ġtalented": 6145,
      "Ġsne": 6146,
      "Ġsnake": 6147,
      "Ġsnorting": 6148,
      "Ġsnores": 6149,
      "Ġsnarled": 6150,
      "Ġsnickered": 6151,
      "Ġsatisfy": 6152,
      "Ġimage": 6153,
      "Ġpharm": 6154,
      "pective": 6155,
      "ressions": 6156,
      "Ġclearing": 6157,
      "Ġtruck": 6158,
      "Ġdrinking": 6159,
      "Ġbucked": 6160,
      "Ġbuying": 6161,
      "Ġcups": 6162,
      "Ġmatch": 6163,
      "Ġmaterial": 6164,
      "Ġperman": 6165,
      "Ġperhaps": 6166,
      "Ġperfume": 6167,
      "Ġspect": 6168,
      "Ġspeeding": 6169,
      "Ġspecul": 6170,
      "Ġsoundly": 6171,
      "Ġdeepen": 6172,
      "Ġearned": 6173,
      "Ġearshot": 6174,
      "Ġstunt": 6175,
      "Ġstudying": 6176,
      "Ġrestless": 6177,
      "Ġwrithed": 6178,
      "Ġmonster": 6179,
      "Ġacted": 6180,
      "Ġbites": 6181,
      "Ġfloored": 6182,
      "Ġsweetest": 6183,
      "Ġswig": 6184,
      "Ġsworn": 6185,
      "Ġswirling": 6186,
      "Ġswamped": 6187,
      "Ġdespite": 6188,
      "Ġends": 6189,
      "Ġending": 6190,
      "Ġendured": 6191,
      "Ġwonderment": 6192,
      "Ġalongside": 6193,
      "Ġbury": 6194,
      "Ġjoked": 6195,
      "Ġjolt": 6196,
      "Ġjocks": 6197,
      "Ġjolted": 6198,
      "Ġseries": 6199,
      "Ġwider": 6200,
      "lessly": 6201,
      "Ġattack": 6202,
      "Ġattending": 6203,
      "Ġskipped": 6204,
      "Ġbestowing": 6205,
      "Ġbelieving": 6206,
      "Ġbelieved": 6207,
      "Ġdevotion": 6208,
      "Ġdevoted": 6209,
      "Ġguessing": 6210,
      "Ġbusied": 6211,
      "Ġbushy": 6212,
      "Ġfriendly": 6213,
      "Ġnibbling": 6214,
      "Ġnibbles": 6215,
      "Ġfarm": 6216,
      "Ġanswers": 6217,
      "Ġdeciding": 6218,
      "umbling": 6219,
      "Ġentertain": 6220,
      "Ġnewborn": 6221,
      "Ġimmedi": 6222,
      "Ġdriven": 6223,
      "Ġdripping": 6224,
      "Ġdrizz": 6225,
      "Ġdrifted": 6226,
      "ankle": 6227,
      "Ġdarkened": 6228,
      "Ġgripping": 6229,
      "idded": 6230,
      "Ġreserv": 6231,
      "Ġsleepy": 6232,
      "Ġpatiently": 6233,
      "cup": 6234,
      "cupping": 6235,
      "rences": 6236,
      "ishments": 6237,
      "Ġstandard": 6238,
      "Ġdiving": 6239,
      "Ġdiapers": 6240,
      "Ġperspective": 6241,
      "Ġsupply": 6242,
      "Ġdroo": 6243,
      "Ġdrove": 6244,
      "Ġpurpose": 6245,
      "Ġarguing": 6246,
      "Ġbreaks": 6247,
      "love": 6248,
      "lock": 6249,
      "restling": 6250,
      "Ġcram": 6251,
      "Ġcrazed": 6252,
      "Ġlatter": 6253,
      "Ġlatched": 6254,
      "Ġtouching": 6255,
      "Ġstrap": 6256,
      "Ġclosest": 6257,
      "Ġmatters": 6258,
      "Ġsingular": 6259,
      "Ġsitter": 6260,
      "Ġhonored": 6261,
      "isingly": 6262,
      "Ġspoon": 6263,
      "Ġspoiled": 6264,
      "Ġspooning": 6265,
      "Ġpersonnel": 6266,
      "Ġtrait": 6267,
      "Ġtrapped": 6268,
      "Ġtravelled": 6269,
      "Ġsettle": 6270,
      "Ġsights": 6271,
      "Ġsightseeing": 6272,
      "Ġgroin": 6273,
      "Ġcharm": 6274,
      "Ġcharging": 6275,
      "Ġexamined": 6276,
      "Ġtensing": 6277,
      "Ġtension": 6278,
      "Ġintern": 6279,
      "Ġinterior": 6280,
      "Ġwetter": 6281,
      "Ġshits": 6282,
      "Ġcontrolling": 6283,
      "Ġwarming": 6284,
      "Ġwarmly": 6285,
      "Ġimpact": 6286,
      "Ġimpressed": 6287,
      "Ġfallen": 6288,
      "Ġlightly": 6289,
      "Ġclothing": 6290,
      "Ġcompany": 6291,
      "Ġcompartment": 6292,
      "Ġcompressions": 6293,
      "awned": 6294,
      "Ġwinning": 6295,
      "Ġhitched": 6296,
      "Ġfilling": 6297,
      "Ġcursing": 6298,
      "Ġcomplex": 6299,
      "Ġpromises": 6300,
      "Ġairport": 6301,
      "Ġconfron": 6302,
      "ricity": 6303,
      "Ġsenses": 6304,
      "Ġincon": 6305,
      "Ġregister": 6306,
      "Ġregular": 6307,
      "Ġregistration": 6308,
      "Ġscreams": 6309,
      "Ġadmin": 6310,
      "Ġadmon": 6311,
      "Ġadmission": 6312,
      "Ġcatered": 6313,
      "Ġcatering": 6314,
      "Ġcatching": 6315,
      "Ġpale": 6316,
      "Ġcockhead": 6317,
      "Ġfingerna": 6318,
      "Ġsigning": 6319,
      "Ġobli": 6320,
      "Ġpinch": 6321,
      "Ġpinching": 6322,
      "Ġgreatest": 6323,
      "Ġknock": 6324,
      "Ġeyebr": 6325,
      "somewhere": 6326,
      "Ġtasted": 6327,
      "Ġtasting": 6328,
      "Ġaffect": 6329,
      "Ġsixteen": 6330,
      "Ġbrake": 6331,
      "Ġdrummed": 6332,
      "Ġlazing": 6333,
      "Ġlazy": 6334,
      "Ġthirteen": 6335,
      "Ġinventory": 6336,
      "Ġwelcoming": 6337,
      "Ġjewels": 6338,
      "Ġchecks": 6339,
      "Ġdealt": 6340,
      "Ġreduce": 6341,
      "Ġgiggle": 6342,
      "Ġwheels": 6343,
      "Ġwheelchair": 6344,
      "Ġrefer": 6345,
      "Ġrefuses": 6346,
      "Ġrefrain": 6347,
      "Ġexhaling": 6348,
      "boy": 6349,
      "Ġterry": 6350,
      "Ġmessing": 6351,
      "Ġmessage": 6352,
      "Ġmessages": 6353,
      "Ġbrushing": 6354,
      "Ġduh": 6355,
      "Ġdude": 6356,
      "Ġformula": 6357,
      "Ġconcl": 6358,
      "Ġaccomp": 6359,
      "Ġaccording": 6360,
      "Ġrelaxation": 6361,
      "Ġcleaning": 6362,
      "Ġescal": 6363,
      "Ġescort": 6364,
      "Ġescorted": 6365,
      "Ġescaping": 6366,
      "Ġescape": 6367,
      "Ġfreed": 6368,
      "Ġfreaked": 6369,
      "Ġparked": 6370,
      "Ġparamed": 6371,
      "Ġinstinct": 6372,
      "Ġreturning": 6373,
      "Ġwedged": 6374,
      "Ġhangers": 6375,
      "Ġhangover": 6376,
      "Ġfleeting": 6377,
      "Ġcroo": 6378,
      "Ġpounded": 6379,
      "Ġliterally": 6380,
      "Ġstreaked": 6381,
      "Ġsuggest": 6382,
      "Ġengine": 6383,
      "Ġuncles": 6384,
      "Ġuncontro": 6385,
      "Ġuncomfort": 6386,
      "Ġintroductions": 6387,
      "Ġhunger": 6388,
      "Ġhungwy": 6389,
      "Ġstronger": 6390,
      "Ġappreciates": 6391,
      "hole": 6392,
      "lowering": 6393,
      "Ġeduc": 6394,
      "Ġtypes": 6395,
      "Ġcasc": 6396,
      "Ġcornered": 6397,
      "Ġcornflow": 6398,
      "Ġpapers": 6399,
      "Ġundo": 6400,
      "Ġundid": 6401,
      "Ġundress": 6402,
      "Ġundressed": 6403,
      "Ġshyly": 6404,
      "Ġshyness": 6405,
      "Ġjulia": 6406,
      "thanks": 6407,
      "Ġgrandmother": 6408,
      "Ġgrandparents": 6409,
      "Ġdisappear": 6410,
      "Ġclearance": 6411,
      "Ġhonesty": 6412,
      "Ġsigns": 6413,
      "Ġsignature": 6414,
      "Ġhusbands": 6415,
      "rowave": 6416,
      "hearted": 6417,
      "Ġlistened": 6418,
      "Ġgrunted": 6419,
      "Ġexcl": 6420,
      "Ġexcuses": 6421,
      "Ġdeaths": 6422,
      "Ġorders": 6423,
      "Ġevenings": 6424,
      "Ġelbowed": 6425,
      "ective": 6426,
      "Ġtiptoes": 6427,
      "Ġbirthday": 6428,
      "Ġlabia": 6429,
      "Ġlabeled": 6430,
      "Ġthrilling": 6431,
      "Ġinfertility": 6432,
      "Ġinfuriated": 6433,
      "Ġevading": 6434,
      "Ġevident": 6435,
      "Ġevaluation": 6436,
      "Ġkilled": 6437,
      "Ġquieter": 6438,
      "Ġquietly": 6439,
      "Ġpositive": 6440,
      "Ġpositions": 6441,
      "Ġwalker": 6442,
      "Ġperforming": 6443,
      "Ġstudies": 6444,
      "Ġreminding": 6445,
      "Ġbaptismal": 6446,
      "cons": 6447,
      "Ġsalon": 6448,
      "Ġsalute": 6449,
      "Ġharm": 6450,
      "Ġharassed": 6451,
      "Ġceremon": 6452,
      "Ġuseful": 6453,
      "Ġtablo": 6454,
      "Ġspotted": 6455,
      "Ġdepth": 6456,
      "Ġmovies": 6457,
      "Ġencirc": 6458,
      "Ġwillingly": 6459,
      "Ġprivy": 6460,
      "Ġprivacy": 6461,
      "Ġpassionately": 6462,
      "Ġinstructions": 6463,
      "Ġtremble": 6464,
      "Ġtrembling": 6465,
      "Ġtriple": 6466,
      "Ġtriggered": 6467,
      "Ġtriumphant": 6468,
      "anything": 6469,
      "Ġdryer": 6470,
      "itorial": 6471,
      "ordin": 6472,
      "Ġweakness": 6473,
      "Ġanti": 6474,
      "Ġantiqu": 6475,
      "Ġantiseptic": 6476,
      "Ġlovingly": 6477,
      "Ġconvince": 6478,
      "Ġconvention": 6479,
      "Ġflattered": 6480,
      "Ġacceptance": 6481,
      "Ġpersonality": 6482,
      "Ġvein": 6483,
      "Ġvelve": 6484,
      "Ġsimilar": 6485,
      "Ġmassaged": 6486,
      "Ġbothering": 6487,
      "Ġirrational": 6488,
      "Ġdreams": 6489,
      "Ġstaggered": 6490,
      "Ġstalem": 6491,
      "Ġjawline": 6492,
      "ammatory": 6493,
      "Ġcolored": 6494,
      "Ġmarks": 6495,
      "Ġstranger": 6496,
      "Ġdesperate": 6497,
      "Ġpointedly": 6498,
      "Ġregretted": 6499,
      "Ġregretfully": 6500,
      "earlier": 6501,
      "hausted": 6502,
      "hazard": 6503,
      "whether": 6504,
      "Ġbulge": 6505,
      "Ġbulging": 6506,
      "Ġfailure": 6507,
      "Ġcumming": 6508,
      "Ġnumbers": 6509,
      "Ġnarrowing": 6510,
      "Ġpaying": 6511,
      "Ġpillow": 6512,
      "Ġpillows": 6513,
      "Ġsuburbs": 6514,
      "Ġagreem": 6515,
      "Ġsplashed": 6516,
      "Ġpockets": 6517,
      "Ġscrunched": 6518,
      "Ġadopted": 6519,
      "Ġdeserved": 6520,
      "Ġskyline": 6521,
      "Ġskydiving": 6522,
      "Ġshifts": 6523,
      "Ġconcerns": 6524,
      "Ġapologized": 6525,
      "overcome": 6526,
      "edings": 6527,
      "Ġhoneymoon": 6528,
      "Ġbarked": 6529,
      "Ġbargain": 6530,
      "Ġbasement": 6531,
      "Ġfucking": 6532,
      "Ġflipping": 6533,
      "Ġcarted": 6534,
      "Ġdaily": 6535,
      "Ġdamage": 6536,
      "Ġgender": 6537,
      "Ġbeckoning": 6538,
      "Ġlively": 6539,
      "Ġsunlight": 6540,
      "Ġsunshine": 6541,
      "Ġexchange": 6542,
      "Ġexchanging": 6543,
      "Ġpopular": 6544,
      "Ġpropose": 6545,
      "Ġproposed": 6546,
      "Ġintimidated": 6547,
      "Ġconsideration": 6548,
      "Ġresponded": 6549,
      "Ġcolors": 6550,
      "Ġprofessionalism": 6551,
      "Ġrestaurants": 6552,
      "Ġbleeding": 6553,
      "Ġbuckle": 6554,
      "Ġbounced": 6555,
      "Ġbouncy": 6556,
      "Ġnonsense": 6557,
      "Ġnonchal": 6558,
      "Ġdirect": 6559,
      "Ġlingering": 6560,
      "Ġthreatening": 6561,
      "Ġgeneral": 6562,
      "Ġgenetic": 6563,
      "Ġwashboard": 6564,
      "Ġremove": 6565,
      "Ġoutfits": 6566,
      "izingly": 6567,
      "black": 6568,
      "exhausted": 6569,
      "known": 6570,
      "Ġmaster": 6571,
      "Ġmadness": 6572,
      "Ġbigger": 6573,
      "Ġbiolog": 6574,
      "Ġbounds": 6575,
      "Ġbounding": 6576,
      "Ġcreased": 6577,
      "Ġcreeping": 6578,
      "Ġcircle": 6579,
      "Ġparkman": 6580,
      "Ġresident": 6581,
      "Ġannounce": 6582,
      "Ġgolden": 6583,
      "Ġsuspicion": 6584,
      "Ġabandon": 6585,
      "Ġpump": 6586,
      "Ġpumping": 6587,
      "Ġconsult": 6588,
      "Ġrepeated": 6589,
      "Ġblessing": 6590,
      "Ġthoughtfulness": 6591,
      "Ġscrewed": 6592,
      "Ġscrewing": 6593,
      "Ġsorts": 6594,
      "Ġfolded": 6595,
      "Ġfolder": 6596,
      "Ġcontained": 6597,
      "Ġcontainer": 6598,
      "Ġapproached": 6599,
      "Ġpossibilities": 6600,
      "Ġexhaustion": 6601,
      "Ġfreshman": 6602,
      "Ġechoing": 6603,
      "wait": 6604,
      "Ġavoiding": 6605,
      "Ġhumili": 6606,
      "Ġmistakes": 6607,
      "Ġignored": 6608,
      "Ġfanned": 6609,
      "Ġnuzzle": 6610,
      "Ġdenied": 6611,
      "Ġdancers": 6612,
      "Ġpaul": 6613,
      "Ġgulp": 6614,
      "Ġrequested": 6615,
      "Ġissue": 6616,
      "Ġcabinet": 6617,
      "Ġsmirked": 6618,
      "Ġmuscled": 6619,
      "Ġfluff": 6620,
      "Ġblurry": 6621,
      "Ġpolite": 6622,
      "Ġassistants": 6623,
      "Ġcounting": 6624,
      "Ġadoration": 6625,
      "Ġadults": 6626,
      "aguely": 6627,
      "Ġsurprisingly": 6628,
      "Ġstupidly": 6629,
      "Ġdecorations": 6630,
      "Ġdiamonds": 6631,
      "Ġelectron": 6632,
      "Ġelectricity": 6633,
      "Ġimposing": 6634,
      "Ġembraced": 6635,
      "Ġsecrets": 6636,
      "Ġsecretly": 6637,
      "Ġcolleagues": 6638,
      "Ġapologetically": 6639,
      "Ġnormal": 6640,
      "Ġantics": 6641,
      "Ġtemperature": 6642,
      "Ġcondoms": 6643,
      "Ġgirlfriends": 6644,
      "Ġfamiliarity": 6645,
      "brushing": 6646,
      "poster": 6647,
      "putting": 6648,
      "Ġtreatment": 6649,
      "Ġsouth": 6650,
      "Ġhyped": 6651,
      "Ġmiles": 6652,
      "Ġbathed": 6653,
      "Ġivf": 6654,
      "Ġdamned": 6655,
      "Ġpalms": 6656,
      "Ġpierced": 6657,
      "Ġpiercing": 6658,
      "Ġgained": 6659,
      "Ġstretching": 6660,
      "Ġrehears": 6661,
      "Ġresearch": 6662,
      "Ġkicks": 6663,
      "Ġfriday": 6664,
      "Ġcaptured": 6665,
      "Ġchastised": 6666,
      "Ġemplo": 6667,
      "Ġempathy": 6668,
      "Ġagony": 6669,
      "Ġagonizingly": 6670,
      "Ġclaimed": 6671,
      "Ġsprinted": 6672,
      "Ġsparkling": 6673,
      "Ġridiculously": 6674,
      "Ġbloom": 6675,
      "Ġscanned": 6676,
      "Ġinsulted": 6677,
      "Ġinsulting": 6678,
      "Ġassuming": 6679,
      "Ġamerica": 6680,
      "Ġdiscussion": 6681,
      "Ġbitchy": 6682,
      "Ġawaken": 6683,
      "Ġsquirmed": 6684,
      "Ġcompassionate": 6685,
      "Ġpunishment": 6686,
      "Ġterritorial": 6687,
      "Ġgranddad": 6688,
      "Ġdisappointed": 6689,
      "Ġcelebrating": 6690,
      "Ġfascinating": 6691,
      "Ġresponsibilities": 6692,
      "Ġfussy": 6693,
      "Ġreassuringly": 6694,
      "Ġexasperatedly": 6695,
      "downstairs": 6696,
      "looks": 6697,
      "taining": 6698,
      "yeah": 6699,
      "Ġwipe": 6700,
      "Ġhunched": 6701,
      "Ġmicrowave": 6702,
      "realizing": 6703,
      "Ġoccas": 6704,
      "Ġimmersed": 6705,
      "Ġtorn": 6706,
      "Ġfiance": 6707,
      "Ġframe": 6708,
      "Ġfrench": 6709,
      "Ġcategory": 6710,
      "Ġnauseous": 6711,
      "Ġinevit": 6712,
      "Ġinebri": 6713,
      "Ġeggs": 6714,
      "Ġeggpl": 6715,
      "Ġstatus": 6716,
      "Ġstemmed": 6717,
      "Ġathlet": 6718,
      "Ġathlete": 6719,
      "sexual": 6720,
      "Ġnegative": 6721,
      "Ġsuffer": 6722,
      "Ġsemi": 6723,
      "Ġaltar": 6724,
      "Ġaltitude": 6725,
      "Ġtexting": 6726,
      "Ġtexted": 6727,
      "Ġdefense": 6728,
      "Ġarrive": 6729,
      "Ġarrival": 6730,
      "Ġgrinding": 6731,
      "Ġrisk": 6732,
      "Ġproducing": 6733,
      "Ġscreech": 6734,
      "Ġscreeching": 6735,
      "ology": 6736,
      "Ġtranqu": 6737,
      "Ġtransp": 6738,
      "Ġstraddled": 6739,
      "Ġdiscounted": 6740,
      "Ġsleeve": 6741,
      "Ġcraziness": 6742,
      "Ġcrazier": 6743,
      "Ġstrawberries": 6744,
      "Ġconfirm": 6745,
      "Ġincreased": 6746,
      "Ġincredulously": 6747,
      "Ġapprehension": 6748,
      "Ġapprehensive": 6749,
      "Ġeventually": 6750,
      "Ġconvinced": 6751,
      "Ġconvincing": 6752,
      "Ġcontemplating": 6753,
      "Ġcontemplative": 6754,
      "surprise": 6755,
      "surprisingly": 6756,
      "Ġunexpectedly": 6757,
      "clearing": 6758,
      "mommy": 6759,
      "sensing": 6760,
      "tugging": 6761,
      "Ġroughly": 6762,
      "Ġwardrobe": 6763,
      "refusing": 6764,
      "Ġobediently": 6765,
      "Ġnatural": 6766,
      "Ġdangerous": 6767,
      "Ġladies": 6768,
      "Ġyards": 6769,
      "Ġgauze": 6770,
      "Ġinjury": 6771,
      "Ġinnuendo": 6772,
      "Ġinitially": 6773,
      "Ġindex": 6774,
      "Ġinquisitive": 6775,
      "Ġutterly": 6776,
      "Ġaspirated": 6777,
      "Ġwithdrawn": 6778,
      "Ġwhistle": 6779,
      "Ġfortun": 6780,
      "Ġshadow": 6781,
      "Ġshaky": 6782,
      "Ġoverdue": 6783,
      "Ġchoked": 6784,
      "Ġchoose": 6785,
      "Ġleisurely": 6786,
      "Ġalternating": 6787,
      "Ġcliche": 6788,
      "Ġclawed": 6789,
      "Ġdebated": 6790,
      "Ġdelayed": 6791,
      "Ġarrange": 6792,
      "Ġgratification": 6793,
      "Ġcommanded": 6794,
      "Ġbreezed": 6795,
      "Ġenvelopes": 6796,
      "Ġpresentable": 6797,
      "Ġproceedings": 6798,
      "Ġscratch": 6799,
      "Ġvulnerability": 6800,
      "Ġstockings": 6801,
      "Ġbuzzing": 6802,
      "Ġcuddled": 6803,
      "Ġperceive": 6804,
      "Ġpursue": 6805,
      "Ġawaiting": 6806,
      "Ġinterrogator": 6807,
      "Ġcompliments": 6808,
      "Ġdrummer": 6809,
      "Ġinvitingly": 6810,
      "Ġreflection": 6811,
      "Ġterminology": 6812,
      "fortunately": 6813,
      "Ġflexed": 6814,
      "Ġdisapproving": 6815,
      "Ġdistrict": 6816,
      "Ġcorrect": 6817,
      "Ġdetermined": 6818,
      "Ġgreedy": 6819,
      "Ġencounter": 6820,
      "Ġsubmissive": 6821,
      "Ġprecisely": 6822,
      "Ġretreating": 6823,
      "Ġhickeys": 6824,
      "Ġhiccupped": 6825,
      "Ġassumptions": 6826,
      "Ġdisappointment": 6827,
      "Ġconsummating": 6828,
      "Ġestablished": 6829,
      "Ġsacrificed": 6830,
      "Ġcongratulations": 6831,
      "Ġmargarita": 6832,
      "Ġenthusiasm": 6833,
      "between": 6834,
      "dinner": 6835,
      "damn": 6836,
      "jerking": 6837,
      "peeking": 6838,
      "satisfied": 6839,
      "suddenly": 6840,
      "water": 6841,
      "Ġtangle": 6842,
      "inutive": 6843,
      "Ġsilly": 6844,
      "Ġswayed": 6845,
      "Ġmauling": 6846,
      "Ġmirthless": 6847,
      "Ġmerciless": 6848,
      "Ġbimbo": 6849,
      "Ġbashful": 6850,
      "Ġbiohazard": 6851,
      "Ġbirds": 6852,
      "Ġtoilet": 6853,
      "Ġtoothbrush": 6854,
      "Ġfrilly": 6855,
      "Ġfigure": 6856,
      "Ġcustom": 6857,
      "Ġcastle": 6858,
      "Ġcialis": 6859,
      "Ġnuts": 6860,
      "Ġnaughty": 6861,
      "Ġnickname": 6862,
      "Ġdiminutive": 6863,
      "Ġdissipate": 6864,
      "Ġdizzy": 6865,
      "Ġluggage": 6866,
      "Ġlubric": 6867,
      "Ġyessss": 6868,
      "Ġgesture": 6869,
      "Ġinherited": 6870,
      "Ġinfinite": 6871,
      "Ġbeeped": 6872,
      "Ġetiquette": 6873,
      "Ġushered": 6874,
      "Ġumbrella": 6875,
      "Ġstardom": 6876,
      "Ġstreamed": 6877,
      "Ġreacted": 6878,
      "Ġretraction": 6879,
      "Ġdopey": 6880,
      "Ġkurta": 6881,
      "Ġkinky": 6882,
      "Ġkatherine": 6883,
      "Ġwealthy": 6884,
      "Ġhawaii": 6885,
      "Ġlifetime": 6886,
      "Ġlibido": 6887,
      "Ġshriek": 6888,
      "Ġshitty": 6889,
      "Ġshimmered": 6890,
      "Ġupturned": 6891,
      "Ġupscale": 6892,
      "Ġnectar": 6893,
      "Ġneighborhood": 6894,
      "Ġgossip": 6895,
      "Ġwhatsoever": 6896,
      "Ġoverload": 6897,
      "Ġfraternal": 6898,
      "Ġabruptly": 6899,
      "Ġchanges": 6900,
      "Ġchocolate": 6901,
      "Ġleftover": 6902,
      "Ġexercises": 6903,
      "Ġseventeen": 6904,
      "Ġpuckered": 6905,
      "Ġplaza": 6906,
      "Ġspaghetti": 6907,
      "Ġconsole": 6908,
      "Ġconscious": 6909,
      "Ġconcussion": 6910,
      "Ġdepleting": 6911,
      "Ġmagaz": 6912,
      "Ġquizzically": 6913,
      "Ġturbulence": 6914,
      "Ġglimpse": 6915,
      "Ġblanket": 6916,
      "Ġcomforting": 6917,
      "Ġenergy": 6918,
      "Ġenchiladas": 6919,
      "Ġdoorknob": 6920,
      "Ġruffled": 6921,
      "Ġprocedure": 6922,
      "Ġunmoving": 6923,
      "Ġunsteady": 6924,
      "Ġunblinking": 6925,
      "Ġunwanted": 6926,
      "Ġunthinkable": 6927,
      "Ġunknowingly": 6928,
      "Ġcontracts": 6929,
      "Ġintricate": 6930,
      "epilogue": 6931,
      "Ġamethysts": 6932,
      "Ġrapidly": 6933,
      "Ġramrod": 6934,
      "Ġdisbelief": 6935,
      "Ġpharmacy": 6936,
      "Ġpermanent": 6937,
      "Ġspeculation": 6938,
      "Ġimmediate": 6939,
      "Ġcompartmentalize": 6940,
      "Ġconfronted": 6941,
      "Ġfingernails": 6942,
      "Ġeyebrows": 6943,
      "Ġaccompany": 6944,
      "Ġparamedic": 6945,
      "Ġuncontrollably": 6946,
      "Ġcornflower": 6947,
      "Ġceremony": 6948,
      "Ġencircled": 6949,
      "Ġvelvet": 6950,
      "Ġstalemate": 6951,
      "Ġbiological": 6952,
      "Ġelectronic": 6953,
      "Ġinevitable": 6954,
      "Ġinebriated": 6955,
      "Ġmercilessly": 6956
    },
    "merges": [
      "h e",
      "Ġ t",
      "Ġ a",
      "Ġ .",
      "i n",
      "Ġ s",
      "Ġ w",
      "e d",
      "Ġ '",
      "o u",
      "Ġ he",
      "Ġ ,",
      "Ġ h",
      "Ġ m",
      "Ġt he",
      "r e",
      "Ġ b",
      "in g",
      "Ġ o",
      "Ġ i",
      "a n",
      "Ġt o",
      "Ġ f",
      "` `",
      "Ġ' '",
      "Ġ c",
      "e r",
      "a t",
      "Ġhe r",
      "Ġ n",
      "Ġ d",
      "n d",
      "a s",
      "i s",
      "Ġ p",
      "Ġ l",
      "e s",
      "Ġt h",
      "Ġ y",
      "Ġ g",
      "i t",
      "Ġy ou",
      "o n",
      "e n",
      "l l",
      "Ġa nd",
      "Ġ in",
      "o r",
      "a r",
      "Ġs he",
      "a d",
      "Ġo f",
      "Ġb e",
      "Ġ e",
      "o w",
      "o m",
      "i d",
      "Ġm e",
      "Ġw as",
      "Ġh is",
      "l e",
      "v e",
      "Ġo n",
      "l d",
      "s t",
      "o t",
      "i m",
      "a c",
      "' t",
      "Ġth at",
      "g h",
      "Ġ u",
      "a y",
      "e t",
      "it h",
      "Ġ ?",
      "Ġs t",
      "v er",
      "Ġa s",
      "Ġi t",
      "Ġ re",
      "ou t",
      "l y",
      "Ġw ith",
      "g an",
      "Ġd o",
      "Ġ k",
      "ou ld",
      "r o",
      "Ġw e",
      "Ġw h",
      "Ġm y",
      "Ġf or",
      "s he",
      "u t",
      "Ġa t",
      "es h",
      "s e",
      "Ġh im",
      "Ġh a",
      "u r",
      "o o",
      "gh t",
      "i c",
      "k e",
      "Ġl i",
      "Ġh ad",
      "en t",
      "Ġs h",
      "i r",
      "k ed",
      "he r",
      "a l",
      "an d",
      "e e",
      "o re",
      "a ll",
      "i on",
      "he n",
      "an t",
      "Ġa n",
      "Ġu p",
      "m e",
      "r i",
      "Ġme gan",
      "t er",
      "p p",
      "Ġ j",
      "Ġp esh",
      "Ġn e",
      "Ġs o",
      "Ġ out",
      "Ġg o",
      "u st",
      "r ou",
      "ac k",
      "c h",
      "t o",
      "t h",
      "ow n",
      "c e",
      "k ing",
      "Ġha ve",
      "om e",
      "Ġk n",
      "Ġn o",
      "Ġd id",
      "i l",
      "Ġn ot",
      "m a",
      "Ġwh at",
      "Ġw ant",
      "Ġb ack",
      "Ġc ould",
      "Ġs a",
      "Ġo ver",
      "r a",
      "Ġh and",
      "ar t",
      "Ġin to",
      "Ġs u",
      "Ġhe ad",
      "Ġb ut",
      "Ġd own",
      "all y",
      "Ġi s",
      "Ġf r",
      "Ġc a",
      "Ġa b",
      "Ġli ke",
      "l i",
      "he d",
      "f ore",
      "r u",
      "a in",
      "s ed",
      "Ġj ust",
      "c t",
      "Ġt a",
      "Ġ ro",
      "r y",
      "Ġc h",
      "Ġbe fore",
      "Ġe y",
      "Ġw ould",
      "* *",
      "Ġs m",
      "i ght",
      "Ġl e",
      "on e",
      "Ġw hen",
      "oo d",
      "Ġe x",
      "Ġt im",
      "es s",
      "Ġs e",
      "Ġg et",
      "Ġf e",
      "Ġa ll",
      "Ġw or",
      "Ġfr om",
      "Ġyou r",
      "Ġon e",
      "Ġa l",
      "w e",
      "Ġp u",
      "Ġwe re",
      "c k",
      "a u",
      "Ġs ee",
      "ar d",
      "Ġe m",
      "in e",
      "me gan",
      "Ġa g",
      "Ġc l",
      "id an",
      "ac e",
      "Ġtim e",
      "Ġto o",
      "h ing",
      "t he",
      "Ġthe y",
      "Ġl o",
      "Ġey es",
      "Ġth is",
      "oo k",
      "i ll",
      "s s",
      "in k",
      "a m",
      "f ter",
      "Ġab out",
      "rou nd",
      "on g",
      "q u",
      "p esh",
      "in d",
      "n ed",
      "es t",
      "Ġan y",
      "l ed",
      "w hen",
      "i le",
      "Ġp l",
      "id e",
      "Ġt e",
      "Ġs p",
      "Ġkn ow",
      "Ġof f",
      "Ġc on",
      "Ġbe en",
      "g e",
      "l f",
      "Ġ ``",
      "ver y",
      "Ġsa id",
      "Ġc he",
      "a b",
      "Ġthe n",
      "Ġgo ing",
      "Ġa round",
      "Ġi f",
      "w ay",
      "Ġs ome",
      "as on",
      "is t",
      "pp ed",
      "Ġthe re",
      "Ġd e",
      "Ġag ain",
      "as t",
      "Ġthe m",
      "Ġo r",
      "l t",
      "ou r",
      "Ġg a",
      "it t",
      "Ġa r",
      "Ġa re",
      "Ġth an",
      "n t",
      "i f",
      "Ġm ore",
      "Ġm a",
      "Ġm an",
      "er s",
      "at e",
      "Ġa idan",
      "v ing",
      "a h",
      "Ġm u",
      "ou s",
      "Ġh ow",
      "Ġth ink",
      "Ġb y",
      "Ġre p",
      "p t",
      "v en",
      "Ġf l",
      "ad e",
      "Ġem ma",
      "Ġg r",
      "Ġg ood",
      "se lf",
      "Ġt w",
      "Ġw ay",
      "ot her",
      "Ġ qu",
      "Ġas ked",
      "i ve",
      "Ġb o",
      "ee l",
      "Ġst art",
      "p s",
      "f e",
      "Ġ r",
      "u l",
      "Ġf eel",
      "Ġth ou",
      "Ġm ason",
      "Ġn ow",
      "at ion",
      "as e",
      "at h",
      "Ġl itt",
      "Ġne ed",
      "li ed",
      "Ġlitt le",
      "Ġrep lied",
      "Ġt ur",
      "Ġb r",
      "Ġsu re",
      "Ġg l",
      "ou nd",
      "Ġh o",
      "Ġb l",
      "Ġc o",
      "Ġwh o",
      "Ġ ri",
      "Ġs l",
      "u s",
      "Ġg ot",
      "Ġne ver",
      "Ġc om",
      "th ing",
      "Ġro om",
      "p e",
      "om et",
      "Ġre ally",
      "ic k",
      "Ġar m",
      "n g",
      "t her",
      "he re",
      "en ed",
      "il ed",
      "Ġmu ch",
      "Ġb re",
      "d d",
      "Ġw a",
      "Ġm o",
      "nd er",
      "Ġbe t",
      "Ġca me",
      "Ġ en",
      "Ġta ke",
      "Ġp re",
      "ac t",
      "Ġsh ould",
      "Ġhand s",
      "Ġlo ve",
      "g g",
      "b le",
      "Ġs omet",
      "Ġy es",
      "t ing",
      "Ġtoo k",
      "Ġri ght",
      "p er",
      "Ġf ace",
      "Ġl ook",
      "l p",
      "Ġp o",
      "ar ed",
      "Ġwant ed",
      "u e",
      "is s",
      "Ġe ven",
      "Ġkn e",
      "Ġtw o",
      "Ġhe lp",
      "Ġc an",
      "Ġl et",
      "Ġth ing",
      "ri ed",
      "a fter",
      "Ġm om",
      "Ġb ed",
      "Ġo ther",
      "Ġdo or",
      "Ġstart ed",
      "ll ed",
      "Ġa fter",
      "Ġm out",
      "ic e",
      "rou gh",
      "b e",
      "Ġ ru",
      "Ġl ong",
      "a re",
      "u re",
      "Ġp ro",
      "Ġsm iled",
      "Ġsomet hing",
      "Ġmout h",
      "Ġu s",
      "u m",
      "Ġbe c",
      "v ed",
      "w ith",
      "Ġfe lt",
      "b b",
      "h is",
      "Ġs ay",
      "Ġth rough",
      "Ġh ard",
      "re ss",
      "Ġf in",
      "Ġma ke",
      "Ġf ir",
      "Ġd ay",
      "k ay",
      "p le",
      "an c",
      "Ġtur ned",
      "d y",
      "y ou",
      "Ġm ade",
      "Ġe very",
      "Ġp r",
      "Ġsm ile",
      "Ġcl o",
      "Ġthou ght",
      "f t",
      "i ly",
      "Ġon ly",
      "i e",
      "Ġw ent",
      "Ġno ah",
      "Ġhe re",
      "Ġl au",
      "ee p",
      "a p",
      "Ġs c",
      "Ġo kay",
      "Ġin s",
      "Ġw here",
      "ou gh",
      "Ġthe ir",
      "Ġagain st",
      "Ġfir st",
      "Ġl oo",
      "Ġy e",
      "ad y",
      "Ġo p",
      "ac h",
      "Ġw om",
      "au se",
      "w h",
      "Ġc ar",
      "Ġwe ll",
      "Ġas s",
      "Ġsh ook",
      "e k",
      "Ġha pp",
      "b ut",
      "Ġt ry",
      "at ed",
      ". .",
      "c hed",
      "i ous",
      "m ed",
      "Ġ. ..",
      "Ġb ot",
      "it e",
      "o l",
      "Ġs ur",
      "Ġli ps",
      "Ġa way",
      "Ġche st",
      "Ġkne w",
      "Ġbe ing",
      "Ġthan k",
      "n ing",
      "s h",
      "Ġ v",
      "Ġb ab",
      "at her",
      "Ġmom ent",
      "e m",
      "g et",
      "Ġm ar",
      "Ġst ill",
      "Ġga ve",
      "Ġc all",
      "Ġu n",
      "Ġf ing",
      "e nd",
      "g hed",
      "Ġf ine",
      "Ġc ome",
      "Ġarm s",
      "Ġbec ause",
      "i z",
      "in ce",
      "Ġte ll",
      "a k",
      "a ir",
      "d e",
      "Ġn ight",
      "Ġk iss",
      "a ge",
      "m ent",
      "Ġa c",
      "Ġs or",
      "ow ed",
      "t ed",
      "Ġ very",
      "Ġo h",
      "is e",
      "Ġany thing",
      "Ġw o",
      "we en",
      "Ġt r",
      "Ġha ir",
      "Ġwor d",
      "Ġw ill",
      "er ed",
      "Ġbet ween",
      "an g",
      "Ġf o",
      "as s",
      "Ġg u",
      "Ġga z",
      "an ce",
      "Ġp le",
      "Ġme an",
      "Ġcon t",
      "an ed",
      "Ġher self",
      "ow s",
      "ro om",
      "Ġgr in",
      "dd ed",
      "x t",
      "Ġw al",
      "Ġu nt",
      "Ġst o",
      "Ġbo dy",
      "Ġbab y",
      "i p",
      "p r",
      "Ġa pp",
      "it y",
      "Ġex p",
      "Ġunt il",
      "c ked",
      "Ġw at",
      "Ġl ast",
      "Ġin t",
      "Ġins ide",
      "Ġsor ry",
      "Ġc ou",
      "Ġp at",
      "ur ed",
      "e p",
      "u ck",
      "Ġa d",
      "Ġhe art",
      "Ġu nder",
      "c o",
      "m o",
      "s p",
      "Ġ !",
      "a g",
      "at ing",
      "Ġwh ile",
      "Ġpu lled",
      "Ġpl an",
      "Ġloo ked",
      "r ist",
      "u n",
      "u ll",
      "Ġm ind",
      "er t",
      "Ġsh ow",
      "Ġfe w",
      "est ion",
      "Ġfeel ing",
      "w ard",
      "Ġ our",
      "Ġs ince",
      "Ġf am",
      "er ing",
      "Ġbre ath",
      "Ġlau ghed",
      "Ġa m",
      "Ġli fe",
      "Ġs we",
      "ar s",
      "a idan",
      "f ul",
      "i g",
      "p ed",
      "Ġe l",
      "Ġe ver",
      "Ġqu estion",
      "Ġfin is",
      "i ld",
      "Ġn a",
      "Ġp e",
      "Ġsur pr",
      "as ed",
      "Ġdo ing",
      "ic ked",
      "Ġgl anc",
      "Ġbot h",
      "em ma",
      "rist i",
      "Ġno dded",
      "Ġwom an",
      "Ġ ra",
      "Ġh u",
      "Ġm ur",
      "Ġp ut",
      "Ġg i",
      "Ġse x",
      "Ġfing ers",
      "m m",
      "t y",
      "re w",
      "ar ing",
      "Ġwh y",
      "ase y",
      "Ġwa it",
      "l es",
      "m ured",
      "Ġs ide",
      "Ġhe ld",
      "Ġan other",
      "Ġca re",
      "li e",
      "ct ion",
      "Ġche ek",
      "Ġthing s",
      "Ġfam ily",
      "Ġmur mured",
      "m b",
      "n er",
      "Ġb rou",
      "Ġto get",
      "Ġc r",
      "st e",
      "Ġnot hing",
      "Ġpl ay",
      "Ġglanc ed",
      "Ġtoget her",
      "Ġd in",
      "or t",
      "Ġre l",
      "Ġne xt",
      "th at",
      "Ġtry ing",
      "Ġbrou ght",
      "u ally",
      "Ġm in",
      "re e",
      "Ġst r",
      "Ġsl id",
      "Ġh ome",
      "Ġp art",
      "Ġg ive",
      "s o",
      "Ġm ay",
      "Ġto ng",
      "Ġop en",
      "mo st",
      "e l",
      "i gh",
      "o ice",
      "Ġd is",
      "on ce",
      "Ġbe h",
      "Ġst e",
      "Ġk eep",
      "ir l",
      "a v",
      "Ġt al",
      "Ġc our",
      "Ġha ving",
      "Ġta king",
      "Ġta ble",
      "Ġle g",
      "Ġwor k",
      "way s",
      "ste ad",
      "f f",
      "m y",
      "Ġs n",
      "Ġs at",
      "Ġi ma",
      "Ġf ound",
      "Ġp h",
      "Ġbe gan",
      "Ġsa me",
      "bb ed",
      "Ġtong ue",
      "ro ss",
      "she d",
      "Ġget ting",
      "en ce",
      "Ġe ach",
      "Ġal ways",
      "pe ct",
      "ress ion",
      "Ġword s",
      "Ġgrin ned",
      "Ġmin ut",
      "Ġima g",
      "i re",
      "Ġh as",
      "Ġf act",
      "Ġf ather",
      "Ġon to",
      "Ġre ady",
      "Ġle ft",
      "Ġse at",
      "Ġel se",
      "o se",
      "in ed",
      "Ġm ight",
      "Ġc le",
      "Ġher s",
      "Ġg ra",
      "Ġsee med",
      "Ġgaz e",
      "i ed",
      "i es",
      "Ġt ru",
      "Ġd r",
      "is sed",
      "ar k",
      "ow ing",
      "ot ion",
      "Ġst ay",
      "ic h",
      "th ough",
      "ct or",
      "the y",
      "Ġqu ick",
      "Ġbr ows",
      "gg ed",
      "Ġbeh ind",
      "s sed",
      "Ġm other",
      "Ġb u",
      "Ġc u",
      "Ġon ce",
      "ac hed",
      "Ġdo ctor",
      "ri end",
      "ter ed",
      "Ġal most",
      "Ġsome one",
      "Ġthou gh",
      "Ġen ough",
      "Ġye ah",
      "Ġcour se",
      "Ġm at",
      "is ed",
      "Ġp er",
      "Ġne ck",
      "Ġsa w",
      "Ġle a",
      "Ġsp e",
      "ious ly",
      "c ess",
      "o or",
      "Ġs ound",
      "Ġo ld",
      "Ġto ld",
      "Ġd eep",
      "Ġe ar",
      "Ġst u",
      "Ġre st",
      "Ġre al",
      "Ġk e",
      "Ġwh ich",
      "pp ing",
      "nt s",
      "Ġwal ked",
      "w n",
      "Ġt ried",
      "Ġw r",
      "Ġw ar",
      "Ġhe ll",
      "Ġm on",
      "on t",
      "ic al",
      "Ġexp ression",
      "c i",
      "l ing",
      "s id",
      "Ġa ct",
      "Ġb it",
      "Ġg irl",
      "Ġre ached",
      "Ġfl oor",
      "Ġbet ter",
      "wh at",
      "Ġcall ed",
      "Ġswe et",
      "Ġleg s",
      "t e",
      "z ing",
      "Ġs w",
      "Ġs on",
      "Ġs le",
      "Ġh ur",
      "Ġf ind",
      "Ġd es",
      "Ġe nd",
      "Ġme t",
      "ent ion",
      "Ġgo d",
      "Ġv oice",
      "Ġwo nder",
      "Ġfinis hed",
      "re am",
      "Ġth r",
      "Ġsu ch",
      "Ġal ong",
      "Ġru n",
      "Ġdin ner",
      "k en",
      "v es",
      "Ġb ur",
      "Ġp ant",
      "Ġdo es",
      "Ġj o",
      "Ġca u",
      "Ġpu ll",
      "Ġpl ace",
      "ab le",
      "Ġpat i",
      "g n",
      "Ġs er",
      "Ġw id",
      "Ġd ate",
      "Ġl ot",
      "Ġevery thing",
      "Ġop ened",
      "ull y",
      "d ay",
      "j ust",
      "l ess",
      "n e",
      "o ple",
      "y s",
      "Ġd one",
      "Ġat t",
      "oo l",
      "Ġfr ont",
      "Ġch ild",
      "Ġbed room",
      "Ġple ase",
      "Ġapp e",
      "a ut",
      "i an",
      "n o",
      "Ġs k",
      "ou se",
      "Ġhe ar",
      "Ġb est",
      "Ġn ur",
      "Ġbe lie",
      "Ġde v",
      "Ġgu ess",
      "Ġsurpr ise",
      "c ed",
      "Ġ ;",
      "in stead",
      "Ġb us",
      "Ġd ra",
      "ar a",
      "Ġst ared",
      "Ġj er",
      "Ġho ld",
      "Ġsl ow",
      "Ġmo st",
      "Ġfin ally",
      "Ġclo sed",
      "Ġac ross",
      "co nd",
      "Ġke pt",
      "s w",
      "Ġf riend",
      "Ġn i",
      "Ġbe aut",
      "Ġsh o",
      "Ġse cond",
      "f ully",
      "n ight",
      "Ġf ar",
      "Ġc asey",
      "Ġwith out",
      "Ġmy self",
      "Ġan sw",
      "Ġde c",
      "um b",
      "Ġfo ll",
      "Ġplan e",
      "Ġpe ople",
      "a king",
      "f or",
      "g ed",
      "h ow",
      "s ing",
      "t ty",
      "Ġ ent",
      "Ġh ot",
      "Ġb ath",
      "or y",
      "Ġk risti",
      "Ġne w",
      "Ġso on",
      "ab ly",
      "Ġcom ing",
      "Ġhapp y",
      "e ver",
      "u ed",
      "Ġs il",
      "Ġi m",
      "Ġd ri",
      "it al",
      "or n",
      "al though",
      "ch ing",
      "Ġch uck",
      "Ġle aned",
      "if ul",
      "Ġpre tty",
      "Ġclo se",
      "Ġbelie ve",
      "j o",
      "s it",
      "t hen",
      "an k",
      "Ġd ress",
      "Ġd ark",
      "Ġg ri",
      "ac ed",
      "Ġch air",
      "Ġho sp",
      "are nts",
      "iz ed",
      "Ġcheek s",
      "Ġwid ened",
      "Ġbeaut iful",
      "Ġhosp ital",
      "c king",
      "o f",
      "u d",
      "he s",
      "Ġh ouse",
      "Ġb ro",
      "Ġo wn",
      "Ġd ad",
      "id d",
      "Ġre s",
      "Ġro se",
      "Ġwor ld",
      "ade en",
      "Ġneed ed",
      "Ġbr other",
      "Ġye ars",
      "Ġwom en",
      "wh ile",
      "Ġact ually",
      "Ġsle ep",
      "Ġpati ent",
      "c u",
      "n ess",
      "t en",
      "y ing",
      "in ess",
      "Ġw if",
      "re n",
      "re ady",
      "as sed",
      "is h",
      "Ġp ain",
      "Ġe as",
      "Ġst and",
      "Ġk ind",
      "Ġk issed",
      "Ġfor ward",
      "Ġha ll",
      "Ġlo ved",
      "Ġcon sid",
      "Ġbr ing",
      "Ġtr ace",
      "Ġmon th",
      "Ġwif e",
      "o nd",
      "in king",
      "Ġw ra",
      "re at",
      "Ġd i",
      "Ġp ers",
      "Ġy et",
      "Ġe le",
      "Ġme et",
      "Ġwe ek",
      "Ġha lf",
      "Ġsu pp",
      "Ġex act",
      "Ġwa ist",
      "Ġshould er",
      "Ġpo in",
      "ol ine",
      "Ġsto p",
      "Ġlea ve",
      "g er",
      "m s",
      "n ow",
      "s on",
      "Ġ es",
      "Ġt u",
      "Ġb es",
      "Ġi de",
      "Ġto night",
      "Ġn er",
      "Ġd ro",
      "Ġp ur",
      "Ġhim self",
      "ic ally",
      "Ġli p",
      "Ġab le",
      "Ġro b",
      "Ġwor ry",
      "Ġal so",
      "Ġal ready",
      "Ġar g",
      "Ġma king",
      "Ġman y",
      "Ġbre ak",
      "Ġen jo",
      "Ġpr ot",
      "Ġhapp ened",
      "Ġbot t",
      "Ġwat er",
      "Ġjer ked",
      "l o",
      "t ur",
      "u al",
      "Ġt ight",
      "Ġa w",
      "Ġa ma",
      "Ġw he",
      "re st",
      "Ġc ra",
      "Ġd if",
      "Ġp arents",
      "Ġl at",
      "Ġth ose",
      "Ġyou ng",
      "id es",
      "ver ed",
      "Ġso ft",
      "Ġgl ad",
      "Ġminut es",
      "Ġquick ly",
      "Ġwr ong",
      "Ġbath room",
      "Ġexact ly",
      "b ably",
      "k es",
      "k risti",
      "Ġt ou",
      "Ġa p",
      "ou ght",
      "Ġm r",
      "Ġm ed",
      "Ġth rew",
      "en ing",
      "Ġst ra",
      "ir t",
      "li ght",
      "Ġex pect",
      "Ġfe et",
      "the re",
      "Ġpo ss",
      "Ġpro bably",
      "Ġclo s",
      "Ġshow er",
      "Ġste pped",
      "Ġmat ter",
      "Ġchuck led",
      "Ġide a",
      "Ġama zing",
      "Ġdif fe",
      "i x",
      "s ide",
      "z y",
      "Ġs ing",
      "Ġs it",
      "Ġh on",
      "is ing",
      "Ġl ow",
      "Ġst ood",
      "Ġas k",
      "Ġro lled",
      "Ġey ed",
      "Ġsp o",
      "itt ing",
      "Ġr an",
      "Ġevery one",
      "Ġlau gh",
      "ap ter",
      "Ġcar oline",
      "ert ain",
      "ert son",
      "Ġgi ving",
      "Ġmay be",
      "Ġtal k",
      "Ġhur t",
      "Ġpers on",
      "Ġrob ertson",
      "i a",
      "v ous",
      "w here",
      "he ad",
      "Ġt ra",
      "Ġs et",
      "Ġs ight",
      "Ġs qu",
      "Ġh our",
      "Ġto day",
      "Ġc ry",
      "is per",
      "Ġg ro",
      "Ġg ent",
      "Ġg one",
      "it c",
      "ad ing",
      "Ġu r",
      "Ġre sp",
      "Ġwh isper",
      "ant ly",
      "ch apter",
      "ce pt",
      "Ġch ar",
      "Ġex am",
      "bb ing",
      "sh ip",
      "Ġcont in",
      "Ġsto pped",
      "Ġquestion ed",
      "Ġph one",
      "Ġimag ine",
      "Ġgra bbed",
      "n ot",
      "Ġt en",
      "Ġf ur",
      "is ter",
      "Ġin ter",
      "Ġe re",
      "Ġst ro",
      "ver s",
      "Ġk ara",
      "Ġk itc",
      "Ġsh ot",
      "Ġle ast",
      "Ġem otion",
      "Ġho pe",
      "Ġpre gn",
      "with out",
      "Ġday s",
      "Ġtru e",
      "Ġappe ared",
      "Ġmonth s",
      "Ġkitc hen",
      "c asey",
      "i er",
      "z ed",
      "Ġw et",
      "an ge",
      "Ġc ertain",
      "Ġn ice",
      "Ġd ou",
      "as ing",
      "ar r",
      "Ġe ased",
      "st and",
      "Ġre ason",
      "ut tered",
      "ic t",
      "Ġsh it",
      "Ġta ken",
      "est ed",
      "Ġany one",
      "Ġbo y",
      "Ġother s",
      "Ġmar y",
      "Ġcont ro",
      "mb led",
      "Ġwar m",
      "Ġansw er",
      "Ġim p",
      "a pp",
      "e rest",
      "f in",
      "o g",
      "in ing",
      "Ġhe y",
      "Ġhe at",
      "Ġhe ard",
      "Ġf all",
      "Ġc ried",
      "Ġth ree",
      "Ġst age",
      "Ġli ght",
      "Ġli ving",
      "Ġsh ru",
      "Ġse en",
      "Ġyour self",
      "Ġpu shed",
      "Ġcl ot",
      "Ġsp ent",
      "fe ct",
      "Ġcom p",
      "Ġmar ried",
      "Ġcou n",
      "Ġdad dy",
      "a w",
      "a me",
      "t on",
      "y ed",
      "Ġw in",
      "Ġw all",
      "Ġh it",
      "Ġf ood",
      "Ġf ill",
      "Ġc ur",
      "Ġn adeen",
      "Ġp ast",
      "ad ed",
      "Ġe at",
      "id ed",
      "le t",
      "Ġst om",
      "ent y",
      "me mb",
      "Ġte ased",
      "Ġbl ue",
      "Ġwho le",
      "us ing",
      "Ġcom ple",
      "Ġshould ers",
      "Ġkne es",
      "Ġpr om",
      "Ġple as",
      "Ġint erest",
      "Ġrel ation",
      "Ġfriend s",
      "Ġner vous",
      "Ġlat er",
      "b ed",
      "d o",
      "m ason",
      "Ġa ir",
      "Ġs ister",
      "Ġh i",
      "Ġm or",
      "re nt",
      "Ġb ad",
      "Ġf un",
      "Ġc ut",
      "at or",
      "en e",
      "Ġre memb",
      "ut h",
      "al ed",
      "Ġfe ll",
      "Ġsp end",
      "Ġcon f",
      "ate ly",
      "Ġbo x",
      "Ġtur n",
      "Ġloo king",
      "Ġminut e",
      "Ġwra pped",
      "Ġweek s",
      "Ġcontin ued",
      "Ġrelation ship",
      "a x",
      "a ke",
      "i ble",
      "m an",
      "r ic",
      "Ġs en",
      "ou d",
      "Ġh or",
      "Ġm ine",
      "re t",
      "an s",
      "as h",
      "Ġp ri",
      "Ġth igh",
      "Ġth inking",
      "Ġin c",
      "ow d",
      "Ġu m",
      "Ġre g",
      "Ġk id",
      "Ġan g",
      "th is",
      "Ġhead ed",
      "Ġtim es",
      "Ġem b",
      "Ġtw enty",
      "Ġsay ing",
      "Ġsc ream",
      "iz e",
      "Ġcou ple",
      "Ġad m",
      "Ġpant s",
      "Ġcau sed",
      "Ġpull ing",
      "Ġatt ention",
      "Ġbus iness",
      "Ġhold ing",
      "Ġfoll owed",
      "Ġdiffe rent",
      "Ġcomple te",
      "b y",
      "m and",
      "o sed",
      "r ed",
      "ou n",
      "Ġm en",
      "Ġm ust",
      "Ġm mm",
      "Ġc at",
      "Ġp a",
      "Ġl ap",
      "Ġst aring",
      "Ġre m",
      "ur ing",
      "ic king",
      "Ġsh irt",
      "Ġkn own",
      "Ġman ag",
      "Ġbl ack",
      "Ġco ck",
      "Ġfing er",
      "Ġgaz ed",
      "Ġunder stand",
      "Ġcr owd",
      "Ġtru ly",
      "Ġere ction",
      "c ome",
      "d u",
      "l s",
      "r ick",
      "s es",
      "v ator",
      "Ġs ig",
      "Ġm otion",
      "re ssed",
      "Ġb ig",
      "Ġo b",
      "Ġp in",
      "Ġl ed",
      "Ġg as",
      "Ġg reat",
      "it her",
      "Ġme ant",
      "Ġout side",
      "Ġkn o",
      "Ġsu cked",
      "Ġab s",
      "li ke",
      "ru pt",
      "Ġey e",
      "Ġex per",
      "Ġte asing",
      "Ġgr im",
      "Ġqu ite",
      "Ġhard er",
      "anc ing",
      "Ġthought s",
      "Ġspe ak",
      "Ġsound s",
      "Ġsk in",
      "Ġele vator",
      "Ġgent le",
      "vers ation",
      "Ġpregn ant",
      "Ġcertain ly",
      "Ġmor ning",
      "Ġexper i",
      "e ven",
      "s ome",
      "s hing",
      "t a",
      "u lt",
      "u dd",
      "Ġ er",
      "Ġt ast",
      "Ġa f",
      "Ġa u",
      "Ġa head",
      "Ġs i",
      "Ġs itting",
      "Ġb ra",
      "Ġto p",
      "Ġd ru",
      "Ġd ance",
      "Ġl a",
      "Ġth ro",
      "Ġth ir",
      "Ġin v",
      "Ġit s",
      "Ġwe l",
      "Ġfor th",
      "Ġj e",
      "Ġj ade",
      "Ġj ud",
      "il ing",
      "Ġwhat ever",
      "Ġsm all",
      "Ġwor king",
      "Ġpu n",
      "Ġcon versation",
      "Ġche ck",
      "Ġde al",
      "ive ly",
      "Ġr ed",
      "Ġbre at",
      "Ġmom my",
      "be fore",
      "ang ed",
      "Ġapp re",
      "Ġwat ched",
      "Ġsurpr ised",
      "Ġgi gg",
      "Ġpart y",
      "Ġdri ve",
      "Ġconsid ering",
      "Ġwhe el",
      "Ġresp on",
      "Ġwhisper ed",
      "Ġstom ach",
      "Ġpleas ure",
      "Ġthigh s",
      "Ġcomplete ly",
      "b and",
      "f ather",
      "u ng",
      "in cess",
      "Ġh mm",
      "Ġm idd",
      "Ġm uttered",
      "Ġf ought",
      "is m",
      "Ġp ass",
      "it s",
      "ll ing",
      "Ġu sed",
      "Ġre f",
      "Ġwh ite",
      "ion s",
      "Ġca using",
      "Ġle ar",
      "Ġex h",
      "Ġsee m",
      "Ġcl it",
      "Ġde mand",
      "us h",
      "Ġlook s",
      "Ġna me",
      "Ġwait ing",
      "Ġsw all",
      "Ġbes ide",
      "Ġtou ch",
      "Ġhour s",
      "Ġgro aned",
      "Ġdou b",
      "Ġrememb er",
      "Ġthro at",
      "Ġmidd le",
      "b o",
      "l ic",
      "m ay",
      "p l",
      "t r",
      "u ation",
      "Ġt er",
      "in s",
      "Ġm ess",
      "Ġm ention",
      "re ly",
      "Ġb ru",
      "Ġto t",
      "Ġf our",
      "er n",
      "Ġd u",
      "Ġd ating",
      "Ġl ess",
      "Ġl icked",
      "ar ily",
      "im es",
      "ac ked",
      "Ġfor m",
      "ut e",
      "ght er",
      "Ġsh if",
      "Ġsh udd",
      "Ġch in",
      "Ġal one",
      "Ġcon c",
      "Ġpre ss",
      "Ġlong er",
      "Ġpr incess",
      "Ġac c",
      "Ġtr uth",
      "Ġwat ch",
      "Ġfinis h",
      "Ġra ised",
      "Ġrel ax",
      "av an",
      "Ġimag ined",
      "Ġcle an",
      "Ġdr ink",
      "Ġthr ust",
      "Ġcau ght",
      "Ġser ious",
      "ian e",
      "Ġnur se",
      "for m",
      "Ġpoin t",
      "Ġes c",
      "Ġdro pped",
      "Ġbott om",
      "Ġmed ic",
      "Ġstra ight",
      "Ġcontro l",
      "Ġshru gged",
      "Ġcoun ter",
      "Ġfill ed",
      "b s",
      "f ort",
      "i et",
      "m or",
      "o s",
      "r ing",
      "z z",
      "Ġt rou",
      "Ġh igh",
      "Ġb ent",
      "Ġb all",
      "Ġf re",
      "Ġf ut",
      "Ġf ull",
      "Ġp en",
      "Ġp ar",
      "Ġg round",
      "Ġin st",
      "Ġin stead",
      "or ed",
      "et h",
      "Ġst are",
      "Ġre tur",
      "ic ed",
      "Ġli ft",
      "ir ed",
      "Ġan k",
      "ct ed",
      "Ġch ance",
      "Ġch ange",
      "Ġse c",
      "Ġwor ked",
      "Ġcl im",
      "am ing",
      "Ġbl ood",
      "pe ci",
      "Ġlet ting",
      "air s",
      "Ġwal king",
      "Ġcou ch",
      "Ġplay ing",
      "Ġstr and",
      "Ġtal king",
      "Ġhell o",
      "Ġbro ke",
      "Ġeas y",
      "Ġbring ing",
      "Ġcra zy",
      "fin ally",
      "Ġprom ise",
      "Ġwel come",
      "avan i",
      "Ġtrou ble",
      "Ġfut ure",
      "peci ally",
      "a ld",
      "d ing",
      "e very",
      "g o",
      "i b",
      "l ain",
      "m ore",
      "r or",
      "s et",
      "Ġs ong",
      "Ġw ed",
      "Ġh us",
      "Ġh ang",
      "Ġm iss",
      "Ġthe se",
      "Ġf it",
      "Ġf le",
      "Ġf ly",
      "Ġc ro",
      "at es",
      "Ġp ound",
      "Ġp icked",
      "Ġp assed",
      "Ġl it",
      "Ġl ine",
      "Ġg on",
      "Ġbe lt",
      "ve ta",
      "ac ing",
      "Ġst re",
      "ro du",
      "ic es",
      "Ġsh ort",
      "ir th",
      "pp le",
      "Ġsu gg",
      "one y",
      "Ġfe ar",
      "Ġsee ing",
      "Ġcl en",
      "Ġgl ass",
      "Ġco ver",
      "Ġco cked",
      "Ġgot ten",
      "Ġmo ve",
      "Ġen g",
      "Ġhelp ed",
      "Ġru bbed",
      "Ġthank s",
      "Ġun c",
      "Ġint rodu",
      "Ġpat rick",
      "Ġhu ng",
      "Ġstr ong",
      "Ġwonder ful",
      "Ġhot el",
      "Ġsqu ee",
      "Ġur ge",
      "Ġemotion s",
      "Ġclot hes",
      "Ġtast e",
      "Ġsi ghed",
      "Ġappre ci",
      "d ian",
      "g l",
      "g in",
      "h o",
      "l ow",
      "r owed",
      "t aking",
      "Ġ ed",
      "Ġt y",
      "Ġs ch",
      "Ġw ine",
      "re ad",
      "Ġb a",
      "an ing",
      "Ġto ward",
      "Ġf air",
      "Ġc as",
      "Ġc orn",
      "Ġd rew",
      "nd ing",
      "Ġp ap",
      "Ġl and",
      "Ġin dian",
      "st s",
      "ot h",
      "Ġu h",
      "Ġu nd",
      "et s",
      "Ġst ory",
      "Ġli ked",
      "Ġsh y",
      "Ġj u",
      "th ank",
      "Ġno se",
      "Ġwant s",
      "ra p",
      "Ġbut ton",
      "Ġro be",
      "we l",
      "Ġem pt",
      "Ġag o",
      "Ġte ars",
      "ist ed",
      "Ġgr and",
      "Ġtur ning",
      "Ġbl ond",
      "Ġco ll",
      "Ġcom es",
      "Ġmo aned",
      "gg ing",
      "um ped",
      "ment s",
      "Ġhu h",
      "Ġcare er",
      "Ġdin ing",
      "Ġdis app",
      "Ġph ys",
      "Ġcle ar",
      "Ġcu pped",
      "Ġper fect",
      "Ġstu ff",
      "Ġreal ized",
      "Ġrun ning",
      "Ġbur ied",
      "Ġser iously",
      "Ġni pple",
      "Ġdec ided",
      "Ġgri pped",
      "Ġarg ue",
      "Ġap art",
      "Ġap ol",
      "Ġclos er",
      "Ġhon est",
      "Ġcry ing",
      "Ġfur rowed",
      "Ġinter rupt",
      "Ġemb arr",
      "Ġsig n",
      "Ġjud ge",
      "Ġswall owed",
      "Ġhus band",
      "i o",
      "r ow",
      "s c",
      "he art",
      "Ġa dded",
      "Ġs igh",
      "Ġs light",
      "Ġb are",
      "Ġb ite",
      "Ġf ight",
      "Ġf ree",
      "Ġd ist",
      "Ġl ist",
      "Ġl oud",
      "Ġg own",
      "Ġg ru",
      "or ted",
      "ar y",
      "st airs",
      "Ġre ma",
      "Ġfor g",
      "Ġsh iane",
      "ri e",
      "ter ing",
      "il s",
      "Ġsa fe",
      "Ġch art",
      "Ġex c",
      "Ġse ar",
      "Ġcl in",
      "Ġpl ate",
      "Ġte eth",
      "Ġde ath",
      "Ġor d",
      "Ġmu sed",
      "Ġr ing",
      "Ġpre ssed",
      "Ġeven ing",
      "Ġdoor s",
      "Ġpro ble",
      "Ġbec ome",
      "Ġye ar",
      "ol ute",
      "Ġtell ing",
      "de v",
      "Ġfo ot",
      "Ġgu y",
      "Ġpat ted",
      "Ġel b",
      "Ġmay a",
      "Ġgod father",
      "Ġslow ly",
      "Ġsho ck",
      "Ġent ire",
      "Ġmeet ing",
      "Ġes pecially",
      "Ġpur se",
      "Ġenjo yed",
      "Ġwin ked",
      "Ġhi ps",
      "Ġmanag ed",
      "Ġob v",
      "Ġgas ped",
      "Ġabs olute",
      "Ġexperi ence",
      "Ġtot ally",
      "Ġpen is",
      "Ġlift ed",
      "Ġank le",
      "gl ancing",
      "Ġba pt",
      "Ġempt y",
      "a pped",
      "b es",
      "c y",
      "c ing",
      "e ct",
      "g as",
      "i al",
      "s ince",
      "u sed",
      "u shed",
      "Ġt ip",
      "Ġw ink",
      "Ġw ind",
      "Ġw ild",
      "Ġm ia",
      "Ġb ene",
      "Ġb irth",
      "Ġf ix",
      "Ġc or",
      "Ġd et",
      "Ġd ressed",
      "as hed",
      "Ġl ust",
      "Ġl ab",
      "Ġl ate",
      "Ġth ri",
      "it ed",
      "ll y",
      "Ġin f",
      "Ġe v",
      "id ent",
      "Ġre le",
      "Ġk ill",
      "Ġwe ar",
      "Ġsh are",
      "Ġsh veta",
      "il ity",
      "Ġnot iced",
      "ra id",
      "Ġro ck",
      "Ġwor ried",
      "Ġsee ms",
      "Ġany more",
      "Ġor gas",
      "itt ed",
      "Ġfl ush",
      "Ġqu iet",
      "Ġneed s",
      "Ġcom m",
      "Ġpo sit",
      "Ġpro cess",
      "Ġus ually",
      "Ġpr act",
      "Ġwal k",
      "Ġexp lain",
      "un ch",
      "Ġwait ed",
      "av or",
      "Ġstay ed",
      "Ġcu p",
      "Ġper form",
      "Ġlea ving",
      "Ġstu d",
      "ci al",
      "Ġend ed",
      "Ġbus y",
      "Ġsil ence",
      "Ġbrother s",
      "Ġstand ing",
      "Ġsupp osed",
      "Ġbes ides",
      "Ġprot ested",
      "Ġposs ible",
      "Ġkid s",
      "Ġadm it",
      "Ġrem ind",
      "Ġgrim aced",
      "Ġgentle man",
      "Ġaf raid",
      "Ġdemand ed",
      "Ġdoub t",
      "Ġstrand s",
      "Ġwed ding",
      "Ġsch ool",
      "Ġblond e",
      "Ġbare ly",
      "Ġclin ical",
      "Ġproble m",
      "Ġbapt ism",
      "c on",
      "f r",
      "f et",
      "f ess",
      "g ing",
      "g th",
      "m other",
      "p ing",
      "s ure",
      "u p",
      "u ct",
      "z e",
      "z ger",
      "Ġt in",
      "in t",
      "Ġs ent",
      "Ġs al",
      "Ġs li",
      "Ġh ar",
      "an e",
      "Ġf ive",
      "Ġf avor",
      "Ġc e",
      "Ġc ity",
      "Ġn or",
      "Ġd au",
      "is es",
      "Ġp ict",
      "Ġl en",
      "Ġg re",
      "en se",
      "Ġbe au",
      "om ing",
      "im e",
      "Ġu se",
      "Ġst ar",
      "Ġas king",
      "Ġwe aring",
      "Ġfor k",
      "ent s",
      "Ġsh ut",
      "ir led",
      "ee per",
      "ust ed",
      "Ġhand ed",
      "Ġta b",
      "Ġch oice",
      "Ġch anged",
      "Ġsp ot",
      "Ġsp read",
      "Ġsome what",
      "Ġde p",
      "Ġga me",
      "Ġma le",
      "Ġco vered",
      "Ġwa ved",
      "Ġmo v",
      "Ġmo ved",
      "Ġen c",
      "Ġpre p",
      "Ġsomet imes",
      "Ġmoment arily",
      "Ġkiss ing",
      "Ġwill ing",
      "Ġad v",
      "Ġfeeling s",
      "Ġste ering",
      "Ġsweet heart",
      "Ġwonder ed",
      "Ġchild ren",
      "no ah",
      "Ġnur ses",
      "Ġdra w",
      "Ġmed ical",
      "Ġclos et",
      "Ġsit uation",
      "Ġhon or",
      "Ġlaugh ing",
      "Ġpri v",
      "Ġdru n",
      "Ġla id",
      "Ġthir ty",
      "Ġbreat hing",
      "Ġpass ion",
      "Ġpress ure",
      "Ġinst ru",
      "Ġclim bed",
      "Ġsquee zed",
      "Ġpap a",
      "bes ides",
      "Ġbene ath",
      "zger ald",
      "c ent",
      "h ood",
      "t led",
      "t ress",
      "u es",
      "z i",
      "Ġt re",
      "Ġt ri",
      "Ġhe av",
      "Ġh ated",
      "an y",
      "Ġto mor",
      "Ġf as",
      "Ġf ore",
      "Ġf ab",
      "Ġf ist",
      "Ġf ire",
      "Ġc ore",
      "at ively",
      "Ġd ry",
      "Ġd ick",
      "Ġd eeper",
      "Ġth umb",
      "it or",
      "or d",
      "Ġe ating",
      "Ġe ither",
      "le ep",
      "Ġst ate",
      "Ġst ep",
      "Ġas leep",
      "Ġwith in",
      "Ġwe ak",
      "Ġfor get",
      "oo king",
      "Ġan t",
      "Ġan x",
      "Ġwant ing",
      "Ġex cu",
      "we ll",
      "au lt",
      "ard less",
      "Ġag e",
      "Ġlo ving",
      "Ġlo cked",
      "Ġlo ves",
      "am es",
      "Ġte m",
      "Ġcon v",
      "Ġare a",
      "Ġma kes",
      "Ġfl at",
      "Ġfl esh",
      "Ġbo bbed",
      "Ġstart ing",
      "dd y",
      "Ġpro fess",
      "Ġbec ame",
      "ap ed",
      "Ġhapp en",
      "med i",
      "Ġac cept",
      "Ġgu ys",
      "Ġmean s",
      "Ġbu ddy",
      "Ġmat tress",
      "Ġspe cial",
      "Ġbur st",
      "Ġpant ies",
      "Ġjo b",
      "Ġappe ar",
      "Ġnur sing",
      "Ġkind a",
      "Ġhall way",
      "Ġsupp ose",
      "Ġtu b",
      "tur ning",
      "Ġperson al",
      "Ġwall s",
      "Ġinterest ed",
      "Ġmotion ed",
      "Ġgigg led",
      "may be",
      "Ġretur ned",
      "Ġfit zgerald",
      "Ġsugg ested",
      "Ġappreci ate",
      "Ġed ge",
      "Ġty pe",
      "Ġabsolute ly",
      "fr om",
      "Ġtin y",
      "Ġpict ure",
      "Ġlen gth",
      "Ġtomor row",
      "a ked",
      "e ach",
      "g a",
      "h n",
      "m iss",
      "n adeen",
      "o h",
      "r as",
      "Ġ ve",
      "Ġs y",
      "Ġs im",
      "Ġw ore",
      "Ġhe sit",
      "Ġm ass",
      "Ġb other",
      "Ġi r",
      "Ġi ce",
      "Ġf ast",
      "Ġc al",
      "Ġc ared",
      "Ġc ool",
      "Ġd ream",
      "Ġd uring",
      "is ion",
      "Ġp ink",
      "Ġp ick",
      "Ġp issed",
      "es sed",
      "it ies",
      "Ġof ten",
      "Ġbe aming",
      "ow led",
      "id ing",
      "Ġme rely",
      "im per",
      "Ġu lt",
      "Ġst a",
      "Ġre co",
      "Ġre lie",
      "Ġwh imper",
      "ri ved",
      "Ġj aw",
      "Ġj umped",
      "ust r",
      "il t",
      "Ġhand le",
      "Ġsu it",
      "Ġle ad",
      "Ġcl as",
      "am m",
      "Ġche w",
      "Ġsome how",
      "Ġde li",
      "Ġmu mbled",
      "Ġby p",
      "Ġfl ow",
      "Ġfl icked",
      "Ġgr owing",
      "Ġco l",
      "Ġco nd",
      "Ġcom fort",
      "act ion",
      "Ġru bbing",
      "Ġus ing",
      "Ġus ual",
      "bb led",
      "ite ly",
      "Ġmoment s",
      "Ġmar k",
      "Ġkiss es",
      "age ment",
      "Ġstr ang",
      "av is",
      "Ġsn orted",
      "Ġgra b",
      "Ġold er",
      "Ġwar med",
      "Ġgirl s",
      "Ġdes per",
      "Ġdes ire",
      "Ġgod mother",
      "Ġpoin ted",
      "Ġarg ued",
      "Ġenjo y",
      "Ġprot est",
      "Ġbott le",
      "Ġlow ered",
      "Ġspo ke",
      "Ġexam ining",
      "Ġreg ret",
      "Ġau nts",
      "Ġdrive way",
      "Ġrespon se",
      "Ġexh aled",
      "Ġbru shed",
      "Ġmedic ine",
      "Ġsec ur",
      "Ġfle w",
      "Ġfly ing",
      "Ġcro ssed",
      "Ġcorn ers",
      "Ġinterrupt ed",
      "Ġforg ot",
      "Ġobv iously",
      "Ġthri lled",
      "Ġtab les",
      "Ġmov ie",
      "Ġheav y",
      "Ġexcu se",
      "Ġprofess ion",
      "ras ound",
      "Ġcal m",
      "Ġult rasound",
      "b er",
      "e ar",
      "f ast",
      "f ied",
      "h a",
      "l er",
      "o pt",
      "s pect",
      "w he",
      "z ie",
      "Ġt ant",
      "Ġt its",
      "in ation",
      "Ġw ow",
      "Ġw ide",
      "Ġb ul",
      "Ġb ag",
      "ing ed",
      "an n",
      "Ġf a",
      "Ġf uck",
      "Ġc um",
      "Ġn umb",
      "Ġn arr",
      "Ġd on",
      "is hed",
      "Ġp ay",
      "Ġp ee",
      "Ġp ill",
      "Ġl uck",
      "Ġl unch",
      "on es",
      "en zie",
      "ad d",
      "ac hing",
      "Ġst ri",
      "Ġan ger",
      "Ġno d",
      "Ġsa v",
      "Ġsu b",
      "Ġhead set",
      "Ġfr ustr",
      "Ġsm acked",
      "Ġex t",
      "Ġse lf",
      "Ġall owed",
      "Ġal pesh",
      "Ġal though",
      "Ġpu sh",
      "ck enzie",
      "Ġag re",
      "Ġag ree",
      "Ġlo st",
      "Ġany where",
      "Ġsp l",
      "Ġsome where",
      "Ġde lic",
      "Ġtw ins",
      "Ġr ising",
      "ul ous",
      "Ġfeel s",
      "Ġco at",
      "Ġbre ast",
      "Ġpre c",
      "Ġpo ck",
      "anc y",
      "ie ld",
      "Ġsc ru",
      "wh y",
      "Ġcall ing",
      "ang ing",
      "Ġad opt",
      "Ġput ting",
      "Ġgi ven",
      "Ġrel uct",
      "el s",
      "Ġph ot",
      "Ġcle ared",
      "Ġreal ize",
      "Ġdes er",
      "Ġjo in",
      "ne y",
      "Ġsk y",
      "Ġsecond s",
      "Ġent ered",
      "Ġsil k",
      "Ġgri p",
      "idd en",
      "Ġsoft ly",
      "og rap",
      "Ġspend ing",
      "Ġang ie",
      "Ġpa per",
      "some how",
      "Ġrespon s",
      "Ġlear ned",
      "Ġshif t",
      "Ġconc ern",
      "Ġacc ident",
      "Ġball s",
      "Ġclen ched",
      "ho ld",
      "Ġapol og",
      "Ġembarr ass",
      "Ġrema ined",
      "Ġpract ically",
      "Ġfavor ite",
      "Ġdrun k",
      "Ġinstru cted",
      "medi ately",
      "Ġcomfort able",
      "Ġsecur ity",
      "a ur",
      "b lic",
      "c l",
      "d id",
      "i or",
      "j ay",
      "k ward",
      "l avani",
      "m er",
      "n or",
      "o c",
      "o ver",
      "p h",
      "p id",
      "p led",
      "t ime",
      "w as",
      "Ġt ent",
      "Ġt ie",
      "Ġs ou",
      "Ġs ar",
      "Ġs ad",
      "Ġw an",
      "ed ing",
      "Ġhe els",
      "Ġh ide",
      "Ġh oney",
      "Ġm is",
      "Ġm ir",
      "Ġm ckenzie",
      "Ġb ar",
      "Ġb and",
      "Ġb ase",
      "an jay",
      "Ġf u",
      "Ġf li",
      "Ġf ool",
      "Ġf ault",
      "Ġc and",
      "Ġc art",
      "Ġc ase",
      "Ġn ap",
      "Ġd a",
      "Ġd ess",
      "Ġd ied",
      "Ġd avis",
      "as hing",
      "Ġl icking",
      "Ġl avani",
      "es e",
      "Ġg e",
      "Ġg ar",
      "Ġg ur",
      "Ġg rou",
      "Ġg rew",
      "it ion",
      "on ed",
      "or k",
      "Ġbe ck",
      "Ġbe gin",
      "Ġhis sed",
      "ac y",
      "Ġst ir",
      "ver al",
      "Ġre ach",
      "Ġk icked",
      "Ġwh irled",
      "Ġli ve",
      "Ġli kes",
      "ent ly",
      "Ġsh i",
      "ir c",
      "al th",
      "ri es",
      "pp er",
      "Ġsu n",
      "Ġsu cking",
      "Ġro of",
      "Ġsm ack",
      "Ġwhen ever",
      "Ġex ch",
      "Ġpu blic",
      "Ġlo se",
      "ink led",
      "Ġte xt",
      "Ġcon ne",
      "Ġde fe",
      "lt ure",
      "if ic",
      "Ġrep ly",
      "ul ar",
      "Ġroom s",
      "Ġmo ving",
      "Ġpo p",
      "be ll",
      "Ġpro p",
      "Ġsc ene",
      "Ġcont act",
      "Ġint im",
      "Ġplan ned",
      "Ġhu ff",
      "irl ing",
      "Ġsn apped",
      "Ġbu ild",
      "Ġcu lture",
      "Ġrest aur",
      "Ġmon itor",
      "Ġthr own",
      "Ġthr owing",
      "Ġpati ence",
      "umb led",
      "Ġfoll owing",
      "ud ing",
      "Ġbro ken",
      "Ġsleep ing",
      "Ġconsid er",
      "Ġwhe ther",
      "Ġyoung er",
      "Ġur ged",
      "Ġresp ond",
      "Ġchar ge",
      "Ġten se",
      "Ġsen s",
      "Ġhor ror",
      "Ġang ry",
      "Ġscream ing",
      "Ġcat ch",
      "Ġpin ched",
      "Ġinv ol",
      "Ġshif ted",
      "Ġesc aped",
      "Ġpound ing",
      "Ġunc le",
      "Ġposit ion",
      "Ġperform ance",
      "Ġdau ghter",
      "Ġpriv ate",
      "Ġstate ment",
      "Ġbyp assed",
      "Ġcol or",
      "Ġprofession al",
      "ann ah",
      "Ġsav annah",
      "Ġdelic ious",
      "Ġphot ograp",
      "Ġsar i",
      "Ġdess ert",
      "Ġgrou p",
      "Ġrestaur ant",
      "Ġphotograp her",
      "a ving",
      "c es",
      "c ause",
      "c oming",
      "g s",
      "i ves",
      "k in",
      "k er",
      "l ine",
      "m r",
      "m ing",
      "m ory",
      "n a",
      "n y",
      "n ie",
      "r at",
      "r act",
      "s omet",
      "t il",
      "u se",
      "u gg",
      "Ġ esh",
      "Ġ zi",
      "Ġt our",
      "Ġa ck",
      "Ġa dd",
      "in ked",
      "Ġs ick",
      "Ġs ix",
      "Ġw ish",
      "Ġhe ated",
      "Ġh ip",
      "Ġb le",
      "Ġb uck",
      "Ġb oun",
      "Ġb rie",
      "Ġo per",
      "Ġto ne",
      "Ġf if",
      "Ġc ru",
      "Ġc ream",
      "Ġn on",
      "Ġd ire",
      "Ġp an",
      "Ġp ack",
      "Ġp air",
      "Ġl ing",
      "Ġl am",
      "Ġl ady",
      "Ġl ung",
      "Ġth reat",
      "Ġg en",
      "it ing",
      "en s",
      "Ġe ight",
      "Ġe ase",
      "Ġme mory",
      "Ġwas h",
      "le aning",
      "ac ter",
      "Ġst ru",
      "Ġre c",
      "Ġre t",
      "Ġre ad",
      "Ġre ass",
      "Ġre mo",
      "Ġwe e",
      "Ġfor ced",
      "oo led",
      "Ġsh aking",
      "al ous",
      "ant ic",
      "ri ght",
      "Ġj ack",
      "Ġne cess",
      "Ġout f",
      "il i",
      "Ġsa ve",
      "Ġover whe",
      "Ġhead ing",
      "Ġdown stairs",
      "Ġch os",
      "ood ed",
      "Ġse nd",
      "Ġse veral",
      "Ġget s",
      "Ġyour s",
      "we ar",
      "Ġpu l",
      "Ġpu shing",
      "Ġcl oud",
      "Ġany way",
      "led ge",
      "Ġpl ates",
      "Ġte nder",
      "Ġknow s",
      "Ġknow ing",
      "Ġche ese",
      "if f",
      "Ġma ma",
      "ate ful",
      "pt ed",
      "Ġfl ushed",
      "Ġgr ow",
      "Ġgr ateful",
      "Ġr om",
      "Ġr ice",
      "Ġr ather",
      "ation s",
      "Ġneed le",
      "Ġho pped",
      "Ġho ped",
      "Ġco ff",
      "us ion",
      "Ġcom b",
      "Ġpo pped",
      "Ġdoor way",
      "be at",
      "Ġru b",
      "are nt",
      "Ġpro spect",
      "anc es",
      "Ġsc owled",
      "Ġins ane",
      "Ġhapp ily",
      "Ġhapp iness",
      "sh aking",
      "Ġbab e",
      "Ġbab ies",
      "Ġmar ry",
      "iz z",
      "iz ing",
      "Ġtr ust",
      "Ġgaz ing",
      "Ġheart beat",
      "Ġunder wear",
      "sp ic",
      "Ġplan s",
      "Ġbreath s",
      "Ġswe pt",
      "ig ned",
      "Ġquestion ing",
      "Ġplay fully",
      "ross ing",
      "Ġcle aned",
      "Ġwr inkled",
      "te en",
      "Ġhur ried",
      "Ġrun way",
      "Ġjo hn",
      "Ġdra gged",
      "Ġsho es",
      "Ġansw ered",
      "Ġfoll ow",
      "cu ss",
      "ren ce",
      "Ġdi pped",
      "Ġbreak fast",
      "Ġaw kward",
      "Ġsing ing",
      "Ġgent ly",
      "cept ion",
      "Ġchar acter",
      "Ġwarm th",
      "Ġcoun tered",
      "Ġinterest ing",
      "Ġinc l",
      "Ġscream ed",
      "Ġmanag er",
      "Ġkno cked",
      "Ġje alous",
      "Ġlear n",
      "tr ace",
      "Ġdu g",
      "Ġdrink s",
      "Ġmedic ation",
      "Ġhang er",
      "Ġeng agement",
      "Ġintrodu ce",
      "thank fully",
      "Ġord er",
      "Ġprocess ing",
      "Ġdoubt s",
      "Ġsli pped",
      "Ġgre en",
      "Ġfab ric",
      "Ġpicture s",
      "ga zing",
      "Ġmass ive",
      "Ġchew ed",
      "Ġdesper ately",
      "Ġtant ric",
      "Ġnumb er",
      "Ġdon nie",
      "Ġagre ed",
      "Ġpock et",
      "Ġscru bs",
      "Ġsou l",
      "Ġmir ror",
      "Ġgur ney",
      "Ġinvol ved",
      "Ġack now",
      "Ġbrie f",
      "Ġoper a",
      "Ġoverwhe l",
      "Ġchos en",
      "Ġcoff ee",
      "b l",
      "b r",
      "c in",
      "c us",
      "c hes",
      "c rossing",
      "d om",
      "e x",
      "e en",
      "e yed",
      "g ra",
      "h ol",
      "j ect",
      "k n",
      "l ace",
      "n s",
      "n ers",
      "n oun",
      "o p",
      "o ll",
      "p at",
      "p ull",
      "s low",
      "t le",
      "u zz",
      "v o",
      "w ood",
      "w ork",
      "Ġ 1",
      "Ġt v",
      "Ġt il",
      "Ġt est",
      "Ġa ction",
      "Ġw ip",
      "Ġhe a",
      "Ġhe alth",
      "Ġh idden",
      "Ġm c",
      "Ġm as",
      "Ġm ad",
      "Ġm id",
      "Ġm issed",
      "Ġm oney",
      "re g",
      "Ġb i",
      "Ġb ound",
      "Ġb owed",
      "Ġb orn",
      "ing s",
      "Ġto w",
      "Ġto wel",
      "Ġf ed",
      "Ġc re",
      "Ġc ous",
      "Ġc irc",
      "er ia",
      "at ure",
      "Ġn one",
      "Ġd ated",
      "nd ay",
      "Ġp ark",
      "Ġl ar",
      "Ġl ying",
      "Ġg ather",
      "en ly",
      "en ced",
      "Ġin ch",
      "ar m",
      "Ġshe ep",
      "Ġshe ets",
      "Ġe ch",
      "om y",
      "id s",
      "Ġme mb",
      "Ġhis t",
      "ve l",
      "st er",
      "st ill",
      "im p",
      "ay ed",
      "Ġst or",
      "Ġst ool",
      "Ġre sid",
      "Ġre action",
      "Ġfor ce",
      "ur ch",
      "oo ked",
      "ke nd",
      "ent ed",
      "Ġsh out",
      "al ing",
      "ant age",
      "Ġan noun",
      "ter n",
      "Ġne ar",
      "Ġgo ld",
      "Ġkn ee",
      "Ġsu spic",
      "Ġfr own",
      "Ġca fet",
      "Ġab and",
      "Ġab dom",
      "Ġch ick",
      "Ġch urch",
      "Ġsm o",
      "Ġex cept",
      "Ġse ed",
      "Ġal co",
      "Ġpu m",
      "ck s",
      "Ġcl ut",
      "am ed",
      "Ġcon s",
      "Ġche cking",
      "Ġga p",
      "Ġar rived",
      "Ġrep e",
      "Ġfl uttered",
      "Ġfl ashed",
      "Ġgr ad",
      "Ġbo lly",
      "fe ction",
      "Ġr at",
      "Ġbl ess",
      "Ġsl ide",
      "Ġmo ist",
      "Ġmo de",
      "Ġpo or",
      "be cause",
      "bb orn",
      "Ġhard ly",
      "Ġhard ened",
      "Ġfir m",
      "Ġthought ful",
      "ie w",
      "ie ce",
      "Ġlau ghter",
      "Ġsc rew",
      "Ġloo se",
      "Ġsor t",
      "Ġfo ld",
      "Ġcont ain",
      "Ġcont em",
      "Ġsto ve",
      "Ġapp ro",
      "Ġexp osed",
      "Ġwat ching",
      "Ġint ense",
      "Ġad just",
      "ag ed",
      "ag er",
      "Ġplan ning",
      "Ġswe lling",
      "Ġna ked",
      "Ġra gged",
      "Ġslid ing",
      "Ġgra bbing",
      "Ġstay ing",
      "Ġbu ilt",
      "Ġcu nt",
      "Ġdoctor s",
      "Ġneck lace",
      "Ġspe ed",
      "Ġear ly",
      "Ġstu bborn",
      "Ġsweet ie",
      "Ġfind ing",
      "Ġwonder ing",
      "Ġbur ning",
      "Ġni bbled",
      "Ġim mediately",
      "Ġgri e",
      "Ġbro ad",
      "Ġres ist",
      "Ġres pect",
      "Ġres ult",
      "cu sed",
      "Ġeas ier",
      "Ġenjo ying",
      "Ġtou ched",
      "Ġposs ib",
      "Ġdiffe rence",
      "Ġlow er",
      "Ġset tled",
      "Ġstro ke",
      "Ġstro de",
      "Ġemotion al",
      "Ġpregn ancy",
      "Ġshru g",
      "Ġfun ny",
      "Ġconf used",
      "Ġconf usion",
      "Ġsen se",
      "Ġau nt",
      "Ġpun ched",
      "Ġbreat he",
      "Ġgigg ling",
      "Ġexh a",
      "bo ard",
      "pl ay",
      "Ġter ri",
      "Ġshudd er",
      "Ġshudd ered",
      "Ġfre sh",
      "Ġpar king",
      "every thing",
      "Ġstre et",
      "Ġshort s",
      "Ġhung ry",
      "Ġtoward s",
      "Ġcas es",
      "Ġju ices",
      "Ġphys ical",
      "Ġhonest ly",
      "Ġdist ance",
      "Ġlist en",
      "Ġcor ner",
      "Ġdet a",
      "Ġinf l",
      "Ġrele ased",
      "Ġorgas m",
      "Ġorgas ms",
      "Ġclinical s",
      "Ġadv antage",
      "Ġwhimper ed",
      "Ġnarr owed",
      "Ġfrustr ated",
      "Ġreluct antly",
      "Ġpaper work",
      "Ġapolog ize",
      "Ġnap kin",
      "Ġgar age",
      "til ting",
      "Ġwee kend",
      "Ġjack et",
      "pull ing",
      "slow ly",
      "Ġtil ted",
      "Ġech o",
      "Ġcafet eria",
      "Ġbolly wood",
      "a im",
      "b ly",
      "b all",
      "c ar",
      "c lo",
      "e ared",
      "f l",
      "f riend",
      "f fect",
      "i qu",
      "i ving",
[...]
