{
  "version": "1.0",
  "truncation": null,
  "padding": null,
  "added_tokens": [
    {
      "id": 0,
      "content": "[UNK]",
      "single_word": false,
      "lstrip": false,
      "rstrip": false,
      "normalized": false,
      "special": true
    },
    {
      "id": 1,
      "content": "[CLS]",
      "single_word": false,
      "lstrip": false,
      "rstrip": false,
      "normalized": false,
      "special": true
    },
    {
      "id": 2,
      "content": "[SEP]",
      "single_word": false,
      "lstrip": false,
      "rstrip": false,
      "normalized": false,
      "special": true
    },
    {
      "id": 3,
      "content": "[PAD]",
      "single_word": false,
      "lstrip": false,
      "rstrip": false,
      "normalized": false,
      "special": true
    },
    {
      "id": 4,
      "content": "[MASK]",
      "single_word": false,
      "lstrip": false,
      "rstrip": false,
      "normalized": false,
      "special": true
    }
  ],
  "normalizer": null,
  "pre_tokenizer": {
    "type": "Whitespace"
  },
  "post_processor": null,
  "decoder": null,
  "model": {
    "type": "BPE",
    "dropout": null,
    "unk_token": "[UNK]",
    "continuing_subword_prefix": null,
    "end_of_word_suffix": null,
    "fuse_unk": false,
    "byte_fallback": false,
    "vocab": {
      "[UNK]": 0,
      "[CLS]": 1,
      "[SEP]": 2,
      "[PAD]": 3,
      "[MASK]": 4,
      "!": 5,
      "'": 6,
      "*": 7,
      ",": 8,
      "-": 9,
      ".": 10,
      "/": 11,
      "0": 12,
      "1": 13,
      "2": 14,
      "3": 15,
      "4": 16,
      "5": 17,
      "6": 18,
      "7": 19,
      "8": 20,
      "9": 21,
      ":": 22,
      ";": 23,
      "?": 24,
      "`": 25,
      "a": 26,
      "b": 27,
      "c": 28,
      "d": 29,
      "e": 30,
      "f": 31,
      "g": 32,
      "h": 33,
      "i": 34,
      "j": 35,
      "k": 36,
      "l": 37,
      "m": 38,
      "n": 39,
      "o": 40,
      "p": 41,
      "q": 42,
      "r": 43,
      "s": 44,
      "t": 45,
      "u": 46,
      "v": 47,
      "w": 48,
      "x": 49,
      "y": 50,
      "z": 51,
      "he": 52,
      "in": 53,
      "an": 54,
      "ed": 55,
      "ou": 56,
      "the": 57,
      "th": 58,
      "to": 59,
      "re": 60,
      "ing": 61,
      "as": 62,
      "at": 63,
      "on": 64,
      "``": 65,
      "''": 66,
      "me": 67,
      "her": 68,
      "er": 69,
      "is": 70,
      "and": 71,
      "she": 72,
      "es": 73,
      "you": 74,
      "ar": 75,
      "it": 76,
      "st": 77,
      "en": 78,
      "ll": 79,
      "or": 80,
      "ad": 81,
      "be": 82,
      "of": 83,
      "le": 84,
      "ow": 85,
      "id": 86,
      "his": 87,
      "was": 88,
      "se": 89,
      "ac": 90,
      "ve": 91,
      "ro": 92,
      "ld": 93,
      "hi": 94,
      "wi": 95,
      "that": 96,
      "li": 97,
      "gh": 98,
      "we": 99,
      "ti": 100,
      "ay": 101,
      "with": 102,
      "ver": 103,
      "ha": 104,
      "no": 105,
      "so": 106,
      "do": 107,
      "ly": 108,
      "my": 109,
      "gan": 110,
      "all": 111,
      "for": 112,
      "go": 113,
      "al": 114,
      "ke": 115,
      "lo": 116,
      "ould": 117,
      "megan": 118,
      "out": 119,
      "ur": 120,
      "him": 121,
      "esh": 122,
      "pesh": 123,
      "ght": 124,
      "ut": 125,
      "whe": 126,
      "ho": 127,
      "ne": 128,
      "up": 129,
      "had": 130,
      "mo": 131,
      "ab": 132,
      "ri": 133,
      "fe": 134,
      "ked": 135,
      "ge": 136,
      "ch": 137,
      "ir": 138,
      "ter": 139,
      "ma": 140,
      "ce": 141,
      "one": 142,
      "ant": 143,
      "ok": 144,
      "wh": 145,
      "un": 146,
      "when": 147,
      "aid": 148,
      "co": 149,
      "ther": 150,
      "ca": 151,
      "pp": 152,
      "thing": 153,
      "ga": 154,
      "sh": 155,
      "own": 156,
      "ust": 157,
      "fo": 158,
      "but": 159,
      "oun": 160,
      "ack": 161,
      "ck": 162,
      "em": 163,
      "what": 164,
      "now": 165,
      "have": 166,
      "mi": 167,
      "did": 168,
      "su": 169,
      "led": 170,
      "ound": 171,
      "yes": 172,
      "way": 173,
      "ted": 174,
      "head": 175,
      "want": 176,
      "od": 177,
      "back": 178,
      "could": 179,
      "over": 180,
      "some": 181,
      "hand": 182,
      "si": 183,
      "into": 184,
      "che": 185,
      "down": 186,
      "just": 187,
      "ally": 188,
      "like": 189,
      "ent": 190,
      "ta": 191,
      "king": 192,
      "fore": 193,
      "te": 194,
      "tr": 195,
      "de": 196,
      "not": 197,
      "sp": 198,
      "before": 199,
      "sed": 200,
      "rom": 201,
      "are": 202,
      "if": 203,
      "time": 204,
      "om": 205,
      "they": 206,
      "con": 207,
      "would": 208,
      "get": 209,
      "**": 210,
      "gr": 211,
      "el": 212,
      "ex": 213,
      "wor": 214,
      "from": 215,
      "fin": 216,
      "any": 217,
      "ough": 218,
      "af": 219,
      "men": 220,
      "your": 221,
      "pl": 222,
      "this": 223,
      "were": 224,
      "tion": 225,
      "ra": 226,
      "ard": 227,
      "ide": 228,
      "ace": 229,
      "aidan": 230,
      "star": 231,
      "pu": 232,
      "then": 233,
      "eyes": 234,
      "ink": 235,
      "about": 236,
      "after": 237,
      "ess": 238,
      "la": 239,
      "emma": 240,
      "ned": 241,
      "qu": 242,
      "ong": 243,
      "there": 244,
      "smi": 245,
      "know": 246,
      "off": 247,
      "lit": 248,
      "ati": 249,
      "ting": 250,
      "lf": 251,
      "ever": 252,
      "wo": 253,
      "been": 254,
      "bo": 255,
      "room": 256,
      "said": 257,
      "us": 258,
      "how": 259,
      "going": 260,
      "br": 261,
      "ni": 262,
      "gain": 263,
      "hed": 264,
      "rea": 265,
      "po": 266,
      "than": 267,
      "res": 268,
      "around": 269,
      "ep": 270,
      "more": 271,
      "again": 272,
      "ind": 273,
      "ason": 274,
      "ry": 275,
      "ul": 276,
      "them": 277,
      "bed": 278,
      "by": 279,
      "pe": 280,
      "ts": 281,
      "our": 282,
      "ought": 283,
      "fa": 284,
      "per": 285,
      "..": 286,
      "gu": 287,
      "arm": 288,
      "ple": 289,
      "ate": 290,
      "pped": 291,
      "man": 292,
      "other": 293,
      "tur": 294,
      "see": 295,
      "ving": 296,
      "ah": 297,
      "self": 298,
      "think": 299,
      "rep": 300,
      "mason": 301,
      "ven": 302,
      "ous": 303,
      "end": 304,
      "mu": 305,
      "ine": 306,
      "good": 307,
      "ade": 308,
      "whi": 309,
      "sure": 310,
      "tle": 311,
      "art": 312,
      "sho": 313,
      "ast": 314,
      "asked": 315,
      "gi": 316,
      "sto": 317,
      "side": 318,
      "der": 319,
      "ris": 320,
      "sa": 321,
      "gl": 322,
      "thr": 323,
      "feel": 324,
      "day": 325,
      "ye": 326,
      "look": 327,
      "ic": 328,
      "ment": 329,
      "lied": 330,
      "ill": 331,
      "am": 332,
      "who": 333,
      "ation": 334,
      "lt": 335,
      "ase": 336,
      "need": 337,
      "wa": 338,
      "never": 339,
      "little": 340,
      "replied": 341,
      "got": 342,
      "came": 343,
      "ps": 344,
      "ers": 345,
      "let": 346,
      "um": 347,
      "clo": 348,
      "ug": 349,
      "even": 350,
      "com": 351,
      "take": 352,
      "cau": 353,
      "pro": 354,
      "really": 355,
      "ass": 356,
      "bl": 357,
      "ened": 358,
      "can": 359,
      "act": 360,
      "come": 361,
      "right": 362,
      "much": 363,
      "bet": 364,
      "love": 365,
      "ged": 366,
      "kne": 367,
      "where": 368,
      "should": 369,
      "took": 370,
      "face": 371,
      "sl": 372,
      "ten": 373,
      "went": 374,
      "able": 375,
      "two": 376,
      "too": 377,
      "wanted": 378,
      "mur": 379,
      "hands": 380,
      "every": 381,
      "night": 382,
      "car": 383,
      "long": 384,
      "hel": 385,
      "brea": 386,
      "door": 387,
      "ried": 388,
      "turned": 389,
      "mou": 390,
      "est": 391,
      "lled": 392,
      "started": 393,
      "hair": 394,
      "help": 395,
      "something": 396,
      "kis": 397,
      "noah": 398,
      "ced": 399,
      "et": 400,
      "fir": 401,
      "well": 402,
      "smiled": 403,
      "through": 404,
      "mouth": 405,
      "op": 406,
      "make": 407,
      "ved": 408,
      "read": 409,
      "felt": 410,
      "bab": 411,
      "cked": 412,
      "hard": 413,
      "say": 414,
      "ach": 415,
      "fl": 416,
      "ste": 417,
      "made": 418,
      "here": 419,
      "only": 420,
      "okay": 421,
      "sc": 422,
      "ek": 423,
      "their": 424,
      "thought": 425,
      "smile": 426,
      "na": 427,
      "thank": 428,
      "try": 429,
      "pa": 430,
      "while": 431,
      "ct": 432,
      "against": 433,
      "first": 434,
      "oh": 435,
      "pt": 436,
      "sing": 437,
      "ful": 438,
      "sur": 439,
      "once": 440,
      "sion": 441,
      "ear": 442,
      "ped": 443,
      "shi": 444,
      "app": 445,
      "mar": 446,
      "pres": 447,
      "though": 448,
      "shook": 449,
      "happ": 450,
      "cause": 451,
      "away": 452,
      "ated": 453,
      "still": 454,
      "most": 455,
      "...": 456,
      "being": 457,
      "lips": 458,
      "ious": 459,
      "ru": 460,
      "ched": 461,
      "call": 462,
      "ner": 463,
      "sit": 464,
      "because": 465,
      "chest": 466,
      "knew": 467,
      "dd": 468,
      "fu": 469,
      "cl": 470,
      "ick": 471,
      "mm": 472,
      "ning": 473,
      "very": 474,
      "ol": 475,
      "til": 476,
      "gave": 477,
      "arms": 478,
      "tor": 479,
      "gaz": 480,
      "fing": 481,
      "ice": 482,
      "tell": 483,
      "bod": 484,
      "sin": 485,
      "sor": 486,
      "fine": 487,
      "ite": 488,
      "anything": 489,
      "mind": 490,
      "pre": 491,
      "owed": 492,
      "word": 493,
      "glan": 494,
      "ready": 495,
      "fi": 496,
      "will": 497,
      "seem": 498,
      "ween": 499,
      "between": 500,
      "body": 501,
      "since": 502,
      "ty": 503,
      "ure": 504,
      "loo": 505,
      "moment": 506,
      "mean": 507,
      "ble": 508,
      "ss": 509,
      "wal": 510,
      "ton": 511,
      "grin": 512,
      "wat": 513,
      "aned": 514,
      "herself": 515,
      "rest": 516,
      "ist": 517,
      "gue": 518,
      "baby": 519,
      "dr": 520,
      "under": 521,
      "until": 522,
      "au": 523,
      "ba": 524,
      "ber": 525,
      "di": 526,
      "fr": 527,
      "ger": 528,
      "may": 529,
      "son": 530,
      "inside": 531,
      "ows": 532,
      "sorry": 533,
      "xt": 534,
      "cont": 535,
      "min": 536,
      "ward": 537,
      "plan": 538,
      "feeling": 539,
      "kiss": 540,
      "last": 541,
      "heart": 542,
      "tru": 543,
      "looked": 544,
      "gre": 545,
      "ating": 546,
      "few": 547,
      "why": 548,
      "pulled": 549,
      "ques": 550,
      "cr": 551,
      "case": 552,
      "life": 553,
      "show": 554,
      "taking": 555,
      "spe": 556,
      "breath": 557,
      "age": 558,
      "ft": 559,
      "pris": 560,
      "laug": 561,
      "both": 562,
      "father": 563,
      "surpris": 564,
      "laughed": 565,
      "bro": 566,
      "put": 567,
      "fami": 568,
      "bu": 569,
      "lie": 570,
      "question": 571,
      "pr": 572,
      "wom": 573,
      "sex": 574,
      "nodd": 575,
      "doing": 576,
      "things": 577,
      "finis": 578,
      "play": 579,
      "wait": 580,
      "thre": 581,
      "chan": 582,
      "din": 583,
      "kris": 584,
      "part": 585,
      "sw": 586,
      "table": 587,
      "ased": 588,
      "nothing": 589,
      "kristi": 590,
      "cle": 591,
      "jo": 592,
      "med": 593,
      "tal": 594,
      "ren": 595,
      "woman": 596,
      "nodded": 597,
      "held": 598,
      "without": 599,
      "give": 600,
      "fingers": 601,
      "each": 602,
      "mon": 603,
      "vo": 604,
      "another": 605,
      "tic": 606,
      "next": 607,
      "work": 608,
      "stead": 609,
      "casey": 610,
      "family": 611,
      "dis": 612,
      "swe": 613,
      "mother": 614,
      "care": 615,
      "cheek": 616,
      "slid": 617,
      "mured": 618,
      "murmured": 619,
      "il": 620,
      "ser": 621,
      "toge": 622,
      "glanced": 623,
      "together": 624,
      "zed": 625,
      "ars": 626,
      "keep": 627,
      "home": 628,
      "tered": 629,
      "brought": 630,
      "trying": 631,
      "lea": 632,
      "ways": 633,
      "deep": 634,
      "ction": 635,
      "found": 636,
      "mis": 637,
      "stand": 638,
      "open": 639,
      "chi": 640,
      "int": 641,
      "ering": 642,
      "ity": 643,
      "str": 644,
      "having": 645,
      "mag": 646,
      "full": 647,
      "cour": 648,
      "leg": 649,
      "getting": 650,
      "gri": 651,
      "sat": 652,
      "ud": 653,
      "ined": 654,
      "instead": 655,
      "seat": 656,
      "always": 657,
      "finally": 658,
      "ci": 659,
      "dres": 660,
      "less": 661,
      "uck": 662,
      "shed": 663,
      "began": 664,
      "same": 665,
      "tongue": 666,
      "ph": 667,
      "reac": 668,
      "minut": 669,
      "imag": 670,
      "onto": 671,
      "set": 672,
      "light": 673,
      "pression": 674,
      "words": 675,
      "grinned": 676,
      "fact": 677,
      "has": 678,
      "ion": 679,
      "yed": 680,
      "ence": 681,
      "left": 682,
      "someone": 683,
      "else": 684,
      "brows": 685,
      "cess": 686,
      "flo": 687,
      "gn": 688,
      "gir": 689,
      "hers": 690,
      "stay": 691,
      "add": 692,
      "almost": 693,
      "might": 694,
      "quick": 695,
      "yeah": 696,
      "gaze": 697,
      "seemed": 698,
      "hind": 699,
      "old": 700,
      "behind": 701,
      "dev": 702,
      "course": 703,
      "bit": 704,
      "bur": 705,
      "ctor": 706,
      "les": 707,
      "mor": 708,
      "sm": 709,
      "won": 710,
      "hell": 711,
      "ance": 712,
      "enough": 713,
      "doctor": 714,
      "god": 715,
      "riend": 716,
      "grab": 717,
      "pull": 718,
      "bes": 719,
      "des": 720,
      "mat": 721,
      "sound": 722,
      "hear": 723,
      "ark": 724,
      "beau": 725,
      "hold": 726,
      "neck": 727,
      "motion": 728,
      "saw": 729,
      "slow": 730,
      "everything": 731,
      "run": 732,
      "told": 733,
      "which": 734,
      "coming": 735,
      "appear": 736,
      "iously": 737,
      "called": 738,
      "walked": 739,
      "gg": 740,
      "tried": 741,
      "rel": 742,
      "ross": 743,
      "does": 744,
      "expression": 745,
      "wonder": 746,
      "cou": 747,
      "hur": 748,
      "red": 749,
      "sid": 750,
      "sha": 751,
      "leep": 752,
      "better": 753,
      "dinner": 754,
      "legs": 755,
      "reached": 756,
      "floor": 757,
      "girl": 758,
      "bled": 759,
      "cer": 760,
      "ves": 761,
      "zing": 762,
      "met": 763,
      "along": 764,
      "although": 765,
      "cking": 766,
      "find": 767,
      "please": 768,
      "finished": 769,
      "voice": 770,
      "done": 771,
      "dra": 772,
      "friend": 773,
      "pati": 774,
      "pping": 775,
      "such": 776,
      "place": 777,
      "air": 778,
      "ually": 779,
      "wid": 780,
      "ered": 781,
      "belie": 782,
      "cond": 783,
      "rub": 784,
      "fron": 785,
      "cor": 786,
      "owing": 787,
      "across": 788,
      "aren": 789,
      "opened": 790,
      "surprise": 791,
      "child": 792,
      "cha": 793,
      "date": 794,
      "jer": 795,
      "ling": 796,
      "ople": 797,
      "pas": 798,
      "wr": 799,
      "win": 800,
      "ared": 801,
      "bedroom": 802,
      "people": 803,
      "fully": 804,
      "front": 805,
      "ie": 806,
      "ken": 807,
      "nur": 808,
      "sk": 809,
      "ue": 810,
      "its": 811,
      "lot": 812,
      "trace": 813,
      "guess": 814,
      "closed": 815,
      "im": 816,
      "ouse": 817,
      "kept": 818,
      "stared": 819,
      "maybe": 820,
      "best": 821,
      "dri": 822,
      "far": 823,
      "ise": 824,
      "ara": 825,
      "second": 826,
      "lip": 827,
      "week": 828,
      "foll": 829,
      "times": 830,
      "consid": 831,
      "plane": 832,
      "cing": 833,
      "pat": 834,
      "paren": 835,
      "tty": 836,
      "warm": 837,
      "answ": 838,
      "wel": 839,
      "soon": 840,
      "myself": 841,
      "new": 842,
      "spo": 843,
      "bath": 844,
      "ak": 845,
      "ath": 846,
      "bi": 847,
      "cur": 848,
      "cho": 849,
      "cup": 850,
      "chair": 851,
      "hu": 852,
      "ily": 853,
      "mr": 854,
      "pri": 855,
      "ran": 856,
      "sup": 857,
      "wra": 858,
      "chuck": 859,
      "sil": 860,
      "tain": 861,
      "spit": 862,
      "bring": 863,
      "close": 864,
      "happy": 865,
      "pretty": 866,
      "bus": 867,
      "coun": 868,
      "dark": 869,
      "eas": 870,
      "ff": 871,
      "sn": 872,
      "sen": 873,
      "leaned": 874,
      "tiful": 875,
      "half": 876,
      "making": 877,
      "lau": 878,
      "stop": 879,
      "believe": 880,
      "eyed": 881,
      "ging": 882,
      "low": 883,
      "ose": 884,
      "sleep": 885,
      "ank": 886,
      "ish": 887,
      "aced": 888,
      "hospit": 889,
      "actually": 890,
      "cheeks": 891,
      "beautiful": 892,
      "patient": 893,
      "widened": 894,
      "parents": 895,
      "hospital": 896,
      "aw": 897,
      "ama": 898,
      "gas": 899,
      "house": 900,
      "nade": 901,
      "ze": 902,
      "idd": 903,
      "rose": 904,
      "cover": 905,
      "world": 906,
      "women": 907,
      "using": 908,
      "years": 909,
      "needed": 910,
      "brother": 911,
      "month": 912,
      "dress": 913,
      "nadeen": 914,
      "bing": 915,
      "dro": 916,
      "kind": 917,
      "sis": 918,
      "those": 919,
      "ask": 920,
      "wife": 921,
      "hall": 922,
      "forward": 923,
      "already": 924,
      "loved": 925,
      "mom": 926,
      "char": 927,
      "carol": 928,
      "kissed": 929,
      "water": 930,
      "cal": 931,
      "ele": 932,
      "ight": 933,
      "kes": 934,
      "ness": 935,
      "pur": 936,
      "pant": 937,
      "iness": 938,
      "rolled": 939,
      "wear": 940,
      "ching": 941,
      "exact": 942,
      "yet": 943,
      "waist": 944,
      "shoulder": 945,
      "everyone": 946,
      "break": 947,
      "leave": 948,
      "caroline": 949,
      "je": 950,
      "many": 951,
      "sof": 952,
      "today": 953,
      "tonight": 954,
      "stu": 955,
      "enjo": 956,
      "also": 957,
      "himself": 958,
      "worry": 959,
      "bot": 960,
      "happened": 961,
      "talk": 962,
      "quickly": 963,
      "appeared": 964,
      "jerked": 965,
      "cra": 966,
      "du": 967,
      "dif": 968,
      "hon": 969,
      "ies": 970,
      "lat": 971,
      "used": 972,
      "whis": 973,
      "ining": 974,
      "mem": 975,
      "youn": 976,
      "stage": 977,
      "tight": 978,
      "feren": 979,
      "stood": 980,
      "glad": 981,
      "flu": 982,
      "stepped": 983,
      "three": 984,
      "minutes": 985,
      "wrong": 986,
      "bathroom": 987,
      "exactly": 988,
      "cted": 989,
      "kara": 990,
      "par": 991,
      "tou": 992,
      "use": 993,
      "zy": 994,
      "thin": 995,
      "stra": 996,
      "licked": 997,
      "feet": 998,
      "shit": 999,
      "dec": 1000,
      "expe": 1001,
      "idea": 1002,
      "boy": 1003,
      "reali": 1004,
      "giving": 1005,
      "probab": 1006,
      "pain": 1007,
      "mary": 1008,
      "shower": 1009,
      "threw": 1010,
      "medic": 1011,
      "matter": 1012,
      "chap": 1013,
      "chuckled": 1014,
      "amazing": 1015,
      "soft": 1016,
      "differen": 1017,
      "probably": 1018,
      "cro": 1019,
      "fur": 1020,
      "gro": 1021,
      "gone": 1022,
      "gent": 1023,
      "hit": 1024,
      "hour": 1025,
      "kn": 1026,
      "kit": 1027,
      "pic": 1028,
      "squ": 1029,
      "van": 1030,
      "ane": 1031,
      "rober": 1032,
      "sig": 1033,
      "sive": 1034,
      "sight": 1035,
      "start": 1036,
      "ream": 1037,
      "tson": 1038,
      "person": 1039,
      "ending": 1040,
      "shot": 1041,
      "looking": 1042,
      "pulling": 1043,
      "laugh": 1044,
      "chapter": 1045,
      "robertson": 1046,
      "cry": 1047,
      "ere": 1048,
      "fre": 1049,
      "ring": 1050,
      "tu": 1051,
      "usu": 1052,
      "vous": 1053,
      "wed": 1054,
      "ying": 1055,
      "inter": 1056,
      "resp": 1057,
      "atten": 1058,
      "antly": 1059,
      "exam": 1060,
      "ments": 1061,
      "pered": 1062,
      "turn": 1063,
      "turning": 1064,
      "stopped": 1065,
      "ugged": 1066,
      "ship": 1067,
      "contin": 1068,
      "contro": 1069,
      "questioned": 1070,
      "phone": 1071,
      "imagine": 1072,
      "grabbed": 1073,
      "member": 1074,
      "respon": 1075,
      "band": 1076,
      "dou": 1077,
      "emotion": 1078,
      "hun": 1079,
      "igh": 1080,
      "va": 1081,
      "hey": 1082,
      "heard": 1083,
      "stro": 1084,
      "least": 1085,
      "hope": 1086,
      "rick": 1087,
      "chen": 1088,
      "taken": 1089,
      "anyone": 1090,
      "pos": 1091,
      "days": 1092,
      "pregn": 1093,
      "true": 1094,
      "sweet": 1095,
      "holding": 1096,
      "certain": 1097,
      "months": 1098,
      "kitchen": 1099,
      "ding": 1100,
      "eased": 1101,
      "fall": 1102,
      "fun": 1103,
      "pan": 1104,
      "prom": 1105,
      "rt": 1106,
      "reason": 1107,
      "ash": 1108,
      "arr": 1109,
      "ort": 1110,
      "ides": 1111,
      "wet": 1112,
      "uttered": 1113,
      "spent": 1114,
      "staring": 1115,
      "lap": 1116,
      "nice": 1117,
      "guy": 1118,
      "others": 1119,
      "answer": 1120,
      "cried": 1121,
      "dadd": 1122,
      "fted": 1123,
      "hor": 1124,
      "heat": 1125,
      "inte": 1126,
      "ang": 1127,
      "thro": 1128,
      "ised": 1129,
      "seen": 1130,
      "living": 1131,
      "form": 1132,
      "shr": 1133,
      "exc": 1134,
      "yourself": 1135,
      "pushed": 1136,
      "pleas": 1137,
      "blue": 1138,
      "shirt": 1139,
      "married": 1140,
      "nervous": 1141,
      "besides": 1142,
      "hurt": 1143,
      "daddy": 1144,
      "interest": 1145,
      "bad": 1146,
      "cy": 1147,
      "cut": 1148,
      "eat": 1149,
      "fit": 1150,
      "fill": 1151,
      "mit": 1152,
      "mine": 1153,
      "past": 1154,
      "sation": 1155,
      "tre": 1156,
      "wall": 1157,
      "remember": 1158,
      "ested": 1159,
      "ene": 1160,
      "aded": 1161,
      "allowed": 1162,
      "ric": 1163,
      "shing": 1164,
      "food": 1165,
      "teased": 1166,
      "tra": 1167,
      "box": 1168,
      "ult": 1169,
      "peri": 1170,
      "stom": 1171,
      "whole": 1172,
      "comple": 1173,
      "prot": 1174,
      "knees": 1175,
      "shoulders": 1176,
      "name": 1177,
      "crow": 1178,
      "minute": 1179,
      "relation": 1180,
      "friends": 1181,
      "passed": 1182,
      "considering": 1183,
      "suppo": 1184,
      "wrapped": 1185,
      "later": 1186,
      "thinking": 1187,
      "continu": 1188,
      "bor": 1189,
      "gged": 1190,
      "ier": 1191,
      "ping": 1192,
      "rup": 1193,
      "zz": 1194,
      "thigh": 1195,
      "rew": 1196,
      "ided": 1197,
      "fell": 1198,
      "ately": 1199,
      "black": 1200,
      "mmm": 1201,
      "finger": 1202,
      "truly": 1203,
      "finish": 1204,
      "weeks": 1205,
      "sister": 1206,
      "known": 1207,
      "control": 1208,
      "possi": 1209,
      "relationship": 1210,
      "continued": 1211,
      "av": 1212,
      "ball": 1213,
      "blo": 1214,
      "kid": 1215,
      "kno": 1216,
      "line": 1217,
      "twent": 1218,
      "anger": 1219,
      "top": 1220,
      "real": 1221,
      "asing": 1222,
      "tive": 1223,
      "headed": 1224,
      "qui": 1225,
      "bru": 1226,
      "caused": 1227,
      "saying": 1228,
      "couple": 1229,
      "followed": 1230,
      "big": 1231,
      "business": 1232,
      "pants": 1233,
      "young": 1234,
      "different": 1235,
      "attention": 1236,
      "complete": 1237,
      "twenty": 1238,
      "cas": 1239,
      "cli": 1240,
      "dem": 1241,
      "eye": 1242,
      "gon": 1243,
      "ms": 1244,
      "must": 1245,
      "ob": 1246,
      "ses": 1247,
      "oud": 1248,
      "outside": 1249,
      "uring": 1250,
      "hot": 1251,
      "fect": 1252,
      "cock": 1253,
      "whatever": 1254,
      "mana": 1255,
      "harder": 1256,
      "sitting": 1257,
      "gazed": 1258,
      "understand": 1259,
      "sounds": 1260,
      "mommy": 1261,
      "expect": 1262,
      "erection": 1263,
      "crowd": 1264,
      "cat": 1265,
      "cus": 1266,
      "ef": 1267,
      "four": 1268,
      "ied": 1269,
      "ither": 1270,
      "pen": 1271,
      "pun": 1272,
      "tas": 1273,
      "thir": 1274,
      "meant": 1275,
      "ading": 1276,
      "versation": 1277,
      "lying": 1278,
      "unt": 1279,
      "sucked": 1280,
      "teasing": 1281,
      "conversation": 1282,
      "ground": 1283,
      "exha": 1284,
      "experi": 1285,
      "pla": 1286,
      "quite": 1287,
      "looks": 1288,
      "gotten": 1289,
      "umb": 1290,
      "thoughts": 1291,
      "truth": 1292,
      "great": 1293,
      "speak": 1294,
      "prin": 1295,
      "waiting": 1296,
      "grim": 1297,
      "morning": 1298,
      "slowly": 1299,
      "draw": 1300,
      "skin": 1301,
      "patrick": 1302,
      "counter": 1303,
      "eleva": 1304,
      "gentle": 1305,
      "sque": 1306,
      "pregnant": 1307,
      "certainly": 1308,
      "elevator": 1309,
      "ap": 1310,
      "ahead": 1311,
      "agre": 1312,
      "bra": 1313,
      "dance": 1314,
      "fast": 1315,
      "jade": 1316,
      "jud": 1317,
      "lun": 1318,
      "mbled": 1319,
      "nor": 1320,
      "pin": 1321,
      "rely": 1322,
      "anded": 1323,
      "stair": 1324,
      "ening": 1325,
      "lic": 1326,
      "sol": 1327,
      "forth": 1328,
      "wheel": 1329,
      "white": 1330,
      "somehow": 1331,
      "check": 1332,
      "tee": 1333,
      "tears": 1334,
      "deal": 1335,
      "working": 1336,
      "seeing": 1337,
      "ended": 1338,
      "gie": 1339,
      "appre": 1340,
      "watched": 1341,
      "surprised": 1342,
      "party": 1343,
      "swee": 1344,
      "small": 1345,
      "drive": 1346,
      "bringing": 1347,
      "whispered": 1348,
      "throat": 1349,
      "pleasure": 1350,
      "stomach": 1351,
      "thighs": 1352,
      "completely": 1353,
      "fle": 1354,
      "fought": 1355,
      "hmm": 1356,
      "midd": 1357,
      "muttered": 1358,
      "sy": 1359,
      "tri": 1360,
      "ins": 1361,
      "meet": 1362,
      "ism": 1363,
      "step": 1364,
      "lear": 1365,
      "alone": 1366,
      "ket": 1367,
      "chin": 1368,
      "coll": 1369,
      "causing": 1370,
      "game": 1371,
      "empt": 1372,
      "fair": 1373,
      "safe": 1374,
      "thrust": 1375,
      "mmed": 1376,
      "glancing": 1377,
      "change": 1378,
      "clear": 1379,
      "tically": 1380,
      "beside": 1381,
      "huh": 1382,
      "touch": 1383,
      "groaned": 1384,
      "hours": 1385,
      "doub": 1386,
      "princess": 1387,
      "middle": 1388,
      "bent": 1389,
      "clit": 1390,
      "dating": 1391,
      "ian": 1392,
      "ive": 1393,
      "ot": 1394,
      "uation": 1395,
      "wink": 1396,
      "inted": 1397,
      "tom": 1398,
      "reg": 1399,
      "rela": 1400,
      "arily": 1401,
      "stru": 1402,
      "ident": 1403,
      "acked": 1404,
      "noti": 1405,
      "ghter": 1406,
      "move": 1407,
      "shy": 1408,
      "shud": 1409,
      "arely": 1410,
      "mention": 1411,
      "raised": 1412,
      "posit": 1413,
      "whir": 1414,
      "year": 1415,
      "caught": 1416,
      "longer": 1417,
      "thanks": 1418,
      "shiane": 1419,
      "walking": 1420,
      "watch": 1421,
      "drink": 1422,
      "broke": 1423,
      "playing": 1424,
      "clean": 1425,
      "serious": 1426,
      "imagined": 1427,
      "nurse": 1428,
      "dropped": 1429,
      "bottom": 1430,
      "straight": 1431,
      "cros": 1432,
      "shrugged": 1433,
      "filled": 1434,
      "blood": 1435,
      "relax": 1436,
      "shudder": 1437,
      "ely": 1438,
      "eting": 1439,
      "fut": 1440,
      "gin": 1441,
      "gth": 1442,
      "iled": 1443,
      "mas": 1444,
      "ners": 1445,
      "song": 1446,
      "vie": 1447,
      "ouble": 1448,
      "reach": 1449,
      "espe": 1450,
      "argu": 1451,
      "stare": 1452,
      "sear": 1453,
      "robe": 1454,
      "high": 1455,
      "moved": 1456,
      "tering": 1457,
      "col": 1458,
      "sometimes": 1459,
      "trouble": 1460,
      "worked": 1461,
      "lavan": 1462,
      "ative": 1463,
      "point": 1464,
      "mused": 1465,
      "aming": 1466,
      "letting": 1467,
      "clothe": 1468,
      "pressed": 1469,
      "clen": 1470,
      "five": 1471,
      "maya": 1472,
      "chance": 1473,
      "changed": 1474,
      "talking": 1475,
      "strand": 1476,
      "cially": 1477,
      "dressed": 1478,
      "hello": 1479,
      "couch": 1480,
      "passion": 1481,
      "welcome": 1482,
      "cupped": 1483,
      "easy": 1484,
      "crazy": 1485,
      "usually": 1486,
      "promise": 1487,
      "born": 1488,
      "stairs": 1489,
      "future": 1490,
      "especially": 1491,
      "lavani": 1492,
      "bir": 1493,
      "cre": 1494,
      "ces": 1495,
      "cla": 1496,
      "drew": 1497,
      "hus": 1498,
      "lis": 1499,
      "pis": 1500,
      "pound": 1501,
      "ror": 1502,
      "uh": 1503,
      "inv": 1504,
      "ans": 1505,
      "these": 1506,
      "toward": 1507,
      "ates": 1508,
      "enti": 1509,
      "lly": 1510,
      "belt": 1511,
      "acing": 1512,
      "veta": 1513,
      "rodu": 1514,
      "tie": 1515,
      "ties": 1516,
      "urge": 1517,
      "hote": 1518,
      "fear": 1519,
      "oney": 1520,
      "cocked": 1521,
      "pple": 1522,
      "shveta": 1523,
      "sugg": 1524,
      "gry": 1525,
      "polo": 1526,
      "indian": 1527,
      "glass": 1528,
      "helped": 1529,
      "scho": 1530,
      "seriously": 1531,
      "miss": 1532,
      "standing": 1533,
      "introdu": 1534,
      "strong": 1535,
      "phy": 1536,
      "wonderful": 1537,
      "rubbed": 1538,
      "ankle": 1539,
      "covered": 1540,
      "honest": 1541,
      "picked": 1542,
      "sighed": 1543,
      "emotions": 1544,
      "possible": 1545,
      "taste": 1546,
      "squee": 1547,
      "appreci": 1548,
      "clothes": 1549,
      "hotel": 1550,
      "ago": 1551,
      "apart": 1552,
      "apolo": 1553,
      "barr": 1554,
      "dau": 1555,
      "ju": 1556,
      "pick": 1557,
      "row": 1558,
      "rowed": 1559,
      "tab": 1560,
      "ual": 1561,
      "vor": 1562,
      "wine": 1563,
      "thed": 1564,
      "argue": 1565,
      "sts": 1566,
      "liked": 1567,
      "lifted": 1568,
      "vered": 1569,
      "nose": 1570,
      "hood": 1571,
      "moaned": 1572,
      "cep": 1573,
      "ung": 1574,
      "embarr": 1575,
      "mia": 1576,
      "wants": 1577,
      "sign": 1578,
      "teen": 1579,
      "concer": 1580,
      "grand": 1581,
      "nipple": 1582,
      "ress": 1583,
      "perfect": 1584,
      "story": 1585,
      "ices": 1586,
      "umped": 1587,
      "umbled": 1588,
      "closer": 1589,
      "comfor": 1590,
      "blon": 1591,
      "comes": 1592,
      "tense": 1593,
      "scream": 1594,
      "gazing": 1595,
      "fight": 1596,
      "walk": 1597,
      "spect": 1598,
      "bui": 1599,
      "dining": 1600,
      "swallowed": 1601,
      "career": 1602,
      "iling": 1603,
      "leaving": 1604,
      "gripped": 1605,
      "buried": 1606,
      "running": 1607,
      "shaking": 1608,
      "stuff": 1609,
      "decided": 1610,
      "realized": 1611,
      "furrowed": 1612,
      "crying": 1613,
      "interrup": 1614,
      "clim": 1615,
      "judge": 1616,
      "husband": 1617,
      "school": 1618,
      "physi": 1619,
      "ald": 1620,
      "bite": 1621,
      "cum": 1622,
      "fas": 1623,
      "gown": 1624,
      "immed": 1625,
      "mp": 1626,
      "ming": 1627,
      "pi": 1628,
      "sou": 1629,
      "sna": 1630,
      "slight": 1631,
      "tally": 1632,
      "twin": 1633,
      "inic": 1634,
      "aning": 1635,
      "totally": 1636,
      "att": 1637,
      "meeting": 1638,
      "aring": 1639,
      "stri": 1640,
      "ored": 1641,
      "order": 1642,
      "become": 1643,
      "roll": 1644,
      "hips": 1645,
      "tip": 1646,
      "absol": 1647,
      "male": 1648,
      "foot": 1649,
      "button": 1650,
      "sigh": 1651,
      "death": 1652,
      "spend": 1653,
      "spread": 1654,
      "elb": 1655,
      "plate": 1656,
      "bob": 1657,
      "shock": 1658,
      "evening": 1659,
      "proble": 1660,
      "doors": 1661,
      "clinic": 1662,
      "telling": 1663,
      "seems": 1664,
      "bapt": 1665,
      "waited": 1666,
      "ils": 1667,
      "cial": 1668,
      "added": 1669,
      "godfather": 1670,
      "desi": 1671,
      "winked": 1672,
      "patted": 1673,
      "gasped": 1674,
      "purse": 1675,
      "enjoyed": 1676,
      "obv": 1677,
      "managed": 1678,
      "penis": 1679,
      "experience": 1680,
      "teeth": 1681,
      "empty": 1682,
      "birth": 1683,
      "absolut": 1684,
      "bre": 1685,
      "bly": 1686,
      "bene": 1687,
      "barely": 1688,
      "dry": 1689,
      "ev": 1690,
      "gar": 1691,
      "kill": 1692,
      "land": 1693,
      "len": 1694,
      "lust": 1695,
      "late": 1696,
      "pink": 1697,
      "prep": 1698,
      "raid": 1699,
      "sal": 1700,
      "sent": 1701,
      "tin": 1702,
      "wind": 1703,
      "ys": 1704,
      "antic": 1705,
      "thri": 1706,
      "rele": 1707,
      "rema": 1708,
      "remind": 1709,
      "mer": 1710,
      "enga": 1711,
      "orgas": 1712,
      "admit": 1713,
      "beat": 1714,
      "wild": 1715,
      "live": 1716,
      "makes": 1717,
      "cept": 1718,
      "unk": 1719,
      "unts": 1720,
      "core": 1721,
      "cken": 1722,
      "confu": 1723,
      "expla": 1724,
      "worried": 1725,
      "anymore": 1726,
      "afraid": 1727,
      "lity": 1728,
      "gigg": 1729,
      "rising": 1730,
      "needs": 1731,
      "process": 1732,
      "appro": 1733,
      "fix": 1734,
      "momentarily": 1735,
      "prof": 1736,
      "prac": 1737,
      "stayed": 1738,
      "share": 1739,
      "silence": 1740,
      "busy": 1741,
      "brothers": 1742,
      "flush": 1743,
      "free": 1744,
      "wedding": 1745,
      "protested": 1746,
      "supposed": 1747,
      "kids": 1748,
      "demanded": 1749,
      "thirty": 1750,
      "grimaced": 1751,
      "gentleman": 1752,
      "noticed": 1753,
      "strands": 1754,
      "blonde": 1755,
      "problem": 1756,
      "clinical": 1757,
      "baptism": 1758,
      "city": 1759,
      "either": 1760,
      "fli": 1761,
      "ia": 1762,
      "lad": 1763,
      "laid": 1764,
      "lace": 1765,
      "uct": 1766,
      "vis": 1767,
      "zger": 1768,
      "instru": 1769,
      "anx": 1770,
      "angie": 1771,
      "theart": 1772,
      "tow": 1773,
      "asking": 1774,
      "ashed": 1775,
      "ond": 1776,
      "mess": 1777,
      "esca": 1778,
      "ession": 1779,
      "stre": 1780,
      "state": 1781,
      "orted": 1782,
      "acc": 1783,
      "within": 1784,
      "fork": 1785,
      "locked": 1786,
      "loves": 1787,
      "shut": 1788,
      "usted": 1789,
      "sul": 1790,
      "wanting": 1791,
      "somewhat": 1792,
      "handed": 1793,
      "six": 1794,
      "ches": 1795,
      "starting": 1796,
      "nib": 1797,
      "favor": 1798,
      "given": 1799,
      "icked": 1800,
      "waved": 1801,
      "closet": 1802,
      "cared": 1803,
      "breathing": 1804,
      "kissing": 1805,
      "flow": 1806,
      "steering": 1807,
      "thankfully": 1808,
      "paper": 1809,
      "papa": 1810,
      "pressure": 1811,
      "situation": 1812,
      "fied": 1813,
      "fire": 1814,
      "willing": 1815,
      "bag": 1816,
      "died": 1817,
      "feelings": 1818,
      "reluct": 1819,
      "wondered": 1820,
      "rubbing": 1821,
      "children": 1822,
      "nurses": 1823,
      "choice": 1824,
      "priv": 1825,
      "wearing": 1826,
      "honor": 1827,
      "medical": 1828,
      "laughing": 1829,
      "guys": 1830,
      "interested": 1831,
      "fitzger": 1832,
      "agree": 1833,
      "sweetheart": 1834,
      "listen": 1835,
      "squeezed": 1836,
      "climbed": 1837,
      "beneath": 1838,
      "length": 1839,
      "fitzgerald": 1840,
      "bri": 1841,
      "bul": 1842,
      "cent": 1843,
      "dan": 1844,
      "dad": 1845,
      "dick": 1846,
      "during": 1847,
      "eating": 1848,
      "fab": 1849,
      "flying": 1850,
      "hated": 1851,
      "ls": 1852,
      "lar": 1853,
      "luck": 1854,
      "port": 1855,
      "tend": 1856,
      "tress": 1857,
      "vin": 1858,
      "wan": 1859,
      "war": 1860,
      "wide": 1861,
      "zi": 1862,
      "heav": 1863,
      "edge": 1864,
      "thumb": 1865,
      "tomor": 1866,
      "returned": 1867,
      "regre": 1868,
      "asleep": 1869,
      "merely": 1870,
      "ari": 1871,
      "ited": 1872,
      "enter": 1873,
      "entered": 1874,
      "beck": 1875,
      "became": 1876,
      "lead": 1877,
      "secur": 1878,
      "action": 1879,
      "weak": 1880,
      "forget": 1881,
      "loving": 1882,
      "moving": 1883,
      "terri": 1884,
      "cool": 1885,
      "somewhere": 1886,
      "handle": 1887,
      "trust": 1888,
      "area": 1889,
      "grad": 1890,
      "els": 1891,
      "ardless": 1892,
      "knowing": 1893,
      "wore": 1894,
      "nie": 1895,
      "reamed": 1896,
      "flat": 1897,
      "flesh": 1898,
      "happen": 1899,
      "ddy": 1900,
      "fuck": 1901,
      "clas": 1902,
      "type": 1903,
      "means": 1904,
      "putting": 1905,
      "buddy": 1906,
      "job": 1907,
      "deeper": 1908,
      "burst": 1909,
      "grabbing": 1910,
      "mattress": 1911,
      "motioned": 1912,
      "nursing": 1913,
      "spot": 1914,
      "kinda": 1915,
      "hallway": 1916,
      "signed": 1917,
      "personal": 1918,
      "tub": 1919,
      "usual": 1920,
      "panties": 1921,
      "walls": 1922,
      "suppose": 1923,
      "quiet": 1924,
      "regardless": 1925,
      "atively": 1926,
      "suggested": 1927,
      "appreciate": 1928,
      "daughter": 1929,
      "immedi": 1930,
      "bobbed": 1931,
      "desire": 1932,
      "absolutely": 1933,
      "tiny": 1934,
      "giggled": 1935,
      "profession": 1936,
      "tomorrow": 1937,
      "regret": 1938,
      "aunts": 1939,
      "don": 1940,
      "dam": 1941,
      "dist": 1942,
      "dav": 1943,
      "fer": 1944,
      "flicked": 1945,
      "joh": 1946,
      "jaw": 1947,
      "jumped": 1948,
      "lab": 1949,
      "loud": 1950,
      "mir": 1951,
      "narr": 1952,
      "pho": 1953,
      "san": 1954,
      "sli": 1955,
      "sun": 1956,
      "tly": 1957,
      "vi": 1958,
      "whim": 1959,
      "hea": 1960,
      "hesit": 1961,
      "tory": 1962,
      "relie": 1963,
      "ings": 1964,
      "asound": 1965,
      "arri": 1966,
      "sta": 1967,
      "ster": 1968,
      "llen": 1969,
      "ori": 1970,
      "adv": 1971,
      "bell": 1972,
      "beaming": 1973,
      "often": 1974,
      "leaning": 1975,
      "owled": 1976,
      "licking": 1977,
      "aled": 1978,
      "whether": 1979,
      "moments": 1980,
      "movie": 1981,
      "fee": 1982,
      "ustr": 1983,
      "cks": 1984,
      "suit": 1985,
      "trasound": 1986,
      "deli": 1987,
      "growing": 1988,
      "rage": 1989,
      "bother": 1990,
      "poss": 1991,
      "pointed": 1992,
      "ultrasound": 1993,
      "mumbled": 1994,
      "gling": 1995,
      "calling": 1996,
      "kisses": 1997,
      "crash": 1998,
      "special": 1999,
      "join": 2000,
      "older": 2001,
      "godmother": 2002,
      "deser": 2003,
      "desper": 2004,
      "girls": 2005,
      "corners": 2006,
      "warmed": 2007,
      "spoke": 2008,
      "snorted": 2009,
      "lowered": 2010,
      "enjoy": 2011,
      "bottle": 2012,
      "medicine": 2013,
      "examining": 2014,
      "response": 2015,
      "excuse": 2016,
      "protest": 2017,
      "knob": 2018,
      "brushed": 2019,
      "exhaled": 2020,
      "lunch": 2021,
      "driveway": 2022,
      "flew": 2023,
      "position": 2024,
      "crossed": 2025,
      "argued": 2026,
      "clenched": 2027,
      "pissed": 2028,
      "tables": 2029,
      "comfortable": 2030,
      "interrupted": 2031,
      "twins": 2032,
      "obviously": 2033,
      "thrilled": 2034,
      "engage": 2035,
      "accident": 2036,
      "heavy": 2037,
      "davis": 2038,
      "john": 2039,
      "cke": 2040,
      "eld": 2041,
      "fla": 2042,
      "har": 2043,
      "itor": 2044,
      "lay": 2045,
      "mcken": 2046,
      "pay": 2047,
      "plo": 2048,
      "pill": 2049,
      "sad": 2050,
      "sle": 2051,
      "swi": 2052,
      "tant": 2053,
      "tem": 2054,
      "tent": 2055,
      "tits": 2056,
      "wow": 2057,
      "wish": 2058,
      "zie": 2059,
      "inti": 2060,
      "ancy": 2061,
      "angry": 2062,
      "thy": 2063,
      "togr": 2064,
      "oned": 2065,
      "ones": 2066,
      "mes": 2067,
      "ises": 2068,
      "essed": 2069,
      "ition": 2070,
      "adop": 2071,
      "hip": 2072,
      "nod": 2073,
      "alpesh": 2074,
      "lost": 2075,
      "whenever": 2076,
      "ney": 2077,
      "chart": 2078,
      "mama": 2079,
      "coat": 2080,
      "cap": 2081,
      "short": 2082,
      "sucking": 2083,
      "downstairs": 2084,
      "delic": 2085,
      "spending": 2086,
      "anywhere": 2087,
      "tions": 2088,
      "ulous": 2089,
      "perfor": 2090,
      "throwing": 2091,
      "feels": 2092,
      "cloth": 2093,
      "comp": 2094,
      "blu": 2095,
      "bling": 2096,
      "mark": 2097,
      "cles": 2098,
      "drunk": 2099,
      "frustr": 2100,
      "cleared": 2101,
      "sliding": 2102,
      "grip": 2103,
      "smacked": 2104,
      "gging": 2105,
      "sky": 2106,
      "seconds": 2107,
      "following": 2108,
      "consider": 2109,
      "silk": 2110,
      "idden": 2111,
      "charlie": 2112,
      "calm": 2113,
      "realize": 2114,
      "softly": 2115,
      "balls": 2116,
      "learned": 2117,
      "embarrass": 2118,
      "concern": 2119,
      "breast": 2120,
      "remained": 2121,
      "practically": 2122,
      "instructed": 2123,
      "favorite": 2124,
      "reluctantly": 2125,
      "security": 2126,
      "immediately": 2127,
      "professional": 2128,
      "mckenzie": 2129,
      "intim": 2130,
      "aur": 2131,
      "awa": 2132,
      "bar": 2133,
      "boun": 2134,
      "base": 2135,
      "bending": 2136,
      "blic": 2137,
      "cin": 2138,
      "cand": 2139,
      "cir": 2140,
      "cult": 2141,
      "cket": 2142,
      "dess": 2143,
      "fis": 2144,
      "fid": 2145,
      "gy": 2146,
      "gen": 2147,
      "gor": 2148,
      "gle": 2149,
      "gur": 2150,
      "ggling": 2151,
      "hide": 2152,
      "honey": 2153,
      "iz": 2154,
      "jay": 2155,
      "kin": 2156,
      "ker": 2157,
      "kward": 2158,
      "kicked": 2159,
      "lin": 2160,
      "ny": 2161,
      "non": 2162,
      "nah": 2163,
      "pow": 2164,
      "pass": 2165,
      "round": 2166,
      "sla": 2167,
      "sari": 2168,
      "tour": 2169,
      "tug": 2170,
      "wis": 2171,
      "heated": 2172,
      "heels": 2173,
      "oup": 2174,
      "tone": 2175,
      "towel": 2176,
      "assed": 2177,
      "memor": 2178,
      "ese": 2179,
      "ary": 2180,
      "stir": 2181,
      "orts": 2182,
      "begin": 2183,
      "hissed": 2184,
      "wash": 2185,
      "sever": 2186,
      "acy": 2187,
      "vel": 2188,
      "roof": 2189,
      "likes": 2190,
      "lose": 2191,
      "urged": 2192,
      "whel": 2193,
      "hook": 2194,
      "neither": 2195,
      "ries": 2196,
      "uncle": 2197,
      "cook": 2198,
      "cafe": 2199,
      "pper": 2200,
      "fold": 2201,
      "fool": 2202,
      "ledge": 2203,
      "headset": 2204,
      "cheese": 2205,
      "text": 2206,
      "defe": 2207,
      "spic": 2208,
      "conne": 2209,
      "group": 2210,
      "expo": 2211,
      "pul": 2212,
      "push": 2213,
      "pushing": 2214,
      "public": 2215,
      "board": 2216,
      "rooms": 2217,
      "bypassed": 2218,
      "pera": 2219,
      "mance": 2220,
      "savan": 2221,
      "thrown": 2222,
      "umber": 2223,
      "firm": 2224,
      "scra": 2225,
      "scene": 2226,
      "nap": 2227,
      "shifted": 2228,
      "restaur": 2229,
      "planned": 2230,
      "grew": 2231,
      "green": 2232,
      "speed": 2233,
      "broken": 2234,
      "buck": 2235,
      "monitor": 2236,
      "strang": 2237,
      "uding": 2238,
      "smack": 2239,
      "patience": 2240,
      "corner": 2241,
      "warmth": 2242,
      "huff": 2243,
      "sense": 2244,
      "sleeping": 2245,
      "awkward": 2246,
      "charge": 2247,
      "whisper": 2248,
      "younger": 2249,
      "responsi": 2250,
      "horror": 2251,
      "catch": 2252,
      "apher": 2253,
      "pinched": 2254,
      "whirled": 2255,
      "reaching": 2256,
      "color": 2257,
      "pounding": 2258,
      "invol": 2259,
      "entire": 2260,
      "apologi": 2261,
      "screaming": 2262,
      "build": 2263,
      "soul": 2264,
      "snapped": 2265,
      "rolling": 2266,
      "escaped": 2267,
      "statement": 2268,
      "private": 2269,
      "tender": 2270,
      "becky": 2271,
      "photogr": 2272,
      "sanjay": 2273,
      "delicious": 2274,
      "performance": 2275,
      "culture": 2276,
      "desser": 2277,
      "several": 2278,
      "savannah": 2279,
      "restaurant": 2280,
      "photographer": 2281,
      "bla": 2282,
      "cof": 2283,
      "cous": 2284,
      "dug": 2285,
      "dated": 2286,
      "due": 2287,
      "dream": 2288,
      "ech": 2289,
      "ets": 2290,
      "ease": 2291,
      "eight": 2292,
      "fed": 2293,
      "fif": 2294,
      "hy": 2295,
      "hug": 2296,
      "hanger": 2297,
      "jac": 2298,
      "kick": 2299,
      "ler": 2300,
      "money": 2301,
      "nu": 2302,
      "none": 2303,
      "nity": 2304,
      "number": 2305,
      "oled": 2306,
      "opera": 2307,
      "por": 2308,
      "pack": 2309,
      "pled": 2310,
      "send": 2311,
      "scan": 2312,
      "sara": 2313,
      "tled": 2314,
      "vul": 2315,
      "wy": 2316,
      "heal": 2317,
      "inch": 2318,
      "inten": 2319,
      "incl": 2320,
      "respect": 2321,
      "assu": 2322,
      "seven": 2323,
      "acter": 2324,
      "rock": 2325,
      "forced": 2326,
      "alco": 2327,
      "alous": 2328,
      "outfit": 2329,
      "ured": 2330,
      "hopped": 2331,
      "hoped": 2332,
      "necess": 2333,
      "rice": 2334,
      "gather": 2335,
      "acknow": 2336,
      "sub": 2337,
      "summ": 2338,
      "heading": 2339,
      "overwhel": 2340,
      "sick": 2341,
      "chewed": 2342,
      "ently": 2343,
      "ific": 2344,
      "gets": 2345,
      "grow": 2346,
      "grate": 2347,
      "finite": 2348,
      "anyway": 2349,
      "yours": 2350,
      "plates": 2351,
      "rather": 2352,
      "inkled": 2353,
      "knows": 2354,
      "wood": 2355,
      "pop": 2356,
      "poor": 2357,
      "popped": 2358,
      "pocket": 2359,
      "pee": 2360,
      "fault": 2361,
      "reply": 2362,
      "shoes": 2363,
      "giggling": 2364,
      "save": 2365,
      "ations": 2366,
      "needle": 2367,
      "comb": 2368,
      "prote": 2369,
      "doorway": 2370,
      "babies": 2371,
      "flash": 2372,
      "scrub": 2373,
      "screamed": 2374,
      "scowled": 2375,
      "pair": 2376,
      "singing": 2377,
      "shift": 2378,
      "marry": 2379,
      "happily": 2380,
      "happiness": 2381,
      "clut": 2382,
      "cloud": 2383,
      "underwear": 2384,
      "babe": 2385,
      "dia": 2386,
      "dire": 2387,
      "dipped": 2388,
      "contact": 2389,
      "plans": 2390,
      "heartbeat": 2391,
      "breaths": 2392,
      "surprising": 2393,
      "questioning": 2394,
      "sexual": 2395,
      "playfully": 2396,
      "threat": 2397,
      "cleaned": 2398,
      "tical": 2399,
      "swept": 2400,
      "missed": 2401,
      "missive": 2402,
      "satis": 2403,
      "burn": 2404,
      "runway": 2405,
      "wondering": 2406,
      "hurried": 2407,
      "dragged": 2408,
      "wrinkled": 2409,
      "follow": 2410,
      "answered": 2411,
      "chosen": 2412,
      "countered": 2413,
      "easing": 2414,
      "character": 2415,
      "breakfast": 2416,
      "jealous": 2417,
      "stub": 2418,
      "flushed": 2419,
      "medication": 2420,
      "gently": 2421,
      "pictu": 2422,
      "hung": 2423,
      "shrug": 2424,
      "interesting": 2425,
      "knocked": 2426,
      "manager": 2427,
      "drawn": 2428,
      "agreed": 2429,
      "insane": 2430,
      "learn": 2431,
      "doubts": 2432,
      "drinks": 2433,
      "crossing": 2434,
      "massive": 2435,
      "introduce": 2436,
      "ception": 2437,
      "processing": 2438,
      "lady": 2439,
      "brief": 2440,
      "fabric": 2441,
      "donnie": 2442,
      "mirror": 2443,
      "slipped": 2444,
      "desperately": 2445,
      "engagement": 2446,
      "tantric": 2447,
      "tentatively": 2448,
      "gurney": 2449,
      "memory": 2450,
      "involved": 2451,
      "dessert": 2452,
      "coffee": 2453,
      "grateful": 2454,
      "scrubs": 2455,
      "pictures": 2456,
      "ame": 2457,
      "ban": 2458,
      "bound": 2459,
      "bum": 2460,
      "bowed": 2461,
      "cally": 2462,
      "cream": 2463,
      "cunt": 2464,
      "da": 2465,
      "den": 2466,
      "ey": 2467,
      "echo": 2468,
      "fly": 2469,
      "fus": 2470,
      "frea": 2471,
      "fist": 2472,
      "flight": 2473,
      "gs": 2474,
      "ges": 2475,
      "gul": 2476,
      "gger": 2477,
      "hidden": 2478,
      "ign": 2479,
      "loun": 2480,
      "mc": 2481,
      "mad": 2482,
      "mid": 2483,
      "mus": 2484,
      "mped": 2485,
      "noun": 2486,
      "pes": 2487,
      "pel": 2488,
      "park": 2489,
      "smo": 2490,
      "slit": 2491,
      "swell": 2492,
      "tv": 2493,
      "yo": 2494,
      "hes": 2495,
      "ination": 2496,
      "insis": 2497,
      "intense": 2498,
      "ange": 2499,
      "announ": 2500,
      "tomy": 2501,
      "reco": 2502,
      "repe": 2503,
      "reass": 2504,
      "ature": 2505,
      "mered": 2506,
      "ising": 2507,
      "ision": 2508,
      "sheep": 2509,
      "sheet": 2510,
      "sheets": 2511,
      "stem": 2512,
      "stud": 2513,
      "enly": 2514,
      "enced": 2515,
      "adjust": 2516,
      "ids": 2517,
      "iding": 2518,
      "seed": 2519,
      "ache": 2520,
      "ached": 2521,
      "accept": 2522,
      "tired": 2523,
      "noon": 2524,
      "dom": 2525,
      "force": 2526,
      "gold": 2527,
      "urch": 2528,
      "hol": 2529,
      "hole": 2530,
      "near": 2531,
      "mode": 2532,
      "abi": 2533,
      "aband": 2534,
      "abdo": 2535,
      "ably": 2536,
      "rib": 2537,
      "fection": 2538,
      "church": 2539,
      "teria": 2540,
      "antage": 2541,
      "coo": 2542,
      "cold": 2543,
      "gap": 2544,
      "shout": 2545,
      "shri": 2546,
      "shorts": 2547,
      "foc": 2548,
      "focus": 2549,
      "sudd": 2550,
      "suspic": 2551,
      "sic": 2552,
      "sim": 2553,
      "checking": 2554,
      "trac": 2555,
      "tray": 2556,
      "deta": 2557,
      "connor": 2558,
      "grown": 2559,
      "gram": 2560,
      "except": 2561,
      "worn": 2562,
      "placed": 2563,
      "rain": 2564,
      "ragged": 2565,
      "boo": 2566,
      "bolly": 2567,
      "resist": 2568,
      "ular": 2569,
      "gues": 2570,
      "stove": 2571,
      "stool": 2572,
      "ically": 2573,
      "commit": 2574,
      "prospect": 2575,
      "bless": 2576,
      "knee": 2577,
      "slide": 2578,
      "breathe": 2579,
      "hardly": 2580,
      "hardened": 2581,
      "fluttered": 2582,
      "flashed": 2583,
      "scre": 2584,
      "thoughtful": 2585,
      "naked": 2586,
      "early": 2587,
      "pressing": 2588,
      "sity": 2589,
      "tilted": 2590,
      "tilting": 2591,
      "prec": 2592,
      "loose": 2593,
      "watching": 2594,
      "die": 2595,
      "frown": 2596,
      "planning": 2597,
      "crack": 2598,
      "spec": 2599,
      "broad": 2600,
      "famili": 2601,
      "chances": 2602,
      "steady": 2603,
      "reaction": 2604,
      "settled": 2605,
      "staying": 2606,
      "burning": 2607,
      "doctors": 2608,
      "necklace": 2609,
      "finding": 2610,
      "jerking": 2611,
      "weekend": 2612,
      "easier": 2613,
      "laughter": 2614,
      "lower": 2615,
      "dropping": 2616,
      "ject": 2617,
      "enjoying": 2618,
      "parking": 2619,
      "touched": 2620,
      "decision": 2621,
      "difference": 2622,
      "fresh": 2623,
      "rings": 2624,
      "emotional": 2625,
      "hungry": 2626,
      "stroke": 2627,
      "strode": 2628,
      "pregnancy": 2629,
      "funny": 2630,
      "cases": 2631,
      "punched": 2632,
      "norm": 2633,
      "sweetie": 2634,
      "steps": 2635,
      "colle": 2636,
      "whirling": 2637,
      "shuddered": 2638,
      "view": 2639,
      "search": 2640,
      "towards": 2641,
      "honestly": 2642,
      "juices": 2643,
      "fighting": 2644,
      "built": 2645,
      "physical": 2646,
      "garage": 2647,
      "prepared": 2648,
      "released": 2649,
      "orgasms": 2650,
      "confused": 2651,
      "confusion": 2652,
      "clinicals": 2653,
      "street": 2654,
      "nibbled": 2655,
      "paperwork": 2656,
      "lucky": 2657,
      "distance": 2658,
      "narrowed": 2659,
      "whimpered": 2660,
      "arrived": 2661,
      "origin": 2662,
      "advantage": 2663,
      "frustrated": 2664,
      "cafeteria": 2665,
      "exposed": 2666,
      "napkin": 2667,
      "apologize": 2668,
      "jacket": 2669,
      "alcohol": 2670,
      "stubborn": 2671,
      "smoo": 2672,
      "swelling": 2673,
      "suddenly": 2674,
      "bollywood": 2675,
      "aked": 2676,
      "aking": 2677,
      "avo": 2678,
      "agon": 2679,
      "aunt": 2680,
      "ben": 2681,
      "bought": 2682,
      "cu": 2683,
      "cab": 2684,
      "card": 2685,
      "cting": 2686,
      "cart": 2687,
      "ctomy": 2688,
      "dab": 2689,
      "dumb": 2690,
      "fan": 2691,
      "fic": 2692,
      "fying": 2693,
      "gut": 2694,
      "gled": 2695,
      "gni": 2696,
      "han": 2697,
      "hate": 2698,
      "iv": 2699,
      "ior": 2700,
      "ial": 2701,
      "ilt": 2702,
      "ja": 2703,
      "jan": 2704,
      "lant": 2705,
      "lves": 2706,
      "mb": 2707,
      "oc": 2708,
      "ove": 2709,
      "py": 2710,
      "pour": 2711,
      "pie": 2712,
      "rum": 2713,
      "ratt": 2714,
      "sink": 2715,
      "twi": 2716,
      "tun": 2717,
      "tum": 2718,
      "ture": 2719,
      "tugged": 2720,
      "vase": 2721,
      "vious": 2722,
      "wise": 2723,
      "hen": 2724,
      "toned": 2725,
      "resigned": 2726,
      "asp": 2727,
      "asted": 2728,
      "oning": 2729,
      "ero": 2730,
      "erie": 2731,
      "issu": 2732,
      "iting": 2733,
      "item": 2734,
      "itched": 2735,
      "ities": 2736,
      "stup": 2737,
      "station": 2738,
      "ador": 2739,
      "beer": 2740,
      "belong": 2741,
      "beating": 2742,
      "leading": 2743,
      "sean": 2744,
      "secre": 2745,
      "aces": 2746,
      "wicked": 2747,
      "liz": 2748,
      "liking": 2749,
      "tile": 2750,
      "noise": 2751,
      "allow": 2752,
      "forgot": 2753,
      "goes": 2754,
      "als": 2755,
      "lock": 2756,
      "hovered": 2757,
      "neath": 2758,
      "upset": 2759,
      "moist": 2760,
      "above": 2761,
      "riage": 2762,
      "feed": 2763,
      "geor": 2764,
      "ired": 2765,
      "irish": 2766,
      "termin": 2767,
      "cei": 2768,
      "ceiling": 2769,
      "ants": 2770,
      "oken": 2771,
      "unable": 2772,
      "cocking": 2773,
      "gavin": 2774,
      "shown": 2775,
      "buttoned": 2776,
      "embr": 2777,
      "mill": 2778,
      "suv": 2779,
      "suck": 2780,
      "backstage": 2781,
      "handsome": 2782,
      "sized": 2783,
      "forehead": 2784,
      "tear": 2785,
      "trau": 2786,
      "def": 2787,
      "dead": 2788,
      "decor": 2789,
      "definite": 2790,
      "split": 2791,
      "const": 2792,
      "convin": 2793,
      "grat": 2794,
      "grumbled": 2795,
      "eling": 2796,
      "elids": 2797,
      "extre": 2798,
      "final": 2799,
      "afternoon": 2800,
      "lamb": 2801,
      "office": 2802,
      "atives": 2803,
      "lfriend": 2804,
      "poin": 2805,
      "polit": 2806,
      "resident": 2807,
      "eping": 2808,
      "bye": 2809,
      "peace": 2810,
      "peering": 2811,
      "music": 2812,
      "surely": 2813,
      "rist": 2814,
      "throw": 2815,
      "amond": 2816,
      "wave": 2817,
      "closing": 2818,
      "uggled": 2819,
      "prove": 2820,
      "proper": 2821,
      "assist": 2822,
      "blin": 2823,
      "blow": 2824,
      "blur": 2825,
      "slung": 2826,
      "reading": 2827,
      "says": 2828,
      "surmis": 2829,
      "appo": 2830,
      "marked": 2831,
      "marriage": 2832,
      "glance": 2833,
      "rested": 2834,
      "dred": 2835,
      "drum": 2836,
      "underneath": 2837,
      "digging": 2838,
      "diamond": 2839,
      "wards": 2840,
      "showing": 2841,
      "speech": 2842,
      "bull": 2843,
      "questions": 2844,
      "plays": 2845,
      "played": 2846,
      "waiter": 2847,
      "changing": 2848,
      "talked": 2849,
      "discus": 2850,
      "dismissive": 2851,
      "serv": 2852,
      "keeping": 2853,
      "opening": 2854,
      "grief": 2855,
      "cian": 2856,
      "lights": 2857,
      "girlfriend": 2858,
      "morti": 2859,
      "smir": 2860,
      "motioning": 2861,
      "coupled": 2862,
      "challen": 2863,
      "lingerie": 2864,
      "driver": 2865,
      "huge": 2866,
      "priest": 2867,
      "wrapping": 2868,
      "silent": 2869,
      "easily": 2870,
      "snif": 2871,
      "halfway": 2872,
      "patients": 2873,
      "gasp": 2874,
      "covering": 2875,
      "purple": 2876,
      "panting": 2877,
      "jewel": 2878,
      "worrying": 2879,
      "ducked": 2880,
      "paris": 2881,
      "expected": 2882,
      "furiously": 2883,
      "hitting": 2884,
      "attentive": 2885,
      "respond": 2886,
      "hundred": 2887,
      "dinged": 2888,
      "falling": 2889,
      "horiz": 2890,
      "angle": 2891,
      "excited": 2892,
      "boxers": 2893,
      "zzled": 2894,
      "finishing": 2895,
      "possibly": 2896,
      "brush": 2897,
      "demand": 2898,
      "expectantly": 2899,
      "effect": 2900,
      "punch": 2901,
      "third": 2902,
      "teasingly": 2903,
      "exhausted": 2904,
      "grimace": 2905,
      "drawing": 2906,
      "pinned": 2907,
      "collap": 2908,
      "games": 2909,
      "doubt": 2910,
      "struck": 2911,
      "movements": 2912,
      "searched": 2913,
      "entirely": 2914,
      "introduced": 2915,
      "apologe": 2916,
      "embarrassed": 2917,
      "concerned": 2918,
      "perfectly": 2919,
      "faster": 2920,
      "fascin": 2921,
      "slightly": 2922,
      "buttons": 2923,
      "elbow": 2924,
      "elbows": 2925,
      "landing": 2926,
      "salad": 2927,
      "windows": 2928,
      "orgasm": 2929,
      "explain": 2930,
      "appropri": 2931,
      "fixed": 2932,
      "vision": 2933,
      "anxiously": 2934,
      "dancing": 2935,
      "large": 2936,
      "zipper": 2937,
      "delivery": 2938,
      "deserve": 2939,
      "slept": 2940,
      "intimate": 2941,
      "defeated": 2942,
      "buckled": 2943,
      "huffed": 2944,
      "building": 2945,
      "tenderly": 2946,
      "porch": 2947,
      "growl": 2948,
      "satisfied": 2949,
      "eyelids": 2950,
      "insisted": 2951,
      "recogni": 2952,
      "sheepish": 2953,
      "ability": 2954,
      "shouted": 2955,
      "focused": 2956,
      "committed": 2957,
      "familiar": 2958,
      "originally": 2959,
      "bench": 2960,
      "vasectomy": 2961,
      "stupid": 2962,
      "trauma": 2963,
      "definitely": 2964,
      "extreme": 2965,
      "speechless": 2966,
      "dismissively": 2967,
      "horizon": 2968,
      "recognized": 2969,
      "17": 2970,
      "ather": 2971,
      "amu": 2972,
      "bas": 2973,
      "cate": 2974,
      "cross": 2975,
      "center": 2976,
      "cries": 2977,
      "ds": 2978,
      "dare": 2979,
      "drea": 2980,
      "dged": 2981,
      "dared": 2982,
      "dates": 2983,
      "eti": 2984,
      "fro": 2985,
      "fal": 2986,
      "fri": 2987,
      "fled": 2988,
      "fting": 2989,
      "fade": 2990,
      "faded": 2991,
      "glit": 2992,
      "hugged": 2993,
      "ig": 2994,
      "ip": 2995,
      "ith": 2996,
      "mace": 2997,
      "mul": 2998,
      "mous": 2999,
      "nine": 3000,
      "oo": 3001,
      "opp": 3002,
      "pal": 3003,
      "pup": 3004,
      "pace": 3005,
      "pity": 3006,
      "pier": 3007,
      "rat": 3008,
      "rid": 3009,
      "ride": 3010,
      "rarely": 3011,
      "racing": 3012,
      "sme": 3013,
      "ske": 3014,
      "slo": 3015,
      "shad": 3016,
      "sir": 3017,
      "swo": 3018,
      "sought": 3019,
      "tes": 3020,
      "tch": 3021,
      "test": 3022,
      "twel": 3023,
      "twink": 3024,
      "ught": 3025,
      "une": 3026,
      "ude": 3027,
      "vy": 3028,
      "wing": 3029,
      "wled": 3030,
      "xi": 3031,
      "yer": 3032,
      "zen": 3033,
      "height": 3034,
      "inst": 3035,
      "inno": 3036,
      "inform": 3037,
      "inches": 3038,
      "anked": 3039,
      "anking": 3040,
      "antically": 3041,
      "ths": 3042,
      "tore": 3043,
      "toes": 3044,
      "removed": 3045,
      "resul": 3046,
      "reception": 3047,
      "remarked": 3048,
      "aside": 3049,
      "asper": 3050,
      "attering": 3051,
      "atlant": 3052,
      "hero": 3053,
      "ished": 3054,
      "arched": 3055,
      "sty": 3056,
      "sting": 3057,
      "stall": 3058,
      "stal": 3059,
      "stam": 3060,
      "stren": 3061,
      "adren": 3062,
      "bey": 3063,
      "beast": 3064,
      "below": 3065,
      "lebr": 3066,
      "level": 3067,
      "iden": 3068,
      "washed": 3069,
      "sement": 3070,
      "seated": 3071,
      "access": 3072,
      "accep": 3073,
      "rocke": 3074,
      "wiped": 3075,
      "lier": 3076,
      "liqu": 3077,
      "lifting": 3078,
      "tied": 3079,
      "sore": 3080,
      "sober": 3081,
      "forgotten": 3082,
      "aline": 3083,
      "key": 3084,
      "keys": 3085,
      "load": 3086,
      "lots": 3087,
      "loaded": 3088,
      "urday": 3089,
      "upstairs": 3090,
      "mood": 3091,
      "geon": 3092,
      "geous": 3093,
      "mare": 3094,
      "celebr": 3095,
      "uni": 3096,
      "unless": 3097,
      "unbuttoned": 3098,
      "shows": 3099,
      "shared": 3100,
      "foyer": 3101,
      "sult": 3102,
      "suite": 3103,
      "oded": 3104,
      "sip": 3105,
      "likely": 3106,
      "ents": 3107,
      "tex": 3108,
      "team": 3109,
      "tease": 3110,
      "tran": 3111,
      "deposit": 3112,
      "spr": 3113,
      "spin": 3114,
      "sped": 3115,
      "spine": 3116,
      "spark": 3117,
      "romantic": 3118,
      "contain": 3119,
      "condom": 3120,
      "exchanged": 3121,
      "explo": 3122,
      "exasper": 3123,
      "worst": 3124,
      "fined": 3125,
      "places": 3126,
      "starving": 3127,
      "qua": 3128,
      "quis": 3129,
      "quir": 3130,
      "offer": 3131,
      "lities": 3132,
      "brow": 3133,
      "pose": 3134,
      "pool": 3135,
      "pooled": 3136,
      "rying": 3137,
      "peered": 3138,
      "faith": 3139,
      "perform": 3140,
      "percy": 3141,
      "guilt": 3142,
      "pleased": 3143,
      "pleaded": 3144,
      "thinks": 3145,
      "shoved": 3146,
      "giant": 3147,
      "glare": 3148,
      "glared": 3149,
      "ational": 3150,
      "wake": 3151,
      "compassion": 3152,
      "blind": 3153,
      "blessed": 3154,
      "kneaded": 3155,
      "tening": 3156,
      "tensed": 3157,
      "nights": 3158,
      "nightmare": 3159,
      "cars": 3160,
      "doorbell": 3161,
      "wellstar": 3162,
      "aching": 3163,
      "flowed": 3164,
      "screw": 3165,
      "thoughtfully": 3166,
      "nause": 3167,
      "nails": 3168,
      "thankful": 3169,
      "ctly": 3170,
      "single": 3171,
      "surve": 3172,
      "surger": 3173,
      "surround": 3174,
      "earrings": 3175,
      "earlier": 3176,
      "shield": 3177,
      "apparen": 3178,
      "marble": 3179,
      "rush": 3180,
      "rushed": 3181,
      "rushing": 3182,
      "calls": 3183,
      "nerves": 3184,
      "sitive": 3185,
      "sort": 3186,
      "field": 3187,
      "frid": 3188,
      "frantically": 3189,
      "cred": 3190,
      "crad": 3191,
      "crusted": 3192,
      "joined": 3193,
      "ticing": 3194,
      "disappeared": 3195,
      "disappo": 3196,
      "sweat": 3197,
      "deeply": 3198,
      "ctions": 3199,
      "stradd": 3200,
      "strange": 3201,
      "magn": 3202,
      "saturday": 3203,
      "seats": 3204,
      "dressing": 3205,
      "setting": 3206,
      "cessna": 3207,
      "flooded": 3208,
      "smart": 3209,
      "mater": 3210,
      "hearing": 3211,
      "appearance": 3212,
      "relatives": 3213,
      "hurts": 3214,
      "sides": 3215,
      "drag": 3216,
      "widening": 3217,
      "condition": 3218,
      "childhood": 3219,
      "winced": 3220,
      "imp": 3221,
      "impres": 3222,
      "impression": 3223,
      "import": 3224,
      "considered": 3225,
      "news": 3226,
      "spoil": 3227,
      "curled": 3228,
      "curiously": 3229,
      "rang": 3230,
      "super": 3231,
      "support": 3232,
      "snat": 3233,
      "snuggled": 3234,
      "sensitive": 3235,
      "aware": 3236,
      "drop": 3237,
      "charts": 3238,
      "jeans": 3239,
      "studi": 3240,
      "boyfriend": 3241,
      "crotch": 3242,
      "further": 3243,
      "knuck": 3244,
      "squir": 3245,
      "ringe": 3246,
      "intern": 3247,
      "controll": 3248,
      "double": 3249,
      "stroked": 3250,
      "stroking": 3251,
      "promised": 3252,
      "reasons": 3253,
      "horri": 3254,
      "throt": 3255,
      "nervously": 3256,
      "treat": 3257,
      "trembled": 3258,
      "trail": 3259,
      "boxes": 3260,
      "zza": 3261,
      "casual": 3262,
      "crowded": 3263,
      "punish": 3264,
      "elevators": 3265,
      "syringe": 3266,
      "thrusts": 3267,
      "regis": 3268,
      "mentioned": 3269,
      "relaxed": 3270,
      "shuddering": 3271,
      "argument": 3272,
      "searching": 3273,
      "colored": 3274,
      "apartment": 3275,
      "picking": 3276,
      "grandfather": 3277,
      "physician": 3278,
      "pizza": 3279,
      "ordered": 3280,
      "release": 3281,
      "reminded": 3282,
      "tower": 3283,
      "stret": 3284,
      "flower": 3285,
      "listening": 3286,
      "bulged": 3287,
      "warned": 3288,
      "grady": 3289,
      "heaved": 3290,
      "hesitation": 3291,
      "relief": 3292,
      "relieved": 3293,
      "possessed": 3294,
      "crashing": 3295,
      "harsh": 3296,
      "ulously": 3297,
      "fists": 3298,
      "gorgeous": 3299,
      "power": 3300,
      "tugging": 3301,
      "stirred": 3302,
      "firmly": 3303,
      "monitors": 3304,
      "responsibi": 3305,
      "fifteen": 3306,
      "necessary": 3307,
      "acknowledge": 3308,
      "overwhelmed": 3309,
      "clutched": 3310,
      "diaper": 3311,
      "ameri": 3312,
      "yoke": 3313,
      "repeat": 3314,
      "reassuring": 3315,
      "models": 3316,
      "suspiciously": 3317,
      "simple": 3318,
      "grammy": 3319,
      "dabbed": 3320,
      "moisture": 3321,
      "georgie": 3322,
      "surmised": 3323,
      "mortifying": 3324,
      "collapsed": 3325,
      "appropriate": 3326,
      "172": 3327,
      "amusement": 3328,
      "multi": 3329,
      "skep": 3330,
      "swollen": 3331,
      "twelve": 3332,
      "innocent": 3333,
      "results": 3334,
      "atlanta": 3335,
      "strength": 3336,
      "adrenaline": 3337,
      "deposited": 3338,
      "exasperated": 3339,
      "surgery": 3340,
      "apparently": 3341,
      "ais": 3342,
      "ager": 3343,
      "alive": 3344,
      "bs": 3345,
      "bun": 3346,
      "bom": 3347,
      "bby": 3348,
      "bast": 3349,
      "bill": 3350,
      "bright": 3351,
      "bice": 3352,
      "bbled": 3353,
      "backed": 3354,
      "cled": 3355,
      "cass": 3356,
      "dar": 3357,
      "dir": 3358,
      "dried": 3359,
      "dren": 3360,
      "dying": 3361,
      "een": 3362,
      "eter": 3363,
      "egg": 3364,
      "fy": 3365,
      "fra": 3366,
      "fren": 3367,
      "faced": 3368,
      "facing": 3369,
      "gher": 3370,
      "gust": 3371,
      "gif": 3372,
      "gard": 3373,
      "gment": 3374,
      "hum": 3375,
      "hint": 3376,
      "iet": 3377,
      "jet": 3378,
      "knot": 3379,
      "lu": 3380,
      "lan": 3381,
      "lou": 3382,
      "lack": 3383,
      "landed": 3384,
      "mach": 3385,
      "nat": 3386,
      "olo": 3387,
      "oked": 3388,
      "obed": 3389,
      "ooh": 3390,
      "osit": 3391,
      "pac": 3392,
      "paid": 3393,
      "pted": 3394,
      "rad": 3395,
      "rout": 3396,
      "rled": 3397,
      "raced": 3398,
      "rational": 3399,
      "slip": 3400,
      "sending": 3401,
      "tton": 3402,
      "tles": 3403,
      "uce": 3404,
      "uction": 3405,
      "val": 3406,
      "wound": 3407,
      "wrist": 3408,
      "xed": 3409,
      "xpe": 3410,
      "xic": 3411,
      "yard": 3412,
      "yep": 3413,
      "zzy": 3414,
      "inched": 3415,
      "inward": 3416,
      "influ": 3417,
      "incre": 3418,
      "insul": 3419,
      "incred": 3420,
      "inappropriate": 3421,
      "anti": 3422,
      "thong": 3423,
      "thick": 3424,
      "toy": 3425,
      "tops": 3426,
      "todd": 3427,
      "total": 3428,
      "ref": 3429,
      "rever": 3430,
      "refu": 3431,
      "return": 3432,
      "resol": 3433,
      "refined": 3434,
      "astered": 3435,
      "atc": 3436,
      "attered": 3437,
      "attri": 3438,
      "attrac": 3439,
      "ons": 3440,
      "erup": 3441,
      "istening": 3442,
      "escor": 3443,
      "aration": 3444,
      "arran": 3445,
      "arjan": 3446,
      "ita": 3447,
      "itted": 3448,
      "itude": 3449,
      "stat": 3450,
      "staf": 3451,
      "strea": 3452,
      "stung": 3453,
      "ense": 3454,
      "ensure": 3455,
      "enger": 3456,
      "encing": 3457,
      "encrusted": 3458,
      "orting": 3459,
      "admi": 3460,
      "adult": 3461,
      "adored": 3462,
      "becoming": 3463,
      "begged": 3464,
      "beading": 3465,
      "belly": 3466,
      "lem": 3467,
      "owe": 3468,
      "history": 3469,
      "selves": 3470,
      "acting": 3471,
      "acqua": 3472,
      "vement": 3473,
      "rot": 3474,
      "rode": 3475,
      "hired": 3476,
      "higher": 3477,
      "lives": 3478,
      "weir": 3479,
      "tily": 3480,
      "tial": 3481,
      "tility": 3482,
      "vering": 3483,
      "ham": 3484,
      "noises": 3485,
      "noticing": 3486,
      "soo": 3487,
      "allowing": 3488,
      "alluring": 3489,
      "alluding": 3490,
      "fortun": 3491,
      "alt": 3492,
      "aling": 3493,
      "local": 3494,
      "urging": 3495,
      "ghters": 3496,
      "utation": 3497,
      "hooked": 3498,
      "upcoming": 3499,
      "moon": 3500,
      "ripp": 3501,
      "chas": 3502,
      "charm": 3503,
      "irt": 3504,
      "ters": 3505,
      "main": 3506,
      "unted": 3507,
      "cozy": 3508,
      "cotton": 3509,
      "cage": 3510,
      "gaped": 3511,
      "shh": 3512,
      "ckered": 3513,
      "empl": 3514,
      "mild": 3515,
      "mixt": 3516,
      "suc": 3517,
      "suff": 3518,
      "backseat": 3519,
      "handing": 3520,
      "sily": 3521,
      "cheating": 3522,
      "chemis": 3523,
      "chewing": 3524,
      "tapped": 3525,
      "takes": 3526,
      "tequi": 3527,
      "track": 3528,
      "trans": 3529,
      "traction": 3530,
      "dear": 3531,
      "devo": 3532,
      "space": 3533,
      "spoken": 3534,
      "spanking": 3535,
      "conven": 3536,
      "confid": 3537,
      "concei": 3538,
      "grind": 3539,
      "grunt": 3540,
      "worth": 3541,
      "worse": 3542,
      "anytime": 3543,
      "affection": 3544,
      "plat": 3545,
      "plastered": 3546,
      "raise": 3547,
      "raging": 3548,
      "stars": 3549,
      "lawy": 3550,
      "smiling": 3551,
      "offic": 3552,
      "offered": 3553,
      "atic": 3554,
      "tingle": 3555,
      "bore": 3556,
      "book": 3557,
      "peek": 3558,
      "guar": 3559,
      "guided": 3560,
      "pleading": 3561,
      "manage": 3562,
      "tured": 3563,
      "reputation": 3564,
      "shocked": 3565,
      "shopping": 3566,
      "gical": 3567,
      "stor": 3568,
      "stole": 3569,
      "sage": 3570,
      "amed": 3571,
      "waking": 3572,
      "comm": 3573,
      "common": 3574,
      "propped": 3575,
      "produ": 3576,
      "mouthed": 3577,
      "haired": 3578,
      "mouths": 3579,
      "fling": 3580,
      "flung": 3581,
      "scen": 3582,
      "scri": 3583,
      "scent": 3584,
      "scrat": 3585,
      "nail": 3586,
      "pained": 3587,
      "paused": 3588,
      "pavement": 3589,
      "earth": 3590,
      "shiver": 3591,
      "shivered": 3592,
      "happening": 3593,
      "ruin": 3594,
      "rude": 3595,
      "gavel": 3596,
      "bodice": 3597,
      "itement": 3598,
      "diving": 3599,
      "dipping": 3600,
      "frank": 3601,
      "contempl": 3602,
      "minion": 3603,
      "greed": 3604,
      "cranked": 3605,
      "speaking": 3606,
      "buy": 3607,
      "sexy": 3608,
      "sexually": 3609,
      "monday": 3610,
      "disgust": 3611,
      "swear": 3612,
      "served": 3613,
      "league": 3614,
      "founded": 3615,
      "mistake": 3616,
      "chicken": 3617,
      "intently": 3618,
      "lighten": 3619,
      "adding": 3620,
      "oldest": 3621,
      "biting": 3622,
      "bitch": 3623,
      "desired": 3624,
      "sounded": 3625,
      "runaway": 3626,
      "hurting": 3627,
      "hurry": 3628,
      "shame": 3629,
      "shake": 3630,
      "shaft": 3631,
      "drape": 3632,
      "placement": 3633,
      "corn": 3634,
      "corrup": 3635,
      "jerk": 3636,
      "newest": 3637,
      "spoiling": 3638,
      "athle": 3639,
      "wrap": 3640,
      "silver": 3641,
      "silenced": 3642,
      "count": 3643,
      "darkness": 3644,
      "snort": 3645,
      "sensation": 3646,
      "awfully": 3647,
      "idding": 3648,
      "dressy": 3649,
      "elect": 3650,
      "pursed": 3651,
      "panted": 3652,
      "waistband": 3653,
      "studied": 3654,
      "bottles": 3655,
      "craz": 3656,
      "tightened": 3657,
      "tightening": 3658,
      "gladly": 3659,
      "straw": 3660,
      "decide": 3661,
      "painful": 3662,
      "groan": 3663,
      "picture": 3664,
      "tucked": 3665,
      "continue": 3666,
      "emotionally": 3667,
      "strokes": 3668,
      "hopefully": 3669,
      "function": 3670,
      "panic": 3671,
      "panicked": 3672,
      "excitement": 3673,
      "pleasantly": 3674,
      "cute": 3675,
      "eaten": 3676,
      "trem": 3677,
      "remembered": 3678,
      "train": 3679,
      "boxer": 3680,
      "period": 3681,
      "zzle": 3682,
      "brushing": 3683,
      "youngest": 3684,
      "conversations": 3685,
      "experiencing": 3686,
      "drawer": 3687,
      "squealed": 3688,
      "judgment": 3689,
      "lunged": 3690,
      "lungs": 3691,
      "apprehen": 3692,
      "syn": 3693,
      "safety": 3694,
      "thrusting": 3695,
      "clearing": 3696,
      "doubted": 3697,
      "songs": 3698,
      "clenching": 3699,
      "sugges": 3700,
      "daughters": 3701,
      "juice": 3702,
      "teenager": 3703,
      "stuffed": 3704,
      "physically": 3705,
      "strip": 3706,
      "stripped": 3707,
      "strictly": 3708,
      "football": 3709,
      "obvious": 3710,
      "bree": 3711,
      "event": 3712,
      "prepare": 3713,
      "anticip": 3714,
      "wildly": 3715,
      "explained": 3716,
      "explaining": 3717,
      "flipped": 3718,
      "anxiet": 3719,
      "town": 3720,
      "forkful": 3721,
      "sultry": 3722,
      "nibbling": 3723,
      "honorable": 3724,
      "zipped": 3725,
      "terrible": 3726,
      "clasp": 3727,
      "clasped": 3728,
      "dammit": 3729,
      "fertility": 3730,
      "labor": 3731,
      "whimper": 3732,
      "stagger": 3733,
      "possess": 3734,
      "accidentally": 3735,
      "sadly": 3736,
      "temper": 3737,
      "adopt": 3738,
      "capac": 3739,
      "company": 3740,
      "blushed": 3741,
      "considerably": 3742,
      "embarrassing": 3743,
      "embarrassment": 3744,
      "awake": 3745,
      "candid": 3746,
      "circles": 3747,
      "lines": 3748,
      "linked": 3749,
      "beginning": 3750,
      "connection": 3751,
      "pulse": 3752,
      "scrap": 3753,
      "strangled": 3754,
      "responsible": 3755,
      "blame": 3756,
      "cousins": 3757,
      "health": 3758,
      "intentions": 3759,
      "intensity": 3760,
      "including": 3761,
      "gathering": 3762,
      "subject": 3763,
      "summation": 3764,
      "ificent": 3765,
      "combination": 3766,
      "clouds": 3767,
      "direction": 3768,
      "surprisingly": 3769,
      "threatened": 3770,
      "deny": 3771,
      "freak": 3772,
      "pelvis": 3773,
      "announced": 3774,
      "student": 3775,
      "abandoned": 3776,
      "abdomen": 3777,
      "ribcage": 3778,
      "cooed": 3779,
      "details": 3780,
      "college": 3781,
      "smooth": 3782,
      "dumbfounded": 3783,
      "hanging": 3784,
      "poured": 3785,
      "piece": 3786,
      "rumor": 3787,
      "erole": 3788,
      "issues": 3789,
      "embrace": 3790,
      "million": 3791,
      "constantly": 3792,
      "pointing": 3793,
      "politely": 3794,
      "residents": 3795,
      "blinked": 3796,
      "blurted": 3797,
      "bullshit": 3798,
      "smirk": 3799,
      "apologetic": 3800,
      "basically": 3801,
      "dreamy": 3802,
      "glittering": 3803,
      "opposit": 3804,
      "smell": 3805,
      "tests": 3806,
      "twinkle": 3807,
      "unexpe": 3808,
      "information": 3809,
      "style": 3810,
      "stammered": 3811,
      "beyond": 3812,
      "identical": 3813,
      "accepted": 3814,
      "rocketed": 3815,
      "liquid": 3816,
      "univer": 3817,
      "sweaty": 3818,
      "magnificent": 3819,
      "important": 3820,
      "knuckles": 3821,
      "horrified": 3822,
      "throttle": 3823,
      "multiple": 3824,
      "skeptical": 3825,
      "aisle": 3826,
      "bastard": 3827,
      "biceps": 3828,
      "casserole": 3829,
      "dirty": 3830,
      "drenched": 3831,
      "eternity": 3832,
      "garden": 3833,
      "louder": 3834,
      "machine": 3835,
      "obedi": 3836,
      "pacif": 3837,
      "radi": 3838,
      "routine": 3839,
      "inwardly": 3840,
      "influence": 3841,
      "resolve": 3842,
      "attribut": 3843,
      "erupted": 3844,
      "staff": 3845,
      "acquainted": 3846,
      "weird": 3847,
      "rippled": 3848,
      "mixture": 3849,
      "chemistry": 3850,
      "tequila": 3851,
      "confidence": 3852,
      "lawyers": 3853,
      "frankly": 3854,
      "corrupting": 3855,
      "anxiety": 3856,
      "opposite": 3857,
      "unexpected": 3858,
      "ag": 3859,
      "aj": 3860,
      "aut": 3861,
      "aps": 3862,
      "amused": 3863,
      "awards": 3864,
      "bid": 3865,
      "bal": 3866,
      "bust": 3867,
      "bers": 3868,
      "bank": 3869,
      "brick": 3870,
      "bang": 3871,
      "cwe": 3872,
      "cri": 3873,
      "cul": 3874,
      "cts": 3875,
      "cure": 3876,
      "ctive": 3877,
      "ctile": 3878,
      "dust": 3879,
      "dum": 3880,
      "dest": 3881,
      "danger": 3882,
      "dys": 3883,
      "eve": 3884,
      "eked": 3885,
      "eved": 3886,
      "evous": 3887,
      "emer": 3888,
      "fat": 3889,
      "fits": 3890,
      "flip": 3891,
      "fumbled": 3892,
      "fancy": 3893,
      "gun": 3894,
      "gla": 3895,
      "gene": 3896,
      "ggie": 3897,
      "hust": 3898,
      "hous": 3899,
      "hang": 3900,
      "ially": 3901,
      "imed": 3902,
      "ize": 3903,
      "kened": 3904,
      "knight": 3905,
      "lted": 3906,
      "list": 3907,
      "lined": 3908,
      "lasted": 3909,
      "mma": 3910,
      "mask": 3911,
      "nt": 3912,
      "nud": 3913,
      "ome": 3914,
      "oting": 3915,
      "ply": 3916,
      "pout": 3917,
      "pite": 3918,
      "padd": 3919,
      "ras": 3920,
      "rough": 3921,
      "rul": 3922,
      "ridden": 3923,
      "rhy": 3924,
      "sac": 3925,
      "sno": 3926,
      "sly": 3927,
      "sca": 3928,
      "ssed": 3929,
      "scar": 3930,
      "sang": 3931,
      "scoo": 3932,
      "tan": 3933,
      "tall": 3934,
      "tough": 3935,
      "troom": 3936,
      "tank": 3937,
      "trick": 3938,
      "tumbled": 3939,
      "uro": 3940,
      "usi": 3941,
      "ures": 3942,
      "uine": 3943,
      "usive": 3944,
      "vit": 3945,
      "wad": 3946,
      "wri": 3947,
      "wrea": 3948,
      "xing": 3949,
      "zation": 3950,
      "hem": 3951,
      "heating": 3952,
      "init": 3953,
      "inha": 3954,
      "inde": 3955,
      "inven": 3956,
      "inum": 3957,
      "inion": 3958,
      "infla": 3959,
      "inquis": 3960,
      "thous": 3961,
      "thouse": 3962,
      "thori": 3963,
      "thusi": 3964,
      "toric": 3965,
      "toys": 3966,
      "rell": 3967,
      "reques": 3968,
      "recor": 3969,
      "refre": 3970,
      "retre": 3971,
      "refle": 3972,
      "retri": 3973,
      "recovered": 3974,
      "recent": 3975,
      "reeling": 3976,
      "asm": 3977,
      "aspe": 3978,
      "assa": 3979,
      "asive": 3980,
      "mest": 3981,
      "eral": 3982,
      "erally": 3983,
      "iss": 3984,
      "isted": 3985,
      "shell": 3986,
      "arse": 3987,
      "arled": 3988,
      "itch": 3989,
      "itten": 3990,
      "itching": 3991,
      "stick": 3992,
      "stumbled": 3993,
      "enve": 3994,
      "ented": 3995,
      "encounter": 3996,
      "entering": 3997,
      "enthusi": 3998,
      "ado": 3999,
      "ades": 4000,
      "adam": 4001,
      "bear": 4002,
      "beha": 4003,
      "beaut": 4004,
      "leis": 4005,
      "leen": 4006,
      "lets": 4007,
      "lease": 4008,
      "owsily": 4009,
      "hiss": 4010,
      "historic": 4011,
      "waste": 4012,
      "acts": 4013,
      "acious": 4014,
      "veget": 4015,
      "roar": 4016,
      "road": 4017,
      "robes": 4018,
      "rocking": 4019,
      "roses": 4020,
      "hic": 4021,
      "hion": 4022,
      "hicke": 4023,
      "wiping": 4024,
      "lia": 4025,
      "liam": 4026,
      "lived": 4027,
      "lift": 4028,
      "lize": 4029,
      "limp": 4030,
      "weight": 4031,
      "weeping": 4032,
      "tice": 4033,
      "ayed": 4034,
      "haps": 4035,
      "nope": 4036,
      "sole": 4037,
      "dopted": 4038,
      "forgive": 4039,
      "alp": 4040,
      "alter": 4041,
      "kets": 4042,
      "lover": 4043,
      "loom": 4044,
      "losing": 4045,
      "loss": 4046,
      "lodged": 4047,
      "lobby": 4048,
      "outright": 4049,
      "ural": 4050,
      "ute": 4051,
      "utter": 4052,
      "hoarse": 4053,
      "neg": 4054,
      "nel": 4055,
      "upon": 4056,
      "upper": 4057,
      "moan": 4058,
      "mosa": 4059,
      "moves": 4060,
      "moans": 4061,
      "abs": 4062,
      "ables": 4063,
      "rific": 4064,
      "fears": 4065,
      "fected": 4066,
      "gems": 4067,
      "terior": 4068,
      "max": 4069,
      "mage": 4070,
      "ceed": 4071,
      "ceive": 4072,
      "oking": 4073,
      "unlike": 4074,
      "unsure": 4075,
      "undone": 4076,
      "unken": 4077,
      "unzipped": 4078,
      "coy": 4079,
      "code": 4080,
      "cohere": 4081,
      "thern": 4082,
      "gau": 4083,
      "gage": 4084,
      "shine": 4085,
      "shining": 4086,
      "sharing": 4087,
      "shattered": 4088,
      "foam": 4089,
      "sue": 4090,
      "sual": 4091,
      "ledged": 4092,
      "backing": 4093,
      "overnight": 4094,
      "handled": 4095,
      "simp": 4096,
      "intoxic": 4097,
      "checked": 4098,
      "cheated": 4099,
      "tail": 4100,
      "taught": 4101,
      "taxi": 4102,
      "forever": 4103,
      "teach": 4104,
      "tearing": 4105,
      "deb": 4106,
      "decl": 4107,
      "depri": 4108,
      "determin": 4109,
      "spl": 4110,
      "spur": 4111,
      "seduction": 4112,
      "romance": 4113,
      "convul": 4114,
      "consumm": 4115,
      "conception": 4116,
      "congrat": 4117,
      "gra": 4118,
      "grunts": 4119,
      "growled": 4120,
      "gritted": 4121,
      "exit": 4122,
      "extra": 4123,
      "anybody": 4124,
      "affair": 4125,
      "menu": 4126,
      "mented": 4127,
      "placing": 4128,
      "raked": 4129,
      "raged": 4130,
      "raising": 4131,
      "pumped": 4132,
      "puzzled": 4133,
      "law": 4134,
      "labe": 4135,
      "que": 4136,
      "quit": 4137,
      "quet": 4138,
      "knowledge": 4139,
      "offend": 4140,
      "offering": 4141,
      "uses": 4142,
      "however": 4143,
      "braced": 4144,
      "gained": 4145,
      "pot": 4146,
      "poten": 4147,
      "posing": 4148,
      "popping": 4149,
      "poster": 4150,
      "ressed": 4151,
      "epi": 4152,
      "ults": 4153,
      "themselves": 4154,
      "bypass": 4155,
      "pet": 4156,
      "tsked": 4157,
      "failed": 4158,
      "famous": 4159,
      "perfection": 4160,
      "perhaps": 4161,
      "guage": 4162,
      "armor": 4163,
      "manners": 4164,
      "selfish": 4165,
      "repres": 4166,
      "goodnight": 4167,
      "shooting": 4168,
      "gives": 4169,
      "stocking": 4170,
      "stopping": 4171,
      "storage": 4172,
      "sake": 4173,
      "samosa": 4174,
      "glistening": 4175,
      "icit": 4176,
      "illa": 4177,
      "illicit": 4178,
      "whoa": 4179,
      "waving": 4180,
      "camera": 4181,
      "cameras": 4182,
      "ump": 4183,
      "clock": 4184,
      "compla": 4185,
      "propos": 4186,
      "proceed": 4187,
      "assured": 4188,
      "bles": 4189,
      "bliss": 4190,
      "lovely": 4191,
      "everybody": 4192,
      "carl": 4193,
      "carrying": 4194,
      "longest": 4195,
      "estab": 4196,
      "helping": 4197,
      "throughout": 4198,
      "opinion": 4199,
      "makeup": 4200,
      "page": 4201,
      "paul": 4202,
      "pager": 4203,
      "singer": 4204,
      "surgeon": 4205,
      "ears": 4206,
      "appeti": 4207,
      "margar": 4208,
      "present": 4209,
      "nerve": 4210,
      "sitter": 4211,
      "clad": 4212,
      "class": 4213,
      "torn": 4214,
      "tells": 4215,
      "precep": 4216,
      "previous": 4217,
      "preconcei": 4218,
      "meaning": 4219,
      "blew": 4220,
      "bleed": 4221,
      "tongues": 4222,
      "drank": 4223,
      "drowsily": 4224,
      "drunken": 4225,
      "auburn": 4226,
      "authori": 4227,
      "berries": 4228,
      "dizzy": 4229,
      "frantic": 4230,
      "controlled": 4231,
      "contempt": 4232,
      "minal": 4233,
      "crum": 4234,
      "bub": 4235,
      "buz": 4236,
      "buzz": 4237,
      "proud": 4238,
      "womb": 4239,
      "nodding": 4240,
      "player": 4241,
      "partying": 4242,
      "partners": 4243,
      "switched": 4244,
      "swallowing": 4245,
      "mones": 4246,
      "voices": 4247,
      "tickets": 4248,
      "disappear": 4249,
      "disappro": 4250,
      "dishes": 4251,
      "displays": 4252,
      "careful": 4253,
      "leaking": 4254,
      "mission": 4255,
      "mischi": 4256,
      "courtroom": 4257,
      "grilled": 4258,
      "gripping": 4259,
      "lesson": 4260,
      "phant": 4261,
      "images": 4262,
      "imagining": 4263,
      "gns": 4264,
      "devour": 4265,
      "morris": 4266,
      "godparents": 4267,
      "desk": 4268,
      "descent": 4269,
      "despite": 4270,
      "slowing": 4271,
      "draped": 4272,
      "drained": 4273,
      "airbag": 4274,
      "belief": 4275,
      "corre": 4276,
      "written": 4277,
      "skimmed": 4278,
      "skirt": 4279,
      "impossible": 4280,
      "driving": 4281,
      "driven": 4282,
      "farther": 4283,
      "answering": 4284,
      "curved": 4285,
      "curls": 4286,
      "cups": 4287,
      "cupping": 4288,
      "chairs": 4289,
      "mrs": 4290,
      "prick": 4291,
      "priap": 4292,
      "wrath": 4293,
      "chuckle": 4294,
      "taining": 4295,
      "sensual": 4296,
      "ankles": 4297,
      "hospitals": 4298,
      "eleven": 4299,
      "element": 4300,
      "crawled": 4301,
      "latest": 4302,
      "members": 4303,
      "tighter": 4304,
      "tighten": 4305,
      "touches": 4306,
      "straps": 4307,
      "decent": 4308,
      "expecting": 4309,
      "realizing": 4310,
      "realization": 4311,
      "softened": 4312,
      "softness": 4313,
      "croaked": 4314,
      "groans": 4315,
      "personally": 4316,
      "erectile": 4317,
      "tux": 4318,
      "interro": 4319,
      "examine": 4320,
      "responding": 4321,
      "doug": 4322,
      "pansy": 4323,
      "lapels": 4324,
      "hormones": 4325,
      "formal": 4326,
      "formally": 4327,
      "wallet": 4328,
      "trailed": 4329,
      "stomp": 4330,
      "names": 4331,
      "sisters": 4332,
      "controls": 4333,
      "ballroom": 4334,
      "knocking": 4335,
      "reality": 4336,
      "businessman": 4337,
      "casion": 4338,
      "climax": 4339,
      "hottest": 4340,
      "understandable": 4341,
      "custo": 4342,
      "cussion": 4343,
      "exhaust": 4344,
      "experienced": 4345,
      "brain": 4346,
      "brakes": 4347,
      "stairwell": 4348,
      "dealing": 4349,
      "system": 4350,
      "trip": 4351,
      "trigger": 4352,
      "insist": 4353,
      "collum": 4354,
      "collaps": 4355,
      "clearly": 4356,
      "notice": 4357,
      "movement": 4358,
      "positive": 4359,
      "relaxing": 4360,
      "massa": 4361,
      "clench": 4362,
      "claim": 4363,
      "clamped": 4364,
      "piss": 4365,
      "pounds": 4366,
      "inviting": 4367,
      "glasses": 4368,
      "squeeze": 4369,
      "julia": 4370,
      "hooded": 4371,
      "granddaughter": 4372,
      "interrupt": 4373,
      "fashion": 4374,
      "southern": 4375,
      "bobbing": 4376,
      "designs": 4377,
      "absolute": 4378,
      "drying": 4379,
      "dryer": 4380,
      "window": 4381,
      "windshield": 4382,
      "remaining": 4383,
      "engaged": 4384,
      "practice": 4385,
      "anxious": 4386,
      "flowers": 4387,
      "reluctant": 4388,
      "danced": 4389,
      "fabulous": 4390,
      "warning": 4391,
      "ario": 4392,
      "terribly": 4393,
      "territory": 4394,
      "grades": 4395,
      "graduation": 4396,
      "knowingly": 4397,
      "niece": 4398,
      "clasping": 4399,
      "bursting": 4400,
      "spotlight": 4401,
      "damn": 4402,
      "narrowing": 4403,
      "sunday": 4404,
      "vior": 4405,
      "hesitantly": 4406,
      "feebly": 4407,
      "delivered": 4408,
      "deserved": 4409,
      "knobs": 4410,
      "engagements": 4411,
      "flailed": 4412,
      "layed": 4413,
      "pills": 4414,
      "adoption": 4415,
      "compli": 4416,
      "blushing": 4417,
      "frustration": 4418,
      "silky": 4419,
      "awakened": 4420,
      "bounce": 4421,
      "candle": 4422,
      "fisted": 4423,
      "fidget": 4424,
      "gency": 4425,
      "genuine": 4426,
      "gleam": 4427,
      "gleaming": 4428,
      "passenger": 4429,
      "slapped": 4430,
      "slammed": 4431,
      "wished": 4432,
      "washcloth": 4433,
      "hooking": 4434,
      "cooking": 4435,
      "defeat": 4436,
      "connected": 4437,
      "pulsing": 4438,
      "scrambled": 4439,
      "strangle": 4440,
      "smacking": 4441,
      "whispering": 4442,
      "cousin": 4443,
      "hugs": 4444,
      "kicking": 4445,
      "nuzzled": 4446,
      "scantily": 4447,
      "vulner": 4448,
      "healthy": 4449,
      "inclined": 4450,
      "assump": 4451,
      "outfitted": 4452,
      "necessarily": 4453,
      "acknowledged": 4454,
      "overwhelming": 4455,
      "peeked": 4456,
      "peeking": 4457,
      "protection": 4458,
      "flashing": 4459,
      "jealousy": 4460,
      "banging": 4461,
      "bump": 4462,
      "dazed": 4463,
      "echoed": 4464,
      "gulped": 4465,
      "lounge": 4466,
      "lounging": 4467,
      "mcdreamy": 4468,
      "mccollum": 4469,
      "muscles": 4470,
      "adjusted": 4471,
      "seedy": 4472,
      "abdominal": 4473,
      "shrieked": 4474,
      "detail": 4475,
      "blessings": 4476,
      "precious": 4477,
      "precise": 4478,
      "frowned": 4479,
      "spective": 4480,
      "normal": 4481,
      "normally": 4482,
      "smoothed": 4483,
      "avoided": 4484,
      "agoni": 4485,
      "cudd": 4486,
      "jaguar": 4487,
      "occasion": 4488,
      "rattled": 4489,
      "rattling": 4490,
      "twice": 4491,
      "twirled": 4492,
      "tummy": 4493,
      "aspir": 4494,
      "adorned": 4495,
      "belonged": 4496,
      "feeding": 4497,
      "defense": 4498,
      "assistant": 4499,
      "discussing": 4500,
      "service": 4501,
      "challenge": 4502,
      "challenged": 4503,
      "sniffled": 4504,
      "jewelry": 4505,
      "demanding": 4506,
      "fascinated": 4507,
      "extremely": 4508,
      "categor": 4509,
      "frozen": 4510,
      "faltered": 4511,
      "friction": 4512,
      "puppy": 4513,
      "heights": 4514,
      "stalked": 4515,
      "sparkled": 4516,
      "explode": 4517,
      "quirked": 4518,
      "guilty": 4519,
      "surveyed": 4520,
      "surrounded": 4521,
      "fridge": 4522,
      "cradled": 4523,
      "disappoint": 4524,
      "maternity": 4525,
      "impressive": 4526,
      "snatched": 4527,
      "studio": 4528,
      "interns": 4529,
      "stretched": 4530,
      "responsibility": 4531,
      "american": 4532,
      "bomb": 4533,
      "darted": 4534,
      "gift": 4535,
      "language": 4536,
      "toddler": 4537,
      "refused": 4538,
      "admire": 4539,
      "rotten": 4540,
      "chaste": 4541,
      "success": 4542,
      "tracks": 4543,
      "transfer": 4544,
      "platinum": 4545,
      "official": 4546,
      "management": 4547,
      "storm": 4548,
      "scenario": 4549,
      "script": 4550,
      "scratch": 4551,
      "minions": 4552,
      "suggestion": 4553,
      "capacity": 4554,
      "candidate": 4555,
      "rumors": 4556,
      "smells": 4557,
      "university": 4558,
      "pacifier": 4559,
      "radio": 4560,
      "attributes": 4561,
      "cweam": 4562,
      "dysfunction": 4563,
      "emergency": 4564,
      "glazed": 4565,
      "houses": 4566,
      "nudged": 4567,
      "paddles": 4568,
      "rhyth": 4569,
      "sacrific": 4570,
      "scale": 4571,
      "wreaths": 4572,
      "inhaled": 4573,
      "thousand": 4574,
      "rella": 4575,
      "refreshing": 4576,
      "retrieved": 4577,
      "assault": 4578,
      "envelo": 4579,
      "behavior": 4580,
      "beauty": 4581,
      "vegetables": 4582,
      "altern": 4583,
      "simply": 4584,
      "declaration": 4585,
      "deprived": 4586,
      "congratul": 4587,
      "potential": 4588,
      "proposal": 4589,
      "appetizing": 4590,
      "preceptor": 4591,
      "preconceived": 4592,
      "authorized": 4593,
      "mischievous": 4594,
      "priapism": 4595,
      "collapsing": 4596,
      "60": 4597,
      "ave": 4598,
      "apt": 4599,
      "aped": 4600,
      "ahold": 4601,
      "awaiting": 4602,
      "agues": 4603,
      "bon": 4604,
      "bone": 4605,
      "bows": 4606,
      "bared": 4607,
      "bim": 4608,
      "bbing": 4609,
      "bash": 4610,
      "bric": 4611,
      "bumped": 4612,
      "bbly": 4613,
      "bond": 4614,
      "busted": 4615,
      "bones": 4616,
      "ctr": 4617,
      "cris": 4618,
      "cers": 4619,
      "cru": 4620,
      "cating": 4621,
      "cil": 4622,
      "clicked": 4623,
      "crew": 4624,
      "cited": 4625,
      "cises": 4626,
      "dle": 4627,
      "dder": 4628,
      "daw": 4629,
      "dama": 4630,
      "dash": 4631,
      "ditched": 4632,
      "eh": 4633,
      "eme": 4634,
      "eled": 4635,
      "eful": 4636,
      "eching": 4637,
      "euro": 4638,
      "fto": 4639,
      "fant": 4640,
      "fry": 4641,
      "fts": 4642,
      "farm": 4643,
      "fru": 4644,
      "fading": 4645,
      "gno": 4646,
      "gend": 4647,
      "gine": 4648,
      "gest": 4649,
      "glimp": 4650,
      "hh": 4651,
      "harm": 4652,
      "ii": 4653,
      "ipped": 4654,
      "ilet": 4655,
      "iest": 4656,
      "iated": 4657,
      "ible": 4658,
      "image": 4659,
      "jou": 4660,
      "jes": 4661,
      "jur": 4662,
      "jun": 4663,
      "jol": 4664,
      "jama": 4665,
      "ks": 4666,
      "ky": 4667,
      "kur": 4668,
      "kink": 4669,
      "kers": 4670,
      "kather": 4671,
      "las": 4672,
      "lers": 4673,
      "lug": 4674,
      "laced": 4675,
      "lane": 4676,
      "lately": 4677,
      "lacy": 4678,
      "mro": 4679,
      "mound": 4680,
      "mbo": 4681,
      "mping": 4682,
      "ng": 4683,
      "nal": 4684,
      "nut": 4685,
      "nun": 4686,
      "nate": 4687,
      "numb": 4688,
      "nature": 4689,
      "named": 4690,
      "os": 4691,
      "oha": 4692,
      "oted": 4693,
      "ocks": 4694,
      "ovul": 4695,
      "phe": 4696,
      "pth": 4697,
      "pand": 4698,
      "pid": 4699,
      "pwe": 4700,
      "pom": 4701,
      "ption": 4702,
      "paced": 4703,
      "packed": 4704,
      "pacing": 4705,
      "paled": 4706,
      "prying": 4707,
      "poking": 4708,
      "rand": 4709,
      "rit": 4710,
      "ral": 4711,
      "rting": 4712,
      "rug": 4713,
      "rated": 4714,
      "rling": 4715,
      "ridding": 4716,
      "sand": 4717,
      "shim": 4718,
      "sne": 4719,
      "sway": 4720,
      "sni": 4721,
      "sour": 4722,
      "sest": 4723,
      "slap": 4724,
      "scared": 4725,
      "sworn": 4726,
      "ssip": 4727,
      "tti": 4728,
      "tting": 4729,
      "tact": 4730,
      "tling": 4731,
      "tended": 4732,
      "tempt": 4733,
      "twis": 4734,
      "tangle": 4735,
      "uc": 4736,
      "ush": 4737,
      "uous": 4738,
      "uating": 4739,
      "utive": 4740,
      "vir": 4741,
      "vent": 4742,
      "vic": 4743,
      "vol": 4744,
      "vowed": 4745,
      "vise": 4746,
      "vies": 4747,
      "via": 4748,
      "ware": 4749,
      "west": 4750,
      "wrest": 4751,
      "wings": 4752,
      "woken": 4753,
      "za": 4754,
      "zard": 4755,
      "hears": 4756,
      "hetti": 4757,
      "inher": 4758,
      "inking": 4759,
      "inct": 4760,
      "insur": 4761,
      "insin": 4762,
      "input": 4763,
      "infur": 4764,
      "innu": 4765,
      "infinite": 4766,
      "infertility": 4767,
      "infected": 4768,
      "injur": 4769,
      "anal": 4770,
      "anket": 4771,
      "ouch": 4772,
      "oused": 4773,
      "tho": 4774,
      "thus": 4775,
      "thless": 4776,
      "thbrush": 4777,
      "toe": 4778,
      "tori": 4779,
      "tossed": 4780,
      "toilet": 4781,
      "rese": 4782,
      "reve": 4783,
      "reli": 4784,
      "requ": 4785,
      "remon": 4786,
      "returning": 4787,
      "remove": 4788,
      "refer": 4789,
      "rebell": 4790,
      "refus": 4791,
      "research": 4792,
      "recei": 4793,
      "result": 4794,
      "retraction": 4795,
      "rehears": 4796,
      "inged": 4797,
      "assure": 4798,
      "astic": 4799,
      "assigned": 4800,
      "ashes": 4801,
      "ats": 4802,
      "ater": 4803,
      "atri": 4804,
      "oni": 4805,
      "onic": 4806,
      "onboard": 4807,
      "meth": 4808,
      "meas": 4809,
      "meat": 4810,
      "meal": 4811,
      "mester": 4812,
      "meggie": 4813,
      "melted": 4814,
      "hered": 4815,
      "erk": 4816,
      "erm": 4817,
      "err": 4818,
      "erv": 4819,
      "ery": 4820,
      "ergy": 4821,
      "ercises": 4822,
      "ison": 4823,
      "isep": 4824,
      "island": 4825,
      "escal": 4826,
      "essive": 4827,
      "arp": 4828,
      "arching": 4829,
      "arls": 4830,
      "itive": 4831,
      "sti": 4832,
      "stuck": 4833,
      "stunt": 4834,
      "streamed": 4835,
      "enor": 4836,
      "endo": 4837,
      "enchi": 4838,
      "ences": 4839,
      "encir": 4840,
      "envious": 4841,
      "engine": 4842,
      "energy": 4843,
      "lling": 4844,
      "ory": 4845,
      "oring": 4846,
      "organ": 4847,
      "orous": 4848,
      "orched": 4849,
      "ordin": 4850,
      "ority": 4851,
      "orbit": 4852,
      "admin": 4853,
      "admon": 4854,
      "adults": 4855,
      "admission": 4856,
      "behave": 4857,
      "beep": 4858,
      "beaded": 4859,
      "lean": 4860,
      "lect": 4861,
      "lewis": 4862,
      "levision": 4863,
      "lefto": 4864,
      "idated": 4865,
      "idence": 4866,
      "semi": 4867,
      "sequ": 4868,
      "sets": 4869,
      "sevent": 4870,
      "acce": 4871,
      "acted": 4872,
      "accor": 4873,
      "accompany": 4874,
      "vet": 4875,
      "vein": 4876,
      "velled": 4877,
      "rocked": 4878,
      "roared": 4879,
      "hire": 4880,
      "hill": 4881,
      "wipe": 4882,
      "wives": 4883,
      "lilt": 4884,
      "libid": 4885,
      "weal": 4886,
      "weigh": 4887,
      "weather": 4888,
      "weig": 4889,
      "tiv": 4890,
      "tiff": 4891,
      "withdrawn": 4892,
      "hawa": 4893,
      "notions": 4894,
      "soever": 4895,
      "soak": 4896,
      "socks": 4897,
      "soaked": 4898,
      "soaped": 4899,
      "dog": 4900,
      "dove": 4901,
      "doting": 4902,
      "dope": 4903,
      "doms": 4904,
      "dodged": 4905,
      "forti": 4906,
      "formu": 4907,
      "formed": 4908,
      "gover": 4909,
      "gossip": 4910,
      "aluation": 4911,
      "altering": 4912,
      "album": 4913,
      "loa": 4914,
      "lobe": 4915,
      "logue": 4916,
      "outs": 4917,
      "outrage": 4918,
      "outfits": 4919,
      "urry": 4920,
      "holy": 4921,
      "hopping": 4922,
      "hoping": 4923,
      "hovering": 4924,
      "hoisted": 4925,
      "neare": 4926,
      "nect": 4927,
      "neigh": 4928,
      "upside": 4929,
      "upturned": 4930,
      "upward": 4931,
      "upscale": 4932,
      "mock": 4933,
      "motive": 4934,
      "moaning": 4935,
      "movies": 4936,
      "aback": 4937,
      "abrup": 4938,
      "absent": 4939,
      "abusive": 4940,
      "rich": 4941,
      "rigu": 4942,
      "ripped": 4943,
      "rict": 4944,
      "feared": 4945,
      "female": 4946,
      "chor": 4947,
      "chast": 4948,
      "christ": 4949,
      "chattering": 4950,
      "irrational": 4951,
      "tery": 4952,
      "terry": 4953,
      "maul": 4954,
      "magaz": 4955,
      "maze": 4956,
      "maker": 4957,
      "ceremon": 4958,
      "antisep": 4959,
      "undid": 4960,
      "unthink": 4961,
      "unwanted": 4962,
      "undress": 4963,
      "unfast": 4964,
      "undressed": 4965,
      "unborn": 4966,
      "unmoving": 4967,
      "uncles": 4968,
      "unsteady": 4969,
      "unblin": 4970,
      "uncontroll": 4971,
      "unfortun": 4972,
      "unknowingly": 4973,
      "coke": 4974,
      "coast": 4975,
      "caressed": 4976,
      "ppear": 4977,
      "gator": 4978,
      "showed": 4979,
      "shits": 4980,
      "sharp": 4981,
      "owned": 4982,
      "fooled": 4983,
      "butt": 4984,
      "butter": 4985,
      "ackled": 4986,
      "ckname": 4987,
      "empa": 4988,
      "emplo": 4989,
      "whatsoever": 4990,
      "nowhere": 4991,
      "mil": 4992,
      "mix": 4993,
      "mile": 4994,
      "mili": 4995,
      "miles": 4996,
      "microw": 4997,
      "milar": 4998,
      "mically": 4999,
      "sum": 5000,
      "subur": 5001,
      "suits": 5002,
      "sugar": 5003,
      "ounding": 5004,
      "yesss": 5005,
      "headrest": 5006,
      "headlines": 5007,
      "odd": 5008,
      "backs": 5009,
      "overcome": 5010,
      "overheard": 5011,
      "overdue": 5012,
      "override": 5013,
      "overload": 5014,
      "sied": 5015,
      "silly": 5016,
      "similar": 5017,
      "enty": 5018,
      "tained": 5019,
      "tamest": 5020,
      "talize": 5021,
      "tea": 5022,
      "teary": 5023,
      "television": 5024,
      "tration": 5025,
      "tract": 5026,
      "trash": 5027,
      "deple": 5028,
      "delayed": 5029,
      "depth": 5030,
      "spat": 5031,
      "spun": 5032,
      "spare": 5033,
      "spite": 5034,
      "spank": 5035,
      "sporting": 5036,
      "spag": 5037,
      "spleen": 5038,
      "sperm": 5039,
      "consu": 5040,
      "conqu": 5041,
      "confir": 5042,
      "consc": 5043,
      "concl": 5044,
      "confron": 5045,
      "confirm": 5046,
      "contrac": 5047,
      "consult": 5048,
      "console": 5049,
      "concussion": 5050,
      "condoms": 5051,
      "contained": 5052,
      "gras": 5053,
      "grits": 5054,
      "grunted": 5055,
      "exchange": 5056,
      "exited": 5057,
      "exchanging": 5058,
      "exquis": 5059,
      "exercises": 5060,
      "mentalize": 5061,
      "plant": 5062,
      "plun": 5063,
      "pless": 5064,
      "plush": 5065,
      "plenty": 5066,
      "rald": 5067,
      "raking": 5068,
      "rapped": 5069,
      "raining": 5070,
      "ramro": 5071,
      "rapid": 5072,
      "stardom": 5073,
      "pure": 5074,
      "puff": 5075,
      "pump": 5076,
      "pular": 5077,
      "puckered": 5078,
      "pumping": 5079,
      "afterwards": 5080,
      "essly": 5081,
      "lazing": 5082,
      "lazy": 5083,
      "quar": 5084,
      "quie": 5085,
      "literally": 5086,
      "tinged": 5087,
      "woke": 5088,
      "wobbled": 5089,
      "wobbly": 5090,
      "boss": 5091,
      "ushered": 5092,
      "howled": 5093,
      "brown": 5094,
      "nickname": 5095,
      "reappear": 5096,
      "post": 5097,
      "poked": 5098,
      "posed": 5099,
      "pocke": 5100,
      "popular": 5101,
      "reserv": 5102,
      "ulation": 5103,
      "ulterior": 5104,
      "beds": 5105,
      "bedside": 5106,
      "pea": 5107,
      "peak": 5108,
      "pearls": 5109,
      "fake": 5110,
      "fail": 5111,
      "perman": 5112,
      "perfu": 5113,
      "perceive": 5114,
      "perspective": 5115,
      "gure": 5116,
      "guing": 5117,
      "guard": 5118,
      "armacy": 5119,
      "manic": 5120,
      "manner": 5121,
      "manhood": 5122,
      "turbul": 5123,
      "seeking": 5124,
      "ously": 5125,
      "ends": 5126,
      "endar": 5127,
      "endured": 5128,
      "inet": 5129,
      "inebri": 5130,
      "inevit": 5131,
      "goodness": 5132,
      "shoving": 5133,
      "astated": 5134,
      "stoked": 5135,
      "sidewalk": 5136,
      "rise": 5137,
      "risk": 5138,
      "saving": 5139,
      "samp": 5140,
      "sages": 5141,
      "sauce": 5142,
      "glow": 5143,
      "glaring": 5144,
      "thrum": 5145,
      "yell": 5146,
      "icy": 5147,
      "iced": 5148,
      "iculously": 5149,
      "mental": 5150,
      "amped": 5151,
      "ambu": 5152,
      "amorous": 5153,
      "whore": 5154,
      "whose": 5155,
      "whoever": 5156,
      "wail": 5157,
      "wagged": 5158,
      "wavered": 5159,
      "wails": 5160,
      "wagging": 5161,
      "wavy": 5162,
      "umm": 5163,
      "umphant": 5164,
      "clothing": 5165,
      "closest": 5166,
      "compart": 5167,
      "compression": 5168,
      "comments": 5169,
      "takeoff": 5170,
      "prog": 5171,
      "proced": 5172,
      "propose": 5173,
      "proposed": 5174,
      "blowing": 5175,
      "blouse": 5176,
      "blades": 5177,
      "blanket": 5178,
      "knelt": 5179,
      "whereas": 5180,
      "tenth": 5181,
      "tensing": 5182,
      "tension": 5183,
      "toothbrush": 5184,
      "murder": 5185,
      "everywhere": 5186,
      "nightstand": 5187,
      "cara": 5188,
      "caring": 5189,
      "carted": 5190,
      "carry": 5191,
      "carried": 5192,
      "carsyn": 5193,
      "doorknob": 5194,
      "hairs": 5195,
      "helpful": 5196,
      "fired": 5197,
      "oped": 5198,
      "harden": 5199,
      "hardness": 5200,
      "flinched": 5201,
      "flashes": 5202,
      "flurry": 5203,
      "steal": 5204,
      "scrun": 5205,
      "scalp": 5206,
      "scorched": 5207,
      "naught": 5208,
      "navy": 5209,
      "path": 5210,
      "pale": 5211,
      "pajama": 5212,
      "singular": 5213,
      "surged": 5214,
      "earned": 5215,
      "earshot": 5216,
      "shithouse": 5217,
      "shifts": 5218,
      "appe": 5219,
      "apple": 5220,
      "marred": 5221,
      "marath": 5222,
      "prescri": 5223,
      "happier": 5224,
      "stilled": 5225,
      "ruff": 5226,
      "rudder": 5227,
      "rueful": 5228,
      "fucking": 5229,
      "clue": 5230,
      "clattering": 5231,
      "clerk": 5232,
      "fingered": 5233,
      "sinking": 5234,
      "sorts": 5235,
      "sorority": 5236,
      "filed": 5237,
      "fiance": 5238,
      "figure": 5239,
      "sincerely": 5240,
      "types": 5241,
      "urely": 5242,
      "grinning": 5243,
      "restless": 5244,
      "guely": 5245,
      "babysit": 5246,
      "drug": 5247,
      "drinking": 5248,
      "understood": 5249,
      "underground": 5250,
      "bathed": 5251,
      "dimin": 5252,
      "frater": 5253,
      "content": 5254,
      "minor": 5255,
      "wardrobe": 5256,
      "planet": 5257,
      "kisser": 5258,
      "hearty": 5259,
      "truck": 5260,
      "craned": 5261,
      "crashed": 5262,
      "cringed": 5263,
      "lifetime": 5264,
      "breathtaking": 5265,
      "breathless": 5266,
      "ftly": 5267,
      "surprises": 5268,
      "bud": 5269,
      "bucked": 5270,
      "buying": 5271,
      "bushy": 5272,
      "busied": 5273,
      "pran": 5274,
      "pride": 5275,
      "print": 5276,
      "prayed": 5277,
      "sexier": 5278,
      "changes": 5279,
      "swamped": 5280,
      "joked": 5281,
      "jolt": 5282,
      "jocks": 5283,
      "talents": 5284,
      "talented": 5285,
      "rent": 5286,
      "render": 5287,
      "monster": 5288,
      "works": 5289,
      "dish": 5290,
      "display": 5291,
      "discoun": 5292,
      "dissip": 5293,
      "disbelief": 5294,
      "distract": 5295,
      "carefully": 5296,
      "series": 5297,
      "keeper": 5298,
      "leap": 5299,
      "leather": 5300,
      "deepen": 5301,
      "mistakes": 5302,
      "standard": 5303,
      "chip": 5304,
      "chick": 5305,
      "intending": 5306,
      "intric": 5307,
      "intended": 5308,
      "intrigu": 5309,
      "string": 5310,
      "strug": 5311,
      "stranger": 5312,
      "lessly": 5313,
      "phones": 5314,
      "pharmacy": 5315,
      "reacted": 5316,
      "settle": 5317,
      "lighted": 5318,
      "lightly": 5319,
      "devastated": 5320,
      "bites": 5321,
      "bury": 5322,
      "burying": 5323,
      "bestow": 5324,
      "match": 5325,
      "soundly": 5326,
      "hearted": 5327,
      "rung": 5328,
      "appearing": 5329,
      "ggled": 5330,
      "relatively": 5331,
      "wonderment": 5332,
      "reduce": 5333,
      "shall": 5334,
      "shaky": 5335,
      "floored": 5336,
      "zingly": 5337,
      "alongside": 5338,
      "friendly": 5339,
      "airport": 5340,
      "wider": 5341,
      "widow": 5342,
      "believing": 5343,
      "believed": 5344,
      "chal": 5345,
      "chaos": 5346,
      "lingering": 5347,
      "winking": 5348,
      "winning": 5349,
      "skipped": 5350,
      "guessing": 5351,
      "impressed": 5352,
      "immer": 5353,
      "imposing": 5354,
      "dripping": 5355,
      "drifted": 5356,
      "patting": 5357,
      "parent": 5358,
      "warming": 5359,
      "warmly": 5360,
      "answers": 5361,
      "welcoming": 5362,
      "newborn": 5363,
      "spoon": 5364,
      "spoiled": 5365,
      "spooning": 5366,
      "bilities": 5367,
      "biolo": 5368,
      "bioha": 5369,
      "cursing": 5370,
      "chose": 5371,
      "choked": 5372,
      "choose": 5373,
      "chocol": 5374,
      "choices": 5375,
      "humili": 5376,
      "pricked": 5377,
      "supply": 5378,
      "silently": 5379,
      "counting": 5380,
      "darkened": 5381,
      "snorting": 5382,
      "snarled": 5383,
      "sensing": 5384,
      "sensor": 5385,
      "senses": 5386,
      "lowering": 5387,
      "sleepy": 5388,
      "ishments": 5389,
      "patiently": 5390,
      "idded": 5391,
      "covers": 5392,
      "drove": 5393,
      "charging": 5394,
      "calendar": 5395,
      "electr": 5396,
      "purpose": 5397,
      "pursue": 5398,
      "breaks": 5399,
      "jets": 5400,
      "jected": 5401,
      "crazed": 5402,
      "duh": 5403,
      "dual": 5404,
      "dude": 5405,
      "honored": 5406,
      "latter": 5407,
      "latched": 5408,
      "whistle": 5409,
      "fluff": 5410,
      "parked": 5411,
      "parts": 5412,
      "partake": 5413,
      "parties": 5414,
      "partied": 5415,
      "paramed": 5416,
      "touching": 5417,
      "useful": 5418,
      "shitty": 5419,
      "deciding": 5420,
      "boys": 5421,
      "matters": 5422,
      "groin": 5423,
      "hitched": 5424,
      "kitten": 5425,
      "vanilla": 5426,
      "signing": 5427,
      "sights": 5428,
      "sightseeing": 5429,
      "personnel": 5430,
      "erect": 5431,
      "freed": 5432,
      "tune": 5433,
      "wedged": 5434,
      "interior": 5435,
      "examined": 5436,
      "turns": 5437,
      "hunched": 5438,
      "hunger": 5439,
      "valet": 5440,
      "vaguely": 5441,
      "sweetest": 5442,
      "fallen": 5443,
      "pans": 5444,
      "promises": 5445,
      "promising": 5446,
      "wetter": 5447,
      "excuses": 5448,
      "cutting": 5449,
      "filling": 5450,
      "remembering": 5451,
      "ricity": 5452,
      "trait": 5453,
      "trapped": 5454,
      "trailing": 5455,
      "travelled": 5456,
      "complex": 5457,
      "bored": 5458,
      "boring": 5459,
      "borhood": 5460,
      "zzi": 5461,
      "zzling": 5462,
      "zzically": 5463,
      "fingernails": 5464,
      "possibilities": 5465,
      "bloom": 5466,
      "knock": 5467,
      "quizzically": 5468,
      "bigger": 5469,
      "casc": 5470,
      "castle": 5471,
      "cliche": 5472,
      "demure": 5473,
      "eyebrows": 5474,
      "obli": 5475,
      "cockhead": 5476,
      "catering": 5477,
      "catered": 5478,
      "catching": 5479,
      "cushi": 5480,
      "tasted": 5481,
      "tasting": 5482,
      "thirteen": 5483,
      "exhaling": 5484,
      "plain": 5485,
      "plaza": 5486,
      "umbrella": 5487,
      "greatest": 5488,
      "prince": 5489,
      "brake": 5490,
      "pinch": 5491,
      "pinching": 5492,
      "wheels": 5493,
      "wheelchair": 5494,
      "checks": 5495,
      "dealt": 5496,
      "fleeting": 5497,
      "flexed": 5498,
      "triple": 5499,
      "triumphant": 5500,
      "clearance": 5501,
      "regular": 5502,
      "shyly": 5503,
      "shyness": 5504,
      "whirl": 5505,
      "cleaning": 5506,
      "relaxation": 5507,
      "master": 5508,
      "arguing": 5509,
      "passionately": 5510,
      "birds": 5511,
      "creased": 5512,
      "creeping": 5513,
      "clam": 5514,
      "clapped": 5515,
      "clapping": 5516,
      "clawed": 5517,
      "claimed": 5518,
      "listed": 5519,
      "lished": 5520,
      "pounded": 5521,
      "introductions": 5522,
      "stronger": 5523,
      "honesty": 5524,
      "appreciates": 5525,
      "tablo": 5526,
      "signs": 5527,
      "signature": 5528,
      "grandmother": 5529,
      "grandparents": 5530,
      "granddad": 5531,
      "comfort": 5532,
      "comforting": 5533,
      "blond": 5534,
      "screams": 5535,
      "walker": 5536,
      "climbing": 5537,
      "husbands": 5538,
      "cumming": 5539,
      "pile": 5540,
      "pilot": 5541,
      "pigeon": 5542,
      "south": 5543,
      "snake": 5544,
      "snapping": 5545,
      "attack": 5546,
      "attending": 5547,
      "orders": 5548,
      "tiptoes": 5549,
      "deaths": 5550,
      "spreading": 5551,
      "elbowed": 5552,
      "evenings": 5553,
      "cialis": 5554,
      "birthday": 5555,
      "evading": 5556,
      "evident": 5557,
      "evaluation": 5558,
      "killed": 5559,
      "salon": 5560,
      "salute": 5561,
      "antics": 5562,
      "thrilling": 5563,
      "reminding": 5564,
      "mercil": 5565,
      "lively": 5566,
      "giggle": 5567,
      "approached": 5568,
      "baptismal": 5569,
      "flicking": 5570,
      "flipping": 5571,
      "flirting": 5572,
      "ladas": 5573,
      "ladies": 5574,
      "instructions": 5575,
      "escape": 5576,
      "escaping": 5577,
      "sixteen": 5578,
      "nibbles": 5579,
      "papers": 5580,
      "willingly": 5581,
      "privy": 5582,
      "privacy": 5583,
      "bulge": 5584,
      "bulging": 5585,
      "dancers": 5586,
      "wanton": 5587,
      "beckoning": 5588,
      "actions": 5589,
      "weakness": 5590,
      "lovingly": 5591,
      "territori": 5592,
      "flattered": 5593,
      "spotted": 5594,
      "personality": 5595,
      "quietly": 5596,
      "immediate": 5597,
      "regretted": 5598,
      "regretful": 5599,
      "regretfully": 5600,
      "damned": 5601,
      "district": 5602,
      "jawline": 5603,
      "labia": 5604,
      "mirthless": 5605,
      "slick": 5606,
      "sunlight": 5607,
      "sunshine": 5608,
      "vix": 5609,
      "vibr": 5610,
      "heaving": 5611,
      "heaping": 5612,
      "arrive": 5613,
      "arrival": 5614,
      "stalem": 5615,
      "stern": 5616,
      "deliver": 5617,
      "bothering": 5618,
      "pointedly": 5619,
      "desperate": 5620,
      "positions": 5621,
      "harass": 5622,
      "harassed": 5623,
      "laying": 5624,
      "paying": 5625,
      "pillow": 5626,
      "pillows": 5627,
      "sleeve": 5628,
      "swig": 5629,
      "swirling": 5630,
      "thysts": 5631,
      "messing": 5632,
      "message": 5633,
      "messages": 5634,
      "adopted": 5635,
      "captured": 5636,
      "blush": 5637,
      "marks": 5638,
      "skyline": 5639,
      "skydiving": 5640,
      "consideration": 5641,
      "concerns": 5642,
      "professionalism": 5643,
      "intimacy": 5644,
      "intimidated": 5645,
      "awaken": 5646,
      "barked": 5647,
      "bounced": 5648,
      "bouncy": 5649,
      "basement": 5650,
      "circle": 5651,
      "general": 5652,
      "honeymoon": 5653,
      "nonsense": 5654,
      "powered": 5655,
      "slapping": 5656,
      "towels": 5657,
      "washboard": 5658,
      "velvet": 5659,
      "folded": 5660,
      "folding": 5661,
      "folder": 5662,
      "speeding": 5663,
      "buckle": 5664,
      "cornered": 5665,
      "colors": 5666,
      "apologized": 5667,
      "restaurants": 5668,
      "dreams": 5669,
      "hyped": 5670,
      "kicks": 5671,
      "lerated": 5672,
      "nuzzle": 5673,
      "scanned": 5674,
      "assume": 5675,
      "assuming": 5676,
      "submissive": 5677,
      "ification": 5678,
      "protective": 5679,
      "clutching": 5680,
      "diagno": 5681,
      "direct": 5682,
      "threatening": 5683,
      "satisfy": 5684,
      "hungwy": 5685,
      "amethysts": 5686,
      "banged": 5687,
      "bounds": 5688,
      "bounding": 5689,
      "daily": 5690,
      "denied": 5691,
      "echoing": 5692,
      "fuss": 5693,
      "fussy": 5694,
      "freaked": 5695,
      "gulp": 5696,
      "ignored": 5697,
      "ignoring": 5698,
      "madness": 5699,
      "muscled": 5700,
      "parkman": 5701,
      "announce": 5702,
      "repeated": 5703,
      "stemmed": 5704,
      "studying": 5705,
      "acceptance": 5706,
      "golden": 5707,
      "abandon": 5708,
      "shriek": 5709,
      "shrimp": 5710,
      "suspicion": 5711,
      "booked": 5712,
      "guests": 5713,
      "blessing": 5714,
      "screwed": 5715,
      "screech": 5716,
      "screeching": 5717,
      "thoughtfulness": 5718,
      "speculation": 5719,
      "freshman": 5720,
      "colleagues": 5721,
      "avoiding": 5722,
      "agony": 5723,
      "cabinet": 5724,
      "fanned": 5725,
      "hangover": 5726,
      "ivf": 5727,
      "janet": 5728,
      "occup": 5729,
      "pieces": 5730,
      "resignedly": 5731,
      "issue": 5732,
      "adoration": 5733,
      "secret": 5734,
      "secrets": 5735,
      "secretly": 5736,
      "terminolo": 5737,
      "embraced": 5738,
      "decorations": 5739,
      "convince": 5740,
      "convinced": 5741,
      "convincing": 5742,
      "gratification": 5743,
      "polite": 5744,
      "assistants": 5745,
      "blurry": 5746,
      "drummed": 5747,
      "drummer": 5748,
      "diamonds": 5749,
      "discussion": 5750,
      "girlfriends": 5751,
      "smirked": 5752,
      "jewels": 5753,
      "responded": 5754,
      "apologetically": 5755,
      "fascinating": 5756,
      "familiarity": 5757,
      "stupidly": 5758,
      "etiquet": 5759,
      "frilly": 5760,
      "palms": 5761,
      "pupils": 5762,
      "pierced": 5763,
      "piercing": 5764,
      "ridiculously": 5765,
      "slob": 5766,
      "shadow": 5767,
      "shadows": 5768,
      "celebrating": 5769,
      "texted": 5770,
      "texting": 5771,
      "transp": 5772,
      "sprinted": 5773,
      "sparkling": 5774,
      "container": 5775,
      "pooling": 5776,
      "performing": 5777,
      "compassionate": 5778,
      "screwing": 5779,
      "nausea": 5780,
      "nauseous": 5781,
      "friday": 5782,
      "disappointed": 5783,
      "straddled": 5784,
      "straddling": 5785,
      "material": 5786,
      "impact": 5787,
      "impress": 5788,
      "supervis": 5789,
      "studies": 5790,
      "squirmed": 5791,
      "controlling": 5792,
      "treatment": 5793,
      "punishment": 5794,
      "registration": 5795,
      "stretching": 5796,
      "responsibilities": 5797,
      "diapers": 5798,
      "america": 5799,
      "reassuringly": 5800,
      "exasperatedly": 5801,
      "bunch": 5802,
      "eggs": 5803,
      "frame": 5804,
      "french": 5805,
      "lubric": 5806,
      "natural": 5807,
      "yards": 5808,
      "increased": 5809,
      "insulted": 5810,
      "insulting": 5811,
      "incredulously": 5812,
      "refusing": 5813,
      "refrain": 5814,
      "attractive": 5815,
      "escort": 5816,
      "escorted": 5817,
      "arrange": 5818,
      "status": 5819,
      "streaked": 5820,
      "soothe": 5821,
      "soothed": 5822,
      "altar": 5823,
      "altitude": 5824,
      "suffer": 5825,
      "devoted": 5826,
      "devotion": 5827,
      "conveni": 5828,
      "convention": 5829,
      "grinding": 5830,
      "books": 5831,
      "commanded": 5832,
      "producing": 5833,
      "contemplating": 5834,
      "contemplative": 5835,
      "greedy": 5836,
      "greedily": 5837,
      "bitchy": 5838,
      "cornflower": 5839,
      "athlete": 5840,
      "electri": 5841,
      "electricity": 5842,
      "craziness": 5843,
      "crazier": 5844,
      "strawberries": 5845,
      "tremble": 5846,
      "trembling": 5847,
      "apprehension": 5848,
      "apprehensive": 5849,
      "breezed": 5850,
      "eventually": 5851,
      "staggered": 5852,
      "temperature": 5853,
      "obediently": 5854,
      "unexpectedly": 5855,
      "dangerous": 5856,
      "genetic": 5857,
      "hangers": 5858,
      "listened": 5859,
      "mmatory": 5860,
      "roughly": 5861,
      "rules": 5862,
      "snores": 5863,
      "scary": 5864,
      "scooted": 5865,
      "writhed": 5866,
      "initially": 5867,
      "index": 5868,
      "inventory": 5869,
      "inflammatory": 5870,
      "inquisitive": 5871,
      "requested": 5872,
      "record": 5873,
      "retreating": 5874,
      "reflection": 5875,
      "aspect": 5876,
      "sticking": 5877,
      "enthusiasm": 5878,
      "leisurely": 5879,
      "hiccupped": 5880,
      "hickeys": 5881,
      "utterly": 5882,
      "negative": 5883,
      "coherent": 5884,
      "gauze": 5885,
      "debated": 5886,
      "determined": 5887,
      "splashed": 5888,
      "consummating": 5889,
      "labeled": 5890,
      "epilogue": 5891,
      "bypassing": 5892,
      "petition": 5893,
      "represent": 5894,
      "stockings": 5895,
      "proceedings": 5896,
      "established": 5897,
      "margarita": 5898,
      "presentable": 5899,
      "bleeding": 5900,
      "buzzing": 5901,
      "disapproving": 5902,
      "interrogator": 5903,
      "exhaustion": 5904,
      "triggered": 5905,
      "massaged": 5906,
      "invitingly": 5907,
      "compliments": 5908,
      "vulnerability": 5909,
      "assumptions": 5910,
      "precisely": 5911,
      "agonizingly": 5912,
      "cuddled": 5913,
      "aspirated": 5914,
      "category": 5915,
      "disappointment": 5916,
      "rhythm": 5917,
      "sacrificed": 5918,
      "envelopes": 5919,
      "alternating": 5920,
      "congratulations": 5921,
      "bimbo": 5922,
      "bashful": 5923,
      "damage": 5924,
      "emerald": 5925,
      "gender": 5926,
      "gesture": 5927,
      "glimpse": 5928,
      "joules": 5929,
      "jesus": 5930,
      "jolted": 5931,
      "kurta": 5932,
      "kinky": 5933,
      "katherine": 5934,
      "luggage": 5935,
      "nuts": 5936,
      "numbers": 5937,
      "ovulating": 5938,
      "pomp": 5939,
      "shimmered": 5940,
      "swayed": 5941,
      "snickered": 5942,
      "twisted": 5943,
      "wrestling": 5944,
      "inherited": 5945,
      "insurance": 5946,
      "infuriated": 5947,
      "innuendo": 5948,
      "injury": 5949,
      "request": 5950,
      "refuses": 5951,
      "enormous": 5952,
      "enchiladas": 5953,
      "encircled": 5954,
      "adminis": 5955,
      "beeped": 5956,
      "leftover": 5957,
      "seventeen": 5958,
      "according": 5959,
      "libido": 5960,
      "wealthy": 5961,
      "weighed": 5962,
      "hawaii": 5963,
      "dopey": 5964,
      "formula": 5965,
      "nectar": 5966,
      "neighborhood": 5967,
      "abruptly": 5968,
      "chastised": 5969,
      "mauling": 5970,
      "ceremony": 5971,
      "antiseptic": 5972,
      "unthinkable": 5973,
      "unblinking": 5974,
      "uncontrollably": 5975,
      "unfortunately": 5976,
      "empathy": 5977,
      "employe": 5978,
      "microwave": 5979,
      "suburbs": 5980,
      "depleting": 5981,
      "spaghetti": 5982,
      "conscious": 5983,
      "confronted": 5984,
      "contracts": 5985,
      "exquisite": 5986,
      "ramrod": 5987,
      "rapidly": 5988,
      "quieter": 5989,
      "pockets": 5990,
      "failure": 5991,
      "permanent": 5992,
      "perfume": 5993,
      "turbulence": 5994,
      "inebriated": 5995,
      "inevitable": 5996,
      "sampled": 5997,
      "ambushed": 5998,
      "compartmentalize": 5999,
      "compressions": 6000,
      "procedure": 6001,
      "scrunched": 6002,
      "naughty": 6003,
      "marathon": 6004,
      "ruffled": 6005,
      "diminutive": 6006,
      "fraternal": 6007,
      "discounted": 6008,
      "dissipate": 6009,
      "intricate": 6010,
      "intrigued": 6011,
      "bestowing": 6012,
      "immersed": 6013,
      "biological": 6014,
      "biohazard": 6015,
      "chocolate": 6016,
      "electronic": 6017,
      "paramedic": 6018,
      "mercilessly": 6019,
      "territorial": 6020,
      "stalemate": 6021,
      "terminology": 6022,
      "etiquette": 6023,
      "10": 6024,
      "11": 6025,
      "260": 6026,
      "360": 6027,
      "47": 6028,
      "747": 6029,
      "911": 6030,
      "ai": 6031,
      "athe": 6032,
      "ato": 6033,
      "aor": 6034,
      "abe": 6035,
      "ali": 6036,
      "awe": 6037,
      "aun": 6038,
      "alike": 6039,
      "aving": 6040,
      "aah": 6041,
      "aged": 6042,
      "aph": 6043,
      "agg": 6044,
      "aim": 6045,
      "ailing": 6046,
      "awaited": 6047,
      "axing": 6048,
      "awhirl": 6049,
      "bb": 6050,
      "bd": 6051,
      "bou": 6052,
      "bow": 6053,
      "bac": 6054,
      "bay": 6055,
      "bup": 6056,
      "byes": 6057,
      "bare": 6058,
      "bind": 6059,
      "bbed": 6060,
      "bend": 6061,
      "blet": 6062,
      "bug": 6063,
      "bread": 6064,
      "bating": 6065,
      "based": 6066,
      "bark": 6067,
      "bowing": 6068,
      "blot": 6069,
      "blip": 6070,
      "batt": 6071,
      "baring": 6072,
      "bangle": 6073,
      "battered": 6074,
      "bons": 6075,
      "bbub": 6076,
      "cher": 6077,
      "cow": 6078,
      "cwi": 6079,
      "cti": 6080,
      "chim": 6081,
      "cone": 6082,
      "cco": 6083,
      "cust": 6084,
      "cif": 6085,
      "cough": 6086,
      "cast": 6087,
      "cpr": 6088,
      "cased": 6089,
      "cue": 6090,
      "centered": 6091,
      "creamed": 6092,
      "cwy": 6093,
      "cities": 6094,
      "crushed": 6095,
      "crushing": 6096,
      "dj": 6097,
      "dv": 6098,
      "dy": 6099,
      "ded": 6100,
      "dat": 6101,
      "dur": 6102,
      "dge": 6103,
      "dous": 6104,
      "dine": 6105,
      "dic": 6106,
      "dread": 6107,
      "dity": 6108,
      "dud": 6109,
      "dening": 6110,
      "dreamed": 6111,
      "eg": 6112,
      "ez": 6113,
      "ell": 6114,
      "ego": 6115,
      "eup": 6116,
      "ema": 6117,
      "eif": 6118,
      "equ": 6119,
      "eving": 6120,
      "eves": 6121,
      "eva": 6122,
      "ebell": 6123,
      "eliz": 6124,
      "fw": 6125,
      "fon": 6126,
      "fes": 6127,
      "ffe": 6128,
      "ffin": 6129,
      "flit": 6130,
      "fati": 6131,
      "fate": 6132,
      "fried": 6133,
      "fated": 6134,
      "floo": 6135,
      "fish": 6136,
      "fidd": 6137,
      "fans": 6138,
      "fond": 6139,
      "faces": 6140,
      "fants": 6141,
      "facts": 6142,
      "ghe": 6143,
      "gall": 6144,
      "glo": 6145,
      "gne": 6146,
      "gta": 6147,
      "gation": 6148,
      "gated": 6149,
      "gloves": 6150,
      "gori": 6151,
      "hing": 6152,
      "hid": 6153,
      "hack": 6154,
      "hating": 6155,
      "hits": 6156,
      "harr": 6157,
      "hmmm": 6158,
      "humped": 6159,
      "hiding": 6160,
      "housed": 6161,
      "hounding": 6162,
      "iu": 6163,
      "ix": 6164,
      "ient": 6165,
      "ila": 6166,
      "iate": 6167,
      "iam": 6168,
      "ievery": 6169,
      "imm": 6170,
      "ized": 6171,
      "igent": 6172,
      "iot": 6173,
      "igram": 6174,
      "iatri": 6175,
      "ibup": 6176,
      "ji": 6177,
      "jok": 6178,
      "jack": 6179,
      "jour": 6180,
      "jug": 6181,
      "jek": 6182,
      "jang": 6183,
      "junk": 6184,
      "jones": 6185,
      "jig": 6186,
      "ki": 6187,
      "kar": 6188,
      "kha": 6189,
      "kered": 6190,
      "kits": 6191,
      "kily": 6192,
      "kidding": 6193,
      "kleen": 6194,
      "lm": 6195,
      "lor": 6196,
      "lur": 6197,
      "lone": 6198,
      "lum": 6199,
      "lure": 6200,
      "lton": 6201,
      "lending": 6202,
      "lash": 6203,
      "lism": 6204,
      "lumber": 6205,
      "luding": 6206,
      "lishments": 6207,
      "lidded": 6208,
      "mn": 6209,
      "mall": 6210,
      "mut": 6211,
      "mmi": 6212,
      "mpl": 6213,
      "mati": 6214,
      "mour": 6215,
      "mate": 6216,
      "mart": 6217,
      "mps": 6218,
      "mbl": 6219,
      "mpa": 6220,
      "mpt": 6221,
      "mated": 6222,
      "mowed": 6223,
      "mble": 6224,
      "mowing": 6225,
      "mult": 6226,
      "mmer": 6227,
      "mbling": 6228,
      "matic": 6229,
      "nin": 6230,
      "nan": 6231,
      "nth": 6232,
      "nas": 6233,
      "nes": 6234,
      "nast": 6235,
      "nation": 6236,
      "nest": 6237,
      "nfl": 6238,
      "naming": 6239,
      "ntly": 6240,
      "natives": 6241,
      "nished": 6242,
      "ore": 6243,
      "ost": 6244,
      "oli": 6245,
      "oma": 6246,
      "ote": 6247,
      "oom": 6248,
      "osing": 6249,
      "oton": 6250,
      "oshed": 6251,
      "oiled": 6252,
      "ogle": 6253,
      "obey": 6254,
      "oons": 6255,
      "oguing": 6256,
      "pg": 6257,
      "pit": 6258,
      "poun": 6259,
      "pway": 6260,
      "psi": 6261,
      "pent": 6262,
      "psp": 6263,
      "pra": 6264,
      "pting": 6265,
      "pep": 6266,
      "pry": 6267,
      "pts": 6268,
      "pend": 6269,
      "pried": 6270,
      "pil": 6271,
      "pint": 6272,
      "para": 6273,
      "pining": 6274,
      "pms": 6275,
      "panded": 6276,
      "pian": 6277,
      "pnoti": 6278,
      "piling": 6279,
      "ptied": 6280,
      "pitching": 6281,
      "rx": 6282,
      "rou": 6283,
      "ron": 6284,
      "rof": 6285,
      "ray": 6286,
      "rha": 6287,
      "roun": 6288,
      "rate": 6289,
      "rade": 6290,
      "rows": 6291,
      "rates": 6292,
      "rumbled": 6293,
      "raring": 6294,
      "racy": 6295,
      "riding": 6296,
      "rasp": 6297,
      "sco": 6298,
      "scon": 6299,
      "sati": 6300,
      "sday": 6301,
      "sass": 6302,
      "sened": 6303,
      "ssing": 6304,
      "sated": 6305,
      "swat": 6306,
      "smother": 6307,
      "scare": 6308,
      "slea": 6309,
      "sank": 6310,
      "sane": 6311,
      "slic": 6312,
      "sung": 6313,
      "sunk": 6314,
      "score": 6315,
      "swore": 6316,
      "tw": 6317,
      "tat": 6318,
      "tar": 6319,
      "tac": 6320,
      "tro": 6321,
      "twe": 6322,
      "tted": 6323,
      "tzed": 6324,
      "tuck": 6325,
      "task": 6326,
      "treading": 6327,
      "tackled": 6328,
      "ub": 6329,
      "uv": 6330,
      "ues": 6331,
      "uga": 6332,
      "ula": 6333,
      "usion": 6334,
      "uva": 6335,
      "uces": 6336,
      "ully": 6337,
      "ucin": 6338,
      "ucous": 6339,
      "ucate": 6340,
      "ubbing": 6341,
      "ulean": 6342,
      "umental": 6343,
      "uzzi": 6344,
      "uffe": 6345,
      "vow": 6346,
      "vage": 6347,
      "vance": 6348,
      "viously": 6349,
      "vowing": 6350,
      "vying": 6351,
      "vive": 6352,
      "vably": 6353,
      "virt": 6354,
      "vacious": 6355,
      "vidence": 6356,
      "vfw": 6357,
      "wn": 6358,
      "ws": 6359,
      "wre": 6360,
      "wand": 6361,
      "wit": 6362,
      "wus": 6363,
      "wang": 6364,
      "wfoot": 6365,
      "wuv": 6366,
      "xim": 6367,
      "yll": 6368,
      "yay": 6369,
      "yel": 6370,
      "yaw": 6371,
      "yanked": 6372,
      "zer": 6373,
      "zes": 6374,
      "zar": 6375,
      "zone": 6376,
      "zied": 6377,
      "zero": 6378,
      "zilla": 6379,
      "heve": 6380,
      "heir": 6381,
      "hemor": 6382,
      "heaw": 6383,
      "healed": 6384,
      "ina": 6385,
      "inn": 6386,
      "iner": 6387,
      "ines": 6388,
      "inse": 6389,
      "inhi": 6390,
      "insu": 6391,
      "incon": 6392,
      "inqu": 6393,
      "inting": 6394,
      "inous": 6395,
      "inade": 6396,
      "intake": 6397,
      "inable": 6398,
      "inner": 6399,
      "intell": 6400,
      "intru": 6401,
      "inless": 6402,
      "inves": 6403,
      "inje": 6404,
      "insight": 6405,
      "inflat": 6406,
      "infid": 6407,
      "insult": 6408,
      "insides": 6409,
      "incts": 6410,
      "incohere": 6411,
      "infamous": 6412,
      "incited": 6413,
      "informed": 6414,
      "inconveni": 6415,
      "infants": 6416,
      "angu": 6417,
      "anci": 6418,
      "anim": 6419,
      "ances": 6420,
      "anore": 6421,
      "edly": 6422,
      "edic": 6423,
      "edged": 6424,
      "edges": 6425,
      "educ": 6426,
      "educate": 6427,
      "ouha": 6428,
      "thedr": 6429,
      "theaded": 6430,
      "thor": 6431,
      "thur": 6432,
      "thra": 6433,
      "thread": 6434,
      "thumped": 6435,
      "thump": 6436,
      "thievery": 6437,
      "tox": 6438,
      "toon": 6439,
      "towe": 6440,
      "toma": 6441,
      "topped": 6442,
      "toris": 6443,
      "toss": 6444,
      "toil": 6445,
      "token": 6446,
      "tocol": 6447,
      "tolerated": 6448,
      "tossing": 6449,
      "reo": 6450,
      "ret": 6451,
      "rear": 6452,
      "rebe": 6453,
      "remo": 6454,
      "resu": 6455,
      "reled": 6456,
      "reper": 6457,
      "recom": 6458,
      "rect": 6459,
      "recall": 6460,
      "reward": 6461,
      "retic": 6462,
      "reci": 6463,
      "remor": 6464,
      "rehear": 6465,
      "recalled": 6466,
      "renew": 6467,
      "remaking": 6468,
      "recover": 6469,
      "rethinking": 6470,
      "requi": 6471,
      "rearing": 6472,
      "reentered": 6473,
      "removing": 6474,
      "remark": 6475,
      "reconsider": 6476,
      "reheated": 6477,
      "reign": 6478,
      "retired": 6479,
      "refocus": 6480,
      "replaced": 6481,
      "reject": 6482,
      "review": 6483,
      "rearran": 6484,
      "reheating": 6485,
      "receive": 6486,
      "recited": 6487,
      "revol": 6488,
      "reassure": 6489,
      "rejected": 6490,
      "remn": 6491,
      "revive": 6492,
      "inging": 6493,
      "asis": 6494,
      "asse": 6495,
      "asha": 6496,
      "asco": 6497,
      "asex": 6498,
      "asion": 6499,
      "ascertain": 6500,
      "astically": 6501,
      "asured": 6502,
      "ascul": 6503,
      "asize": 6504,
      "atti": 6505,
      "atant": 6506,
      "atting": 6507,
      "atable": 6508,
      "attraction": 6509,
      "ongoing": 6510,
      "onment": 6511,
      "mere": 6512,
      "mely": 6513,
      "meri": 6514,
      "mery": 6515,
      "meek": 6516,
      "mechan": 6517,
      "melight": 6518,
      "mering": 6519,
      "meals": 6520,
      "mewled": 6521,
      "mexi": 6522,
      "meters": 6523,
      "herit": 6524,
      "herald": 6525,
      "herita": 6526,
      "erce": 6527,
      "erra": 6528,
      "erase": 6529,
      "erable": 6530,
      "erated": 6531,
      "erlead": 6532,
      "ernity": 6533,
      "isk": 6534,
      "isy": 6535,
      "isti": 6536,
      "isting": 6537,
      "isine": 6538,
      "isty": 6539,
      "istic": 6540,
      "isms": 6541,
      "ando": 6542,
      "sheen": 6543,
      "shelves": 6544,
      "esth": 6545,
      "arch": 6546,
      "arom": 6547,
      "arous": 6548,
      "argg": 6549,
      "aries": 6550,
      "arising": 6551,
      "aroused": 6552,
      "artery": 6553,
      "aroma": 6554,
      "itas": 6555,
      "itut": 6556,
      "itting": 6557,
      "itate": 6558,
      "itself": 6559,
      "itated": 6560,
      "itless": 6561,
      "itzing": 6562,
      "itches": 6563,
      "itute": 6564,
      "stab": 6565,
      "stack": 6566,
      "stif": 6567,
      "stess": 6568,
      "stable": 6569,
      "stating": 6570,
      "stance": 6571,
      "strick": 6572,
      "strew": 6573,
      "stress": 6574,
      "stitute": 6575,
      "enab": 6576,
      "ensu": 6577,
      "ende": 6578,
      "eness": 6579,
      "enam": 6580,
      "encou": 6581,
      "enclosed": 6582,
      "ensive": 6583,
      "ency": 6584,
      "encore": 6585,
      "engor": 6586,
      "enig": 6587,
      "enquir": 6588,
      "enlighten": 6589,
      "enraged": 6590,
      "envir": 6591,
      "enlisted": 6592,
      "encased": 6593,
      "enscon": 6594,
      "lli": 6595,
      "ller": 6596,
      "llent": 6597,
      "llars": 6598,
      "lley": 6599,
      "llible": 6600,
      "orid": 6601,
      "oral": 6602,
      "orch": 6603,
      "orated": 6604,
      "ories": 6605,
      "orhood": 6606,
      "orange": 6607,
      "orkers": 6608,
      "ortho": 6609,
      "ads": 6610,
      "adder": 6611,
      "addin": 6612,
      "advo": 6613,
      "adsha": 6614,
      "adise": 6615,
      "address": 6616,
      "advan": 6617,
      "addressed": 6618,
      "adition": 6619,
      "adjoined": 6620,
      "bee": 6621,
      "beg": 6622,
      "beare": 6623,
      "beel": 6624,
      "beam": 6625,
      "bears": 6626,
      "behaving": 6627,
      "befriend": 6628,
      "behalf": 6629,
      "beknown": 6630,
      "beans": 6631,
      "begging": 6632,
      "betray": 6633,
      "bevy": 6634,
      "begun": 6635,
      "beads": 6636,
      "lever": 6637,
      "lebo": 6638,
      "lemon": 6639,
      "lecu": 6640,
      "owl": 6641,
      "owine": 6642,
      "idal": 6643,
      "identi": 6644,
      "idural": 6645,
      "idiot": 6646,
      "sea": 6647,
      "sel": 6648,
      "sew": 6649,
      "sees": 6650,
      "sell": 6651,
      "sely": 6652,
      "seal": 6653,
      "season": 6654,
      "seating": 6655,
      "seared": 6656,
      "separ": 6657,
      "semest": 6658,
      "semester": 6659,
      "acle": 6660,
      "achi": 6661,
      "actor": 6662,
      "accur": 6663,
      "acies": 6664,
      "acqui": 6665,
      "accol": 6666,
      "acular": 6667,
      "account": 6668,
      "accusto": 6669,
      "activ": 6670,
      "veil": 6671,
      "veling": 6672,
      "veying": 6673,
      "veins": 6674,
      "veiled": 6675,
      "vewy": 6676,
      "roy": 6677,
      "role": 6678,
      "rover": 6679,
      "roving": 6680,
      "roger": 6681,
      "roaming": 6682,
      "rocket": 6683,
      "rosexual": 6684,
      "rossed": 6685,
      "robbing": 6686,
      "rooted": 6687,
      "robbed": 6688,
      "hier": 6689,
      "hilt": 6690,
      "hift": 6691,
      "hilton": 6692,
      "wich": 6693,
      "willed": 6694,
      "wiggling": 6695,
      "wiggled": 6696,
      "lies": 6697,
      "ligh": 6698,
      "liver": 6699,
      "lily": 6700,
      "limo": 6701,
      "lick": 6702,
      "limit": 6703,
      "lified": 6704,
      "licks": 6705,
      "limbo": 6706,
      "liances": 6707,
      "limelight": 6708,
      "ghhh": 6709,
      "ghost": 6710,
      "wee": 6711,
      "weep": 6712,
      "weaving": 6713,
      "tire": 6714,
      "tick": 6715,
      "tipped": 6716,
      "tips": 6717,
      "tiest": 6718,
      "ticked": 6719,
      "tifully": 6720,
      "tiara": 6721,
      "tims": 6722,
      "timing": 6723,
      "tival": 6724,
      "tiously": 6725,
      "tigation": 6726,
      "tirade": 6727,
      "aying": 6728,
      "withhold": 6729,
      "withdraw": 6730,
      "withdrew": 6731,
      "vert": 6732,
      "verbal": 6733,
      "verdic": 6734,
      "halt": 6735,
      "hable": 6736,
      "habit": 6737,
      "haze": 6738,
      "hazy": 6739,
      "haunt": 6740,
      "haunted": 6741,
      "haji": 6742,
      "nore": 6743,
      "note": 6744,
      "nomen": 6745,
      "notion": 6746,
      "nooo": 6747,
      "noisy": 6748,
      "soar": 6749,
      "somed": 6750,
      "soren": 6751,
      "soared": 6752,
      "soap": 6753,
      "soiled": 6754,
      "social": 6755,
      "sooo": 6756,
      "sobs": 6757,
      "solem": 6758,
      "dox": 6759,
      "dose": 6760,
      "dosed": 6761,
      "domin": 6762,
      "domine": 6763,
      "dogs": 6764,
      "dozen": 6765,
      "dosage": 6766,
      "doggie": 6767,
      "doption": 6768,
      "dodge": 6769,
      "dollars": 6770,
      "lyric": 6771,
      "gany": 6772,
      "allev": 6773,
      "ford": 6774,
      "formi": 6775,
      "forts": 6776,
      "forty": 6777,
      "forgiven": 6778,
      "fortune": 6779,
      "goblet": 6780,
      "google": 6781,
      "alarm": 6782,
      "alarms": 6783,
      "aloud": 6784,
      "aloguing": 6785,
      "alistic": 6786,
      "aladdin": 6787,
      "keting": 6788,
      "kempt": 6789,
      "lolled": 6790,
      "loped": 6791,
      "loading": 6792,
      "logical": 6793,
      "locust": 6794,
      "outer": 6795,
      "outsh": 6796,
      "outgoing": 6797,
      "outsid": 6798,
      "outdated": 6799,
      "outweigh": 6800,
      "urally": 6801,
      "urable": 6802,
      "urance": 6803,
      "urring": 6804,
      "utch": 6805,
      "uttering": 6806,
      "utral": 6807,
      "wheeled": 6808,
      "whetted": 6809,
      "hose": 6810,
      "holed": 6811,
      "hoard": 6812,
      "hoist": 6813,
      "holes": 6814,
      "hoot": 6815,
      "hopes": 6816,
      "hopel": 6817,
      "homage": 6818,
      "hosti": 6819,
      "hoisting": 6820,
      "hostess": 6821,
      "hogany": 6822,
      "nee": 6823,
      "net": 6824,
      "neon": 6825,
      "neil": 6826,
      "neared": 6827,
      "nearing": 6828,
      "negle": 6829,
      "neuro": 6830,
      "nephe": 6831,
      "neutral": 6832,
      "upheld": 6833,
      "uproar": 6834,
      "moder": 6835,
      "mogul": 6836,
      "moistening": 6837,
      "modest": 6838,
      "molecu": 6839,
      "abra": 6840,
      "absur": 6841,
      "absor": 6842,
      "abbing": 6843,
      "absta": 6844,
      "abject": 6845,
      "ablan": 6846,
      "abnormal": 6847,
      "aborated": 6848,
      "rie": 6849,
      "rip": 6850,
      "rier": 6851,
      "rile": 6852,
      "rico": 6853,
      "riled": 6854,
      "rived": 6855,
      "ripping": 6856,
      "riot": 6857,
      "fel": 6858,
      "fever": 6859,
      "femin": 6860,
      "fetal": 6861,
      "fecting": 6862,
      "feasted": 6863,
      "feather": 6864,
      "feisty": 6865,
      "gem": 6866,
      "gear": 6867,
      "geted": 6868,
      "gears": 6869,
      "chant": 6870,
      "chase": 6871,
      "charms": 6872,
      "chasing": 6873,
      "chats": 6874,
      "chron": 6875,
      "iring": 6876,
      "iron": 6877,
      "irres": 6878,
      "irate": 6879,
      "iration": 6880,
      "term": 6881,
      "terday": 6882,
      "terms": 6883,
      "tersely": 6884,
      "maid": 6885,
      "magi": 6886,
      "maged": 6887,
      "mail": 6888,
      "maxi": 6889,
      "makar": 6890,
      "mahogany": 6891,
      "cease": 6892,
      "celled": 6893,
      "celess": 6894,
      "cealing": 6895,
      "cellent": 6896,
      "antane": 6897,
      "antebell": 6898,
      "whack": 6899,
      "whine": 6900,
      "whined": 6901,
      "uning": 6902,
      "undo": 6903,
      "unch": 6904,
      "unking": 6905,
      "unde": 6906,
      "unned": 6907,
      "unic": 6908,
      "unwa": 6909,
      "unwell": 6910,
      "unsc": 6911,
      "unru": 6912,
      "unner": 6913,
      "unpr": 6914,
      "undoing": 6915,
      "unity": 6916,
      "union": 6917,
      "unbur": 6918,
      "uncalled": 6919,
      "unbelie": 6920,
      "unchar": 6921,
      "unwed": 6922,
      "unspent": 6923,
      "unhurt": 6924,
      "unwrapped": 6925,
      "unknown": 6926,
      "unfair": 6927,
      "unsafe": 6928,
      "untoward": 6929,
      "uncomfor": 6930,
      "undry": 6931,
      "unlocked": 6932,
      "unusual": 6933,
      "unclenched": 6934,
      "uncomfortable": 6935,
      "unprofessional": 6936,
      "unprepared": 6937,
      "unbuckled": 6938,
      "unsatisfied": 6939,
      "unloaded": 6940,
      "unlikely": 6941,
      "undressing": 6942,
      "unhooked": 6943,
      "undoubted": 6944,
      "unacquainted": 6945,
      "unison": 6946,
      "unregretful": 6947,
      "unfolding": 6948,
      "undiagno": 6949,
      "unattractive": 6950,
      "unortho": 6951,
      "unbeknown": 6952,
      "unkempt": 6953,
      "unloading": 6954,
      "cop": 6955,
      "cost": 6956,
      "coco": 6957,
      "comi": 6958,
      "coach": 6959,
      "coction": 6960,
      "codes": 6961,
      "costu": 6962,
      "cooled": 6963,
      "coasted": 6964,
      "coordin": 6965,
      "coaxing": 6966,
      "therap": 6967,
      "cave": 6968,
      "cake": 6969,
      "capp": 6970,
      "caus": 6971,
      "caved": 6972,
      "catho": 6973,
      "cathedr": 6974,
      "caowine": 6975,
      "ppy": 6976,
      "gagged": 6977,
      "gaping": 6978,
      "garet": 6979,
      "shattering": 6980,
      "shackled": 6981,
      "shunned": 6982,
      "owner": 6983,
      "owness": 6984,
      "owners": 6985,
      "ustive": 6986,
      "fox": 6987,
      "foil": 6988,
      "fogged": 6989,
      "footed": 6990,
      "ouncing": 6991,
      "acking": 6992,
      "ckles": 6993,
      "embo": 6994,
      "embro": 6995,
      "emph": 6996,
      "embell": 6997,
      "emoni": 6998,
      "emory": 6999,
      "empowered": 7000,
      "emptied": 7001,
      "emascul": 7002,
      "mic": 7003,
      "mily": 7004,
      "mimi": 7005,
      "milit": 7006,
      "milie": 7007,
      "mize": 7008,
      "micro": 7009,
      "mixed": 7010,
      "suing": 7011,
      "suspe": 7012,
      "suction": 7013,
      "susan": 7014,
      "suasive": 7015,
      "yesterday": 7016,
      "wayward": 7017,
      "headway": 7018,
      "headboard": 7019,
      "headsets": 7020,
      "odically": 7021,
      "backside": 7022,
      "backdoor": 7023,
      "backward": 7024,
      "background": 7025,
      "backwards": 7026,
      "backyard": 7027,
      "backfired": 7028,
      "overall": 7029,
      "overtime": 7030,
      "overthink": 7031,
      "overlook": 7032,
      "overcame": 7033,
      "overtake": 7034,
      "overtook": 7035,
      "overfl": 7036,
      "overste": 7037,
      "overlooked": 7038,
      "overtaking": 7039,
      "overused": 7040,
      "overstepped": 7041,
      "overdressed": 7042,
      "overpow": 7043,
      "overboard": 7044,
      "overpower": 7045,
      "overrode": 7046,
      "overlaying": 7047,
      "overprotective": 7048,
      "overshadows": 7049,
      "handy": 7050,
      "handful": 7051,
      "handles": 7052,
      "handling": 7053,
      "handker": 7054,
      "handcu": 7055,
      "handlers": 7056,
      "sipped": 7057,
      "sibl": 7058,
      "size": 7059,
      "sical": 7060,
      "sierra": 7061,
      "cheat": 7062,
      "cheted": 7063,
      "cheers": 7064,
      "cheap": 7065,
      "cheats": 7066,
      "cheerlead": 7067,
      "downed": 7068,
      "downtime": 7069,
      "downward": 7070,
      "downplaying": 7071,
      "downhill": 7072,
      "likeable": 7073,
      "entry": 7074,
      "enture": 7075,
      "entrapped": 7076,
      "entlessly": 7077,
      "tag": 7078,
      "tap": 7079,
      "tame": 7080,
      "tator": 7081,
      "tapping": 7082,
      "tamer": 7083,
      "taker": 7084,
      "taxing": 7085,
      "forearm": 7086,
      "forearms": 7087,
      "foreplay": 7088,
      "tet": 7089,
      "tely": 7090,
      "tect": 7091,
      "teaming": 7092,
      "teaching": 7093,
      "traf": 7094,
      "trapp": 7095,
      "trading": 7096,
      "tracked": 7097,
      "tradition": 7098,
      "dean": 7099,
      "deed": 7100,
      "debut": 7101,
      "deaf": 7102,
      "depl": 7103,
      "defl": 7104,
      "demean": 7105,
      "deleg": 7106,
      "deplo": 7107,
      "detour": 7108,
      "depressing": 7109,
      "deprec": 7110,
      "defined": 7111,
      "depot": 7112,
      "demeaning": 7113,
      "derella": 7114,
      "delect": 7115,
      "deftly": 7116,
      "deluding": 7117,
      "detac": 7118,
      "detox": 7119,
      "detect": 7120,
      "span": 7121,
      "spry": 7122,
      "spill": 7123,
      "spear": 7124,
      "spared": 7125,
      "sputtered": 7126,
      "spied": 7127,
      "spices": 7128,
      "spunk": 7129,
      "sports": 7130,
      "spasm": 7131,
      "spacious": 7132,
      "splayed": 7133,
      "spiration": 7134,
      "sedated": 7135,
      "areas": 7136,
      "ify": 7137,
      "ifully": 7138,
      "timent": 7139,
      "omed": 7140,
      "ominous": 7141,
      "cons": 7142,
      "cony": 7143,
      "confin": 7144,
      "conten": 7145,
      "conferen": 7146,
      "confli": 7147,
      "concent": 7148,
      "confis": 7149,
      "conserv": 7150,
      "convic": 7151,
      "consequ": 7152,
      "conveying": 7153,
      "concealing": 7154,
      "concoction": 7155,
      "woulda": 7156,
      "gettin": 7157,
      "***": 7158,
      "grant": 7159,
      "grace": 7160,
      "grade": 7161,
      "grows": 7162,
      "grav": 7163,
      "grasp": 7164,
      "gritting": 7165,
      "eless": 7166,
      "elated": 7167,
      "elity": 7168,
      "elastic": 7169,
      "excl": 7170,
      "explan": 7171,
      "excess": 7172,
      "expan": 7173,
      "expen": 7174,
      "expel": 7175,
      "exiting": 7176,
      "exterior": 7177,
      "expand": 7178,
      "extended": 7179,
      "exorbit": 7180,
      "expanded": 7181,
      "excellent": 7182,
      "worthy": 7183,
      "worries": 7184,
      "finance": 7185,
      "oughly": 7186,
      "affect": 7187,
      "affected": 7188,
      "afford": 7189,
      "affecting": 7190,
      "mense": 7191,
      "menting": 7192,
      "menus": 7193,
      "mending": 7194,
      "menacing": 7195,
      "mended": 7196,
      "plus": 7197,
      "pline": 7198,
      "plest": 7199,
      "plated": 7200,
      "plash": 7201,
      "plants": 7202,
      "rag": 7203,
      "raw": 7204,
      "raving": 7205,
      "raven": 7206,
      "rail": 7207,
      "rava": 7208,
      "rammed": 7209,
      "railed": 7210,
      "rags": 7211,
      "raggled": 7212,
      "raucous": 7213,
      "ravage": 7214,
      "arded": 7215,
      "ardize": 7216,
      "ideas": 7217,
      "ideals": 7218,
      "acelets": 7219,
      "stark": 7220,
      "starts": 7221,
      "starlet": 7222,
      "starbu": 7223,
      "starters": 7224,
      "starlets": 7225,
      "puked": 7226,
      "pushy": 7227,
      "puzzle": 7228,
      "puffin": 7229,
      "inkling": 7230,
      "essor": 7231,
      "essenti": 7232,
      "lag": 7233,
      "lair": 7234,
      "laimed": 7235,
      "lamented": 7236,
      "lamely": 7237,
      "laundry": 7238,
      "lamenting": 7239,
      "quing": 7240,
      "quent": 7241,
      "quil": 7242,
      "quits": 7243,
      "quot": 7244,
      "queen": 7245,
      "quote": 7246,
      "thereof": 7247,
      "therefore": 7248,
      "smiles": 7249,
      "offed": 7250,
      "offended": 7251,
      "offices": 7252,
      "literated": 7253,
      "atile": 7254,
      "lfill": 7255,
      "woo": 7256,
      "wove": 7257,
      "wolves": 7258,
      "boat": 7259,
      "bold": 7260,
      "bopping": 7261,
      "boob": 7262,
      "boasted": 7263,
      "bolted": 7264,
      "boomed": 7265,
      "howling": 7266,
      "bred": 7267,
      "bride": 7268,
      "brining": 7269,
      "brides": 7270,
      "bracing": 7271,
      "brouha": 7272,
      "brisk": 7273,
      "bradsha": 7274,
      "bridal": 7275,
      "bracelets": 7276,
      "nic": 7277,
      "nipped": 7278,
      "nical": 7279,
      "gains": 7280,
      "gaining": 7281,
      "poke": 7282,
      "posh": 7283,
      "pots": 7284,
      "poser": 7285,
      "polea": 7286,
      "poison": 7287,
      "thanked": 7288,
      "resend": 7289,
      "ressive": 7290,
      "resorted": 7291,
      "residen": 7292,
      "resisted": 7293,
      "resounding": 7294,
      "rescue": 7295,
      "epic": 7296,
      "epidural": 7297,
      "induction": 7298,
      "ulant": 7299,
      "ulpt": 7300,
      "bedtime": 7301,
      "bedraggled": 7302,
      "peed": 7303,
      "peas": 7304,
      "peare": 7305,
      "pecked": 7306,
      "peach": 7307,
      "petal": 7308,
      "pepper": 7309,
      "peeling": 7310,
      "peeping": 7311,
      "pebbled": 7312,
      "peller": 7313,
      "tsk": 7314,
      "tship": 7315,
      "ourish": 7316,
      "ourselves": 7317,
      "fame": 7318,
      "faint": 7319,
      "faults": 7320,
      "fainting": 7321,
      "pers": 7322,
      "perce": 7323,
      "pervert": 7324,
      "persuasive": 7325,
      "perspiration": 7326,
      "guest": 7327,
      "gullible": 7328,
      "armrest": 7329,
      "plea": 7330,
      "ategy": 7331,
      "manual": 7332,
      "manhandle": 7333,
      "otherwise": 7334,
      "turf": 7335,
      "turbating": 7336,
      "seek": 7337,
      "seething": 7338,
      "seethed": 7339,
      "report": 7340,
      "replying": 7341,
      "reports": 7342,
      "venom": 7343,
      "veness": 7344,
      "venue": 7345,
      "venues": 7346,
      "enda": 7347,
      "mud": 7348,
      "mug": 7349,
      "mumbling": 7350,
      "musical": 7351,
      "inelli": 7352,
      "goodies": 7353,
      "goodbyes": 7354,
      "whiz": 7355,
      "whipping": 7356,
      "whiplash": 7357,
      "shopped": 7358,
      "shocking": 7359,
      "shoveling": 7360,
      "gia": 7361,
      "gious": 7362,
      "gimmi": 7363,
      "store": 7364,
      "stone": 7365,
      "stock": 7366,
      "stowa": 7367,
      "stooped": 7368,
      "stones": 7369,
      "derailing": 7370,
      "risked": 7371,
      "risque": 7372,
      "saved": 7373,
      "sailed": 7374,
      "savor": 7375,
      "gler": 7376,
      "glide": 7377,
      "glum": 7378,
      "glowing": 7379,
      "glided": 7380,
      "glory": 7381,
      "thrones": 7382,
      "looker": 7383,
      "ical": 7384,
      "icures": 7385,
      "illustr": 7386,
      "illeg": 7387,
      "amusing": 7388,
      "amassed": 7389,
      "whom": 7390,
      "whoop": 7391,
      "whooshed": 7392,
      "needles": 7393,
      "wailing": 7394,
      "wages": 7395,
      "umsily": 7396,
      "clocked": 7397,
      "closen": 7398,
      "cloaking": 7399,
      "clotting": 7400,
      "ugly": 7401,
      "uggler": 7402,
      "evenly": 7403,
      "comed": 7404,
      "comment": 7405,
      "compre": 7406,
      "comput": 7407,
      "commotion": 7408,
      "compan": 7409,
      "compen": 7410,
      "compun": 7411,
      "commer": 7412,
      "comparis": 7413,
      "commented": 7414,
      "compromising": 7415,
      "competition": 7416,
      "takeout": 7417,
      "cautions": 7418,
      "cautiously": 7419,
      "prop": 7420,
      "proof": 7421,
      "proving": 7422,
      "proved": 7423,
      "provo": 7424,
      "proces": 7425,
      "program": 7426,
      "proposing": 7427,
      "prospective": 7428,
      "proclam": 7429,
      "providence": 7430,
      "proxim": 7431,
      "protocol": 7432,
      "prostitute": 7433,
      "propeller": 7434,
      "asses": 7435,
      "bler": 7436,
      "blown": 7437,
      "blade": 7438,
      "blast": 7439,
      "blows": 7440,
      "blared": 7441,
      "blunt": 7442,
      "blended": 7443,
      "blatant": 7444,
      "bladder": 7445,
      "blabbing": 7446,
      "cancelled": 7447,
      "actual": 7448,
      "comebacks": 7449,
      "rights": 7450,
      "rightness": 7451,
      "lovey": 7452,
      "lovemaking": 7453,
      "kneeling": 7454,
      "facetime": 7455,
      "slowed": 7456,
      "slumped": 7457,
      "slunk": 7458,
      "slump": 7459,
      "slouch": 7460,
      "slinging": 7461,
      "slurring": 7462,
      "tence": 7463,
      "tenths": 7464,
      "tool": 7465,
      "toos": 7466,
      "tools": 7467,
      "everyday": 7468,
      "nighter": 7469,
      "carat": 7470,
      "carton": 7471,
      "carouse": 7472,
      "carrot": 7473,
      "cartoon": 7474,
      "carrie": 7475,
      "longed": 7476,
      "longing": 7477,
      "helps": 7478,
      "helpless": 7479,
      "helorhood": 7480,
      "helpers": 7481,
      "breather": 7482,
      "breaking": 7483,
      "breathed": 7484,
      "doorman": 7485,
      "mouse": 7486,
      "hairbrush": 7487,
      "hairdryer": 7488,
      "etite": 7489,
      "firing": 7490,
      "wellbeing": 7491,
      "mouthful": 7492,
      "mouthwash": 7493,
      "oping": 7494,
      "opardize": 7495,
      "hardening": 7496,
      "fles": 7497,
      "flare": 7498,
      "flatt": 7499,
      "flaring": 7500,
      "flings": 7501,
      "florid": 7502,
      "fluttering": 7503,
      "flunking": 7504,
      "flouncing": 7505,
      "flourish": 7506,
      "steel": 7507,
      "steered": 7508,
      "steely": 7509,
      "steaming": 7510,
      "stealing": 7511,
      "stereo": 7512,
      "scrolled": 7513,
      "scrib": 7514,
      "scroun": 7515,
      "scitate": 7516,
      "scowl": 7517,
      "scrossed": 7518,
      "scoffed": 7519,
      "sculpt": 7520,
      "theirs": 7521,
      "naive": 7522,
      "navel": 7523,
      "nags": 7524,
      "namakar": 7525,
      "pav": 7526,
      "paint": 7527,
      "pause": 7528,
      "paths": 7529,
      "papara": 7530,
      "pawn": 7531,
      "cture": 7532,
      "ohh": 7533,
      "ptu": 7534,
      "singe": 7535,
      "singed": 7536,
      "fuls": 7537,
      "fulness": 7538,
      "sured": 7539,
      "surge": 7540,
      "surface": 7541,
      "surreal": 7542,
      "survi": 7543,
      "surgical": 7544,
      "surrender": 7545,
      "sions": 7546,
      "earphones": 7547,
      "earnest": 7548,
      "pede": 7549,
      "pedal": 7550,
      "pedals": 7551,
      "pediatri": 7552,
      "pedicures": 7553,
      "shipped": 7554,
      "ships": 7555,
      "apply": 7556,
      "applau": 7557,
      "appliances": 7558,
      "appetite": 7559,
      "march": 7560,
      "marking": 7561,
      "market": 7562,
      "marvel": 7563,
      "marinade": 7564,
      "marketing": 7565,
      "margaret": 7566,
      "presence": 7567,
      "presents": 7568,
      "pressured": 7569,
      "rule": 7570,
      "ruled": 7571,
      "ruby": 7572,
      "ruining": 7573,
      "fueling": 7574,
      "fuzzy": 7575,
      "fueled": 7576,
      "fulfill": 7577,
      "cling": 7578,
      "club": 7579,
      "clumsily": 7580,
      "icky": 7581,
      "mming": 7582,
      "olated": 7583,
      "torso": 7584,
      "torture": 7585,
      "gazes": 7586,
      "bodies": 7587,
      "sincer": 7588,
      "sorta": 7589,
      "mindedly": 7590,
      "pretend": 7591,
      "prefer": 7592,
      "preoccup": 7593,
      "previously": 7594,
      "precautions": 7595,
      "wordlessly": 7596,
      "file": 7597,
      "fiend": 7598,
      "fiber": 7599,
      "filing": 7600,
      "film": 7601,
      "fiasco": 7602,
      "fierce": 7603,
      "wills": 7604,
      "william": 7605,
      "typed": 7606,
      "typing": 7607,
      "urethra": 7608,
      "loosen": 7609,
      "loosened": 7610,
      "bleach": 7611,
      "ssss": 7612,
      "waltzed": 7613,
      "waters": 7614,
      "watering": 7615,
      "restroom": 7616,
      "restim": 7617,
      "restrain": 7618,
      "droned": 7619,
      "underside": 7620,
      "underuse": 7621,
      "undermine": 7622,
      "audi": 7623,
      "autogr": 7624,
      "bathe": 7625,
      "baked": 7626,
      "bawled": 7627,
      "bahaji": 7628,
      "bering": 7629,
      "berry": 7630,
      "berated": 7631,
      "dig": 7632,
      "dip": 7633,
      "diet": 7634,
      "divor": 7635,
      "dialed": 7636,
      "diplo": 7637,
      "division": 7638,
      "dimpl": 7639,
      "contacts": 7640,
      "contrived": 7641,
      "mini": 7642,
      "planes": 7643,
      "heartbreak": 7644,
      "heartache": 7645,
      "trudie": 7646,
      "grey": 7647,
      "greeting": 7648,
      "fewer": 7649,
      "cracked": 7650,
      "craning": 7651,
      "cranking": 7652,
      "crowned": 7653,
      "crutch": 7654,
      "crunch": 7655,
      "lifeline": 7656,
      "showy": 7657,
      "showers": 7658,
      "speci": 7659,
      "spewing": 7660,
      "fatherhood": 7661,
      "broach": 7662,
      "broached": 7663,
      "brocco": 7664,
      "bucking": 7665,
      "buff": 7666,
      "buds": 7667,
      "bubbled": 7668,
      "prone": 7669,
      "pronto": 7670,
      "prank": 7671,
      "prided": 7672,
      "praying": 7673,
      "pruning": 7674,
      "sexist": 7675,
      "sexcap": 7676,
      "sexpot": 7677,
      "sexiest": 7678,
      "playful": 7679,
      "playground": 7680,
      "waitress": 7681,
      "channel": 7682,
      "dination": 7683,
      "dinners": 7684,
      "partner": 7685,
      "swarm": 7686,
      "swank": 7687,
      "swung": 7688,
      "swallow": 7689,
      "swished": 7690,
      "switch": 7691,
      "switches": 7692,
      "tablecloth": 7693,
      "joy": 7694,
      "joining": 7695,
      "jogged": 7696,
      "tales": 7697,
      "talent": 7698,
      "rence": 7699,
      "rendous": 7700,
      "monk": 7701,
      "monsoon": 7702,
      "monoton": 7703,
      "monumental": 7704,
      "vote": 7705,
      "vocal": 7706,
      "votive": 7707,
      "voila": 7708,
      "volley": 7709,
      "ticket": 7710,
      "ticular": 7711,
      "worker": 7712,
      "steadied": 7713,
      "disown": 7714,
      "dislike": 7715,
      "dismay": 7716,
      "disci": 7717,
      "dispen": 7718,
      "discovered": 7719,
      "disinterested": 7720,
      "disagree": 7721,
      "disney": 7722,
      "disrespect": 7723,
      "dismissed": 7724,
      "distrac": 7725,
      "distraction": 7726,
      "disobedi": 7727,
      "disinfected": 7728,
      "discomfort": 7729,
      "disobey": 7730,
      "disheve": 7731,
      "swelled": 7732,
      "careening": 7733,
      "caretaker": 7734,
      "slides": 7735,
      "serving": 7736,
      "keeps": 7737,
      "homes": 7738,
      "homemade": 7739,
      "homegrown": 7740,
      "hometown": 7741,
      "leaked": 7742,
      "mister": 7743,
      "misread": 7744,
      "missing": 7745,
      "missy": 7746,
      "misstep": 7747,
      "missteps": 7748,
      "misfortun": 7749,
      "miscarry": 7750,
      "miserable": 7751,
      "standby": 7752,
      "standstill": 7753,
      "chic": 7754,
      "chips": 7755,
      "chief": 7756,
      "chicks": 7757,
      "intend": 7758,
      "intments": 7759,
      "striding": 7760,
      "struggled": 7761,
      "strategy": 7762,
      "coursed": 7763,
      "coursing": 7764,
      "courses": 7765,
      "courtship": 7766,
      "legally": 7767,
      "grieving": 7768,
      "satin": 7769,
      "uded": 7770,
      "lessen": 7771,
      "lessons": 7772,
      "phany": 7773,
      "phlebo": 7774,
      "imaging": 7775,
      "imagination": 7776,
      "imaginable": 7777,
      "settling": 7778,
      "lightest": 7779,
      "lightning": 7780,
      "factly": 7781,
      "ionship": 7782,
      "ionai": 7783,
      "flop": 7784,
      "gnarled": 7785,
      "quicker": 7786,
      "quickest": 7787,
      "quickie": 7788,
      "devil": 7789,
      "devices": 7790,
      "bited": 7791,
      "bitchin": 7792,
      "burp": 7793,
      "burned": 7794,
      "burrow": 7795,
      "burden": 7796,
      "smash": 7797,
      "smashed": 7798,
      "hellhole": 7799,
      "helluva": 7800,
      "godson": 7801,
      "pulls": 7802,
      "pullover": 7803,
      "despic": 7804,
      "desiring": 7805,
      "mattered": 7806,
      "maturing": 7807,
      "sounding": 7808,
      "soundless": 7809,
      "hearth": 7810,
      "heartily": 7811,
      "arky": 7812,
      "beautifully": 7813,
      "neckline": 7814,
      "motions": 7815,
      "sawing": 7816,
      "sawdust": 7817,
      "slower": 7818,
      "comings": 7819,
      "appears": 7820,
      "ggers": 7821,
      "ggest": 7822,
      "rels": 7823,
      "related": 7824,
      "relished": 7825,
      "relayed": 7826,
      "relentlessly": 7827,
      "wonders": 7828,
      "wonderfully": 7829,
      "courage": 7830,
      "hurted": 7831,
      "hurdle": 7832,
      "reduces": 7833,
      "sided": 7834,
      "siding": 7835,
      "shaped": 7836,
      "shakes": 7837,
      "shabby": 7838,
      "cervix": 7839,
      "cerulean": 7840,
      "vests": 7841,
      "mettle": 7842,
      "metrosexual": 7843,
      "voicemail": 7844,
      "draining": 7845,
      "dragging": 7846,
      "dramati": 7847,
      "friendship": 7848,
      "patio": 7849,
      "airy": 7850,
      "airplane": 7851,
      "airlifted": 7852,
      "rubber": 7853,
      "childless": 7854,
      "childbirth": 7855,
      "chalant": 7856,
      "champa": 7857,
      "chauffe": 7858,
      "passage": 7859,
      "wracking": 7860,
      "skating": 7861,
      "skim": 7862,
      "skidding": 7863,
      "skidded": 7864,
      "improm": 7865,
      "impossibly": 7866,
      "imprint": 7867,
      "immense": 7868,
      "drill": 7869,
      "drift": 7870,
      "drives": 7871,
      "drizzle": 7872,
      "drizzling": 7873,
      "farce": 7874,
      "weekly": 7875,
      "considers": 7876,
      "patches": 7877,
      "paternity": 7878,
      "parental": 7879,
      "welcomed": 7880,
      "sooner": 7881,
      "spots": 7882,
      "spooned": 7883,
      "spoilt": 7884,
      "baths": 7885,
      "aka": 7886,
      "bia": 7887,
      "bikin": 7888,
      "biker": 7889,
      "bizar": 7890,
      "biggest": 7891,
      "curl": 7892,
      "curing": 7893,
      "cursed": 7894,
      "curving": 7895,
      "curious": 7896,
      "curred": 7897,
      "curves": 7898,
      "curtain": 7899,
      "current": 7900,
      "chops": 7901,
      "choosing": 7902,
      "cupful": 7903,
      "human": 7904,
      "hushed": 7905,
      "hubbub": 7906,
      "prior": 7907,
      "priced": 7908,
      "prize": 7909,
      "priceless": 7910,
      "range": 7911,
      "suppressed": 7912,
      "suppor": 7913,
      "wrapper": 7914,
      "spitting": 7915,
      "brings": 7916,
      "busying": 7917,
      "country": 7918,
      "darken": 7919,
      "ffs": 7920,
      "snack": 7921,
      "snubbing": 7922,
      "snuggler": 7923,
      "snarky": 7924,
      "senior": 7925,
      "sentiment": 7926,
      "lowest": 7927,
      "sleeper": 7928,
      "ishment": 7929,
      "awful": 7930,
      "amazed": 7931,
      "gassed": 7932,
      "household": 7933,
      "housekeeper": 7934,
      "rosebud": 7935,
      "covertly": 7936,
      "dresses": 7937,
      "binge": 7938,
      "drops": 7939,
      "drooped": 7940,
      "drooping": 7941,
      "kinder": 7942,
      "kindness": 7943,
      "askance": 7944,
      "hallucin": 7945,
      "moms": 7946,
      "momzilla": 7947,
      "charmer": 7948,
      "carolina": 7949,
      "waterfall": 7950,
      "calming": 7951,
      "elephant": 7952,
      "purr": 7953,
      "pursing": 7954,
      "purred": 7955,
      "purpos": 7956,
      "purses": 7957,
      "pursuing": 7958,
      "panty": 7959,
      "breakdown": 7960,
      "jelly": 7961,
      "jeez": 7962,
      "jeopardize": 7963,
      "sofa": 7964,
      "softening": 7965,
      "enjoys": 7966,
      "talker": 7967,
      "crap": 7968,
      "crammed": 7969,
      "crazi": 7970,
      "cramped": 7971,
      "cramps": 7972,
      "crappy": 7973,
      "diffic": 7974,
      "honda": 7975,
      "whistling": 7976,
      "tightest": 7977,
      "flushing": 7978,
      "partaking": 7979,
      "partaken": 7980,
      "paraded": 7981,
      "partial": 7982,
      "paradise": 7983,
      "particular": 7984,
      "usely": 7985,
      "thins": 7986,
      "thinly": 7987,
      "strap": 7988,
      "strain": 7989,
      "strapped": 7990,
      "strained": 7991,
      "strains": 7992,
      "strapless": 7993,
      "boyhood": 7994,
      "pains": 7995,
      "painted": 7996,
      "chapel": 7997,
      "software": 7998,
      "differences": 7999,
      "crook": 8000,
      "crooned": 8001,
      "crooking": 8002,
      "furious": 8003,
      "furtive": 8004,
      "grope": 8005,
      "groaning": 8006,
      "knitted": 8007,
      "pictured": 8008,
      "squad": 8009,
      "squint": 8010,
      "squashed": 8011,
      "squatting": 8012,
      "erected": 8013,
      "freely": 8014,
      "fretting": 8015,
      "freckles": 8016,
      "frequent": 8017,
      "ringing": 8018,
      "ringtone": 8019,
      "tuft": 8020,
      "wedlock": 8021,
      "intering": 8022,
      "interstate": 8023,
      "interjected": 8024,
      "interactions": 8025,
      "example": 8026,
      "examination": 8027,
      "examiner": 8028,
      "responsive": 8029,
      "bands": 8030,
      "doubled": 8031,
      "hunt": 8032,
      "hunch": 8033,
      "hunches": 8034,
      "hunkered": 8035,
      "strove": 8036,
      "sweetened": 8037,
      "certainty": 8038,
      "funeral": 8039,
      "panicky": 8040,
      "reasoned": 8041,
      "reasoning": 8042,
      "ortunity": 8043,
      "wetness": 8044,
      "lapsed": 8045,
      "nicely": 8046,
      "horses": 8047,
      "horia": 8048,
      "horny": 8049,
      "horrendous": 8050,
      "angst": 8051,
      "throb": 8052,
      "forms": 8053,
      "forming": 8054,
      "excused": 8055,
      "exciting": 8056,
      "excessive": 8057,
      "exclaimed": 8058,
      "pleasing": 8059,
      "pleasurable": 8060,
      "badly": 8061,
      "cycle": 8062,
      "cycles": 8063,
      "cynth": 8064,
      "cynical": 8065,
      "cuts": 8066,
      "cutest": 8067,
      "cutthroat": 8068,
      "cutler": 8069,
      "eats": 8070,
      "tree": 8071,
      "treated": 8072,
      "treasured": 8073,
      "trap": 8074,
      "trained": 8075,
      "traitor": 8076,
      "boxed": 8077,
      "boxing": 8078,
      "stomped": 8079,
      "stomping": 8080,
      "protesth": 8081,
      "namesake": 8082,
      "crowding": 8083,
      "relationships": 8084,
      "continues": 8085,
      "bordination": 8086,
      "rupulous": 8087,
      "rupture": 8088,
      "ruptured": 8089,
      "zzier": 8090,
      "fellow": 8091,
      "blacklisted": 8092,
      "fingertip": 8093,
      "fingertips": 8094,
      "ballgame": 8095,
      "balloons": 8096,
      "block": 8097,
      "blocks": 8098,
      "blobs": 8099,
      "realm": 8100,
      "tively": 8101,
      "quipped": 8102,
      "quivered": 8103,
      "quility": 8104,
      "quivering": 8105,
      "bruise": 8106,
      "bruises": 8107,
      "bruising": 8108,
      "casting": 8109,
      "casually": 8110,
      "cashier": 8111,
      "casablan": 8112,
      "cliched": 8113,
      "clitoris": 8114,
      "demon": 8115,
      "eyeing": 8116,
      "muster": 8117,
      "mustered": 8118,
      "object": 8119,
      "observ": 8120,
      "obtaining": 8121,
      "obliterated": 8122,
      "session": 8123,
      "hotter": 8124,
      "cocky": 8125,
      "understanding": 8126,
      "expectant": 8127,
      "expectations": 8128,
      "erections": 8129,
      "catato": 8130,
      "cataloguing": 8131,
      "cussing": 8132,
      "efforts": 8133,
      "fourth": 8134,
      "fourteen": 8135,
      "penlight": 8136,
      "penthouse": 8137,
      "punching": 8138,
      "punches": 8139,
      "punished": 8140,
      "tasered": 8141,
      "untarily": 8142,
      "grounds": 8143,
      "grounded": 8144,
      "plaguing": 8145,
      "truths": 8146,
      "truthfully": 8147,
      "greater": 8148,
      "speaks": 8149,
      "speakers": 8150,
      "grimacing": 8151,
      "mornings": 8152,
      "countertop": 8153,
      "gentlemen": 8154,
      "squeal": 8155,
      "brave": 8156,
      "braves": 8157,
      "brazen": 8158,
      "fastened": 8159,
      "fastening": 8160,
      "judging": 8161,
      "lunches": 8162,
      "lunatic": 8163,
      "north": 8164,
      "norah": 8165,
      "norms": 8166,
      "solid": 8167,
      "solving": 8168,
      "forthcoming": 8169,
      "forthrightness": 8170,
      "sweeter": 8171,
      "smaller": 8172,
      "fleet": 8173,
      "flexing": 8174,
      "symbo": 8175,
      "tries": 8176,
      "trimester": 8177,
      "triggers": 8178,
      "learner": 8179,
      "learning": 8180,
      "collaborated": 8181,
      "fairy": 8182,
      "fairly": 8183,
      "safely": 8184,
      "doubly": 8185,
      "doubting": 8186,
      "notify": 8187,
      "mentioning": 8188,
      "whirring": 8189,
      "cleansing": 8190,
      "bottoming": 8191,
      "straighten": 8192,
      "bloody": 8193,
      "mashed": 8194,
      "mascul": 8195,
      "mascara": 8196,
      "masturbating": 8197,
      "highly": 8198,
      "highlighted": 8199,
      "troublemaker": 8200,
      "pointless": 8201,
      "passionate": 8202,
      "crepe": 8203,
      "create": 8204,
      "creating": 8205,
      "clawfoot": 8206,
      "huskily": 8207,
      "pissing": 8208,
      "pisses": 8209,
      "pissy": 8210,
      "pounders": 8211,
      "invite": 8212,
      "invaded": 8213,
      "invading": 8214,
      "invasive": 8215,
      "invasion": 8216,
      "fearless": 8217,
      "suggest": 8218,
      "scholar": 8219,
      "introducing": 8220,
      "strongest": 8221,
      "tasteful": 8222,
      "squeezing": 8223,
      "appreciated": 8224,
      "appreciating": 8225,
      "appreciative": 8226,
      "apology": 8227,
      "juicy": 8228,
      "juiced": 8229,
      "picky": 8230,
      "tabs": 8231,
      "tably": 8232,
      "tablet": 8233,
      "signaled": 8234,
      "signific": 8235,
      "signals": 8236,
      "signaling": 8237,
      "teenage": 8238,
      "grandson": 8239,
      "grandchild": 8240,
      "storybook": 8241,
      "spectacular": 8242,
      "interruption": 8243,
      "interruptions": 8244,
      "climb": 8245,
      "schooling": 8246,
      "cumstance": 8247,
      "mingle": 8248,
      "pient": 8249,
      "pipes": 8250,
      "pigta": 8251,
      "piquing": 8252,
      "soup": 8253,
      "snap": 8254,
      "snaked": 8255,
      "slightest": 8256,
      "attended": 8257,
      "attacked": 8258,
      "attached": 8259,
      "strike": 8260,
      "strict": 8261,
      "striped": 8262,
      "orderly": 8263,
      "footsteps": 8264,
      "sighing": 8265,
      "spenders": 8266,
      "spreadsheet": 8267,
      "elbowing": 8268,
      "platefuls": 8269,
      "shocks": 8270,
      "problems": 8271,
      "baptisms": 8272,
      "penises": 8273,
      "benefits": 8274,
      "events": 8275,
      "evasive": 8276,
      "evidence": 8277,
      "gargling": 8278,
      "garnished": 8279,
      "kills": 8280,
      "killing": 8281,
      "killer": 8282,
      "lenient": 8283,
      "preparing": 8284,
      "preparation": 8285,
      "salt": 8286,
      "salty": 8287,
      "salacious": 8288,
      "sentence": 8289,
      "tinier": 8290,
      "winded": 8291,
      "winding": 8292,
      "thriving": 8293,
      "releasing": 8294,
      "relevance": 8295,
      "remain": 8296,
      "reminds": 8297,
      "reminder": 8298,
      "merrier": 8299,
      "orgasmically": 8300,
      "beats": 8301,
      "wilder": 8302,
      "makeshift": 8303,
      "approve": 8304,
      "approach": 8305,
      "approval": 8306,
      "fixing": 8307,
      "professor": 8308,
      "profusely": 8309,
      "practicing": 8310,
      "flick": 8311,
      "flirt": 8312,
      "laden": 8313,
      "visit": 8314,
      "instruments": 8315,
      "messy": 8316,
      "messenger": 8317,
      "essions": 8318,
      "streets": 8319,
      "accusing": 8320,
      "accused": 8321,
      "shutting": 8322,
      "sixth": 8323,
      "situations": 8324,
      "fireplace": 8325,
      "firecrack": 8326,
      "fireworks": 8327,
      "honoring": 8328,
      "agreeing": 8329,
      "agreement": 8330,
      "agreements": 8331,
      "listener": 8332,
      "bribed": 8333,
      "bribing": 8334,
      "bulb": 8335,
      "dancer": 8336,
      "fabulously": 8337,
      "larger": 8338,
      "luckily": 8339,
      "tendency": 8340,
      "warn": 8341,
      "warped": 8342,
      "zipping": 8343,
      "heavily": 8344,
      "thumbs": 8345,
      "entertain": 8346,
      "entertaining": 8347,
      "beckoned": 8348,
      "leads": 8349,
      "secured": 8350,
      "securities": 8351,
      "cooling": 8352,
      "cooler": 8353,
      "coolers": 8354,
      "graduating": 8355,
      "nieces": 8356,
      "flatter": 8357,
      "flattering": 8358,
      "flattery": 8359,
      "classic": 8360,
      "typecast": 8361,
      "personalities": 8362,
      "donald": 8363,
      "damp": 8364,
      "damsel": 8365,
      "distress": 8366,
      "distinct": 8367,
      "fertile": 8368,
      "labored": 8369,
      "loudly": 8370,
      "miracle": 8371,
      "narrow": 8372,
      "photo": 8373,
      "phobia": 8374,
      "sanity": 8375,
      "slipper": 8376,
      "vivacious": 8377,
      "virile": 8378,
      "violated": 8379,
      "heave": 8380,
      "heaven": 8381,
      "hesitated": 8382,
      "hesitating": 8383,
      "hesitance": 8384,
      "relieve": 8385,
      "stale": 8386,
      "stake": 8387,
      "staining": 8388,
      "stainless": 8389,
      "sterical": 8390,
      "advice": 8391,
      "advise": 8392,
      "advised": 8393,
      "adventure": 8394,
      "bellow": 8395,
      "suites": 8396,
      "bothered": 8397,
      "possessive": 8398,
      "possessions": 8399,
      "joints": 8400,
      "deserted": 8401,
      "deserves": 8402,
      "desperation": 8403,
      "enjoyable": 8404,
      "accidents": 8405,
      "flavor": 8406,
      "flailing": 8407,
      "flames": 8408,
      "flaunted": 8409,
      "harbored": 8410,
      "payback": 8411,
      "payoff": 8412,
      "plopped": 8413,
      "sadness": 8414,
      "sleek": 8415,
      "sleeves": 8416,
      "swipe": 8417,
      "swiped": 8418,
      "swiping": 8419,
      "swirled": 8420,
      "swiftly": 8421,
      "swimmer": 8422,
      "tantra": 8423,
      "tantrum": 8424,
      "tempo": 8425,
      "temple": 8426,
      "tempered": 8427,
      "tempera": 8428,
      "tempted": 8429,
      "tempting": 8430,
      "tentative": 8431,
      "wishing": 8432,
      "mesmeri": 8433,
      "adopting": 8434,
      "caption": 8435,
      "captive": 8436,
      "captiv": 8437,
      "shortly": 8438,
      "delicacies": 8439,
      "performed": 8440,
      "comply": 8441,
      "complied": 8442,
      "compared": 8443,
      "blues": 8444,
      "blingiest": 8445,
      "skype": 8446,
      "bargain": 8447,
      "barrage": 8448,
      "bargained": 8449,
      "barreled": 8450,
      "bouncing": 8451,
      "bountiful": 8452,
      "baseball": 8453,
      "cino": 8454,
      "cinderella": 8455,
      "candor": 8456,
      "candles": 8457,
      "circumstance": 8458,
      "fidgeted": 8459,
      "gym": 8460,
      "gyrated": 8461,
      "gypsi": 8462,
      "generally": 8463,
      "guru": 8464,
      "hideous": 8465,
      "izes": 8466,
      "ization": 8467,
      "kery": 8468,
      "linking": 8469,
      "nonchal": 8470,
      "nonchalant": 8471,
      "powers": 8472,
      "slamming": 8473,
      "tugs": 8474,
      "wishes": 8475,
      "wispy": 8476,
      "memories": 8477,
      "stirring": 8478,
      "stirrings": 8479,
      "rooftop": 8480,
      "whelp": 8481,
      "cookies": 8482,
      "textbooks": 8483,
      "spicy": 8484,
      "spicuous": 8485,
      "connecting": 8486,
      "connections": 8487,
      "expose": 8488,
      "exposing": 8489,
      "pulsed": 8490,
      "pulation": 8491,
      "publicity": 8492,
      "boardroom": 8493,
      "scraps": 8494,
      "scraping": 8495,
      "speedome": 8496,
      "buckling": 8497,
      "strangers": 8498,
      "strangeness": 8499,
      "awkwardly": 8500,
      "awkwardness": 8501,
      "catchy": 8502,
      "coloring": 8503,
      "colorful": 8504,
      "involuntarily": 8505,
      "desserts": 8506,
      "blamed": 8507,
      "blazing": 8508,
      "blames": 8509,
      "blazer": 8510,
      "duets": 8511,
      "eighteen": 8512,
      "fifth": 8513,
      "fifty": 8514,
      "fifties": 8515,
      "hyde": 8516,
      "hypnoti": 8517,
      "hysterical": 8518,
      "jacuzzi": 8519,
      "lerate": 8520,
      "nuzzling": 8521,
      "porate": 8522,
      "packing": 8523,
      "package": 8524,
      "pledged": 8525,
      "healing": 8526,
      "included": 8527,
      "respectable": 8528,
      "assuaged": 8529,
      "rocky": 8530,
      "rocker": 8531,
      "alcove": 8532,
      "uredly": 8533,
      "gathered": 8534,
      "submission": 8535,
      "subdivision": 8536,
      "summoned": 8537,
      "sickness": 8538,
      "peeled": 8539,
      "combat": 8540,
      "combined": 8541,
      "combustive": 8542,
      "protect": 8543,
      "protecting": 8544,
      "protecti": 8545,
      "marrying": 8546,
      "clutch": 8547,
      "cloudless": 8548,
      "diapered": 8549,
      "heartbeats": 8550,
      "threaten": 8551,
      "burnt": 8552,
      "stubble": 8553,
      "shrugging": 8554,
      "banked": 8555,
      "banter": 8556,
      "bounded": 8557,
      "boundary": 8558,
      "boundaries": 8559,
      "bumps": 8560,
      "bumping": 8561,
      "creaming": 8562,
      "daze": 8563,
      "echoes": 8564,
      "fussing": 8565,
      "freakin": 8566,
      "fistful": 8567,
      "flights": 8568,
      "gulps": 8569,
      "ignition": 8570,
      "igniting": 8571,
      "lounged": 8572,
      "mcdonald": 8573,
      "midst": 8574,
      "midair": 8575,
      "midwest": 8576,
      "mussed": 8577,
      "muscle": 8578,
      "pester": 8579,
      "pelted": 8580,
      "slitted": 8581,
      "yoed": 8582,
      "insistence": 8583,
      "angel": 8584,
      "announcing": 8585,
      "recoiled": 8586,
      "reassured": 8587,
      "reassurance": 8588,
      "students": 8589,
      "adjusting": 8590,
      "seedier": 8591,
      "acceptable": 8592,
      "forceful": 8593,
      "nearly": 8594,
      "model": 8595,
      "modeling": 8596,
      "abilities": 8597,
      "abandoning": 8598,
      "ribs": 8599,
      "ribbons": 8600,
      "focusing": 8601,
      "simmering": 8602,
      "simplest": 8603,
      "boos": 8604,
      "booth": 8605,
      "boost": 8606,
      "booster": 8607,
      "booboos": 8608,
      "stools": 8609,
      "commitment": 8610,
      "screen": 8611,
      "cracking": 8612,
      "crackled": 8613,
      "specific": 8614,
      "spectator": 8615,
      "broader": 8616,
      "families": 8617,
      "weekends": 8618,
      "decisions": 8619,
      "freshly": 8620,
      "collective": 8621,
      "views": 8622,
      "original": 8623,
      "stubbornness": 8624,
      "avoid": 8625,
      "agonist": 8626,
      "cuisine": 8627,
      "cabin": 8628,
      "dumbly": 8629,
      "fication": 8630,
      "guts": 8631,
      "gutting": 8632,
      "ivy": 8633,
      "jail": 8634,
      "jagged": 8635,
      "jazzier": 8636,
      "occurred": 8637,
      "pouring": 8638,
      "rummaged": 8639,
      "tuned": 8640,
      "tunic": 8641,
      "tumble": 8642,
      "tumbling": 8643,
      "tumbler": 8644,
      "hension": 8645,
      "asphalt": 8646,
      "erotic": 8647,
      "stationed": 8648,
      "adorable": 8649,
      "belonging": 8650,
      "locker": 8651,
      "georgia": 8652,
      "terminal": 8653,
      "ceilings": 8654,
      "milligram": 8655,
      "sucker": 8656,
      "suckle": 8657,
      "handsomest": 8658,
      "handsomely": 8659,
      "foreheads": 8660,
      "defend": 8661,
      "defending": 8662,
      "defensive": 8663,
      "decorated": 8664,
      "constant": 8665,
      "constitut": 8666,
      "gratitude": 8667,
      "finality": 8668,
      "afternoons": 8669,
      "points": 8670,
      "pointy": 8671,
      "peaceful": 8672,
      "properly": 8673,
      "property": 8674,
      "surmising": 8675,
      "appointments": 8676,
      "drums": 8677,
      "drumming": 8678,
      "bullet": 8679,
      "discussed": 8680,
      "services": 8681,
      "mortified": 8682,
      "sniff": 8683,
      "sniffed": 8684,
      "sniffles": 8685,
      "parisian": 8686,
      "parishes": 8687,
      "hundredth": 8688,
      "collapse": 8689,
      "fascination": 8690,
      "salads": 8691,
      "appropriately": 8692,
      "visions": 8693,
      "sheepishly": 8694,
      "speechlessness": 8695,
      "basis": 8696,
      "categori": 8697,
      "crossword": 8698,
      "centers": 8699,
      "centerpieces": 8700,
      "dreamily": 8701,
      "froze": 8702,
      "faltering": 8703,
      "falcons": 8704,
      "glittered": 8705,
      "ignore": 8706,
      "ipad": 8707,
      "ninety": 8708,
      "nineteen": 8709,
      "oops": 8710,
      "oozed": 8711,
      "opportunity": 8712,
      "pales": 8713,
      "palmed": 8714,
      "palatable": 8715,
      "pierce": 8716,
      "ratty": 8717,
      "ridge": 8718,
      "smeared": 8719,
      "slosh": 8720,
      "sloped": 8721,
      "sloshing": 8722,
      "shade": 8723,
      "testing": 8724,
      "testy": 8725,
      "twinkled": 8726,
      "unease": 8727,
      "heightened": 8728,
      "instance": 8729,
      "instantly": 8730,
      "instinct": 8731,
      "instincts": 8732,
      "instantane": 8733,
      "receptionist": 8734,
      "styler": 8735,
      "stinging": 8736,
      "stalk": 8737,
      "stalking": 8738,
      "stampede": 8739,
      "accessories": 8740,
      "accepting": 8741,
      "rocketing": 8742,
      "liquor": 8743,
      "celebrate": 8744,
      "celebration": 8745,
      "celebrity": 8746,
      "unique": 8747,
      "texts": 8748,
      "transcript": 8749,
      "tranquil": 8750,
      "tranquility": 8751,
      "spray": 8752,
      "spritzing": 8753,
      "sprinkling": 8754,
      "spinning": 8755,
      "exploits": 8756,
      "exploding": 8757,
      "qualified": 8758,
      "quirking": 8759,
      "poolside": 8760,
      "faithful": 8761,
      "blinded": 8762,
      "blindly": 8763,
      "blindfold": 8764,
      "screwdriver": 8765,
      "nauseated": 8766,
      "survey": 8767,
      "surveying": 8768,
      "surrounding": 8769,
      "surroundings": 8770,
      "shielded": 8771,
      "fields": 8772,
      "fielding": 8773,
      "credit": 8774,
      "cradle": 8775,
      "cradling": 8776,
      "sweats": 8777,
      "straddle": 8778,
      "magnify": 8779,
      "sideswiped": 8780,
      "impish": 8781,
      "implying": 8782,
      "implies": 8783,
      "importantly": 8784,
      "supervise": 8785,
      "snatch": 8786,
      "snatching": 8787,
      "knuckle": 8788,
      "squirm": 8789,
      "squirted": 8790,
      "squirrels": 8791,
      "internally": 8792,
      "internship": 8793,
      "controller": 8794,
      "horrible": 8795,
      "throttled": 8796,
      "register": 8797,
      "registered": 8798,
      "registering": 8799,
      "gorgeously": 8800,
      "acknowledgement": 8801,
      "multicolored": 8802,
      "skeptically": 8803,
      "bunting": 8804,
      "bundle": 8805,
      "bombing": 8806,
      "bills": 8807,
      "billionai": 8808,
      "darting": 8809,
      "eggplant": 8810,
      "eggplants": 8811,
      "framed": 8812,
      "fragrant": 8813,
      "frenzy": 8814,
      "frenzied": 8815,
      "gifted": 8816,
      "humble": 8817,
      "humming": 8818,
      "jetlag": 8819,
      "knots": 8820,
      "lull": 8821,
      "lube": 8822,
      "naturally": 8823,
      "naturedly": 8824,
      "oohs": 8825,
      "rationality": 8826,
      "wounds": 8827,
      "wounded": 8828,
      "increase": 8829,
      "increments": 8830,
      "incredulous": 8831,
      "incredible": 8832,
      "antiques": 8833,
      "antique": 8834,
      "toddlers": 8835,
      "reverse": 8836,
      "reverting": 8837,
      "reversing": 8838,
      "reverberated": 8839,
      "refuse": 8840,
      "attracted": 8841,
      "attracts": 8842,
      "arranged": 8843,
      "italy": 8844,
      "stats": 8845,
      "statue": 8846,
      "streak": 8847,
      "streaks": 8848,
      "ensemble": 8849,
      "admires": 8850,
      "veringly": 8851,
      "hamper": 8852,
      "hammered": 8853,
      "fortunate": 8854,
      "chaser": 8855,
      "charmed": 8856,
      "charming": 8857,
      "mainly": 8858,
      "maintain": 8859,
      "maintaining": 8860,
      "succul": 8861,
      "suffice": 8862,
      "suffering": 8863,
      "transformed": 8864,
      "conceiving": 8865,
      "platter": 8866,
      "officially": 8867,
      "guaran": 8868,
      "stormy": 8869,
      "commando": 8870,
      "communic": 8871,
      "produced": 8872,
      "products": 8873,
      "scenery": 8874,
      "scripts": 8875,
      "scratched": 8876,
      "disgusting": 8877,
      "cornbread": 8878,
      "jerky": 8879,
      "athletic": 8880,
      "athletically": 8881,
      "silverware": 8882,
      "strawberry": 8883,
      "functional": 8884,
      "synced": 8885,
      "synchron": 8886,
      "suggestively": 8887,
      "breezing": 8888,
      "breeze": 8889,
      "anticipate": 8890,
      "anticipation": 8891,
      "anticipated": 8892,
      "anticipating": 8893,
      "staggering": 8894,
      "capacities": 8895,
      "candidates": 8896,
      "pelvises": 8897,
      "universal": 8898,
      "obedient": 8899,
      "pacify": 8900,
      "radiant": 8901,
      "attribute": 8902,
      "agenda": 8903,
      "balance": 8904,
      "balcony": 8905,
      "busting": 8906,
      "bustle": 8907,
      "bustier": 8908,
      "cripple": 8909,
      "dusting": 8910,
      "destination": 8911,
      "destroy": 8912,
      "gunning": 8913,
      "hustle": 8914,
      "hustled": 8915,
      "hustling": 8916,
      "omelet": 8917,
      "omelets": 8918,
      "ruling": 8919,
      "snore": 8920,
      "scaring": 8921,
      "scooting": 8922,
      "trickle": 8923,
      "trickles": 8924,
      "vitals": 8925,
      "writhing": 8926,
      "hemline": 8927,
      "initial": 8928,
      "independ": 8929,
      "invented": 8930,
      "inflamed": 8931,
      "inquisition": 8932,
      "requesting": 8933,
      "records": 8934,
      "retreated": 8935,
      "reflect": 8936,
      "recently": 8937,
      "aspects": 8938,
      "itchy": 8939,
      "encounters": 8940,
      "enthusiastically": 8941,
      "adore": 8942,
      "adores": 8943,
      "adamant": 8944,
      "hiccups": 8945,
      "hickey": 8946,
      "alpha": 8947,
      "loomed": 8948,
      "looming": 8949,
      "hoarsely": 8950,
      "negatively": 8951,
      "absence": 8952,
      "gauche": 8953,
      "intoxication": 8954,
      "intoxicated": 8955,
      "intoxicating": 8956,
      "tailor": 8957,
      "debating": 8958,
      "determination": 8959,
      "splintering": 8960,
      "spurt": 8961,
      "spurted": 8962,
      "spurred": 8963,
      "convulsed": 8964,
      "convulsing": 8965,
      "convulsions": 8966,
      "consummated": 8967,
      "grazed": 8968,
      "grazing": 8969,
      "lawn": 8970,
      "labels": 8971,
      "potted": 8972,
      "epiphany": 8973,
      "petulant": 8974,
      "represented": 8975,
      "umphed": 8976,
      "complaint": 8977,
      "complained": 8978,
      "complaining": 8979,
      "proceeded": 8980,
      "carlton": 8981,
      "establishments": 8982,
      "pageant": 8983,
      "margaritas": 8984,
      "tornado": 8985,
      "meaningful": 8986,
      "bleeds": 8987,
      "dizzying": 8988,
      "contemptuous": 8989,
      "crumple": 8990,
      "crumble": 8991,
      "crumpled": 8992,
      "bubble": 8993,
      "bubbles": 8994,
      "buzzed": 8995,
      "disappearing": 8996,
      "disapprove": 8997,
      "devoured": 8998,
      "correct": 8999,
      "corrected": 9000,
      "correctly": 9001,
      "prickled": 9002,
      "tuxes": 9003,
      "interrogated": 9004,
      "formalness": 9005,
      "climaxes": 9006,
      "customary": 9007,
      "customs": 9008,
      "cussions": 9009,
      "exhausting": 9010,
      "positively": 9011,
      "massaging": 9012,
      "claims": 9013,
      "complimented": 9014,
      "candlelit": 9015,
      "candlelight": 9016,
      "fidgeting": 9017,
      "genuinely": 9018,
      "vulnerable": 9019,
      "assumption": 9020,
      "agonized": 9021,
      "cuddle": 9022,
      "occasions": 9023,
      "occasionally": 9024,
      "aspirating": 9025,
      "categories": 9026,
      "americanize": 9027,
      "bombshell": 9028,
      "bombarded": 9029,
      "successful": 9030,
      "radioing": 9031,
      "rhythmically": 9032,
      "sacrificing": 9033,
      "refreshingly": 9034,
      "envelope": 9035,
      "alternated": 9036,
      "congratulating": 9037,
      "aptly": 9038,
      "boner": 9039,
      "bonked": 9040,
      "crispy": 9041,
      "crisscrossed": 9042,
      "cruel": 9043,
      "crucif": 9044,
      "dawn": 9045,
      "dawned": 9046,
      "dashboard": 9047,
      "euros": 9048,
      "europe": 9049,
      "fantastic": 9050,
      "fantasize": 9051,
      "fruity": 9052,
      "fruitless": 9053,
      "harmless": 9054,
      "junction": 9055,
      "juncture": 9056,
      "laser": 9057,
      "lasts": 9058,
      "phenomen": 9059,
      "pandemoni": 9060,
      "pwease": 9061,
      "pwetty": 9062,
      "randr": 9063,
      "random": 9064,
      "ritz": 9065,
      "rites": 9066,
      "rugs": 9067,
      "sandpaper": 9068,
      "sandwich": 9069,
      "sneak": 9070,
      "sneaking": 9071,
      "source": 9072,
      "tactful": 9073,
      "temptation": 9074,
      "temptations": 9075,
      "uccino": 9076,
      "virgin": 9077,
      "victims": 9078,
      "volatile": 9079,
      "viagra": 9080,
      "insinuation": 9081,
      "insinuating": 9082,
      "resembled": 9083,
      "resembl": 9084,
      "revealed": 9085,
      "reverence": 9086,
      "reliable": 9087,
      "religious": 9088,
      "referral": 9089,
      "rebellious": 9090,
      "rebellion": 9091,
      "receiving": 9092,
      "received": 9093,
      "rehearsal": 9094,
      "rehearsals": 9095,
      "atrium": 9096,
      "methodically": 9097,
      "measure": 9098,
      "measuring": 9099,
      "errant": 9100,
      "erratic": 9101,
      "escalate": 9102,
      "escalated": 9103,
      "stipulation": 9104,
      "organizes": 9105,
      "ordinarily": 9106,
      "admonished": 9107,
      "admonishment": 9108,
      "lecture": 9109,
      "sequins": 9110,
      "accelerated": 9111,
      "accelerate": 9112,
      "weathered": 9113,
      "tiffs": 9114,
      "tiffany": 9115,
      "dovey": 9116,
      "fortified": 9117,
      "fortify": 9118,
      "loathing": 9119,
      "loathed": 9120,
      "nearer": 9121,
      "nearest": 9122,
      "absently": 9123,
      "absentmindedly": 9124,
      "chorus": 9125,
      "chords": 9126,
      "christened": 9127,
      "christmas": 9128,
      "magazine": 9129,
      "magazines": 9130,
      "unfastened": 9131,
      "unfastening": 9132,
      "butterfly": 9133,
      "milk": 9134,
      "milking": 9135,
      "summery": 9136,
      "yessss": 9137,
      "yesssssss": 9138,
      "similarities": 9139,
      "spatula": 9140,
      "spitefulness": 9141,
      "consumed": 9142,
      "consuming": 9143,
      "conquer": 9144,
      "conquering": 9145,
      "confirmed": 9146,
      "confirming": 9147,
      "conclude": 9148,
      "conclusion": 9149,
      "confirmation": 9150,
      "consultation": 9151,
      "grasped": 9152,
      "grasping": 9153,
[...]
